<?xml version="1.0"?>
<MethodSetup Method="MLP::_kaonMLPBNN">
  <GeneralInfo>
    <Info name="TMVA Release" value="4.1.0 [262400]"/>
    <Info name="ROOT Release" value="5.29/01 [335105]"/>
    <Info name="Creator" value="vecchi"/>
    <Info name="Date" value="Wed May 22 15:24:18 2013"/>
    <Info name="Host" value="Linux lhcbwn1.fe.infn.it 2.6.18-238.5.1.el5 #1 SMP Tue Mar 1 18:58:43 EST 2011 x86_64 x86_64 x86_64 GNU/Linux"/>
    <Info name="Dir" value="/home/vecchi/NEWFTC_optcal_2012_sWeights/root_TMVA_forMoriond2013_XML_newPIDNN"/>
    <Info name="Training events" value="58579"/>
    <Info name="TrainingTime" value="1.23999512e+03"/>
    <Info name="AnalysisType" value="Classification"/>
  </GeneralInfo>
  <Options>
    <Option name="NCycles" modified="Yes">180</Option>
    <Option name="HiddenLayers" modified="Yes">N+5</Option>
    <Option name="NeuronType" modified="Yes">tanh</Option>
    <Option name="RandomSeed" modified="No">1</Option>
    <Option name="EstimatorType" modified="Yes">CE</Option>
    <Option name="NeuronInputType" modified="No">sum</Option>
    <Option name="V" modified="Yes">False</Option>
    <Option name="VerbosityLevel" modified="No">Default</Option>
    <Option name="VarTransform" modified="Yes">D,N</Option>
    <Option name="H" modified="Yes">True</Option>
    <Option name="CreateMVAPdfs" modified="No">False</Option>
    <Option name="IgnoreNegWeightsInTraining" modified="No">False</Option>
    <Option name="TrainingMethod" modified="Yes">BFGS</Option>
    <Option name="LearningRate" modified="No">2.000000e-02</Option>
    <Option name="DecayRate" modified="No">1.000000e-02</Option>
    <Option name="TestRate" modified="Yes">5</Option>
    <Option name="EpochMonitoring" modified="No">False</Option>
    <Option name="Sampling" modified="No">1.000000e+00</Option>
    <Option name="SamplingEpoch" modified="No">1.000000e+00</Option>
    <Option name="SamplingImportance" modified="No">1.000000e+00</Option>
    <Option name="SamplingTraining" modified="No">True</Option>
    <Option name="SamplingTesting" modified="No">False</Option>
    <Option name="ResetStep" modified="No">50</Option>
    <Option name="Tau" modified="No">3.000000e+00</Option>
    <Option name="BPMode" modified="No">sequential</Option>
    <Option name="BatchSize" modified="No">-1</Option>
    <Option name="ConvergenceImprove" modified="No">1.000000e-30</Option>
    <Option name="ConvergenceTests" modified="No">-1</Option>
    <Option name="UseRegulator" modified="Yes">True</Option>
    <Option name="UpdateLimit" modified="No">10000</Option>
    <Option name="CalculateErrors" modified="No">False</Option>
    <Option name="WeightRange" modified="No">1.000000e+00</Option>
  </Options>
  <Variables NVar="12">
    <Variable VarIndex="0" Expression="mult" Label="mult" Title="mult" Unit="I" Internal="mult" Type="F" Min="1.00000000e+00" Max="1.30000000e+02"/>
    <Variable VarIndex="1" Expression="partP" Label="partP" Title="partP" Unit="F" Internal="partP" Type="F" Min="9.71759498e-01" Max="5.29803801e+00"/>
    <Variable VarIndex="2" Expression="partPt" Label="partPt" Title="partPt" Unit="F" Internal="partPt" Type="F" Min="-3.56578052e-01" Max="2.30059004e+00"/>
    <Variable VarIndex="3" Expression="nnkrec" Label="nnkrec" Title="nnkrec" Unit="I" Internal="nnkrec" Type="F" Min="1.00000000e+00" Max="8.00000000e+00"/>
    <Variable VarIndex="4" Expression="ptB" Label="ptB" Title="ptB" Unit="F" Internal="ptB" Type="F" Min="-4.26340532e+00" Max="3.98137093e+00"/>
    <Variable VarIndex="5" Expression="IPs" Label="IPs" Title="IPs" Unit="F" Internal="IPs" Type="F" Min="1.38630819e+00" Max="4.97467804e+00"/>
    <Variable VarIndex="6" Expression="partlcs" Label="partlcs" Title="partlcs" Unit="F" Internal="partlcs" Type="F" Min="-1.99878895e+00" Max="1.09745884e+00"/>
    <Variable VarIndex="7" Expression="PIDNNk" Label="PIDNNk" Title="PIDNNk" Unit="F" Internal="PIDNNk" Type="F" Min="2.50030667e-01" Max="9.99072552e-01"/>
    <Variable VarIndex="8" Expression="PIDNNpi" Label="PIDNNpi" Title="PIDNNpi" Unit="F" Internal="PIDNNpi" Type="F" Min="1.12712414e-05" Max="7.99927890e-01"/>
    <Variable VarIndex="9" Expression="PIDNNp" Label="PIDNNp" Title="PIDNNp" Unit="F" Internal="PIDNNp" Type="F" Min="1.07484981e-08" Max="7.48721540e-01"/>
    <Variable VarIndex="10" Expression="ghostProb" Label="ghostProb" Title="ghostProb" Unit="F" Internal="ghostProb" Type="F" Min="-1.00000000e+02" Max="-1.05095720e+00"/>
    <Variable VarIndex="11" Expression="IPPU" Label="IPPU" Title="IPPU" Unit="F" Internal="IPPU" Type="F" Min="1.79177523e+00" Max="9.21034050e+00"/>
  </Variables>
  <Spectators NSpec="0"/>
  <Classes NClass="2">
    <Class Name="Signal" Index="0"/>
    <Class Name="Background" Index="1"/>
  </Classes>
  <Transformations NTransformations="2">
    <Transform Name="Decorrelation">
      <Selection>
        <Input NInputs="12">
          <Input Type="Variable" Label="mult" Expression="mult"/>
          <Input Type="Variable" Label="partP" Expression="partP"/>
          <Input Type="Variable" Label="partPt" Expression="partPt"/>
          <Input Type="Variable" Label="nnkrec" Expression="nnkrec"/>
          <Input Type="Variable" Label="ptB" Expression="ptB"/>
          <Input Type="Variable" Label="IPs" Expression="IPs"/>
          <Input Type="Variable" Label="partlcs" Expression="partlcs"/>
          <Input Type="Variable" Label="PIDNNk" Expression="PIDNNk"/>
          <Input Type="Variable" Label="PIDNNpi" Expression="PIDNNpi"/>
          <Input Type="Variable" Label="PIDNNp" Expression="PIDNNp"/>
          <Input Type="Variable" Label="ghostProb" Expression="ghostProb"/>
          <Input Type="Variable" Label="IPPU" Expression="IPPU"/>
        </Input>
        <Output NOutputs="12">
          <Output Type="Variable" Label="mult" Expression="mult"/>
          <Output Type="Variable" Label="partP" Expression="partP"/>
          <Output Type="Variable" Label="partPt" Expression="partPt"/>
          <Output Type="Variable" Label="nnkrec" Expression="nnkrec"/>
          <Output Type="Variable" Label="ptB" Expression="ptB"/>
          <Output Type="Variable" Label="IPs" Expression="IPs"/>
          <Output Type="Variable" Label="partlcs" Expression="partlcs"/>
          <Output Type="Variable" Label="PIDNNk" Expression="PIDNNk"/>
          <Output Type="Variable" Label="PIDNNpi" Expression="PIDNNpi"/>
          <Output Type="Variable" Label="PIDNNp" Expression="PIDNNp"/>
          <Output Type="Variable" Label="ghostProb" Expression="ghostProb"/>
          <Output Type="Variable" Label="IPPU" Expression="IPPU"/>
        </Output>
      </Selection>
      <Matrix Rows="12" Columns="12">
        8.214608640784135e-02 -2.107034966850791e-03 -2.511366292267477e-03 -9.828776315605386e-03 -3.807307081403515e-03 2.474752554642605e-03 -2.264685504777007e-03 9.928323026132488e-03 -3.501475827999559e-03 -1.655858913979249e-03 -7.692746597565682e-03 -3.639878918897389e-03 -2.107034966850790e-03 1.629252346220192e+00 -5.324087979386920e-01 1.254892337446418e-01 9.302123683715157e-04 3.663801272277381e-02 3.957515986440783e-01 -3.404895593768837e-01 -4.938281873957868e-01 7.677956607640646e-01 -7.167643073794350e-02 1.069796457943548e-01 -2.511366292267478e-03 -5.324087979386923e-01 2.442994923298710e+00 -1.475656504584510e-01 -9.639835435142693e-02 -8.679137608454990e-02 -2.517845613543343e-01 -9.434679582173700e-04 2.497551139792924e-01 4.823014984595975e-02 1.030807511776549e-01 -1.011978220358530e-01 -9.828776315605383e-03 1.254892337446419e-01 -1.475656504584512e-01 1.363791257750671e+00 2.653225412273579e-03 -1.142093139385761e-02 -1.618750700380777e-02 6.271480879344372e-02 -2.054514962407585e-02 -1.389190238657619e-02 -1.156577799628130e-02 3.472722742352438e-01 -3.807307081403515e-03 9.302123683714965e-04 -9.639835435142692e-02 2.653225412273627e-03 1.365416671743500e+00 -4.592364261425868e-03 -2.033652780566324e-02 1.307764189487565e-02 -9.779364062857976e-03 2.587461366718265e-04 5.650855170060875e-03 -1.091173703731227e-03 2.474752554642606e-03 3.663801272277385e-02 -8.679137608454997e-02 -1.142093139385763e-02 -4.592364261425815e-03 1.322254138064401e+00 1.927515807746564e-02 -2.305491690973025e-03 1.195847571586123e-02 -2.226564535939231e-02 1.084991981230090e-02 4.329667059042195e-04 -2.264685504777006e-03 3.957515986440783e-01 -2.517845613543343e-01 -1.618750700380783e-02 -2.033652780566325e-02 1.927515807746563e-02 4.086812723074363e+00 4.972299574645637e-01 3.050400814370955e-01 2.479792611861915e-01 -5.262568679083722e-01 -1.301006148777228e-02 9.928323026132483e-03 -3.404895593768837e-01 -9.434679582174172e-04 6.271480879344375e-02 1.307764189487565e-02 -2.305491690973029e-03 4.972299574645639e-01 6.252606832148438e+00 2.557722215934078e+00 2.183301598858994e+00 1.563320207516471e-01 -1.679470643712654e-02 -3.501475827999558e-03 -4.938281873957867e-01 2.497551139792923e-01 -2.054514962407580e-02 -9.779364062857978e-03 1.195847571586122e-02 3.050400814370955e-01 2.557722215934078e+00 6.913110535404695e+00 1.748732683997648e+00 1.201024923616553e-01 1.727797706268227e-02 -1.655858913979247e-03 7.677956607640647e-01 4.823014984595974e-02 -1.389190238657622e-02 2.587461366718213e-04 -2.226564535939232e-02 2.479792611861915e-01 2.183301598858995e+00 1.748732683997648e+00 1.002149791076290e+01 1.558314809680135e-01 -7.680081688380069e-04 -7.692746597565680e-03 -7.167643073794346e-02 1.030807511776549e-01 -1.156577799628129e-02 5.650855170060877e-03 1.084991981230090e-02 -5.262568679083721e-01 1.563320207516471e-01 1.201024923616553e-01 1.558314809680135e-01 9.435460959041323e-01 2.578396977248341e-02 -3.639878918897387e-03 1.069796457943549e-01 -1.011978220358531e-01 3.472722742352437e-01 -1.091173703731242e-03 4.329667059042240e-04 -1.301006148777225e-02 -1.679470643712654e-02 1.727797706268224e-02 -7.680081688379772e-04 2.578396977248340e-02 5.399738748265644e-01 
      </Matrix>
      <Matrix Rows="12" Columns="12">
        7.946873879154193e-02 -2.781022931538161e-03 -4.138179413966882e-03 -9.025857789671942e-03 -5.195046634755967e-03 4.118993317798457e-03 -3.834661519022970e-03 8.560733740949490e-03 -1.670498340332420e-03 1.181729173748665e-03 -5.736013610039889e-03 -3.806574706792770e-03 -2.781022931538161e-03 1.580785241379983e+00 -4.809866036077666e-01 1.228297210266052e-01 -5.593731001724347e-03 3.629701782396261e-02 3.394445451599697e-01 -3.127184748090731e-01 -4.307378155189611e-01 7.655215605380640e-01 -4.499111566624416e-02 1.038698028010660e-01 -4.138179413966882e-03 -4.809866036077666e-01 2.479845715257958e+00 -1.368450323341157e-01 -8.094456071846828e-02 -5.309047823275484e-02 -1.777305362126997e-01 -8.908086266788698e-03 2.390269435937609e-01 -4.296909832742224e-03 6.109103049885870e-02 -9.936017974288414e-02 -9.025857789671937e-03 1.228297210266052e-01 -1.368450323341155e-01 1.318090005399326e+00 8.665734344263924e-03 -8.890163202092842e-03 -2.425830944222779e-02 4.665687400341306e-02 -1.942330145962681e-02 -1.038407115769721e-03 -8.557815747257121e-03 3.373684080206311e-01 -5.195046634755967e-03 -5.593731001724341e-03 -8.094456071846826e-02 8.665734344263926e-03 1.388152601923598e+00 -1.287250598923545e-02 -2.083705540665008e-02 4.383651963775379e-03 1.392966600090167e-04 1.559074741656062e-02 6.025344032895991e-03 -4.544182126872498e-03 4.118993317798457e-03 3.629701782396266e-02 -5.309047823275482e-02 -8.890163202092839e-03 -1.287250598923545e-02 1.266051768881226e+00 3.406418054085238e-02 2.186410132309479e-02 -5.909608221615306e-03 -4.620453821112263e-02 1.368566442062612e-02 8.344774588126040e-03 -3.834661519022971e-03 3.394445451599697e-01 -1.777305362126997e-01 -2.425830944222782e-02 -2.083705540665008e-02 3.406418054085236e-02 3.751776476585552e+00 5.543738461910779e-01 4.199248198749669e-01 3.195577194663887e-01 -3.349466131597041e-01 -5.664680243941051e-03 8.560733740949487e-03 -3.127184748090731e-01 -8.908086266788757e-03 4.665687400341303e-02 4.383651963775380e-03 2.186410132309476e-02 5.543738461910779e-01 6.158308313090037e+00 2.427340328125385e+00 1.869610745444198e+00 1.017619556000340e-01 -2.017233559275821e-02 -1.670498340332421e-03 -4.307378155189612e-01 2.390269435937609e-01 -1.942330145962683e-02 1.392966600090192e-04 -5.909608221615319e-03 4.199248198749669e-01 2.427340328125385e+00 6.727909605022401e+00 1.764194011375837e+00 9.185720224710733e-02 8.971026181110887e-03 1.181729173748665e-03 7.655215605380640e-01 -4.296909832742320e-03 -1.038407115769705e-03 1.559074741656062e-02 -4.620453821112265e-02 3.195577194663888e-01 1.869610745444198e+00 1.764194011375837e+00 9.620217277247530e+00 1.071136940696068e-01 4.837842247702228e-03 -5.736013610039888e-03 -4.499111566624416e-02 6.109103049885868e-02 -8.557815747257112e-03 6.025344032895989e-03 1.368566442062612e-02 -3.349466131597041e-01 1.017619556000340e-01 9.185720224710738e-02 1.071136940696068e-01 7.516567966408572e-01 1.922765938650419e-02 -3.806574706792770e-03 1.038698028010660e-01 -9.936017974288411e-02 3.373684080206313e-01 -4.544182126872495e-03 8.344774588126038e-03 -5.664680243941044e-03 -2.017233559275820e-02 8.971026181110897e-03 4.837842247702213e-03 1.922765938650419e-02 5.348766400421615e-01 
      </Matrix>
      <Matrix Rows="12" Columns="12">
        8.088035645635087e-02 -2.300208814691737e-03 -3.009474542093598e-03 -9.480418196646925e-03 -4.419257716699285e-03 3.286770695104249e-03 -3.180855541739827e-03 9.563717290799755e-03 -2.719281634913078e-03 -5.150121506556242e-04 -6.779228146994300e-03 -3.660641275781354e-03 -2.300208814691737e-03 1.606410737195104e+00 -5.097357382415366e-01 1.242544892862886e-01 -1.886295171028170e-03 3.611478470944712e-02 3.658237334382978e-01 -3.271904778207973e-01 -4.646472240907060e-01 7.684921550479497e-01 -5.677586908053048e-02 1.055426057447520e-01 -3.009474542093597e-03 -5.097357382415366e-01 2.452685733196755e+00 -1.428866386410742e-01 -8.981155820734145e-02 -7.264763657053527e-02 -2.115885868806211e-01 -1.112703885368556e-02 2.440911634439471e-01 2.675355211203637e-02 8.085612408377230e-02 -1.007554460930621e-01 -9.480418196646925e-03 1.242544892862886e-01 -1.428866386410742e-01 1.343792726347078e+00 5.268163368213337e-03 -1.032588638258508e-02 -2.016110936605531e-02 5.577646570076979e-02 -1.995373029466687e-02 -8.129401156267067e-03 -9.990850291529978e-03 3.429450208055663e-01 -4.419257716699284e-03 -1.886295171028175e-03 -8.981155820734146e-02 5.268163368213268e-03 1.374734104643812e+00 -8.042378179412443e-03 -2.065915354837201e-02 9.920763009356260e-03 -5.747087754151389e-03 6.484893780792153e-03 5.818015321510665e-03 -2.502831344456833e-03 3.286770695104248e-03 3.611478470944712e-02 -7.264763657053529e-02 -1.032588638258508e-02 -8.042378179412446e-03 1.296913521427131e+00 2.578346656127467e-02 7.497391065191751e-03 4.174086275224758e-03 -3.189177765699255e-02 1.254193310161322e-02 3.827325519424453e-03 -3.180855541739829e-03 3.658237334382981e-01 -2.115885868806212e-01 -2.016110936605530e-02 -2.065915354837200e-02 2.578346656127467e-02 3.906025910227569e+00 5.340441887292493e-01 3.618657118247851e-01 2.880216272357405e-01 -4.232048262944649e-01 -9.178761010782148e-03 9.563717290799752e-03 -3.271904778207973e-01 -1.112703885368559e-02 5.577646570076980e-02 9.920763009356268e-03 7.497391065191745e-03 5.340441887292491e-01 6.200007446423010e+00 2.500507697359921e+00 2.047932089244885e+00 1.272073396297647e-01 -1.869940548760257e-02 -2.719281634913078e-03 -4.646472240907059e-01 2.440911634439471e-01 -1.995373029466685e-02 -5.747087754151394e-03 4.174086275224761e-03 3.618657118247853e-01 2.500507697359921e+00 6.827225031305035e+00 1.748654108562957e+00 1.041641545499308e-01 1.377672002413867e-02 -5.150121506556243e-04 7.684921550479494e-01 2.675355211203629e-02 -8.129401156267020e-03 6.484893780792161e-03 -3.189177765699252e-02 2.880216272357404e-01 2.047932089244885e+00 1.748654108562957e+00 9.825525110419182e+00 1.284584719039480e-01 1.909045561416866e-03 -6.779228146994298e-03 -5.677586908053051e-02 8.085612408377232e-02 -9.990850291529978e-03 5.818015321510663e-03 1.254193310161322e-02 -4.232048262944649e-01 1.272073396297646e-01 1.041641545499308e-01 1.284584719039480e-01 8.448643434312105e-01 2.252125733384848e-02 -3.660641275781354e-03 1.055426057447520e-01 -1.007554460930621e-01 3.429450208055663e-01 -2.502831344456826e-03 3.827325519424451e-03 -9.178761010782169e-03 -1.869940548760258e-02 1.377672002413866e-02 1.909045561416849e-03 2.252125733384849e-02 5.376727758360402e-01 
      </Matrix>
    </Transform>
    <Transform Name="Normalize">
      <Selection>
        <Input NInputs="12">
          <Input Type="Variable" Label="mult" Expression="mult"/>
          <Input Type="Variable" Label="partP" Expression="partP"/>
          <Input Type="Variable" Label="partPt" Expression="partPt"/>
          <Input Type="Variable" Label="nnkrec" Expression="nnkrec"/>
          <Input Type="Variable" Label="ptB" Expression="ptB"/>
          <Input Type="Variable" Label="IPs" Expression="IPs"/>
          <Input Type="Variable" Label="partlcs" Expression="partlcs"/>
          <Input Type="Variable" Label="PIDNNk" Expression="PIDNNk"/>
          <Input Type="Variable" Label="PIDNNpi" Expression="PIDNNpi"/>
          <Input Type="Variable" Label="PIDNNp" Expression="PIDNNp"/>
          <Input Type="Variable" Label="ghostProb" Expression="ghostProb"/>
          <Input Type="Variable" Label="IPPU" Expression="IPPU"/>
        </Input>
        <Output NOutputs="12">
          <Output Type="Variable" Label="mult" Expression="mult"/>
          <Output Type="Variable" Label="partP" Expression="partP"/>
          <Output Type="Variable" Label="partPt" Expression="partPt"/>
          <Output Type="Variable" Label="nnkrec" Expression="nnkrec"/>
          <Output Type="Variable" Label="ptB" Expression="ptB"/>
          <Output Type="Variable" Label="IPs" Expression="IPs"/>
          <Output Type="Variable" Label="partlcs" Expression="partlcs"/>
          <Output Type="Variable" Label="PIDNNk" Expression="PIDNNk"/>
          <Output Type="Variable" Label="PIDNNpi" Expression="PIDNNpi"/>
          <Output Type="Variable" Label="PIDNNp" Expression="PIDNNp"/>
          <Output Type="Variable" Label="ghostProb" Expression="ghostProb"/>
          <Output Type="Variable" Label="IPPU" Expression="IPPU"/>
        </Output>
      </Selection>
      <Class ClassIndex="0">
        <Ranges>
          <Range Index="0" Min="1.0101204365491867e-01" Max="1.0388530731201172e+01"/>
          <Range Index="1" Min="2.4815940856933594e+00" Max="8.9674987792968750e+00"/>
          <Range Index="2" Min="-4.7228560447692871e+00" Max="2.1485266685485840e+00"/>
          <Range Index="3" Min="2.9389812946319580e+00" Max="1.1772211074829102e+01"/>
          <Range Index="4" Min="-5.2445950508117676e+00" Max="5.1295375823974609e+00"/>
          <Range Index="5" Min="1.7681640386581421e+00" Max="6.4553651809692383e+00"/>
          <Range Index="6" Min="-3.3163547515869141e+00" Max="8.8829317092895508e+00"/>
          <Range Index="7" Min="-6.8240642547607422e-01" Max="6.8931889533996582e+00"/>
          <Range Index="8" Min="-1.8560305833816528e+00" Max="5.9966616630554199e+00"/>
          <Range Index="9" Min="1.6323366165161133e+00" Max="1.0781627655029297e+01"/>
          <Range Index="10" Min="-9.4436941146850586e+00" Max="-7.4740159511566162e-01"/>
          <Range Index="11" Min="1.5954265594482422e+00" Max="5.8784551620483398e+00"/>
        </Ranges>
      </Class>
      <Class ClassIndex="1">
        <Ranges>
          <Range Index="0" Min="7.9770103096961975e-02" Max="1.0470904350280762e+01"/>
          <Range Index="1" Min="2.7445690631866455e+00" Max="1.2673386573791504e+01"/>
          <Range Index="2" Min="-9.1686506271362305e+00" Max="2.2097740173339844e+00"/>
          <Range Index="3" Min="3.1169140338897705e+00" Max="1.2257989883422852e+01"/>
          <Range Index="4" Min="-6.1416897773742676e+00" Max="5.1054520606994629e+00"/>
          <Range Index="5" Min="1.7100716829299927e+00" Max="6.5586919784545898e+00"/>
          <Range Index="6" Min="-2.6925463676452637e+00" Max="4.7683788299560547e+01"/>
          <Range Index="7" Min="-1.0139787673950195e+01" Max="6.7520279884338379e+00"/>
          <Range Index="8" Min="-8.6153879165649414e+00" Max="5.9085736274719238e+00"/>
          <Range Index="9" Min="-8.1537656784057617e+00" Max="9.9425354003906250e+00"/>
          <Range Index="10" Min="-8.5319084167480469e+01" Max="-9.9253505468368530e-01"/>
          <Range Index="11" Min="1.6270593404769897e+00" Max="5.6821517944335938e+00"/>
        </Ranges>
      </Class>
      <Class ClassIndex="2">
        <Ranges>
          <Range Index="0" Min="7.9770103096961975e-02" Max="1.0470904350280762e+01"/>
          <Range Index="1" Min="2.4815940856933594e+00" Max="1.2673386573791504e+01"/>
          <Range Index="2" Min="-9.1686506271362305e+00" Max="2.2097740173339844e+00"/>
          <Range Index="3" Min="2.9389812946319580e+00" Max="1.2257989883422852e+01"/>
          <Range Index="4" Min="-6.1416897773742676e+00" Max="5.1295375823974609e+00"/>
          <Range Index="5" Min="1.7100716829299927e+00" Max="6.5586919784545898e+00"/>
          <Range Index="6" Min="-3.3163547515869141e+00" Max="4.7683788299560547e+01"/>
          <Range Index="7" Min="-1.0139787673950195e+01" Max="6.8931889533996582e+00"/>
          <Range Index="8" Min="-8.6153879165649414e+00" Max="5.9966616630554199e+00"/>
          <Range Index="9" Min="-8.1537656784057617e+00" Max="1.0781627655029297e+01"/>
          <Range Index="10" Min="-8.5319084167480469e+01" Max="-7.4740159511566162e-01"/>
          <Range Index="11" Min="1.5954265594482422e+00" Max="5.8784551620483398e+00"/>
        </Ranges>
      </Class>
    </Transform>
  </Transformations>
  <MVAPdfs/>
  <Weights>
    <Layout NLayers="3">
      <Layer Index="0" NNeurons="13">
        <Neuron NSynapses="17">
          -1.7884032880558060e-01 1.6514146669971381e+00 1.1725969606084161e+00 9.2060027714337223e-01 -1.8892398170565359e+00 -9.0778714163776086e-01 5.1209519951004878e-01 1.8875010435772603e+00 -1.1935279053945307e+00 -8.8599000353494384e-01 -1.6481126692898538e+00 -5.1149182646796409e-01 -1.3856094404099697e+00 -2.9490433939901345e-01 -8.1690178030312766e-01 6.6316471877170169e-01 -3.4673833487512484e-01 
        </Neuron>
        <Neuron NSynapses="17">
          2.0157336446295484e+00 3.0251754977054318e-01 1.2300393292054397e+00 -7.3116193769044147e-01 -6.9842391221366118e-01 6.3450094609622187e-01 4.6665523354304328e-01 -7.3034807708444516e-01 1.0483322736766978e-01 1.4211896005469584e+00 9.6095776969785884e-02 -1.8383161623937780e+00 5.5238514174916473e-02 8.9754459541017895e-01 9.4049788475598406e-01 -5.4248077900485481e-01 -1.8136995989229637e-01 
        </Neuron>
        <Neuron NSynapses="17">
          7.2079827888066203e-02 -5.7012122946116583e-01 -1.2128944423891113e+00 1.9649131475311445e+00 -1.1573287758611039e+00 1.1821521865451805e+00 1.1594347108503009e+00 4.7708139277212763e-01 1.9039615885459338e+00 1.1660988129941479e+00 -1.5638751164316833e-01 -1.3925797246741776e+00 6.5599675036554894e-01 7.9302675633256312e-02 1.3865225243866597e+00 1.3700159903173426e+00 1.7935178902958666e+00 
        </Neuron>
        <Neuron NSynapses="17">
          1.3444175262990747e+00 -1.5495197200967816e+00 1.3149254327919626e+00 -2.0956976590666669e+00 -8.6152568819375208e-01 -1.7020678058733101e+00 -1.9324111955356771e-01 1.5151566268829058e+00 9.9943099416704217e-01 -1.3704560629441718e+00 8.7536083392137625e-03 -3.7606253149534125e-01 3.3283441181309087e-01 1.7057368766052960e+00 -9.6117908262655627e-01 4.5321221082454655e-01 -9.1262119405375397e-01 
        </Neuron>
        <Neuron NSynapses="17">
          4.2175976578871388e-01 -7.3799452338130034e-01 -8.6835496415485747e-01 -7.8091779862463495e-01 7.0144866619824930e-01 5.5086290606970345e-01 3.8214709936222996e-01 -6.1090014325314468e-01 -1.5284071811179785e+00 -1.8936397176405197e+00 -3.8155088647039825e-01 5.0792248893996694e-01 2.0465924676220717e+00 4.0626178305963045e-01 1.3712141321086726e+00 -3.7811413703392699e-01 -7.6986267458095758e-01 
        </Neuron>
        <Neuron NSynapses="17">
          -2.2642305921222161e-01 6.9597906233779328e-01 -4.9241382634041109e-01 -1.3879880381960852e+00 -1.6269237775466383e+00 -4.8728368579707512e-02 -8.7637593898034916e-01 1.0087876581493147e+00 -1.2375717567289690e+00 -7.5963374199309430e-01 2.5383325843452744e+00 -7.5522137525075117e-01 -1.2618437528122399e+00 -9.0805495745394604e-01 -7.5672872578825257e-01 -2.1004670271473729e+00 -1.7075809267458024e+00 
        </Neuron>
        <Neuron NSynapses="17">
          7.3545752788129848e-01 2.0485101118973836e+00 -9.5143597014172476e-01 7.4081261613996519e-01 -9.0890679911290506e-01 -1.1280409276140224e+00 -8.1923203012626356e-01 1.2165156592382622e+00 -2.1170930727788506e+00 3.1379590701832100e-01 -6.7217315648106413e-01 2.3825748751948408e-01 -1.4712451582650692e+00 2.0745329805206629e+00 -2.9995175928818008e-01 -5.9986459431623418e-01 3.2762342527774657e-01 
        </Neuron>
        <Neuron NSynapses="17">
          -8.8700480663020531e-01 -1.9003233688890948e+00 -2.9442462704194050e-01 3.8186979417648803e-01 1.7202322951085092e+00 5.8392438185494100e-01 1.3329742858715774e+00 -1.0854402888571844e+00 6.7204025765917985e-01 -1.6792119705666222e+00 7.5829468394760136e-01 3.0272935522534761e-01 -1.7424647269580527e+00 3.3829511843466081e-01 -8.5024476039302943e-01 1.5989601263351166e-02 2.0209951913394968e+00 
        </Neuron>
        <Neuron NSynapses="17">
          1.5227895237604421e+00 -1.8627442502156855e+00 2.2184391491472599e-01 1.7863428558923491e+00 1.5427899632751838e+00 1.4502683392956967e-01 -1.1378407989653125e+00 -5.0916590813504037e-01 -1.0049643617411870e+00 1.3828884782023063e+00 1.2811309406892906e+00 -3.8144545346380443e-01 -2.2300709204242500e-01 1.8119050279985331e-02 -5.6317071155667475e-01 1.8051328143709164e-01 1.3329208037507465e+00 
        </Neuron>
        <Neuron NSynapses="17">
          -9.0557785633776577e-01 -7.1492024113151076e-01 5.4308583699926950e-02 1.3533255856343374e+00 5.2338420583679868e-01 6.7697449077987049e-01 -2.4317743767671915e+00 9.7289144316075449e-01 2.4941624231876897e-01 3.6950550104341967e-01 1.6107225077920007e-01 1.0707117374418829e+00 -5.3217098523328887e-01 -7.5944784224404138e-01 1.3018179343740812e+00 -1.0079802144601644e+00 -7.7537391115924303e-01 
        </Neuron>
        <Neuron NSynapses="17">
          1.2386072716232164e+00 5.0334918177221510e-01 -6.7456849239941330e-01 2.5757062371000967e+00 1.8157552349313684e+00 -1.8994593406949760e+00 -3.6912455029878838e-01 -1.1192377638809985e+00 2.2459984319324622e-01 -1.7716905285284434e+00 -2.2709224867543920e+00 1.3744426860735590e+00 1.8906257656526466e+00 -2.1628174457106253e+00 6.5843765160979628e-01 -6.7299776431280156e-01 5.3585481816402447e-01 
        </Neuron>
        <Neuron NSynapses="17">
          1.5283778310524387e+00 -1.7621124330208443e-01 -2.2618712170078956e-01 -5.3850574781114868e-01 9.6809691314956658e-01 1.6243548543331172e+00 3.3989171257374273e-02 1.5193798979273640e-01 -2.4705491102938826e-01 -1.6524620398365137e+00 -9.3772946149622505e-02 4.5141046242660476e-01 -7.6130486228570082e-01 -6.2498936068407285e-01 2.6482615072708160e-01 3.8469563795896006e-01 -9.3022653956440116e-01 
        </Neuron>
        <Neuron NSynapses="17">
          1.2374283941450790e+00 2.2757643068062400e-01 -9.2060109703857029e-01 1.0427540147040266e+00 1.5924155618539619e+00 1.1342498083033072e+00 1.8312743898724493e-01 -1.3104664694522421e+00 -1.8857729701487218e+00 -1.0051433068706264e+00 1.6667187568722555e+00 1.4927303222690698e+00 8.7266593924284319e-01 -2.5814852295364826e-01 2.8529384981632253e+00 -1.9367166543685681e+00 -8.9217036288109908e-01 
        </Neuron>
      </Layer>
      <Layer Index="1" NNeurons="18">
        <Neuron NSynapses="1">
          9.4537264035330151e-02 
        </Neuron>
        <Neuron NSynapses="1">
          -1.2052198037989825e+00 
        </Neuron>
        <Neuron NSynapses="1">
          1.3107719788973290e-01 
        </Neuron>
        <Neuron NSynapses="1">
          1.0193101524248072e+00 
        </Neuron>
        <Neuron NSynapses="1">
          -1.0035132965923894e+00 
        </Neuron>
        <Neuron NSynapses="1">
          9.2369440936427794e-01 
        </Neuron>
        <Neuron NSynapses="1">
          5.0227180611535915e-01 
        </Neuron>
        <Neuron NSynapses="1">
          -9.2803610262501890e-01 
        </Neuron>
        <Neuron NSynapses="1">
          2.0234288420466481e-01 
        </Neuron>
        <Neuron NSynapses="1">
          -8.6372641968872052e-02 
        </Neuron>
        <Neuron NSynapses="1">
          4.4071312893354675e-01 
        </Neuron>
        <Neuron NSynapses="1">
          8.5795021074431255e-01 
        </Neuron>
        <Neuron NSynapses="1">
          -9.2445512207309322e-01 
        </Neuron>
        <Neuron NSynapses="1">
          1.2542660854957235e+00 
        </Neuron>
        <Neuron NSynapses="1">
          -7.5116501462043306e-01 
        </Neuron>
        <Neuron NSynapses="1">
          -3.4549545992867198e-01 
        </Neuron>
        <Neuron NSynapses="1">
          6.3198822659506729e-02 
        </Neuron>
        <Neuron NSynapses="1">
          -1.3118028755668687e+00 
        </Neuron>
      </Layer>
      <Layer Index="2" NNeurons="1">
        <Neuron NSynapses="0"/>
      </Layer>
    </Layout>
    <InverseHessian NElements="57121" NRows="239" NCols="239">
      <Row Index="0">
        2.4949173399779667e+00 -3.0948546273874322e-01 8.4545961058375430e-01 4.7047248644408057e-01 -1.0224298501450125e+01 8.3180677259912961e-02 -1.2247118339156754e-01 -1.9307731670755905e+00 -2.1822984450195398e-02 -2.9832652172718443e-01 -1.1797241662432276e-03 9.3025304872639580e-01 -1.3166062361452013e-01 7.8065241003573038e-01 3.6526994177256888e-01 7.5496134094025863e-02 4.7373857442884360e-01 -4.3476127355981486e-01 2.0838727303606247e-01 1.4694319919368866e+00 -2.2178496454886822e+00 3.0305495415045243e+01 -7.9088752458339795e-02 -2.4904761019509402e-02 -4.8495128007436605e-01 -1.2579964534619126e-02 -4.5046772316396955e-01 -3.4947583861323642e-02 8.9626482873882196e-01 -2.3224477150776179e-01 -4.4569462966264908e+00 7.0243196998052042e+00 1.1840764973260461e-01 9.0485291147961444e-02 -1.1536609592762331e-01 3.3310708087628704e-01 1.6030323091078202e-01 -3.8134418874843021e+00 3.0753402729187655e+01 -1.5873604271477007e-01 4.2803508649343097e-02 -3.7817631707036412e+00 -2.2662115476302525e-01 -4.7071221682033482e-03 2.1359551782497266e-02 5.9894248595011867e-01 7.7179917215435268e-02 1.8548702652405247e+00 2.0452873241728735e+00 -4.3819054098102578e-02 1.3479673699169759e-01 -2.7454875186082223e-01 1.2312167551335034e+00 1.2088005014217718e-01 3.3063219359832212e+00 2.5337903199741731e+01 1.4408612268704041e-01 -3.4292155949336295e-02 -2.8877225090273555e+00 -1.1418860616170662e-01 -5.2880179145229478e-01 -3.1674402956451922e-02 -1.5311328854448902e-01 -1.4123676694235776e-01 -2.8179839862753830e+00 -1.2454987137668239e+00 4.0598834715141807e-02 3.2905531172945146e-02 -2.6402924061574407e-02 3.6972484870412686e-01 1.2227759837843095e+00 3.9648397045825057e+00 -2.7306925234096752e+01 -1.2032972713841084e-01 3.0150545365772080e-02 2.1674376437585323e+00 1.9695281772765830e-01 -2.7569467452580909e-01 -9.8909509253195804e-03 -2.0415023896440143e-01 2.5726399022753554e-01 -2.7835634794429365e-01 1.8736627624597437e+00 -1.9920289106625411e-02 8.0517520446585222e-02 5.2675176186112282e-02 -3.2053404082537873e-02 9.9746035794774812e-02 3.6315150603000177e+00 1.4158170956463849e+01 1.2833069316371404e-03 -2.7502176975992637e-02 -8.5350444008589221e-01 1.5039119888510977e-01 -6.5374143328677192e-02 -6.6936128480887092e-02 1.5048168190621176e+00 -1.5609112909736034e-01 1.2009313025289798e+00 -7.5461303649398559e-01 1.0928333980771610e-01 -1.9812888146948282e-01 -8.3741025465149749e-02 -3.1007414957855967e-01 6.2875892971096974e+00 1.4716299597542104e+00 -3.4656478695433179e-01 -3.3737879156617967e-02 -2.3692471753655076e-02 -3.1533673721363407e+00 2.4356968213552183e-01 6.8657910198937988e-01 -1.1762992690860931e-02 3.4022366966621576e+00 4.7324869153470783e-01 -1.0101273478596655e+01 -3.4698969633283525e+00 -4.5779710027774201e-02 9.0724501187631779e-01 6.5772939730288082e-02 -6.8961643160917241e-02 -3.0541549130674071e+00 -1.4597989568922856e+00 -4.9579844100576338e+00 -4.6298499166406576e-02 1.3278566439804523e-01 3.7985026046911798e+00 -1.5876972094986419e-01 -9.0768994304052897e-01 9.6590387935824602e-03 -2.4151319901363451e+00 -1.7822824446298036e-01 7.7463687885930810e-01 -8.8712559075066650e+00 7.9987537181245988e-02 -8.2133777409749698e-02 -5.7853335540035444e-01 8.9355518359446329e-01 3.8053801107427718e+00 -1.6248250255834762e+00 -1.0118489893748801e+01 -1.7801326750181312e-02 -1.1116013478199888e-01 -8.6096500064230952e-01 1.5015894769253785e-01 1.7564160095647807e-01 -2.1451687938593693e-02 -5.4407929885269368e-01 -2.3611324792535715e-01 -4.1044553314049494e+00 4.6930727167277553e+00 -7.2381506078010749e-02 -4.1147708963648899e-01 -1.7623006386060711e-01 -3.3820976313394624e-01 -8.0722113363589232e-01 -1.3757347764103685e+00 7.5579082323856710e+00 -3.4688882004971722e-02 -1.4697966246327621e-01 1.4113274534473135e+00 -9.6233552987862736e-03 1.0631236440462917e+00 -1.5020153484589301e-02 -2.1038297321078652e+00 8.5923805250826657e-02 -1.2706623438079525e+00 8.1137128628531450e+00 -1.4793898658631371e-02 -9.6193402337731249e-01 -1.4557520425250425e-01 -2.3241848569106582e-01 2.7347897560664497e-01 -2.8620227289183084e+00 -1.1861690905539945e+01 3.3479119461691126e-01 -5.7905082732016749e-02 -1.1240281300658427e+01 -6.9378114379352374e-02 1.4051116319636003e-01 4.5140762577507321e-02 4.0326224499488816e-01 -9.0011673745899390e-01 6.3043984388333563e+00 2.3646955393368351e+01 -6.3552534125171256e-02 2.4238826410472653e-01 -4.1283516622651906e-01 6.9308813527600099e-02 4.6871579321625099e+00 -2.2829462256022381e+00 3.8112342053063912e+01 -2.2198130606405109e-01 -5.1696533414099161e-02 3.6262026329149266e-02 2.5169494596103292e-02 -3.1378690658326652e-01 -5.4170828072482302e-03 6.2985520315912957e-01 -1.0118464597743304e-01 -1.2153310970385167e+00 1.5914530838056464e+00 -5.0234583920743717e-02 1.3553549079038207e-01 1.3239057425960008e+00 3.6792866338299146e-02 6.6235146711521065e+00 3.6406932550418301e+00 -3.0702160136966086e+00 -2.7668413828564048e-01 -9.2894597291536846e-02 2.6749571434596673e+00 1.9560304937501893e-01 -2.8652329344161931e-01 -1.0700450816405854e-01 1.3301142785531564e+01 1.0886743630459121e+00 -1.3996846013270414e+01 -9.7860509955641248e+00 2.5630204759662489e-01 1.1982853166429805e+00 2.9289537272371234e-02 -1.8692103180106452e+00 3.3444208305372126e-02 4.1653808381148298e+00 -5.0347255407420484e+00 1.2039709204398558e-01 -4.3205529304021592e-02 -8.8578195576607612e+00 3.1789584197562483e-02 2.3757901975942842e-02 7.4875270106396670e-03 1.6609778412458457e+01 3.4942597429080635e-01 9.6582235577803957e+00 -1.1027898952958662e+01 -3.4018783511669634e-02 -4.4446087409531765e-03 -6.2061224069966947e+00 
      </Row>
      <Row Index="1">
        -3.0948546285336409e-01 1.6577202571161269e+01 1.3338912284861464e+00 4.1441882958097254e-02 -1.2334969164965719e+02 -7.7478167827863945e-02 -2.6988897147684404e-02 -6.6006376776019593e-01 -1.3150558891680295e-01 1.8451517199333685e+00 6.1647510533563543e-02 -2.6621172542794018e+00 -1.7479964199549085e+00 1.6982224008686688e+00 -3.1965219020845641e+00 -4.3205707403092453e-01 -1.2550357628880680e+00 -3.2499844935663286e-01 5.6055900846971285e-01 -2.9234087704274399e+00 6.0218139021515400e+00 3.3210088359447042e+01 -1.6392944013668642e-02 -6.0774793830761606e-02 2.7276197236439845e+00 -6.8667906588746719e-02 -3.3361646716985505e-01 -6.8619647553997435e-03 2.2608858829013208e+01 -2.4270730103712523e-01 9.2946708057494405e+00 1.2697629638684802e+00 2.1032633196927347e-01 6.3648616623501575e-01 -2.0997104398920602e-01 -3.6085928231743800e+00 -1.0095488871042577e+00 -1.7295271892246298e+01 -7.8136857756131832e+01 4.8297793665093708e-03 7.0655313827979974e-02 -1.6883388984819376e+00 -3.2499548466338324e-01 -1.3313961139425130e+00 1.0873027045700140e-01 1.7739784650644708e+01 -1.0523345004254958e-01 -1.3777491905011754e+00 -2.0567494123104950e+01 -4.0095520420324904e-01 -1.2676280885932893e+00 2.1643573036184449e-01 -1.5514622634863088e+01 -2.5938517329952813e+00 4.3040602110666271e+00 1.8410237136107480e+02 2.7169911471171682e-01 6.1913883018215987e-02 2.9501696596602045e+00 1.7957813082304208e-02 -1.3203511121874172e+00 4.0789595113006772e-03 6.9696331578947701e+00 9.8825995798683053e-01 5.9742018876107306e-01 6.6919363743954321e+00 -3.8437957521446867e-02 3.1267005560923371e+00 1.6131822182837136e-01 -4.0837487724619912e+00 -1.7570676104363447e+00 -2.2059836163549740e-01 -7.7395816844532419e+01 1.4852122892111075e-01 2.9106792908978385e-02 -3.9791444388261468e+00 6.0811332149779318e-01 6.1676237491246066e-02 1.8023323622177716e-03 7.5482428623402065e-01 1.3576000057674174e+00 -3.2035122912243885e+00 1.4950643058125243e+01 1.1205086156383548e-02 2.3885411058427639e+00 4.1257951671515847e-01 4.4029368627419858e+00 2.4229327883173890e+00 1.1023920632175439e+01 9.2577297205316881e+01 -3.3097439520715366e-02 -1.1688205889322881e-01 2.9856389564808703e+00 1.8529550882505835e-01 1.1567893856566898e+00 -1.2463091292121836e-01 2.0224927563041621e+00 -7.1027569909072819e-01 -3.2187853264094359e+00 -1.1110873512616990e+01 7.9547766250744179e-01 1.4693911115055329e+00 -5.4536432852042305e-01 1.6905701630122017e+01 -2.5927354243038323e+00 2.0219933613776135e+01 4.1703821873854849e+00 -2.3094368029587536e-01 -5.6091709219969949e-02 -4.7228350980173261e+01 -1.8427521458490115e-01 1.6213411320298841e+00 -2.8637189767278248e-03 -1.8063892459249484e+01 -3.8511189512001751e+00 8.6972246482838482e+00 -1.1639263743617576e+01 9.1891991581090432e-02 -4.2804647698641523e+00 7.0447141372785604e-01 -1.7629117029726096e+01 -3.1540981811393891e+00 -9.6533770032423014e+00 9.6452247751393827e-01 1.5625823953638068e-01 6.5033391035896698e-02 1.1779520710482984e+01 2.1777465683270111e-01 -6.7140502886548159e-01 4.7803277134877364e-02 1.3467235356004871e+01 -3.4946090104676895e+00 -1.0408407176611298e+00 -2.3553286704059644e+01 -9.1166410681663979e-02 2.0490776701759845e+00 3.6759979592555814e-01 -1.4735133169413077e+01 2.8320698916348128e+00 -2.0674227680119039e+01 5.6436635210791337e+00 2.3184277649659368e-01 7.8448572199450173e-02 1.5718218813498815e+01 4.9886127878566722e-01 -3.0969869467596700e+00 6.8033132647190547e-02 1.5393606717565616e+01 -2.1581017435847656e+00 -1.1445122121458470e+01 7.4528076912224179e+00 3.0850131355929805e-01 2.5240409354936668e+00 3.5900742939852992e-01 -3.9575273485549634e+00 1.2315396460285370e+00 -5.8615423864837197e+00 -6.6115411266018782e+00 9.9084670096707461e-02 -6.0320344179118024e-02 4.1287297081912726e+00 2.1261149854269518e-01 -1.5081160520218528e+00 -8.8537424269010484e-02 -8.7136195586010246e+00 -2.9586394884391609e+00 -9.8790217105835296e+00 -4.7468100443308856e+00 5.4744560984791013e-01 7.5089562734318172e-01 -9.9364840184782710e-01 9.6226027087554549e+00 9.4324776509785888e+00 -2.3790400530570050e+01 -2.6400772212168704e+00 -2.6067799961113569e-01 -8.8751297839652826e-02 -1.0465976657088319e+01 -5.0801672044056101e-01 2.3080134160741608e+00 -4.2447527937909513e-02 -1.8357343912913905e+01 -1.7412228221312992e-01 -1.6214571144852528e+00 1.3023322804752537e+01 4.8723319985278790e-02 -7.6622402056167882e-01 -2.1684300782032823e-01 -6.2245451717097267e-01 8.9864063354847268e-01 2.5587903127067229e+00 6.9436469078714254e+01 -1.2817297770994215e-01 4.0912220472471270e-02 -4.2158947252873418e+00 5.2143849653221608e-02 1.3853000612108117e+00 2.6890378310483187e-03 -2.5518131322817421e+00 -1.0356464445087010e+00 2.4465907944686478e+00 -1.1594453305941069e+01 -4.9911863053427194e-02 1.9082274288702961e+00 -1.6059842563114834e-01 3.2104757710511976e+01 -9.2761228807129310e+00 5.4088989211845998e+01 -1.4765257499291693e+01 -1.7720584625375418e-01 -6.6424289157717503e-02 -5.1114179645521844e+01 -3.0364694610686627e-01 3.3115174107077792e+00 -1.5756541242759048e-02 -1.3319200970505797e+01 3.3819182125120895e+00 4.0961446715921944e+01 2.4911369544936210e+00 4.2162118414650868e-01 -5.1085812007668681e+00 2.4183367547379760e-02 6.1943169510560836e+01 8.3734339297372173e-02 1.4123540996776349e+01 -1.0841537905218317e+00 4.3522827177088441e-02 -1.0098912509625756e-02 -2.2888191032333715e+01 6.2445630163184246e-02 -4.3069118457610411e-02 -1.4879417841518125e-03 5.4542389758462733e+00 3.0075796552064649e-01 -5.8252316492613801e+01 -1.6234258506341394e+01 -1.2807973408184203e-01 9.0640527163432516e-02 -2.2022276700519534e+01 
      </Row>
      <Row Index="2">
        8.4545965777892862e-01 1.3338910194269957e+00 3.1541584914982650e+02 -1.4808679241997130e+01 3.8032134617678821e+01 -1.6005072757847274e+00 6.1234149308856689e-01 1.3677699436658125e+02 -1.9153314716666867e-01 -9.1073075263318160e-01 1.9161617674008369e-03 5.5091060751243965e+00 1.4122830331410174e+00 1.2816524429375090e+02 5.8337246707831461e+01 6.2727804206291093e-02 -2.4512639575091146e+00 2.9570133039438851e-01 5.3438106783243722e+00 2.5790887009003461e+02 3.6386035490282467e+01 7.9774125466062492e+02 6.3424848043578059e+00 4.6517540212524933e-01 -1.6772791125991318e+01 -8.6909827115945870e-01 -9.4339085599883266e-01 7.1617757916994229e-01 3.8174289168179769e+01 2.4875866140606195e+00 4.7737322222662101e+01 -2.3749810125702339e+02 -1.7305094392493095e-01 5.2121587322579517e+00 6.6392865777084964e-01 -1.9380588170940989e+00 -2.5204223067113173e+02 -1.1264612567727107e+02 -4.3354310440678182e+02 1.3549433699586211e+00 -1.4354277543119043e-01 1.0124968618224176e+02 6.4287888278803162e-01 -2.6917930832902570e-01 -3.2159877259881753e-01 -2.8294267112431655e+01 1.5136749729394561e+00 -1.1543082178940944e+02 6.5894167344776378e+00 -4.1935263125670544e-02 -5.7512923575032104e-01 -5.8418631623222810e+00 8.8960035727940969e+00 6.7356628684774449e+01 6.3248955389649325e+01 2.3856046462138329e+02 -2.4875894720489962e+00 2.7653890040855650e-01 7.8184173909523935e+01 -5.0254484617725170e-01 -1.1521378310099628e+00 7.2195477884157344e-01 -8.6460728528622610e-01 3.1122518304753122e+00 -5.4257620211080578e+01 3.8716935857181795e+01 -1.0186142702055709e+00 3.2925413981763976e+00 -6.9834099192641885e-02 -1.0528850842165873e+00 -1.7383666599570051e+02 5.2374602969528610e+00 -4.1730405306885859e+02 -4.2805779420336315e-01 -1.4596702479235510e-01 8.7065925471950919e+01 1.0614717097154076e+00 2.1669742229621365e+00 -7.7670212731189792e-01 -1.6746384718016554e+01 4.5575005108148048e+00 -1.5374884857537234e+02 -7.6307483494537067e+01 2.4485152961397505e-01 -2.0632788501248864e+00 -3.9586278145623766e-02 -1.2422199142523525e+00 -7.9079505929156937e+01 2.9883605526428539e+01 -9.0231227662047857e+01 -1.1997137499982133e+00 -9.4388923674801978e-02 -1.0298524642411280e+01 -2.1507998383002302e-01 8.2580878215359210e-01 4.6844843737288233e-01 -1.3623510891507962e+01 -3.1311532771859376e+00 7.3672179170478728e+01 1.0030900572717201e+02 6.8813870716913650e-01 -3.0760180778279960e+00 -4.5795446555356580e+00 -9.8748730996130369e+00 -3.4728444376475738e+02 -1.8188305473328288e+02 9.0589875447265513e+01 -7.9364577489606614e+00 -1.0090770623068188e+00 -6.3824487898195628e+01 1.9742389826629190e+00 3.7689034601842089e+00 -9.4306270953775717e-01 -3.0173743929382418e+01 -5.5020454401323029e+00 -3.6337407989564525e+02 -5.2282657208528065e+01 4.8999014634647664e-01 -1.9005601959501619e+00 1.1188696565929916e+00 -1.1642565049000737e+00 -8.1527171120871003e+01 -2.0004244858897465e+01 3.0595827457459200e+02 -4.2493948806259230e-02 2.8184378305067326e-01 -1.9088270144672890e+02 1.7523608427014620e-01 6.8536399987356988e-01 4.2183389962759632e-01 1.7491820086911787e+01 -7.6981657969184791e+00 -7.7043788929455346e+00 -8.5204408076486516e+01 -1.4653990185087704e-01 4.5826992453392705e+00 -2.8228182825879493e+00 3.6353432695101930e+00 5.3756757980840234e+01 -4.2641884555893768e+01 1.1357574397570716e+02 9.6053996876108938e-01 -3.6361153283082759e-02 -6.3196031928555612e+01 9.6574163361908161e-02 -1.9584891164960503e+00 6.3649042018985513e-01 -2.4583035766301293e+00 -6.3975504390297289e-01 1.0187996811650919e+01 -7.4034251007162041e+01 2.3726262424824673e-01 -3.0790579784928696e+00 2.9894322771543660e+00 1.0294325708957217e+00 7.0909116501159602e+01 -6.4995432873041068e+00 4.4866798318213114e+02 3.6983043485501694e+00 -6.7821586669960254e-01 1.1128204965271834e+01 -1.4509231116577368e+00 -1.4632402305788084e+00 3.2449027329130864e-01 -7.5478378567731852e+00 -2.6189701193464998e+00 1.0098519866058072e+02 3.8392345834462105e+01 7.2623700828326954e-01 -3.8200722994410157e+00 -9.8727023494011377e+00 1.8826976947001948e+00 -6.2109486839597139e-01 -1.0600806232877194e+02 -9.4188623349829868e+01 -9.1629373425485721e+00 1.5845936426267060e-01 -6.9687041958923089e+01 -5.6839266387887533e-01 1.5158795070623281e+00 -5.0294940367042784e-01 2.5063839080603202e+01 1.4418449549309432e+01 -7.2539960618385010e+01 -3.6655224654893357e+02 7.6473708869369994e-01 -1.8911480300782202e+00 1.6394480178081148e+00 -5.0965966227752624e-01 1.0512069722421973e+02 3.3241111812317016e+01 3.3400523176096613e+00 5.0445585543866978e+00 -6.0369927026673098e-02 2.3962996372285701e+01 -2.4456600027854236e-01 -3.2845656952183266e-01 -2.0150034088771474e-02 1.0003665469655306e+01 -3.5794589099821934e+00 3.5155669839121401e+01 2.4239902873624033e+01 4.0237849746524545e-01 -2.1415683517525119e+00 1.9866538509327094e+00 1.2728062369781119e+00 -6.8383898788027778e+01 1.8428699874007657e+02 3.4490571200768727e+00 3.5940533164765780e+00 2.8148613873724457e-02 2.5441211162880018e+02 9.4335321169580766e-01 9.0909828530276160e-01 5.5746318437247711e-01 4.5497723859935697e+01 -2.0520342982256334e+00 -3.1906174099099724e+02 9.4955880280574434e+01 -5.0439309837715229e-01 4.5422887473601428e+00 1.1534160603717517e-01 1.3290208758821267e+00 -5.2505272977956416e+01 4.7439535065731866e+02 3.9435755478257011e+02 -5.6274244511610139e+00 -1.9195869360363629e-01 3.9082177728470776e+02 7.1595072778789320e-02 -2.9516319364397248e-02 -1.9612842630188995e-01 1.0006574353322556e+02 -1.6514742301547711e+00 1.0101485528888023e+03 1.5739057311873361e+02 -4.5432113328821827e-02 -1.3995329792950528e-01 2.3114117815257305e+02 
      </Row>
      <Row Index="3">
        4.7047216777184531e-01 4.1443903418236359e-02 -1.4808713171560960e+01 3.1791935082649188e+03 1.5432793102636933e+03 -1.5356248710975371e+00 3.0872652727399952e-01 -2.5522493742289953e+01 1.2975680404918353e+00 6.5327570386603870e+00 3.7167104689155073e-02 -4.6011461752576110e+00 7.0349572067822557e+00 -4.5906990331701223e+01 1.0031875920951094e+02 -5.3515230678620473e-01 1.3237657342970561e+01 -8.1777516763491214e+00 -7.1598477924594892e+00 -1.0454131551478216e+02 -3.9671804561436625e+02 -2.1892300589440138e+03 -1.1419633753848668e-01 6.5081852255184591e-02 -7.5996406061115749e+01 -1.2078937318047425e+00 4.8331987320814367e+00 1.6620625257226126e-01 2.7726436120459084e+01 -6.5224133030153624e+00 4.1449501003590790e+01 1.2941620146028686e+02 3.8529051463930113e+00 -2.8084308014153549e+01 -9.6644291610199740e-01 3.3844954184976128e+00 9.0660386085254615e+01 2.7232288558843065e+03 1.4651560263691528e+02 7.2441786099511551e-01 1.3021317094397278e-01 -4.9317495072489305e+02 -6.1181458069451544e-01 -2.2246007837752879e+00 6.1930113911413454e-02 -2.2767394542446695e+00 2.1497192787680746e+00 1.5504854640020480e+02 7.0473925899650078e+02 -4.0674300805555150e+00 -3.5076212192804192e+01 4.0596134773246364e+00 -6.9270599082845834e+00 -3.4625181134965985e+01 -1.9352957591706065e+03 1.3872183166143034e+02 2.0260372109002278e-01 -1.0516068894056321e+00 4.0659785121752429e+02 -1.4799054056414960e+00 1.6101947988003971e+01 1.1088206651045416e+00 -3.6943387953419368e+01 -3.4028804315271373e+00 1.1794152714413343e+02 1.9880535759446440e+02 -4.0840492689324276e-01 -6.4864327878549233e+01 -5.2265428419499926e-01 7.6958992662623515e-03 2.8257066342829617e+01 -9.2370053398288235e+02 3.0267644031220289e+02 5.7562988029297002e-01 5.3560426574582332e-01 5.5822230775096739e+02 1.1753661960784090e+00 1.3621363085999718e+00 -4.1433472327172893e-01 -2.5696931635471543e+01 -4.3016513207601035e+00 2.7524770880217901e+01 5.3097932817926889e+01 4.0043139503078651e-01 1.4232658265052610e+01 1.6710703638317899e+00 -3.6465055928678822e+00 -5.2064205773510068e+01 -1.9516783108681675e+03 -6.4395829597298075e+02 -1.8516245556616351e-02 4.8809419712866120e-02 6.1202006172243443e+01 3.6632177508013175e-02 3.5420356762983687e+00 1.7069238365883317e+00 -8.0632577379771959e+00 -4.7432203444192060e+00 -3.0867830780008308e+02 1.1301811728849505e+02 5.8619169443534300e+00 4.8428716959745458e+01 -2.2089867218574533e+00 3.6515097133126453e+00 -3.7500170213095018e+01 2.3682731509528744e+03 -1.1841624258566117e+02 1.7446030765154994e+00 1.2264181746639931e+00 8.0184408597438005e+02 2.0011314412010082e+00 1.8807352542168474e+01 -1.5546487594806591e-01 7.2418704168956225e+00 7.9113504034730084e+00 6.0877088061031236e+02 -5.5253560348254655e+02 2.8713181123698508e+00 -3.0001682639957053e+01 8.9445490320803760e+00 -1.2897850174096060e+01 -1.9146150005620143e+01 2.1091667595805765e+02 -7.7732007460453315e+02 -8.4267965690271396e-01 -4.9839960134186578e-01 3.7456793556146340e+02 -6.6959953274473816e-01 -4.5191808502675030e+00 5.8988917632349325e-01 1.9984768550702796e+01 -1.1247010794686688e+01 7.0569640445654699e+01 -2.3420449422393727e+02 -3.0001382725475356e-01 -1.0941463451513519e+02 -7.3319848092916793e+00 2.4902363383584323e+00 4.3839180662957588e+01 3.0418991681100342e+03 5.6251268406311647e+02 3.2352684958229805e-01 6.5062765637092612e-01 -9.4696304111106713e+02 4.5750843138215358e-01 8.3474836276742366e+00 2.7561054799762424e-02 -2.6995485735591842e+00 7.5237166187253592e+00 1.1363975384055257e+02 3.1684765225629633e+01 5.2978016691641283e-01 -2.7543142648485670e+01 -4.1777367328720914e+00 2.0436129169165568e+01 5.2764140671740080e+01 1.3219100608408996e+03 9.5613062626606279e+01 6.8669749720097073e-01 -1.3745559674603669e-02 4.8125558589204411e+02 -1.5238915971787925e-01 9.3810465753159278e+00 -1.5999063029191163e-01 8.8699814230944412e+01 2.4503618966309773e+01 -3.7813982961090616e+01 -7.5679604769273510e+02 3.0143949507044212e+00 1.1468139575366550e+02 -1.1328748445350175e+01 1.1650617776456116e+01 3.0271780967743757e+02 4.2380212465495097e+03 -2.8713108168462350e+02 -8.3723795535560086e-01 -4.0719985559493033e-01 -2.2489424312727942e+02 -4.2597088248974502e-01 -5.6659468398626771e+00 -2.2220250406525963e+00 -1.9379034263694160e+02 -2.9355981022902800e-01 -1.2785290645431186e+02 -3.9531286637445425e+02 4.1038061903856011e+00 3.7436903033098403e+01 -5.6223160949987800e+00 -1.0035010001633298e+00 -2.3525946265421467e+01 -3.4095566457357791e+02 -7.1293126193561329e+02 -1.5351586696096982e+00 3.7572300268932046e-02 1.7901284455955428e+02 -1.0250972840337749e+00 -8.0216596262006465e+00 -2.3643332075587165e-01 -3.8285905949621799e+01 -5.4992719643279475e+00 -1.4576618923898786e+02 1.7449743852055519e+02 -1.4761822249630778e+00 1.2376784625415640e+01 6.0262313136308014e+00 -1.3702560016494491e+01 -4.1966136020495247e+02 -5.0296740953720655e+03 -5.1085777450215392e+02 -8.6445159788712811e-02 8.2862507230334048e-01 -8.0808946340798650e+02 8.4977609165977697e-01 2.8681377864306111e+01 3.5320569121786729e+00 8.6814566079184601e+02 -6.7398742629478647e-01 1.5504661311838208e+03 9.0777649376378531e+02 4.3407226564205228e+00 -6.0433368570436926e+01 4.9216192796044284e-01 9.5564015439373122e+00 9.6158822964089357e+00 -9.7581292892609927e+03 5.0598391013636965e+03 5.7435768921106245e-02 -1.3511903395592492e-01 -2.3065219138823759e+03 2.9983109565676636e-01 -8.1199728804040916e-02 -3.8332264878509559e-01 1.2600772905780200e+03 4.3303791210044551e+00 -3.6531607186123738e+03 -7.3866259496914768e+02 -1.6150791352848595e+00 4.8816038420026260e+00 -1.7741423890516314e+03 
      </Row>
      <Row Index="4">
        -1.0224298489752531e+01 -1.2334969315237055e+02 3.8032150772025489e+01 1.5432788181034321e+03 4.5665171934347786e+05 -3.5597634747183854e+01 7.4883457542064527e+00 -6.7924908349667676e+03 1.9230864928743792e+01 -9.8477998744310113e+01 -4.0819885776832159e+00 -9.1271192675933526e+02 -1.3349469058669627e+01 1.6922608596558237e+02 -1.1163078845901050e+03 1.1023663857077032e+01 1.7387831764185833e+01 6.4121894288033758e+01 -3.9463152674196351e+01 -5.9678766597520189e+02 -1.6061851666227071e+03 3.9372398226739373e+04 1.1220075629945882e+01 5.3371906546597740e+00 -1.3884208066959468e+03 -9.7843468630709385e+00 3.9613855602115372e+01 1.9314269986267085e+00 6.7996711050478871e+03 -8.4923200617643161e+01 6.6179072221663398e+02 1.2582739583139542e+01 -1.2349142076031416e+00 5.9136488911903342e+00 5.9388381376863158e+01 1.5760431801256988e+02 4.5447848802789929e+02 1.8095407417795716e+03 9.6204883056221646e+04 3.2668456235211130e+00 6.4823790758260138e+00 -5.8133059746708914e+03 -1.2079716282564759e+01 4.6573771588178815e+01 -1.6055863531990533e+00 2.3004269626408795e+03 1.1573421986469782e+01 3.2329102066271577e+02 -3.6375358224967208e+03 2.1863415133942937e+01 1.8215823868034045e+02 6.1566245127027130e+00 -3.1111430188544364e+02 2.7965518426951451e+02 -3.9594085327466018e+02 4.6730985917299593e+04 1.4974021617843224e+01 -3.2026811810197753e+00 3.8278508838638072e+02 -6.9218373906550763e+00 -1.2430052170019849e+01 -2.1501711489208404e+00 -9.1250241275787698e+02 7.8312054064769882e+01 -1.1350024446159557e+02 1.4519034884021994e+03 1.1355672396238301e+00 4.1084664629954943e+01 -9.9436473893458821e-01 -7.2318830338124371e+01 -3.9597959320297889e+01 -2.8479403695895382e+02 4.0410114395427780e+04 1.7330345991615204e+01 4.3889545747963954e+00 -2.0805686124185831e+02 3.2575073727886616e+00 7.9767588907705289e+01 4.0666640279418864e+00 5.2285339289967283e+02 8.1863328572332250e+00 2.1430134475421482e+02 -1.2864347537997226e+03 -5.9533273700828837e-01 -7.4291121753702285e+00 1.8524155122018779e+01 8.6307643855861471e+00 6.1793651891107470e+02 -4.3629644490735745e+02 9.2097055099247882e+04 -2.3764005394814344e+01 6.5430990849063120e-01 -2.7203179197055179e+03 1.0809424483530812e+00 -9.6803799763529412e+01 2.1474802683114484e+00 -1.5284522597614246e+03 -2.6292026982413461e+01 -3.8483792305812329e+02 2.9987511372428230e+02 -2.1438114348889989e+01 -8.5149614338841673e+01 -6.9958360647143110e+00 3.1957742353678077e+02 5.8751220151488349e+02 5.4106155152682195e+03 4.4666644500550814e+04 -5.8949695056576914e+01 1.4910431594223233e+01 -4.4423592546306381e+03 6.5075024476277656e+00 -1.7904070762230722e+02 -5.0416932345317989e-01 -4.9306742621755202e+03 -4.2447072439181090e+02 1.2976008940403140e+03 -7.2507887858293161e+03 -1.7871093123976252e+00 -1.5114313326927697e+02 -4.1059306360463765e+01 -2.1756799710365792e+02 -4.8019225393417862e+01 -4.3228894215335504e+02 -1.0981105283799334e+05 1.1632624193021577e+01 1.0829308094145457e+01 1.3563186784620393e+03 3.8014844650397013e+00 8.2675046140766227e+01 -2.0742677687371316e+00 4.4852139372906104e+03 1.2008486253050903e+02 2.4505646450617888e+02 -1.3961750780980806e+03 -9.3641472626849476e-01 -1.2044239145462306e+01 2.2385696604271345e+01 -1.5978015792270662e+02 -4.9937164010704902e+02 1.2278038148440537e+03 -5.7621873777030967e+04 3.1466501011354449e+01 -1.8043494315490165e+01 -2.7554151646071241e+03 -6.3079437677541215e+00 1.7671246066064748e+02 1.2152772450159871e+01 5.0925854428632647e+03 1.5889112603236791e+02 -2.6896238966891428e+02 2.4847419410087805e+03 8.6731390914420494e+00 3.2950532729905092e+01 5.9733566271371217e+00 2.2326842857970092e+02 6.5627342934110879e+02 3.5889231635904052e+03 -2.2193470353101962e+04 -9.9961464817544741e+00 -1.6819414644224228e+01 -5.3667143232245617e+03 -2.9043775169348518e+01 5.0566727310776173e+01 -1.9202382193106340e+00 -5.2332400038400901e+03 -1.8528775017926648e+01 -4.1252037264553201e+02 1.9817118159491947e+03 -2.3328203795819313e+01 -3.1811983163334318e+01 -3.7351035908276373e+01 4.2344765717088399e+02 -6.3987380437718684e+02 -2.6475941011133636e+02 -3.3943786577061139e+04 -1.2445638755478974e+01 -3.2043622482981448e+01 -2.4263848603719889e+03 6.0273666535622084e+01 3.7756424841968055e+01 8.0603715623487915e-01 5.2993942623248095e+03 5.9940905724346351e+02 -6.9455414592134503e+02 -5.7449388981674701e+03 -1.5571784130207536e+01 3.9940166762872639e+02 5.8627072423662057e+00 5.4994845485958756e+01 -9.7725636651030072e+01 6.7412133026158358e+02 2.2710466198248498e+04 2.2839836007447367e-01 -5.5475392291917647e-01 3.1232033408017951e+03 -1.7604634556089067e+00 6.6583732665835214e+01 1.3316511050717175e+00 1.0929730526652565e+03 -7.2368019633410839e+01 1.2195013138838112e+02 -2.1122843892509809e+03 2.9031653714683872e+00 2.8745993641107077e+01 7.2207866079808554e+01 -3.7855159365368343e+02 1.3964591714880676e+03 5.2605622841262721e+03 -3.7452087556822895e+04 -6.9440190740225347e+01 4.7231054352607025e+01 -1.0842586815462264e+03 -3.6380332575951499e+01 -4.1215351614514924e+02 -5.0400536101791999e+00 -7.0853727834714955e+03 -5.3726966711405146e+02 2.0266923723400919e+03 -2.6729450329111423e+03 5.6758155313224279e-01 -4.5932711571695882e+02 -8.2277371161178303e-01 -4.5482159745920626e+01 -2.9654258854214071e+01 3.2976287594177106e+03 -2.1975096454908769e+04 -2.9729155754061019e+00 -5.9593940797572698e+00 -9.2385277466678290e+03 2.0616672753320793e+00 -1.1495120632275757e-02 -3.8243851308865151e-01 1.0464882642436834e+04 -6.5199622024616110e+02 -2.0022333485203330e+03 -1.1811237988748553e+02 5.2199342616929298e+00 -1.6808526100847132e-01 -2.3234757124383650e+03 
      </Row>
      <Row Index="5">
        8.3180675313681340e-02 -7.7478166204957025e-02 -1.6005073931610589e+00 -1.5356233828520418e+00 -3.5597636243808665e+01 4.1439357786194869e-01 9.8622670957600710e-03 -2.2042979795305655e+00 2.5339130572507369e-02 -1.7347976410930910e-01 1.8441815367104538e-02 3.1689569121123373e-01 -1.5004773843987396e-01 4.0748248469906923e-01 1.0151410291805449e+01 -9.0134705870423340e-03 1.0192077913937614e-01 1.1834809546038956e-01 -1.5658413393550930e-01 -4.9584319492736739e-01 -7.1331435633984719e-01 -1.0220699717501645e+01 -2.0338694557060921e-01 1.6696765149886925e-03 2.1730830793686486e+00 3.2042568908611679e-02 2.1599368454888451e-01 -1.4832176834784071e-02 -1.9071942696644082e+00 3.6661819114894656e-01 -3.9266631138478116e+00 -2.3833405241562167e+00 -5.9593699502424879e-04 -4.3645156062020796e-02 -9.1459661798297620e-02 -1.6028760334980685e-03 8.2595803184859240e-01 -7.7161348116588613e-01 1.3977178402432514e+01 -2.8073209713946173e-01 -1.9837281910172769e-02 1.7759172403042811e+00 5.5421889195270413e-03 2.3297387857657381e-01 -1.7151112032018183e-04 -5.2392626303938705e-01 8.4380523728765255e-02 -7.9704409074535087e-01 4.7343487724102857e+00 -5.4802059286171581e-03 3.1136493435128243e-01 3.1569087567833354e-01 5.8455551589489407e-01 1.6128768071709976e-01 3.4628213699829757e-01 -4.4179229275457033e+00 3.4361533904266051e-01 2.4024048017400493e-02 -2.6914845897632400e+00 -8.3594552760904717e-03 -4.3166335356712060e-01 -1.3069128213696780e-02 1.6653977630067374e-02 -4.5035904891799050e-01 -2.0581710590140299e+00 -1.0374937624781769e+01 2.0220333016756770e-02 1.3725576884710378e-02 -5.3799817242413062e-02 8.5542555177186175e-02 9.6329084470384796e-02 4.4096001758587633e-01 -2.2655009513013056e+00 -8.1481717951292526e-02 6.5746740483262761e-04 4.5153154641361670e-01 2.3835839333286826e-02 -1.0809893153203420e-01 5.1464535626856121e-03 2.0111624903813796e-02 1.4666132284077094e-02 -2.2324702483574348e+00 -1.1160885171930479e+01 1.5772400258220118e-03 -8.0749121022788750e-02 -3.9598911835913714e-02 -8.7627192913181898e-02 3.7007071707633454e-01 1.4192178629386660e+00 -4.1382201088708825e-02 6.4243001327017706e-03 -2.2753563538471687e-03 -3.4303578579527283e-01 -7.1940386758665986e-03 -7.3939995790136076e-02 -7.3534840737704138e-03 2.3973469852038853e-01 -7.0353638776234906e-02 2.7951489301860200e+00 1.0346295969048846e+01 -4.5444334240767881e-03 -1.4834393182400457e-01 1.7102571551665108e-01 -2.4640526509235539e-01 3.5354828712653301e+00 -4.2794743497732846e-01 4.6391599132027750e-01 2.8774924493897391e-01 2.4251864612088100e-02 -7.1760315054669803e+00 4.7246910469206836e-02 -1.6920214509243414e-01 -2.2222174384091697e-02 3.3943049070519704e-02 2.4183431682077516e-01 -8.8630179655904051e+00 2.3933276523985287e+00 2.1941428884579950e-02 -2.5037061960195695e-01 -1.7953001319969378e-01 2.1062153072683616e-02 -2.5034066101009023e-01 -7.9972047970548532e-01 -6.7582018196733316e+00 -2.5256884505406380e-01 8.1230114575069692e-03 -5.0971801960771757e-01 9.7288419263217574e-03 -5.6256993394410815e-02 1.3235423561059056e-03 -1.0507490166593816e+00 8.5942086257540073e-02 -8.8526013781938162e-01 1.6370725853735728e+01 2.2034335944438967e-02 2.0279155534047133e-01 1.0160931917989234e-01 4.4462481955070898e-01 -4.3476175395600447e-01 -4.5621628150574978e-01 1.8626325215416273e-01 -1.0018630914812190e-01 -2.2194386362491533e-02 3.2581018233514669e-02 8.9720164896250829e-03 1.7072385790667033e-01 1.7505517624972124e-03 -4.7994757533508148e-01 -2.6898292868177087e-01 -4.6980887924321468e-01 4.5955073288591493e+00 5.8944467114897814e-04 -2.5753836002552766e-03 -2.1684263256394970e-01 1.2234345989792161e-01 -9.6135650585289967e-01 2.2756781319935633e+00 2.7038175838979441e+00 -8.6073500063596209e-02 -6.1443470282349200e-02 2.9381306581016773e+00 -3.7454195615129526e-02 3.1699695853249682e-01 1.1599183315986902e-02 1.9819411659266617e+00 4.8969506975260724e-01 -1.2810292676409878e+00 6.9587250014681521e+00 -5.2513640840220539e-02 4.1358855015167978e-02 4.4386247765840531e-01 5.1096972145307740e-01 -4.6603701847215895e-01 -3.3464558331752645e+00 -5.1311560184225868e+00 9.1068669322307583e-01 6.5971637411591649e-02 -3.7408354034354829e+00 -1.2129483307568902e-01 -3.0889528690365275e-01 4.2858091793142261e-02 1.4304232264912748e+00 1.1546141528917431e-01 5.1437871195436564e+00 -1.0874890312194623e+01 -1.9111542538840613e-02 -8.6205194725016199e-02 -1.7317045818510207e-02 -1.3927215372699875e-01 -2.1164926093231085e-01 -1.2474160003843231e+00 -3.3712544649727079e+00 -4.3597767185598202e-01 -1.1211288497305653e-02 1.0135058810442445e+00 3.9998016207664633e-03 5.3917430400085821e-02 2.7830082903773715e-03 1.9831903198341827e-02 2.9391291087883964e-02 -5.9279924892143754e-01 1.6614104706795704e+01 -2.0791049212292932e-02 -1.7019556694775395e-02 1.5022332287724871e-01 -5.8340409422495587e-01 2.4394088323692893e+00 4.8271946386102060e-01 -6.3608696105184777e+00 -1.5024418464345835e-01 2.8760347312025460e-03 -9.3593920261884502e+00 1.6319732204768644e-01 -4.2683027205172597e-01 -7.2011132945895784e-02 1.0797310299763883e+00 -7.6743301267677855e-01 -1.3304994873913309e+01 3.5768673303322069e+00 4.4521798207415822e-02 -1.3591920722204542e-01 -1.0287437820509688e-02 -4.2260671098519120e-01 2.9554744511513359e-01 -1.9906725269049754e+00 2.0090748498976957e+01 6.1566736837276337e-01 -1.2840564653121046e-02 -1.5386787435593844e+01 4.2432775503463797e-03 7.1061983378249080e-03 2.9459262835434871e-03 3.4048701890886512e+00 6.2346350655813065e-01 2.0269366641316751e+01 -1.5383982630177847e+01 3.7732963117559706e-04 -1.3492266854352730e-03 -2.5815875605110459e+00 
      </Row>
      <Row Index="6">
        -1.2247118336961968e-01 -2.6988899061197336e-02 6.1234149399502846e-01 3.0872665993508475e-01 7.4883455203125777e+00 9.8622677254893154e-03 2.5536939990989582e-01 1.4073123643947838e+00 9.4407680962116047e-02 1.7504463978287921e-01 -4.0052585040447966e-02 -3.6477139840124817e-01 -2.0022744440724516e-01 -8.0230229262043196e-01 -4.4667103865790914e-01 -3.6421895772842300e-02 -3.6341199106001942e-01 -4.5290496324711133e-02 -1.2161308336670307e-01 6.4420712163604854e-01 4.6090675453877239e-01 1.9122477831815559e+00 1.0137034496137065e-02 2.0361511501729636e-02 -1.4633076614893170e-01 7.9167777343212786e-02 3.9203956579629301e-02 9.3436252667975957e-03 1.2314371042800047e+00 3.6197859712978175e-02 -5.8176083472181472e-01 2.7609535885796426e+00 -3.7096990134850183e-02 2.1249473006835007e-01 2.2089339764916976e-02 -1.3239832439265042e-01 -3.3398997720427182e-01 -9.6813857691301308e-01 2.5301673891962082e+00 -2.0113696495497518e-02 5.0333316760672708e-02 1.7089938531287387e+00 -1.3837262502962977e-01 -1.6250642817992489e-02 9.6067708119595592e-03 5.3205731748624263e-01 1.3706716755992687e-01 2.4693304359564250e-01 4.7345047237685023e+00 -2.7567322604163213e-03 -1.0607658182728752e-01 -6.0112666452638464e-02 4.0812868910974354e-02 2.2100878684678626e-01 4.2370631917265200e-01 -3.9543652962603062e+00 2.7739471644350550e-02 -5.4278845338062084e-02 1.1229013685795124e+00 -1.9089011182359034e-01 -1.7103488496286157e-01 1.0560284429838376e-03 -2.3527061512158509e-01 4.5392373191721180e-02 1.1381011289952436e-01 -1.2206164119543743e+00 3.4661534422366941e-02 -1.6230701012136528e-02 3.1949328652262632e-02 -1.1890050304801225e-02 -1.9360893823728897e-01 2.8751874063374594e-01 1.5818099354118999e+01 6.8014438740160166e-03 8.5341183418380956e-02 7.3573753462204738e-02 3.0680852109640278e-01 -1.3475771227715350e-01 4.5804869223177169e-03 -6.9498908606149268e-02 3.1835107785336358e-01 -6.6362320488409965e-01 2.9149392063964168e+00 -2.9652280873391751e-02 2.0473679537530143e-01 -8.7615131331086893e-03 7.1069123084482766e-02 5.0460506873435396e-02 2.4628929655959197e-01 -3.0607902522169752e+00 8.8804272255361277e-04 -6.8675466011861197e-02 3.7594180226107632e-01 1.0899947963086150e-01 7.1966031021395427e-03 -1.2004601109242952e-02 1.0382577638095647e-01 -2.2562009226507559e-01 -2.4653082037726842e-02 -1.6033003790266527e+00 -6.2783437863499977e-02 1.3631744193990969e-01 -9.0653765852774543e-02 1.7247320222033125e-02 -1.1951007112902241e+00 -1.1938451593691362e+00 4.5031633030964713e-01 -1.0018091474316759e-02 1.7802942664447576e-02 2.7417613932491491e-01 2.2014166616670020e-01 1.7363845303083214e-01 -2.3079913562601976e-02 -1.6412621645499401e+00 -4.3395373943216686e-02 2.7082796729887804e-01 -4.0375003695283507e+00 2.5318205101830069e-02 -7.4287917795720748e-02 1.6205936387024744e-01 -1.4937919197896665e-01 5.6979263566791083e-01 -8.3532814948252820e-02 4.7218634871146605e+00 2.5960994916475071e-02 8.0362395928131630e-02 -6.7036437525875670e-01 1.2884943821699543e-01 -2.3691528658106220e-01 2.7790287551672163e-02 1.7864389009449260e+00 -3.1407805305934833e-01 -7.2349330558865788e-01 7.7679708179857698e-02 -8.0477764966599641e-02 3.2402513819048906e-01 -1.6610550075367156e-01 6.3382451119691319e-02 -3.2626476952530048e-01 2.7204292073918523e-01 -4.1201013503728063e+00 -9.3417488527108294e-03 -8.3505087880377790e-02 -5.2445291471246946e-01 1.6936503999693264e-03 1.4279518543024361e-01 -2.2453188737819815e-02 -2.8302877790998693e-01 5.3519410665430645e-02 3.1001669678357757e-01 -6.0192031929340573e-01 3.8051011537978519e-02 -4.9677889027891614e-01 -2.0641061581913314e-01 1.7500906529678950e-01 -1.1373955946361942e+00 -9.6150785800519145e-01 -7.5060002590470276e+00 -7.5305824585093731e-02 -2.5754566455350736e-01 -6.9800363686340461e-02 -4.1169953047663688e-01 4.3661220846236182e-01 1.2450215873930498e-02 -1.2288547733747208e+00 -5.4397677636338848e-02 1.7109885454385818e+00 1.8355984582535392e+00 1.4740705479581134e-01 -4.9072962865787617e-01 -5.0910328462539206e-02 6.5013966181128868e-03 -1.7692167524639344e+00 -9.7155735939056243e-01 -2.7772510760269142e-01 -1.5417133268447528e-02 -1.1623909745014635e-02 -3.1647155725268021e+00 -1.6309061616712020e-01 -2.0999310952146100e-01 2.8829435563815231e-04 -1.5883780757093013e-01 1.6985466359189469e-01 2.4367126425993746e-01 -3.9572712644981030e+00 1.1674728058143624e-02 -4.0242357430368170e-01 -4.5990643830202085e-02 2.3078096156685657e-03 -1.1630444642998405e-01 4.0055653204399277e-01 -2.7323075044061085e+00 -2.6884684396181829e-02 9.7328468546100666e-03 5.9081367096869819e-01 2.9029774672437864e-02 -4.9847485625531526e-02 2.2496629810803415e-03 -1.4598859337591286e-01 -1.2833039354496278e-01 2.0838154577904788e-01 3.0317143930141022e-01 1.6115992010730044e-02 6.7332906288050776e-02 -1.3781277830897357e-01 -1.2150247154298961e-01 1.4113366727483001e+00 1.3249892035417297e+00 -1.2592966230740501e+00 3.6406041267574830e-02 1.6866015380826010e-01 1.0440347717401499e-01 3.1021520180538242e-01 2.1364858472642409e-01 -6.7170753175663164e-02 -2.3676581848276066e+00 -5.0784601289112186e-01 -3.3710586491759269e+00 1.7406624715470222e+00 -6.3750425964657687e-02 3.1948656900860195e-01 4.7988552250755705e-03 -2.9833701069342333e-01 -6.8944138915680617e-02 2.5745601226954236e+00 2.1367551378743457e+00 2.4445906413654100e-02 -7.8959983397006397e-02 -3.2491372508011835e+00 4.6471564394845795e-02 5.2422830884127358e-03 2.8032474541915932e-04 -5.9767986902312309e-01 1.1993487912534291e+00 7.0075197341514519e+00 2.0012918933908308e+00 1.1618592479460853e-02 7.9552079131737855e-03 -3.9341176928966046e+00 
      </Row>
      <Row Index="7">
        -1.9307711687360127e+00 -6.6006515141355493e-01 1.3677702567131126e+02 -2.5522685363025658e+01 -6.7924894688501954e+03 -2.2042974198812253e+00 1.4073125610457897e+00 4.0709560104850680e+03 -3.2710608483864290e-01 -6.7688230360212840e+00 -5.1443106322016785e-01 -6.4873154437717204e+01 1.6380159602526341e+01 1.3969540015983682e+02 9.7110596112895223e+02 -3.1105101489339670e-01 -5.1679465262783829e+01 3.0261950177418351e+00 -5.7589506089070515e+00 2.0448618964586203e+02 -1.1064996782125071e+01 -4.5793320122963223e+01 1.2195807434862811e+00 -3.8972160455064420e-01 -1.1185417718038580e+03 -2.7583647861519883e-01 -2.1977226114603496e+00 2.0067566392305919e-01 3.2141785020318002e+02 -1.4475070331067462e+01 -9.8076395224712996e+01 4.7037357709076480e+02 7.0507074269304471e-01 1.6436843008421505e+01 -4.7402199587577947e+00 1.0461349806818019e+00 -2.3984621905404356e+02 2.8865878393037679e+02 -3.6635683148603493e+03 -7.1161934781139822e+00 8.5226176771514828e-01 3.6147795160922742e+03 5.2306778267799681e-01 -2.2845016979406044e+01 1.4440372568393661e-01 -3.6897891287502375e+01 2.7461484498116693e+01 1.9304419880409601e+01 3.0060079410943044e+03 -2.5776234582502520e+00 -7.0917483697878424e+01 -2.8324029024990294e+00 2.5878515428346731e+01 -5.2262741988760801e+00 -1.3527840795367956e+02 -3.1091707711330105e+03 -1.1125836315196480e-01 4.7750945741562904e-02 3.0176734248867069e+03 1.3532846343189806e+00 9.8654317021265836e-01 3.5383058672698064e-01 -4.9811965848196621e+01 8.6840993549251422e+01 -3.8613594983521800e+01 4.7448289487148134e+02 3.8942665543172250e-01 -5.5743763820338060e+01 -5.2511282022337102e+00 4.9768586949113001e+00 -8.8925858135812661e+01 -1.0046745030030917e+02 -1.6851257714260555e+02 -2.1048254298076516e+00 -5.9588896697980842e-01 6.2247302294563349e+02 2.0236005218406832e+00 6.7490494775973464e-02 -8.7385553813677852e-02 -7.4300416154029591e+01 4.2898695203397423e+01 -1.1412543992462912e+02 1.2104005115825155e+03 8.7468587586812474e-01 2.6978780268675244e+01 -1.3204290391835007e+00 2.2425419084553719e+00 -7.1713800730349419e+01 -3.0085669510133459e+02 -3.2661673698425293e+03 -1.3454273639330410e+00 1.5326958375119260e-01 1.6742982602721552e+03 -1.7657067836433604e-01 2.9910452265288567e-01 2.7101356064660731e-01 3.1602680744670682e+01 -1.7383285494226271e+01 5.8665478063158616e+01 1.6228583659980490e+02 6.7596822833827606e+00 1.8701779456443791e+01 -2.7319605797182813e+00 -2.1822809665815868e+01 -1.6283867411365600e+02 -6.3803316563337091e+02 -3.5469400925771924e+02 -4.5048705399335205e+00 -1.1103348212096966e+00 2.2171010620941292e+03 4.1134950429663641e+00 9.2393805530081607e-01 -8.5184553248596662e-01 -3.0678151670614369e+01 1.2008737500964141e+02 -3.2312467357727309e+02 3.6809015854148015e+02 2.7508937544675147e+00 -2.2065940246070717e+01 2.6037622832826184e+00 5.4169030419603672e+00 -8.8878963724710715e+01 4.6437079611732315e+01 8.6673327592679198e+02 -2.1292231588513300e-01 -5.7239478766695007e-01 -4.9199533310814231e+03 2.2342614867882521e-01 8.9460135636570115e+00 -2.2385628225274345e-01 1.5870171109167387e+02 -6.9771413699518618e+01 -3.3247741636911996e+01 -2.9615999355503595e+03 -1.2859012031867376e+00 -1.4524841955350681e+01 5.3667864031740997e-01 6.2442309835345498e+00 7.1801926317293294e+01 5.1819066882252309e+02 7.1346227932835973e+02 3.0166437584982475e-01 5.7443896040702702e-01 -1.8539473734641456e+03 -7.1310966961222455e-01 -3.2563166142192621e+00 6.7032433008237657e-01 -3.3325496367526597e+01 -2.1266329492933089e+01 -1.4507860807896861e+01 -1.5161911846646910e+03 -4.2121119046484007e-01 -1.8414732969658627e+00 -3.2674185758961993e+00 4.9586853686048862e+00 -1.3834682427226878e+02 5.6913899413695930e+00 -3.7372427241937512e+03 -5.9054793867047737e+00 -6.5760320810710482e-02 3.4831155570535416e+03 9.1303048745885462e-03 -3.7938844394346731e+01 1.4355725547765705e+00 -6.4143520660137926e+02 -4.4791230314388812e+00 3.4272189587372839e+02 3.0340025747977270e+03 5.6298058764024788e+00 -2.0190530438186158e+01 -8.7897415157309062e+00 -2.5352009546044528e+01 1.9934973738930330e+02 -2.0951080121216933e+02 6.7978773866113625e+02 4.0669410171952034e+00 -2.1231278233052446e+00 -2.1587695759944186e+03 4.0813073791314700e+00 -5.4013914986032319e+00 -2.3233686253495591e+00 -1.8120929646366403e+02 7.5104901688324333e+01 9.2177280849215592e+01 -1.7383646693029796e+03 -4.0485766559884979e+00 8.0816981329539928e+01 3.2130775184144165e+00 -8.4826826176757919e+00 6.4900193540020823e+01 -1.5321480602025986e+02 -1.6450999168197050e+03 -3.1542365652182958e+00 -1.6473772012266907e-01 7.3441811684851120e+02 -3.1359049974876374e-01 1.1481737500160641e+01 2.6153802074043464e-01 -2.6105734991319647e+01 -1.5093810771566046e+01 2.2308809787034988e+01 3.6346698485128582e+02 2.9077916197762577e-01 -6.2008628203614187e+00 6.8949515601342464e+00 9.6840147364031424e+00 -7.4806273751478500e+01 -7.1515688730359955e+02 1.1022573483917295e+03 -2.6365158209388788e+00 1.8839828898650401e+00 1.2475399002744160e+04 -9.7099811530389246e-01 2.6413313299638585e+01 1.1702062434298961e+00 1.8846616057837646e+03 9.0388263172778068e+01 -3.0217021275801596e+02 -1.2455513907184413e+03 1.0085885595512183e+01 -1.2439641827189300e+02 4.7457993414848645e-02 -1.8139888862298569e+01 -3.5921136437739555e+01 -9.2220685853194016e+02 4.7765646622763825e+01 4.4932557314349868e+00 -5.8346778328318492e-02 2.0872895405326897e+04 6.0421071427281280e-02 -5.1069089560911518e-01 -9.3857105893363671e-02 2.6733649283032246e+03 1.0601461774299145e+02 2.3760583616131902e+02 8.9097375519015732e+03 -1.3490315621300075e+00 1.5056381873751778e+00 1.0234252906802876e+04 
      </Row>
      <Row Index="8">
        -2.1822983835641852e-02 -1.3150558287777539e-01 -1.9153318449207291e-01 1.2975672079018290e+00 1.9230867495847633e+01 2.5339127586488208e-02 9.4407681066001475e-02 -3.2710630591009249e-01 1.5183039103331801e+00 -5.9834762380152906e-01 3.7497441795676961e-02 5.2762242800270753e-02 -3.9161619506348805e-01 9.5922384002125316e-01 -2.3429173117081641e+00 -4.7743833905918298e-02 6.0669475003220663e-01 -7.3797702270858800e-02 1.7696382252631759e-02 -9.0735048956143416e-01 -2.6315869636685729e-01 3.9825950668299583e+00 -1.4555175375449037e-02 8.5526140926356770e-02 -1.1416097566402854e+00 -2.2353743091340084e-03 -3.1950451535981084e-01 -6.1722443894323444e-03 1.8517043841633836e+00 2.6549684311031108e-02 1.3512796182721167e+00 -7.2174031094209568e-01 1.0991271279885281e-01 -1.3431671445966775e-01 -1.1950731749998483e-01 2.0159701572242184e-01 7.2806450420806490e-01 4.8649499167006951e+00 -5.9915710356590353e+00 -2.6895502432146404e-02 -8.3842564315685986e-02 -5.8386534060117867e-01 -9.1815375011705558e-01 -1.4022998931814490e-01 -2.6595303447462866e-02 1.3848610219412671e+00 8.2445918623474057e-02 -2.5424400565552130e-01 1.9575559385292784e+00 -1.2116873706301072e-01 4.3785960974031823e-01 -1.7104139695215770e-01 4.3072033269488053e-02 7.5202038524861825e-01 -2.9502289470842697e+00 2.8174227082943730e+00 7.3854720751532127e-02 -1.9514921582727399e-01 8.9989737665653990e-02 -6.6339145814936984e-01 3.8227286327215237e-01 1.2673370648319263e-02 5.2045010441788264e-01 2.2779388346897989e-01 1.8544299319897828e+00 2.5420445867540078e+00 -8.8988397621725501e-02 -9.4648764989477208e-01 1.4796892393722927e-01 -2.2228111739658363e-01 -1.4326664625569525e+00 -1.6838931671401829e+00 1.6981453377429148e+01 -4.2396458080882493e-03 2.6136173273337077e-01 1.4701063958283527e+00 1.1193735220425540e+00 1.4226370965920854e-01 4.1714248256239927e-02 -5.2452830598997391e-01 4.2799484663146414e-01 1.2658084019161935e+00 -4.4995238009511240e+00 1.0757676022055518e-01 2.5478213453015552e-01 3.7898600838126573e-02 -1.8058097010839003e-01 -3.7884630742230918e-01 -4.4619518473635793e+00 9.0380493294505868e+00 -3.3894085609355584e-03 2.3786538865268665e-02 -1.2702625162584447e-01 5.6293144222077118e-01 1.8489000386018495e-01 -2.7980378295257985e-02 8.7090042597933248e-01 -2.7490539605239261e-01 -2.0114477436344997e+00 -4.1290469241265271e-01 2.4627440823645047e-01 -4.3195644734405808e-01 1.9091097827438833e-01 7.5417949954796004e-02 -1.5004254207300001e+00 1.0124563732604717e+00 -2.6576265747151240e+00 6.6054979876156550e-02 1.7497665851216521e-01 1.1189907976306159e+00 1.2268172594837887e+00 -6.0164117829514518e-01 2.9691579369694895e-02 2.1339476954871497e+00 -4.6187324725514312e-01 3.4243583132319042e+00 -1.0881179827779377e+01 -2.9940577747248787e-02 7.5030108819661923e-01 7.6060500118219077e-03 4.2771643574610607e-03 -2.4872906208074852e-01 9.9760610265308891e-01 4.2844337480642025e+00 -2.5893998193715718e-02 1.3606649977399060e-01 3.2192958208726736e+00 -1.6043752626300983e-01 5.9849452064962438e-01 1.2319725957697508e-02 -3.0948105576026097e-01 -3.7429321647924674e-01 -1.4761677290528930e-01 -4.0732574228212286e+00 9.0016763292786295e-02 1.2174651310105618e+00 5.2805487671948925e-02 -1.4439228982903263e-01 -5.5265130791570849e-01 5.6401713237684348e+00 7.0079049843916437e+00 -2.3505339902786693e-02 1.9969448689586167e-02 -1.1704481755987217e+00 2.9240855805198612e-01 -1.1302480583742225e-01 -2.0822483996827748e-02 9.0089584571654058e-02 -2.0106200014432529e-01 8.4607024708491885e-01 1.3111522483615516e+00 -4.1647684783450378e-02 1.0320561312624412e+00 -1.4738564781558205e-01 4.7654740208589175e-03 4.6633433282418935e-01 -8.7817076997563959e-01 -5.9957276014965828e+00 -5.8531123766504226e-02 -4.4193591678189770e-01 -1.9500942676484101e+00 -7.7228656428039422e-01 6.0381805276217038e-01 -4.1618581635317786e-02 -1.3028527209857117e+00 1.4096656160646592e-01 1.0334767265991580e+00 1.2114036719990018e+01 -8.0273526370650661e-02 -4.8840508178156572e-01 -2.0113455430191840e-01 3.0186504996115970e-02 1.9991767126382614e+00 -3.0707574315046848e+00 5.1100517241120542e+00 5.5287340783028424e-02 -8.8877293046928221e-02 2.4319115001819505e+00 -2.4343567206431527e-01 5.3494414888846586e-01 -3.9564184122203527e-02 -7.0698417995225027e-01 9.8145861906755716e-01 -2.7487673959862065e+00 -6.8604935879248785e+00 3.9847363853236201e-02 -3.3081337043819659e-02 -5.9694790023221755e-02 -3.6827836139382342e-02 -6.2892704387941478e-01 -2.0734095511361375e+00 -4.6415436686002067e+00 -7.7886678780335464e-02 1.2783802093384256e-02 8.0246407845528855e-01 1.8469552669445710e-01 2.0242948742476519e-01 1.7922772938408771e-02 -7.5952803862589491e-01 -1.4101726213502500e-01 -1.0111703494112589e+00 -3.8398721866997221e-01 -3.9320959946205186e-02 -3.5893921515736693e-01 1.5168272341395084e-01 1.7384123805960727e-01 -2.9053272937806627e+00 -4.7155867612636237e+00 5.2831723834730724e+00 7.4139470371856905e-02 1.8844391690600898e-01 -2.0414405866616860e+00 1.7183734353694515e+00 -1.3714696330584308e+00 7.4769251939120429e-02 8.1825361546866411e+00 -2.2624316556358446e+00 1.1197659246158205e+01 -2.5328631835229078e+00 1.2378572530971685e-01 -3.9847037529396689e-01 4.6442721199927810e-03 2.4836079081507900e-01 -5.6592597547370838e-02 -2.1851682918043338e+01 -3.2455762420580179e+00 8.8252182893366934e-02 -1.2157740704324072e-01 2.7816733182289082e+00 1.8664022221322873e-01 -1.3627121251740038e-02 1.8941153020546695e-03 1.1101696527704330e+01 2.7042663368199298e+00 -2.3159549852833869e+01 -3.0851815344431994e+00 -5.0933380744053222e-02 -3.0421699435361438e-02 -5.9278108620547370e+00 
      </Row>
      <Row Index="9">
        -2.9832653203638881e-01 1.8451517301759464e+00 -9.1073072112612863e-01 6.5327565064321931e+00 -9.8478005493700039e+01 -1.7347977638492051e-01 1.7504463867781722e-01 -6.7688139636320557e+00 -5.9834762170766276e-01 2.9229055995514660e+01 6.5373105483048144e-02 6.9467747476984121e-01 -9.4126547055631171e-01 3.4709262541517356e+00 2.8109339621015144e+00 -1.1443704494003337e-02 -1.4128945020667638e-02 1.2249925391539636e+00 -1.1575194249747245e+00 2.4849453517839848e+00 6.1104638031739302e+00 2.0697798642900352e+01 3.1798586500608728e-01 -1.5637097300932482e-01 -2.2759074575952170e+00 1.6729216346844286e-01 -1.1030117480520701e+01 1.0326812312258676e-01 -2.0941760390745955e+01 1.2412288728038945e-01 -5.2208910730240969e+00 1.2580198659109854e+01 -1.9488362221739391e-01 -8.3956532091514280e-01 2.7380516937392985e-01 -1.2258115076181140e+00 -2.6866236565358275e+00 5.2094619904772657e+00 -2.3592063921873091e+01 4.5145721023509477e-01 6.5823087762591714e-02 2.0577329488697647e+01 -7.7627667962081981e-02 -8.9819145887548544e+00 8.3532483887756803e-02 -1.5240335311813244e+01 5.3159187683007048e-01 -4.0883828796338930e+00 -1.9369587232839720e+00 7.2718274403770919e-02 1.9769325435615759e+00 -1.7325142311253483e-01 9.0372196392962767e-01 -2.3075124593365306e+00 -3.0204512231466651e-01 1.1262228309292180e+01 -4.5854142843459916e-01 6.0363233228001273e-02 -2.7055256530688250e+00 -3.3411244512232396e-01 1.5702080837107712e+01 -1.8642273152406304e-02 -1.2058111823635361e+01 1.0548299163300143e+00 2.9130610206494678e+00 -1.0999163963216617e+01 2.0585904311116487e-01 4.1826669875221256e-01 -1.9168119545092832e-01 1.0753120164516936e+00 -3.0413463719934839e+00 -6.5202407717895952e+00 -1.4732084364657942e+02 -9.5364962012993160e-02 -3.6750771183959752e-02 -7.8204963059295594e+00 -1.0158347661595712e-01 1.5606103546285423e+01 -1.3077911915642149e-01 -3.5532000129765038e+00 2.1410004521618147e+00 3.3436659892284171e+00 -8.9068848596566994e+00 -5.4938933561430092e-02 -4.2760783940952329e-01 2.6033099641652235e-02 1.2890163907646037e+00 -4.1760566913584336e+00 -2.7821483666403175e+00 -1.2561402779910713e+02 -9.6597353011105613e-02 -3.3611757247456769e-02 5.3965873892032512e+00 -1.5315326060747902e-01 8.1909799426713512e+00 -6.6526539001584159e-02 -2.0761200304728437e+01 -1.5127116707052934e+00 2.6675926205585894e+00 3.1159581925218021e+00 -6.9891766938511291e-03 -2.4128517113801387e+00 2.8873549467108306e-01 9.9059128579076372e-01 2.9034516189092585e-03 -1.4482322012847973e+01 5.8099039281669320e+01 -3.9737816241957480e-01 1.7962816734200032e-01 -2.0527345254752646e+01 -3.4656327322760078e-01 1.0758613059528948e+00 -9.0660282589877572e-02 -1.0936127514612032e+01 -2.9046118842029820e+00 9.0358124558981423e-01 1.2514832260786648e+01 -6.5407690602139801e-02 1.5623174834354945e+00 -1.5131345196255448e+00 -4.4436069122991739e-01 -7.9434138127385978e-01 -3.9260555505671846e+00 1.5422849787114501e+01 -1.4554406268511494e-01 7.7022977088631775e-02 -1.0845111297894618e+01 1.5577610382777313e-01 1.0396076021346493e+01 -7.8538556681398572e-02 -1.1242958388249178e+01 -1.8917525817144991e+00 -1.7441008615164222e+00 -2.1387860314228845e+01 -2.3870688764022104e-02 4.2858907810729399e+00 9.2489001492642708e-01 -3.8968828880441748e+00 3.4263525134652175e+00 2.6733535477453714e+00 6.3765665772524699e+01 2.7299516979535843e-01 -1.7166154089358510e-02 3.4206882230876232e+01 3.1989354436968587e-01 -1.2808304738396199e+01 1.2708247599653921e-01 9.8084055473969300e+00 -5.1744732262051585e-01 -2.7800486039315864e+00 1.4504926315710463e+01 2.2894040008273264e-01 7.1107497682373477e-01 3.7657699228775954e-01 -5.4331837393289817e-01 1.4073917418645792e+00 -2.8141193984510693e-01 -1.0293690804999642e+01 2.1106510344385110e-01 9.6256647554309405e-02 -1.1664203542223959e+00 7.4056199337021011e-02 -7.3827795008231014e+00 1.6004421440259098e-02 2.3099520562796528e+01 -7.3347504710879541e-01 2.0084011119551661e+00 -3.0399997568314859e+01 1.5344585338444489e-01 -2.9901192219112183e+00 1.4103338793652798e-01 -2.7942642062134038e-01 -1.1549553592736377e+00 7.1636704498313435e+00 -7.8406506115643424e+00 -7.3748655893966342e-01 -7.6515019302160620e-02 -2.7563151790807822e+01 -4.1276091472261078e-02 1.3941361024791128e+01 -2.4641112472006732e-02 3.2641067386215639e-01 3.6999955907301016e+00 1.3251240744971788e+01 1.1278257647616263e+01 -1.1613292871993430e-01 3.4785283084214189e+00 2.0141965671246287e-01 8.1612756439106704e-01 -2.4843215554875115e+00 -9.4990258289617486e+00 -1.0641390502387731e+02 4.5052182178587308e-02 3.2432168237150116e-02 -7.4200254168634512e+00 -1.3577992688764562e-01 1.0129161086978685e+01 -3.9883420926536073e-02 -3.1944201972262114e+00 -5.4399399446340480e-01 2.0587090672634076e+00 -5.1265928761786199e+00 1.9201825347991672e-01 -2.9264210452584993e-01 8.8525705219183803e-01 1.6492679743351362e+00 -1.0873099224146436e+00 -1.4231046786087617e+01 -2.7521016878274168e+01 1.9639110166672399e-01 1.6967423974471485e-01 -3.0789656159889390e+01 -7.7031673580469251e-01 2.3709535323740837e+01 5.3052655621381659e-02 -5.3137334408283266e+01 -7.2991796919801208e+00 1.2514397743464192e+01 1.2301249171487687e+01 -6.1019633776961131e-02 -3.3190101932247575e+00 -2.0633122433131486e-02 -1.7516661959667288e+00 -4.0069216617644643e-01 -1.9612533788431474e+01 1.4414261639000756e+01 -2.4775350300706533e-01 2.7137294408818846e-02 -6.2362245583818314e+01 -2.5513255880452446e-03 -8.2132547426700953e-01 4.4644851063556758e-03 -9.2823672426697925e+01 8.7555233654455940e+00 -5.1518797150506764e+01 -1.1794656159602646e+00 5.0706292008674200e-02 -1.2592434403785752e-01 -2.6018473914048176e+01 
      </Row>
      <Row Index="10">
        -1.1797235004659540e-03 6.1647507861177259e-02 1.9161405674879006e-03 3.7167658479155818e-02 -4.0819886442013740e+00 1.8441817699993313e-02 -4.0052585028652110e-02 -5.1443241077043922e-01 3.7497441945562537e-02 6.5373109628214521e-02 4.1083803003733188e-01 -4.6540016140132012e-01 1.0816308766538640e-01 -3.6133145018311552e-01 3.0781289123463602e+00 6.3097217899329122e-02 2.3068142766323629e-02 5.6211943786709892e-02 9.8619194008511268e-02 -3.5252116576634140e-01 2.2511706236177287e-01 2.4784452875196621e+00 -2.7513188173799830e-02 -3.3932400357761815e-02 4.4210262966274794e-01 -1.1178451557890580e-03 3.0236466115894797e-02 1.7155336675777372e-02 -2.7144833186083841e+00 3.8986138630092260e-02 -3.4182855221584152e-01 -6.9506087277605815e+00 -2.2072546765778789e-01 9.9801273037086191e-03 -9.3011336250087562e-02 1.4941533049947164e-02 2.6846121649336019e-01 -8.1544446842357665e-01 -2.1195046203104084e-04 -1.2404820871455224e-02 -3.4360376249068278e-02 2.4116404139771852e-01 -7.1561668597984032e-02 1.1904724287311552e-01 -4.2031934344481693e-02 -1.8353148929340666e+00 -9.2499789385696696e-02 -3.5371981903463068e-01 -6.4489553000234281e+00 4.5681308492486811e-01 3.1190670713985158e-01 3.5157954282028364e-02 -1.7525438432653195e-02 -3.2264336102803082e-01 7.6507317435579125e-01 2.6323317424894555e+00 3.6552033966659549e-02 1.5832719440432391e-02 -7.8508860751846599e-02 -3.7261416877483813e-03 8.6140168884437429e-02 -2.5367911421833207e-02 -4.9589666116905828e-01 1.2199927911551045e-01 -9.0741645007985339e-01 1.1952716341430349e+00 1.8719398399029741e-01 -1.5035389101151209e-02 4.4110541641349657e-02 -7.9850531985535211e-02 4.9543833722021802e-01 4.7561772492729149e-01 -6.6248542922926390e+00 1.5767165405520367e-02 -1.8488254892206797e-02 9.8036664297199039e-01 1.5058513535214146e-02 -3.7620065470506781e-02 1.0507382109870007e-01 2.8787243100206394e-01 -1.1146368607731549e-02 -2.8896724046881839e-01 -6.8581948177080694e+00 -2.0421765690668114e-01 -1.5542759930996794e-01 -4.1411419501803604e-02 1.0023818469307579e-01 -2.6670811615845991e-01 8.9236687826632277e-01 6.7807966350992501e+00 -2.2622480400710576e-02 -3.9976101192661456e-02 -1.3085193057655975e-01 -6.6003556712674050e-02 2.0554822059555594e-01 -3.8779128912099092e-01 9.3612897176245591e-01 -6.5674070976049520e-02 1.9212568422926882e-01 3.2936714338887079e+00 -3.6660241530986848e-01 -7.8102059266972113e-02 7.1488900652847590e-02 -5.8433009224563459e-02 1.7413954003487593e+00 -5.3884176874937850e-02 3.7505268845247883e+00 2.6190129574920055e-02 3.7519527729576653e-02 -9.3773209491235043e-01 1.1913624224351584e-01 -4.6887567688360943e-02 1.5072001099074536e-01 4.7265562388582083e-01 -3.7423421881463081e-02 -4.3777279828216353e-01 2.4659239022634516e+00 -3.2161080334608333e-01 -4.7270516658390660e-02 -1.0994801257482638e-01 1.2298530812417940e-03 -6.1287551237057780e-01 -2.4859229531388616e-01 2.0679471949811159e+00 -4.9130398845732864e-02 -8.0930044829391715e-02 -2.5720539719826618e-01 -9.0929771427357475e-02 5.7507476106282596e-02 -1.4347287220892255e-01 -1.0419234265024393e+00 -5.4702498643524278e-02 -2.3819546790608226e-01 6.4559454051888086e+00 1.1751076985306322e-01 4.0863766857649197e-01 -3.3091490508844190e-03 7.9648817884049317e-03 -7.1703612652704507e-01 -2.3351044525576192e-01 5.7981244467729312e+00 -2.0541034491844329e-02 5.3345738121976780e-02 -3.5091567501055465e-03 -9.3829635716331600e-02 1.4548223396425919e-01 -2.8662284278051614e-01 6.5704757358416299e-01 -1.1877735179603444e-02 -3.6990404325016968e-01 9.0865222057186035e-01 2.6747082112977361e-01 6.8343951682648063e-02 8.4991753882735388e-02 -1.3924238044082049e-01 6.5139740960061965e-01 -4.3829255724268279e-01 4.7453080614805003e+00 1.0587911742965535e-02 1.3194976829680624e-01 -7.0650635758432045e-01 1.0580099221890177e-01 -1.6990118175073365e-01 4.7636183878305982e-03 2.2275354410587909e+00 4.1360992422085130e-02 -1.8421869559814485e-01 -7.8162427756266730e+00 -2.8544279514949455e-01 -1.8918763766984592e-01 2.9443957204747956e-01 -6.6356748200036231e-02 2.1894161934018621e+00 -8.2214706133285453e-01 -5.7936422735427868e+00 1.2654959386992068e-01 3.5214659140523172e-02 1.0729552380004179e+00 3.0109849655521770e-01 -2.8263408597060746e-01 4.8559922773486264e-01 2.5466134003439689e-01 1.4806458722860161e-01 5.6616016774864875e-01 -6.2752134471246315e+00 -6.2191721088274099e-01 -4.0477748654529022e-02 -2.0115891272167591e-03 -1.4135325005991017e-02 -4.8855214967314708e-02 -4.4960018123492773e-01 -6.7695966790770399e+00 -5.8786612410062486e-02 8.4766127247776629e-03 -6.4479064340794878e-01 -1.7645206059905827e-02 -7.0231230457032723e-02 6.2634300442485913e-03 -3.1618038322874753e-01 1.9001532952098416e-02 3.5057928782998715e-01 2.7696265697311446e+00 1.3485738450590373e-01 -4.3077744605377610e-02 -1.4378101380876845e-01 2.1968906027305710e-01 -4.4820327068750354e-01 4.3211906295870435e+00 -5.1523904751828056e+00 -7.5463108826879274e-02 -4.3267412895418869e-02 -6.8933016101368660e-01 -1.3277258564271979e-01 3.4887894304051548e-01 -1.7314947276012016e-01 6.0759306705514780e+00 6.9575630581146797e-02 -6.8589174305416325e+00 -2.1497566777205845e-01 -1.2579437665186721e-01 -9.6101574576474336e-02 -4.0394786519106184e-03 3.2322680510845792e-01 2.6687058262414298e-02 7.5416709588439304e+00 3.9334413023371866e+00 7.2075646007310243e-02 3.3534580629430870e-02 3.0114982495193932e-01 -3.1154735994864090e-03 2.2933192145359327e-04 1.1284536079948497e-01 1.0152875410026047e+01 -1.2737851667771871e-01 1.7116334756814911e+01 -3.0033107426964882e+00 1.5416345157515929e-01 -8.2553344781704369e-03 -7.3346207976046118e-01 
      </Row>
      <Row Index="11">
        9.3025327451453688e-01 -2.6621171362945479e+00 5.5091013802448288e+00 -4.6011799087682164e+00 -9.1271165111940354e+02 3.1689587801487873e-01 -3.6477136146657213e-01 -6.4873469222104177e+01 5.2762111760863074e-02 6.9467804515559450e-01 -4.6540012390846386e-01 6.0691253553009881e+02 5.0861406151287341e+00 1.0668194672786370e+01 -9.7117591138161998e+00 -2.5162491550320010e-01 -1.6277258485841548e+00 -5.2473440992663374e+00 1.9476685149413264e+01 -3.9650353096548088e+00 5.5046769979398995e+00 1.9612515251983623e+03 -1.3552059164392034e+00 1.0920134274575963e+00 1.6100115459289285e+02 6.5428089978307669e-01 -5.8046829444357435e+00 -1.6056966519704114e+00 -7.9778096354114894e+00 2.7658530983418004e+00 1.6255190569548745e+01 -2.4767850882102661e+02 1.0993674361115737e+00 3.7002743271151690e+00 -6.2886202329348428e-01 2.0987549711491774e+01 -6.0888158467636870e+01 7.9254125870761527e+00 1.7414039400018737e+03 -1.3338111514796402e+00 1.0074046507395815e+00 1.7667887021912384e+02 -3.2668256261577433e-01 -4.5294727453003816e+00 -1.2046038875350014e+00 3.8311677671109990e+01 4.1641333237988158e+00 2.9123768063888747e+01 -3.4675985119568338e+02 -1.4848866389833801e+00 1.4641948583963664e+00 -2.6166988292050153e+00 7.6755239497471646e+00 3.1026338431048543e+00 -2.4697386048850603e+01 -4.8262903171784069e+02 -7.5075087890014824e-02 -1.8021306926933728e-01 -5.4898327915915814e+01 -1.0413869122918760e+00 -2.4260601707176967e+01 -4.5884496333892405e-01 4.9320830913241892e+01 8.8278106506942677e+00 -8.5112923012343291e+00 6.6336046812079758e+01 -6.1238413815947690e-01 3.3613169893795458e-01 2.4580419569144074e-01 3.6096281984304497e+00 -1.8170711835332412e+01 -7.7788656170481403e+00 1.2624300244876649e+03 3.3055349592316807e-01 4.8358143301398815e-02 3.9352772739302964e+01 6.0369191208337725e-01 -1.5561266204519626e+01 -1.9966331022671008e-01 6.2981355052137573e+00 -5.9875213422720179e+00 -3.0441151597248961e+01 -4.1325754139352284e+01 7.8392311923194824e-01 -2.1597481251275212e+00 1.2918092993997004e+00 2.2337855961479325e-01 -2.2294084065074806e+01 3.2878556798167438e+00 -7.3275662746280432e+02 -3.3880436303283323e-01 1.1587402105552456e+00 -3.9798612630494787e+01 7.4712609980076516e-01 -2.0313818628056524e+01 9.1440486279422095e-01 9.8916234025322353e+01 3.8355589171549163e+00 6.5888338192745010e+01 -1.6711431168100042e+01 8.7435855136515961e-01 -1.0759027175517986e+00 -2.1561368997100283e+00 -2.3798267584518477e+01 -1.3911518673533919e+01 -6.1267948881122493e+01 -6.7532280383578836e+02 1.1691118800407629e-01 -1.5958041418534339e+00 -4.6770861471278380e+02 1.0014193049065268e+00 2.3879122366317354e+01 1.0303043697353984e+00 5.5985034077196678e+02 -1.9717568390311321e+01 -1.2859253016543448e+02 1.4792682147757830e+02 9.6441025112927870e-01 -9.4236550489476691e+00 4.9927217191362807e+00 1.2618177260970658e+00 5.7586173042085278e+00 3.4097837570146083e-01 9.5738548116837410e+02 -4.0377214751039281e-01 5.1583475596987771e-01 -4.1627402796514616e+01 -1.4099019254640450e+00 -1.9307704240833900e+01 3.7639780151371294e-01 -2.6338049186198919e+02 4.0430117723744274e-01 -9.2315767249520349e+00 7.8582659188835891e+01 5.6517831678692398e-01 -1.5556270230537400e+01 -5.7009751800950728e+00 3.4440747022140251e+01 1.7755947590630541e+00 3.1011190257020935e+01 3.1100031287211095e+03 -5.0904139471895249e-01 -7.1244788993337776e-02 3.0959259707385002e+02 1.7909496832267873e+00 1.4780527790592998e+01 8.8951275459244961e-01 -1.4605613596523494e+02 7.6577769430410143e+00 1.4744082562856931e+01 -6.3270455855960641e+01 -1.6130604807178190e+00 5.6983404248510388e+00 -8.1021178623755130e-01 -6.5147446634637802e+00 1.7359147816926679e+01 -3.2834054844136517e+01 -3.9144977672694949e+00 1.0718510087752462e+00 -8.2433695125079987e-01 -1.7639353564943144e+02 2.9843782100797744e-01 2.5653852128988071e+01 7.5674922903173780e-01 2.8469659631423724e+01 -7.1171979474119809e+00 -5.5345542229628109e+00 -1.1397575390754594e+02 -1.1134353364350003e+00 6.3360694186591147e+00 -1.7376031890624573e+00 1.0880391161862804e+01 4.4688282183699648e+01 1.4123979179953636e+01 1.0356939378817951e+03 1.0674352540795231e+00 -1.5874302021435813e+00 -1.8426490388290290e+02 -1.8833848193683567e-01 -6.1461128746213696e+00 -7.7219626332899338e-01 -1.6695392118831361e+02 1.6054216508128683e+01 5.0327818820850730e+01 -3.1830315462829503e+01 2.8727983440296843e+00 1.1590148832472153e+01 -2.6640595605359105e+00 -2.4413113903020403e+00 4.9766500910559728e+00 -4.6327360812574625e+00 1.4474456470091900e+03 -2.7073998126096566e-02 -3.0614307828807841e-01 -6.2027064310732271e+01 -2.7088553478368560e-01 -1.7752517024855479e+01 1.8206637996861480e-02 -4.0345091374601211e+01 -2.2383635234891894e+00 5.6126887602731586e+00 -6.4953898021951318e+01 -2.6116154612743608e-01 -1.4658205621665141e+00 -4.1662774339557442e+00 -1.4496758736915510e+01 -6.1711674553565814e+01 -2.1412408352628802e+02 6.9308544494192756e+02 -1.5497116146135184e+00 4.6804092462774827e-01 2.2421276513247626e+01 4.4603394153543974e-01 -1.4758834980953594e+01 3.1606661551327075e-01 2.9529848972221234e+03 1.0388987815013010e+01 -1.3586144418970548e+02 5.9606907940044607e+02 -2.2300141056244183e-01 -1.1018874771202249e+01 2.9477312716836390e-01 1.8676966598147359e+01 -4.2745927741621470e+00 -3.3909984368480610e+02 -3.0542744264936778e+02 4.1668061850745231e-02 -1.1198247677452430e-01 1.7952374810906258e+02 1.7731876486393294e-01 1.3531723489296326e+00 -3.9951370685533716e-01 3.4175354863807729e+03 -5.4812749266999973e+01 2.1130327505832156e+02 -9.5853827685841884e+02 -5.9433526153260385e-01 1.5224443154880904e-01 -1.3534208109144593e+03 
      </Row>
      <Row Index="12">
        -1.3166063172870790e-01 -1.7479964145054536e+00 1.4122830514279485e+00 7.0349493291095113e+00 -1.3349469727661926e+01 -1.5004775279819829e-01 -2.0022744438621684e-01 1.6380159624182852e+01 -3.9161621051725942e-01 -9.4126543204950042e-01 1.0816308278659505e-01 5.0861387864586050e+00 4.4629060339177528e+01 1.4292037773353212e+00 -5.2378328294676393e+01 1.9193689833531091e-02 -2.4060453987826138e+00 3.5450621911117874e-01 -1.3905152485784735e+00 -6.9414554634745702e+00 2.3574987858807708e+00 3.4808544664958828e+02 -1.7025156839723832e-01 -1.3610018617821645e-01 5.2687795260770073e+01 -6.8312059641429862e-02 5.6671471054302236e-01 6.7939712583786338e-02 1.1464179372957027e+01 -1.6223450158756925e+00 8.8172200800471554e+00 5.0525719428513732e+01 7.1560404255902169e-02 -9.5647259358544390e-01 5.2246864746091318e-02 1.1513387780788507e+00 3.3303483557219402e+00 1.2116111174671481e+01 -5.0902881749673554e+01 -9.5004832987941490e-02 -1.7104709456869949e-01 2.5246168708332377e+01 -2.2666941333283647e-01 -3.1158838643510545e-01 2.5657069481437093e-02 7.8753495316152149e+00 -1.2577507361428761e+01 -4.5381366663583833e-01 1.4860102376139048e+02 7.7199775817897956e-02 -2.9734271535738928e+00 6.0757506167625164e-01 2.9566375220602970e+00 1.9094620866866423e+00 -1.8106452013736998e+01 -6.6207146114270927e+01 -1.4845002516253408e-01 1.6666351024088777e-01 3.1291393001719015e+01 1.0134684035299268e-01 -4.0040161964661358e-01 -4.1001586441229698e-02 1.1382528490128969e+01 -1.3451909202332978e+01 1.2538953275070304e+00 -8.4955020522906835e+01 -4.4010194705094874e-02 2.0397906996398363e+00 8.8960603046583930e-02 1.0281462987110266e+00 7.0370563359503713e+00 -1.3916432370470524e+01 -3.0004406938978173e+02 -3.9011791691400555e-01 2.3473533764555021e-01 1.2086511124084282e+01 4.9613648442334579e-01 -6.8276817523682798e-01 -2.3261746543056938e-01 5.9984152669011159e+00 -4.9841322831967894e+01 -1.1698902265452013e+01 3.2008382996207665e+01 -3.1581417909587806e-01 8.0440397254682150e+00 -3.9133967761236607e-02 -6.1557187464897234e-01 3.7688671811921575e+00 -7.9496661904303068e+00 2.6321836664271541e+02 1.6558146258177325e-01 3.9593258878313574e-02 6.4736791560084974e+00 -1.8155579102315633e-02 -4.4385759923926316e-01 -5.5628477245895577e-03 3.3208358161196738e+00 2.8325207171827429e+01 -4.4089110157487834e+00 -1.7509974196718424e+01 1.6926933533927843e-01 4.7980218560496724e-01 1.1964361288586922e-01 -1.0633204555875815e+00 -1.2554312529925891e+01 3.0536788499196099e+01 3.7108461924454105e+01 2.7329330366573840e-01 -1.6335577734909387e-02 -1.5021739230119948e+01 -1.9784749168732840e-01 -4.5727133037806056e-01 2.4396762397439881e-01 3.2422399251511038e+00 5.8245044487077905e+01 1.5915285504590122e+01 -6.9952417352833038e+01 1.5365624157587665e-01 -3.3498973298374182e+00 2.1272422715621775e-01 2.5463976834648454e+00 -1.2384420144136540e+01 9.4822879772258482e+00 -4.0990475234370933e+00 5.4357318537531907e-01 -6.7847331518485021e-01 -1.1152152218327666e+02 -3.9725179400657518e-01 -7.0063583143840091e-01 2.0170161760169764e-01 -1.2973418404764539e+01 3.9350440774478244e+01 1.7898052540237277e+01 7.6454990410727333e+01 4.5139633808906532e-01 -1.1911691213858724e+01 8.1231939403030384e-01 -1.7368157508500959e+00 -9.5650430126577923e-02 1.5305436684284263e+01 -3.4488200645237384e+01 3.2613650008950223e-02 2.4023166850260419e-01 2.5186812775348336e+01 -1.2572069359237381e-03 9.3197996042923581e-01 -1.5770924287757684e-01 6.4119421127420750e+00 9.4363881581889739e+00 2.0655966653455171e-01 -6.2857778947923087e+01 -2.6996076571494521e-01 -4.2601972182872050e-01 -8.0308683159790428e-01 2.0980800578086605e+00 4.3805027624421342e+00 1.7411881318802877e+01 5.5419339537336623e+02 -3.7428568608700646e-01 4.8438916123637110e-01 6.4343507291966375e+01 6.1527294244017844e-02 2.1540743416538488e-01 1.3323529020889596e-01 -7.3666437388486798e+00 1.8162747025044929e+01 -6.9619522936345417e+00 1.1552810481509047e+02 -8.9418337247649998e-02 3.0975404467544312e+00 9.4868775278822326e-01 -2.9981369577756185e+00 8.3157116236584905e+00 2.7446436892965707e+01 -1.3111183504879773e+02 -1.5159223231621866e-01 7.6774897458428609e-02 -6.0615274648536612e+01 8.3825913423308951e-01 4.8698998234556257e-01 -1.8830830834931866e-01 1.6547391249339299e+01 -4.2916440329898180e+01 -3.6196405768579911e+00 8.5390567845183995e+01 3.1300597526259577e-02 2.6078927628824307e+00 -1.8469867909240478e-01 -1.0565609353365026e+00 -6.5636102693625613e+00 6.5653673672350124e+00 1.9041576802877489e+02 3.3124574394716966e-01 -6.5704445520287563e-02 -1.4854042932147422e+01 -1.6732107664655965e-01 -5.7626414798005499e-01 8.7921933504349181e-02 -5.6377535663956442e+00 2.0452996919475687e+01 1.8156492650741711e+00 6.6521885141686653e+01 -7.8840757744186897e-03 -8.3150103988116286e-01 -6.0071280779559799e-01 -1.9374345229394174e+00 -1.4214480477076558e+01 -3.4948911710484715e+01 -3.7275284025794008e+01 5.0544813836057323e-01 -2.0059174150630792e-02 3.3391251777387396e+01 -1.0273530055054243e+00 -1.8469003757900819e+00 3.5734089209901182e-01 3.8761363568207997e+01 1.7239695525443867e+02 4.3679052378433759e+01 -1.6728577857467701e+02 1.3719758958336761e-01 -2.7646872375403300e+00 -2.4505374772738321e-02 -7.4558617663176907e+00 6.8904639107480348e-01 -7.5606950570534352e+01 -1.0229599379926185e+02 2.6607327279812032e-01 1.3258694211131686e-01 -8.5594015177794347e+01 2.2991294111985184e-03 4.7531710570292152e-02 9.6548068962899192e-03 8.2536118696057287e+01 -2.6284742003151769e+02 -8.5831661444741428e+01 1.0034808416515531e+02 -2.6233497738419057e-02 1.9260712374831224e-01 7.9157485083512569e+01 
      </Row>
      <Row Index="13">
        7.8065249186586527e-01 1.6982223098424383e+00 1.2816524269544607e+02 -4.5906960833325272e+01 1.6922613912727684e+02 4.0748254957142560e-01 -8.0230229435548917e-01 1.3969535565683327e+02 9.5922391829017228e-01 3.4709261311145472e+00 -3.6133143118876920e-01 1.0668206863838034e+01 1.4292042778021194e+00 8.2920863452801837e+02 7.8450128804070744e+01 3.5467154593299721e-01 1.9203009446978374e+00 -1.7502999602945140e+00 -2.2271598333313047e-01 -8.4605521759927967e+01 -2.8692171881147377e+01 7.9468064801959144e+02 -2.6749957729023879e+00 2.9078430120100385e-01 -1.5301146381887298e+02 -6.5911822421323052e-01 -7.4274777007108184e-01 -3.4187084864477157e-01 4.8441152681025642e+01 7.3291387572049445e+00 -4.2844432220488017e+01 9.3906487188452189e+01 1.9649830078891879e+00 -1.5044953207047245e+00 1.3763775794492092e+00 -2.8674717111240753e+00 -2.3822644296682068e+02 1.1209689106995211e+02 -2.8408548599133610e+02 -2.9077708255633010e+00 9.2467348691267048e-02 1.0047887416692618e+02 8.9761776890769918e-01 -2.6294497169885478e+00 1.4100212451449365e-01 -1.4929430055993123e+01 6.9984021726216028e-01 -2.1190443696506730e+02 -1.9749304568791717e+02 -1.3102859784342562e+00 -4.9969456390416767e+00 1.0055880203869307e+00 9.6117392310531393e+00 -1.6155364818121845e+02 -2.7367068458523136e+01 -1.3636891535661312e+02 -1.1749304330536958e+00 8.9968649204641760e-01 1.5368613034107040e+02 -1.8005070277099398e+00 7.7956879444006688e+00 -5.1574766193312360e-02 4.9266354984320913e+00 1.5081679196562106e+01 -2.9190517232539833e+02 -2.8448618143591602e+01 3.8130548478497626e+00 -7.8271078717596847e+00 1.4135180775313283e-02 -3.4273403206370787e+00 -2.3057355235640648e+02 -3.2629207965392652e+01 -3.3258866000749913e+02 -1.5174168777180692e+00 -1.0048684261637736e-01 3.6077533101449717e+01 -2.0882284640956641e+00 8.1464367662666248e-01 3.3545225947162677e-01 -2.3398447255933135e+01 7.4424846147041208e+00 -3.1809959429408764e+02 -5.7315583164955058e+01 1.4226370661721293e+00 -2.0103657923153531e+00 4.7900262116765724e-01 -1.1493959350013296e+00 1.1209217358393138e+02 -1.4557771547590221e+02 8.6987172313034534e+01 1.2016599523152496e+00 -8.3557680714089644e-02 1.0743438920531179e+02 -1.5032702754977212e-01 -9.4188877662028148e-01 -4.0976570917959054e-01 3.0226519810765922e+00 -9.2145530114952106e+00 1.4645334600544840e+02 1.4966727581623900e+00 7.9832000927927860e-01 1.8249108103373146e-01 2.9336784039711006e+00 -5.7925785471218774e+00 -3.9800655313794999e+02 2.6180916055525859e+02 1.2715145926350306e+02 -1.4104264764941821e+00 6.6839795647558309e-01 -2.3147214527056803e+01 -5.2431647636921230e+00 2.5842034363447901e+00 1.2148256605200858e+00 -5.1247769943460177e+00 -2.5118817942647027e+01 -1.1544684631176037e+03 -3.1151533832896871e+02 5.3265595241354644e+00 -6.9391035517153199e+00 -2.1670676733525855e+00 -3.7884953181648200e+00 -6.4285007146777360e+01 3.2988443904966942e+01 1.6008110997655785e+02 -3.7297083091604715e+00 7.4333794359997540e-02 -1.8182608372485493e+02 -2.3727497923290608e-01 -8.0994523315198919e-01 -2.0812264779190315e-01 4.7198853854887091e+00 -1.5715431999246281e+01 -2.1362980235022508e+02 -6.2692631131296366e+02 5.5192270724773973e-01 -1.4853832089794743e+00 7.1651607209804524e-01 4.1304105359622980e+00 3.1081113799141036e+01 1.8882741812397194e+02 5.9328507398175134e+01 -7.6219458489048098e-02 2.0240743890431689e-01 -1.3787753102096468e+02 -8.4885329209231042e-01 9.4718174588653525e-01 -5.5590604701057866e-01 1.5990046228734798e+00 -9.5994427062284871e-01 5.4625744159811795e+01 -5.6899405597964460e+01 2.9646815613125133e-01 1.0986074526260552e+00 -8.4346283501420549e-01 6.0240214347407299e+00 1.1300560312815531e+02 4.6228881936573998e+01 3.0074788578531661e+02 1.5768327714092454e+00 4.4867076051625787e-01 1.3351876743459070e+02 1.9893419505890555e+00 -1.8142688473867636e+00 -3.0185448048273589e-01 -3.0634389773308158e+01 1.0228690119489272e+00 2.1689375181712518e+02 3.7951392509583690e+02 -8.5727144501856456e-01 3.8081059014231755e+00 7.8785315601701256e-01 9.9140499058145615e+00 5.6008420323237920e+02 1.1298913517104819e+02 -5.2542977504323062e+01 6.9803232986747989e+00 -1.3100003265593427e+00 1.4519376024458916e+02 2.7256961928645214e+00 3.5039701172434405e+00 1.1179951661423857e+00 1.2264179952166495e+02 2.5489756691552181e+01 4.9769543089333717e+02 2.7779314043881936e+02 -4.5205397002572418e+00 2.0518656005296364e+01 -8.8055497532509630e-01 -1.5944064845004040e+00 6.2489099476579383e+01 -1.0535627450537868e+02 2.5810449809372221e+02 -9.5294520146260475e-01 -4.9966671747377234e-02 6.0416177169303410e+01 5.4701532577464995e-01 -1.1514437187179283e+00 1.4327566764912314e-01 3.7619749503819691e+00 -4.2135126817001947e+00 1.4196152428293135e+02 -7.9852226358256303e+01 -9.5638566676906023e-01 1.0192925703338065e+00 2.9330514129770116e+00 -3.1682498605280038e+00 -7.2810075213253253e+02 5.5727016184631822e+01 1.4081291260994476e+01 -7.3998058960289965e+00 1.6987874379427117e+00 4.4088201662074923e+01 -6.7620454448144187e+00 5.9709148364770437e+00 -4.3579229809896813e-01 2.0457589953930227e+02 -1.5559536433685661e+01 -5.3539107433081881e+02 -8.1759017265128278e+01 1.1412474779381578e+01 -3.0756561384108601e+01 -6.8861588470164437e-02 3.4652256570124411e+00 -2.0010162367354265e+01 -2.6398979557987090e+01 6.6968145213162586e+02 4.7299426452818283e-01 1.5385430569507880e-01 6.7482868453410288e+02 -2.2217509974699706e-01 -1.1866237642994948e-01 1.6470565364793527e-01 4.8784054789122251e+02 1.0099882411355232e+01 7.9503296745306113e+02 9.0707376775093309e+01 -4.3408809898839795e-01 -1.9064201876595188e-01 2.2026256881353456e+02 
      </Row>
      <Row Index="14">
        3.6526973410240871e-01 -3.1965217037317259e+00 5.8337241565022850e+01 1.0031887088592623e+02 -1.1163081305720843e+03 1.0151410447790145e+01 -4.4667107695535974e-01 9.7110590463090921e+02 -2.3429172208240310e+00 2.8109351849266746e+00 3.0781287561127919e+00 -9.7117919232767491e+00 -5.2378328513398337e+01 7.8450126183723057e+01 4.9163815896726728e+03 -4.2712054404206548e+00 -8.9727781816302681e+00 1.8618593699566750e+00 2.0409055696755516e+00 -5.4425182463125338e+01 -7.0486848952987998e+01 -1.1675350222840279e+03 7.1904494407936141e+00 -1.5772838051701326e+00 7.1484148149537873e+01 2.3151063130709892e+00 6.8928626010025251e-01 -1.8442961270661506e+00 -4.7176582221326271e+00 5.7507801405948982e+01 -2.2146836602253472e+01 8.8567730872200468e+02 -2.8758591446698056e+00 1.0095700173070949e+01 -2.6181719875889087e-01 3.9603198978794225e+00 -1.2934001753539795e+02 2.0915061436820213e+02 4.5998646321599881e+02 5.1545882940430481e+00 -5.8251010929827896e-01 1.5415990199823311e+03 3.7527101378066252e-01 8.1554894130746014e-01 1.1647842542276049e-01 -4.7215634559719916e+01 5.8664612151066528e+01 -1.0437632644997601e+02 2.0875038741616163e+03 9.6434175791961518e-01 1.5442817583646580e+01 -3.8895270675885811e+00 2.3527036490949669e+01 -4.2141795429538476e+01 -1.5061818896559998e+01 -1.9866711209566784e+03 4.4637927973424159e+00 1.0060352620866406e+00 8.2290653096024960e+02 -3.2714973478057567e+00 -7.7671760287632843e+00 8.4711073448916574e-01 -3.6916932666106760e+01 -1.0869228962370369e+02 -2.7801691228615425e+01 -5.5014605664349813e+02 1.9200326467155726e+00 -3.1496194712512541e+01 3.7556916111489489e+00 1.1473727257062730e+01 -1.4793230939938326e+02 9.8765645361089355e+01 -1.7779056069037943e+03 1.1029303502657132e+01 -8.0418222842073361e-01 1.2569592368062142e+03 9.1557014663521841e-02 4.8514005417906141e+00 -1.5718068142391144e+00 -6.9016705443743831e-02 4.9288745333698387e+01 -9.5559194859490290e+01 -3.0266251368639232e+03 -3.1456527357924675e+00 -1.4962362267435541e+01 -2.5457047070606222e+00 -6.9754087332409043e+00 1.0158439609176951e+02 -5.8078461925561214e+01 -9.8682417859509587e+02 -8.0066544813336851e+00 2.5625789709923497e-01 4.0460404032392353e+02 -1.3695864574471459e+00 -2.2305387027853012e+00 -4.2593276490557548e+00 3.7231212935793678e+00 -2.0254944462202381e+01 6.4301735961227678e+01 2.3330860415008283e+03 6.1918843942969115e+00 -1.5815303555413266e+01 1.6706128127551274e+00 -1.7022277291346342e+01 -4.7473752968827398e+01 2.2394383517205972e+02 2.0296715855009097e+02 1.5485889286115508e+01 2.0451923680062549e+00 -3.4194411854688406e+02 5.6084765028086485e+00 8.4500286310060133e+00 -1.4212818954104582e+00 6.2142205152162148e+01 -5.2564240363798561e+01 -3.7640991782067351e+02 5.0096579455572228e+03 -3.2044732443987538e+00 3.4954415487278254e+00 -4.5263982995003786e+00 -3.6751875550238395e+00 -2.0437521566787495e+00 -2.5035147388274765e+01 -1.7954441539864638e+02 -1.9798666135906011e+01 -4.8533670923370167e+00 -1.7760774439394233e+03 -6.1516579485323430e-01 -1.1933545527981906e+00 1.6940991955160190e-01 5.0625742755667034e+01 2.1206604484306190e+01 -1.1488885802225866e+01 3.1812481397481406e+01 3.4480081200824979e+00 3.2113968997008485e+01 -6.7710356865281529e+00 6.2524770474906290e+00 4.7808400902026847e+01 -1.5360051393053109e+02 -1.3938001634219836e+02 -1.4610428386866754e+01 3.6562188234175244e+00 -2.7476957455090906e+03 -4.2339945531574408e+00 2.3345893330026506e+00 -4.3415370409298770e-03 -5.6601483349215243e+01 -6.8938652951919522e+01 6.1505460786142777e+01 1.5471724473496101e+02 5.3393974602091578e+00 -7.2507397271190186e+00 8.0310132681537159e+00 1.6894352851233048e+01 -1.3435999827920244e+02 4.2383442376560640e+02 6.0957353856407281e+02 1.3245210070953343e+01 6.2023758885030915e+00 2.5368605171311315e+03 8.5269991918253929e+00 -1.8452682839866881e+01 -3.2602150508658303e+00 -7.1753933592279623e+01 1.0504976384470746e+02 1.8241180683981094e+02 2.2485561253129963e+03 -6.1303524891610639e-01 5.6825812848726045e+00 -1.2205743168278822e+00 2.5818764692744182e+01 -7.8216870867285735e+01 -2.6625613608025969e+02 -9.0990878387226257e+02 4.6106421013370301e+01 1.7501329392533149e+00 -5.6306346551258139e+02 8.1554833322071936e+00 1.6784978833660020e+01 -4.5638456463206012e-01 -7.0376858806374230e+01 -1.9442990203840287e+02 -8.1197717180107361e+01 -3.1775452623840852e+03 -1.1574413111892664e+01 3.8702014358510411e+01 8.6566451701762626e-01 -2.4099980947020967e+00 6.2758315349841212e+01 3.5304797017946839e+01 -2.2882077027079795e+03 -1.1839497329780720e+01 -6.0222641836669200e-01 5.6230639779608464e+02 1.2275421733181258e-01 3.0995017999739503e+00 4.2946516653153977e-01 -7.2888040892759989e+00 5.0629483793118197e+00 1.4543529269285500e+01 3.6618264333578991e+03 3.0778048257230450e-01 -8.2969971340836715e+00 1.3321490386757544e+00 -3.3714732571315722e+01 1.3892484549732407e+02 9.3539630583040821e+02 -4.9341573390536360e+02 -1.8369092979393415e+01 -1.9556577636795414e-01 -1.1670698209393972e+03 -7.1513321905059755e+00 -7.3128980499852929e+00 7.1864484603055834e-01 1.1828565972205320e+02 -1.6293124890860207e+02 -4.2063331579640783e+02 8.3262988027611227e+03 7.4702408650790417e+00 -5.5392971242592438e+01 8.6721508020617732e-02 -2.6046401245863990e+01 -8.6409181828913084e-01 1.2260074958142102e+03 -2.5195779902939432e+02 1.7464466550973590e+01 1.4974362109931660e+00 -1.1821462500881339e+03 -1.5298099419753616e-01 -8.3974944827209796e-02 1.2460043948387354e+00 -3.9139640659621534e+01 3.2787567224050940e+02 9.3195979001167552e+02 -2.1203664940191957e+03 1.4793731112691977e-01 -7.8937633364531656e-01 5.6227114361010911e+02 
      </Row>
      <Row Index="15">
        7.5496134089908157e-02 -4.3205707283887307e-01 6.2727764920595064e-02 -5.3515217196270548e-01 1.1023664431766520e+01 -9.0134715274619165e-03 -3.6421895918636218e-02 -3.1105113145679297e-01 -4.7743832922752555e-02 -1.1443703690838400e-02 6.3097217410130926e-02 -2.5162485960301278e-01 1.9193699567169653e-02 3.5467151451905998e-01 -4.2712055139719514e+00 1.3500025480050657e+00 -2.8624185835025295e-01 2.6933842362009464e-01 2.4245354365750493e-01 -3.0244284426385692e+00 3.4427389510060891e-01 -9.4784368701762105e+00 -6.5741204953881763e-02 9.6644531988687388e-02 1.2419918447493110e+00 -3.7228439113286840e-02 -2.0405535664170976e-01 1.0353656395050101e-01 3.3870108619853312e-01 -9.1258874215565777e-02 2.6021842792534899e+00 -1.8964941221543796e-01 -5.1448558042869796e-01 -3.7058926259707699e-02 6.9703316605929794e-02 -1.7047579280331959e-01 1.5086785292973672e+00 -3.0330080235294616e+00 9.1835883896874293e+00 4.4192516061472523e-02 -3.3907203792372859e-02 -1.2938134298054678e+00 3.7143893328104138e-01 3.4202205653763496e-01 -2.5360751749637972e-01 -5.6400026239152634e-01 4.6679039410914780e-02 -2.2859973617412548e+00 1.1660853360971100e+01 1.2484941154334661e+00 5.0506379819111258e-01 2.0317944727089260e-01 3.4239661907245988e-01 -1.3636181312100630e+00 8.1326905457603971e-01 4.5819440137009337e+00 8.2370167079866274e-04 -2.9262969718287856e-02 -4.9256090604016833e-01 1.6412500261850141e-01 1.2088051014860302e-01 -9.1712173553561468e-02 1.5192940170658620e-01 1.3293351617967097e-01 9.6346940219588384e-01 -1.5908304764275272e-01 3.1476824759447425e-01 2.9373907354409523e-01 -4.8414433561718706e-03 1.7625377580433010e-01 7.2877225045353988e-01 -3.9020058506514310e-01 -4.3489053741087815e+00 -7.2130340980084667e-02 5.1635466743814362e-02 -6.0773471252534961e-01 -2.0958044121045649e-01 -2.5075040033455875e-01 1.0740783959996929e-01 -1.0822581063231418e-01 -1.4345125851873392e-01 1.5656214521557466e+00 5.0432849838889009e+00 -1.6849513324429274e-01 -3.2003787850706589e-01 7.4078642173100468e-03 -2.8290526082319439e-02 5.1799949890957375e-02 2.3664165258321113e+00 -1.2369468625081936e+01 1.5517964210149969e-02 5.7624999369687534e-02 -1.0766701162385717e+00 -1.8651111493580758e-01 -2.9895674322455384e-01 1.8087674722261007e-01 -6.1506310530195973e-01 8.4884101348131402e-02 2.1413611704425648e+00 -7.0162724804569905e+00 -2.3544714864416951e+00 -3.9325466399452580e-01 -1.3188870834086031e-01 -5.4423159150499911e-01 2.8536898279889447e+00 -2.1248564220241235e+00 -1.4235780266001257e+00 -2.1910234669578227e-02 1.5444533131618945e-02 2.4413418378522493e+00 -3.2717433407385593e-01 -8.9916424835223441e-02 1.5478567234077054e-01 -1.3304080792509292e+00 -3.2581401843056745e-03 -1.6084431409954387e+00 -3.6414552217984166e+00 -5.0974881952934781e-01 -4.1052941590591507e-01 -1.2668922058763707e-01 6.2495942939522275e-01 -6.2286420488000172e-01 -7.8851571846643198e-01 -2.3007786144817146e+00 1.2793859027082737e-02 7.5458309433999879e-02 1.4563801517446748e+00 1.8267057947999288e-01 -1.4522625989756688e-01 -6.9025545155495763e-02 -5.8742955307174038e-01 1.2600840563407179e-01 1.8262112961357033e+00 -7.0920982589235955e+00 -8.8995957140408227e-02 -4.5214577441286763e-02 1.8271645442794937e-01 5.3791622187324961e-01 4.0426788152928506e-01 -3.0899763642666525e+00 -7.0020340777091405e-01 3.9980457986188767e-02 -1.6079043981825053e-01 1.1059708281470932e+00 -9.6862439884580209e-02 3.5256483362772650e-01 -8.9230944565017747e-02 7.4683212761139650e-02 -1.3956793835224385e-02 -2.1361134309727419e+00 -1.0422784924383741e+00 -9.8666562166340260e-02 5.5533773605734926e-01 -9.3056554860540805e-02 2.1346921443772526e-01 -5.8217017795681070e-01 1.7513630115774816e+00 -8.9085618253188841e+00 -3.6273223744585498e-02 -7.7801164638493847e-02 -1.2281600471295633e+00 -1.6279694365325287e-01 1.3831012457694836e-01 1.7019384876034305e-01 4.1701719322001518e-01 3.3156164981042735e-02 -5.1609860305150512e-01 6.8799718128389120e+00 -1.1601369809140316e+00 -4.0287835868783112e-01 6.2251271893534632e-02 -3.4369477893327061e-01 2.3350613603798713e+00 1.2153120488714286e-01 3.3336138820715178e-01 -8.7853734031376793e-02 1.1162024670155409e-01 3.2739220115284606e+00 -7.6019631338982402e-02 -5.9609391639615650e-02 3.7644958334600676e-01 4.1716873928107558e+00 7.4109379200080228e-01 1.4272258632998445e+00 4.4824868607511235e+00 -6.7669522065287813e-02 -6.6402912283947324e-01 1.6795074804507371e-01 -1.1544077336908765e-01 5.9956302545056772e-01 -3.4125400280481699e-01 5.6341839177584916e+00 1.9972617747412144e-02 -2.3079779364240313e-02 -4.5253277603114839e-01 2.2623877771455213e-02 5.6260622887091216e-02 -7.2046851221215527e-02 3.2511967986013529e-01 9.7182858298339170e-02 -1.8107403962053468e+00 -1.5237299533689566e+00 3.7885942833055375e-01 2.6993439091892713e-01 2.1820662096899215e-01 -5.2399816101569308e-01 -5.3113496470264798e-01 -6.3156403518535642e+00 7.2667081934761768e-01 4.3427612713505620e-02 -5.0748378662859597e-02 -1.0701841170518289e-01 -1.2238794627970212e-01 -3.6163484334572671e-01 -1.6333886148476817e-01 -1.8404869629903857e+00 -7.1570518265433247e-01 -1.2020795009921041e+00 -8.8417674257266299e-01 -1.4051304947061247e+00 3.4279701552510655e-01 -1.6562310510576987e-02 -8.1874009864795083e-01 2.0228958104307426e-01 -9.3331943467121512e+00 4.9918626829112842e+00 -5.7686473506968275e-03 -3.8502616039488576e-02 5.2133990791352502e-02 -2.7986174006030335e-02 2.4121347077227240e-04 1.8337331579430030e-02 3.6681677269013169e+00 -2.2347808076695611e-01 1.2797464396230558e+00 1.0645974392834612e+00 4.6661492510931268e-01 1.2177326877419112e-03 9.6748679660103587e-01 
      </Row>
      <Row Index="16">
        4.7373855202904858e-01 -1.2550356508513687e+00 -2.4512658947423915e+00 1.3237658790305623e+01 1.7387853358406574e+01 1.0192070113444807e-01 -3.6341199881210562e-01 -5.1679456528814626e+01 6.0669479455248654e-01 -1.4128884259769769e-02 2.3068109104409595e-02 -1.6277250286102962e+00 -2.4060449843891227e+00 1.9202992253291118e+00 -8.9727841148978502e+00 -2.8624186516675376e-01 2.7294053128400293e+01 -7.3451391070526773e-01 1.1449012046946327e-01 -1.7499704953923940e+00 -1.8554974618489009e+01 -1.5183628227933241e+01 5.4144543447723237e-02 2.4168909684149548e-01 1.7888520598694186e+01 -1.4758274128296245e-01 -2.2528361846249467e+00 -2.0718837301603159e-02 -5.7737816660097678e+00 2.8730968334034301e-01 -2.4864241958841404e-02 2.3190244748557433e+01 2.9254682628553358e-01 -2.1343700415337334e+00 1.9266064581384623e-01 -1.3142490645828975e-01 1.3605727550570279e-01 9.9769192819067541e+01 7.6979240863197447e+00 2.2116999131562670e-01 2.8319551767378648e-01 -5.3781990496695073e+01 -8.7951494714239187e-01 -1.2672553011919057e+00 2.0400616215126599e-01 -2.9667186905038534e-01 2.7306372298954074e-01 2.0156150049990877e+00 -9.2539276759264055e+00 -1.5024922419775066e-01 -9.0233195489748166e+00 -5.1093589826240837e-01 1.2704719999791001e+00 1.8242731195799138e+00 -9.4672922354249749e+01 6.1196222765116545e+01 -4.2054648789903490e-02 -1.2819362979275262e-01 -5.1688581907379273e+01 -1.3989377719565921e-01 3.6443216435205859e+00 -3.5905800208704625e-02 -2.7409149941762809e+00 -1.3582709739974463e+00 5.9909442902921803e+00 -1.1495522150699827e+01 -5.0407499328602168e-03 -1.1558810678059572e+00 3.9313165829674146e-02 1.2930033319013043e+00 -3.0914000845225260e+00 -3.9911477921934392e+01 -8.3895618999033900e+01 -2.3472202471651937e-02 1.0480720003555286e-01 2.2457305437174739e+01 5.0409826590043849e-01 1.6415424279822748e+00 -1.2573107266226002e-01 -2.8244172263106364e+00 4.8187507285350772e+00 8.7410410003346399e+00 -4.5023547236956176e+00 7.8703194988383601e-02 3.9632706572295620e+00 2.6625997959659742e-01 2.0435956405941624e-01 -2.9006713729077687e+00 -5.4878964219570094e+01 -4.9429144615307450e+01 9.2690843298557368e-03 -1.2020006384699056e-01 -1.3690504399889139e+01 7.3669716199617719e-01 1.2930771301708548e+00 3.5116769619780663e-02 -3.6362661220089123e+00 -1.5336177779519220e+00 -3.0496172443636169e+00 6.1476553876569966e+00 6.9747421676435550e-02 8.6812120787599270e+00 2.9631805979613546e-01 -3.8138751069317505e+00 1.3447908722347535e+00 1.0120184245006844e+02 5.7466640007461137e+01 -3.3421222685694318e-01 -1.6284007360930877e-01 -3.3575175165826252e+01 -3.6274654816897889e-01 -8.4521116558724607e-01 -4.8596312447596379e-02 -4.1897748583028189e+00 -5.7903708410524040e+00 1.7704107835904736e+01 -1.7780067479743330e+01 1.8564257440204923e-01 6.1318465173862897e+00 3.3081532090048427e-01 -3.0200346378549625e-02 1.3015633825911905e+00 1.8831993355602830e+01 9.2617841115534247e+00 -1.1831519256057188e-02 4.6806795602765400e-01 5.0150300860464455e+01 -6.0426173270217021e-01 1.0470953203674682e+00 2.9875044250207056e-01 -6.9804434772270083e+00 -5.0110312859439219e+00 -5.5047709628079602e+00 -5.4615698822102416e+00 3.8710229546539576e-02 -1.6303181557858881e+01 -7.2878904611318673e-01 6.8143271882696244e-01 4.4118424220822199e+00 6.8614271999532491e+01 2.2422607666446311e+01 5.5422582371599027e-02 -3.9287013381128799e-01 -1.1862783151766337e+01 -5.5069660424908873e-01 -2.5275797739871706e+00 3.9270911873916275e-01 -2.8781941158894426e+00 -1.5798446155905310e-02 -2.5458993999325639e+00 1.0248059435447956e+01 1.1452804218414059e-01 -7.4795115997131898e+00 -3.3251503713670655e-01 1.3980382382160883e+00 5.3983424134345981e+00 5.9728972177696676e+01 -1.3945068618428650e+01 1.5603190002030137e-01 -9.5637290170850608e-01 -2.0086453111420951e+01 2.7190226858985028e-01 1.5491530544160845e+00 -1.7192283513965445e-01 1.6171518523698893e+01 2.3559547842046271e+00 4.7448893426147265e-01 -4.1309470464745601e+00 -2.0364810178747006e-01 6.3259991714426258e+00 -1.5128741952953502e+00 -1.0742130943056178e+00 5.4373609075882268e+00 1.6625666013232674e+01 -5.7810152365309477e+01 -3.8132908785351471e-02 -2.9174744307904560e-01 4.7688651941403400e+01 -4.2895709188459186e-01 4.3674462656037445e+00 -2.4923677086407281e-01 -2.0515534665513879e+00 -1.4124421607434670e+00 -2.7501615206225267e+00 5.0573870479952632e+00 5.2554124961001936e-01 4.7209548923548574e+00 -8.3161551365972175e-01 2.0548815037754782e+00 -2.2339657981059560e+00 -7.8739585373550653e+00 -1.0041920245703977e+02 4.9896802752743608e-02 -2.3410698840909849e-02 4.7123145242439932e+00 4.2700162585794521e-01 2.2986022807458539e+00 -1.6590501943655905e-01 1.3912023125931583e+00 -7.6739504338365805e-01 -1.0327699228655547e+00 9.5413245688832831e+00 -7.1565371137454703e-02 6.4831666429141013e+00 1.3128924171814136e+00 -3.9386836094620152e+00 -1.0963249026615268e+01 -1.5301614866343652e+02 -7.5668626375980352e+01 -2.0818151338190974e-01 -1.1085549797223704e-02 -1.2655129491771808e+02 1.1411590816216659e+00 -7.1230811207912748e-01 -7.6173557660447755e-03 3.6640480426798327e+01 -5.6163735829519679e+00 8.1227501402319774e+01 5.2868936666287567e+01 -1.8260705478788103e-01 1.9398282058767627e+01 6.0521199059825073e-02 -8.0197922858702171e+00 -7.7452732944005565e-04 -5.0080328339792720e+02 2.8213712860234403e+02 -2.8564155464096075e-02 -2.3167576700161233e-01 -1.8513104660500795e+02 5.5490457428753290e-02 -1.4207958262412301e-01 -7.6602351947341663e-02 6.4310318655142396e+01 9.6368584676374454e+00 -1.7686601547802630e+02 -8.3574463405771326e+01 -6.3791509926364981e-02 5.1346073363276945e-01 -1.4225573037395426e+02 
      </Row>
      <Row Index="17">
        -4.3476127419739924e-01 -3.2499844378220644e-01 2.9570115833689670e-01 -8.1777512662647158e+00 6.4121896227276011e+01 1.1834809290808637e-01 -4.5290496812900670e-02 3.0261931818367884e+00 -7.3797700000763453e-02 1.2249925519688780e+00 5.6211941278925565e-02 -5.2473441905751486e+00 3.5450625894924692e-01 -1.7503001544834831e+00 1.8618592539927121e+00 2.6933842324620771e-01 -7.3451388666582673e-01 7.8508074881844347e+00 -1.3527275707265560e-01 6.1974269371468083e+00 1.4040430323071096e+00 -1.2645068626756256e+01 -8.3473437474397949e-02 3.5051666271419868e-02 -1.3211254034908251e+00 8.5434996393229573e-02 -2.6050329109806136e+00 9.4929137967599275e-02 5.2171111265717016e+00 -6.1176465513290346e-01 3.0239388816261084e+00 -2.0228487494529475e+00 -5.2385638109612787e-01 1.2564034575904943e+00 -3.4826192028937786e-01 1.1566912136791174e-01 -1.1593237884350995e+00 -2.1651932287658440e+00 -1.7805723159844092e+01 -1.8423505064467227e-01 1.1020727211499969e-01 8.8722137807181412e+00 4.0661397307251351e-02 -6.4215181806734556e-01 -6.0270311030085233e-02 2.8283643101191895e+00 -4.0484167547771577e-01 1.2149703476957976e+00 -3.2601369589635851e+00 2.5205422658668653e-01 2.7859794697318376e+00 3.1361581104411935e+00 5.5871242300549029e-01 -1.1949311212580049e-01 1.5906400408734953e+00 4.2964322038750424e+01 2.1571504756774729e-01 2.2320603478952758e-01 2.3232390988506637e+00 3.7034731719668379e-01 2.2363773791995945e+00 2.9181710383918355e-04 1.8201835076038249e+00 -5.9415423441757653e-02 -3.0361170102054658e-01 3.5998380075082590e+00 -1.8820439407665590e-02 -1.5037806115727288e+00 8.9705352557129758e-01 4.0611064443680189e-01 -2.9441317450764615e-01 -2.7386275484533940e+00 -1.2189221462831412e+01 -1.0235785586447756e-01 -3.8660515074122152e-02 -6.1108951639377551e-01 3.4203510562136330e-02 3.2880231909674782e+00 6.5793099349507889e-02 -7.7763483872683636e-01 -3.1410889529132202e-01 8.2239376215498472e-01 -8.5622685984626656e-01 -2.0663323755057553e-01 -7.3600957482371721e-01 -3.3283204116070408e-01 -9.9273725718441619e-02 -1.0186172499917059e+00 1.9128868320771772e+00 -2.7907808103351272e+01 -4.8773871978926020e-02 -1.3967663275663023e-01 3.4358043348397764e+00 -4.5245520177396414e-02 1.0807712606113058e+00 -4.1653683773668071e-02 -2.6367616680461907e+00 4.1842798035771267e-01 1.2828872721418065e+00 -4.1148380018864827e-01 -5.6057724527721076e-01 -2.6797600930145222e+00 2.1761344101300644e+00 -2.9090132676571701e-01 -3.7671624014935885e+00 -7.4088817989029394e+00 -2.8103293963322358e+00 2.4595512668751665e-02 1.5122486964545967e-01 -1.7307782757980306e-01 1.6332642277396506e-01 -2.4430462288217565e+00 6.7909871972567967e-02 -9.9424875695366133e-01 -6.0155650031739150e-01 3.9784033723609715e+00 4.0862439238472987e+00 -6.6901936775916659e-02 1.3069046436245912e+00 -3.8176437186796432e+00 4.0422651679939570e-01 1.5298758934746068e+00 -6.7752848921195863e-01 -4.4957552890865827e+01 -2.3026208177276269e-01 -9.0866958680487067e-02 -8.8763068766170790e+00 6.3600558290370340e-02 4.6523642067883388e+00 -5.7770836708061324e-02 -6.8829442259906415e-01 -1.7161213596786951e-01 2.3491974589126770e+00 -7.8776909354174904e+00 -1.5500566431543547e-01 4.5959709922135401e+00 4.5492091903360423e+00 5.9661531541168489e-01 7.9729639855229451e-01 -9.7788605764995093e+00 -3.7657951558328932e+01 2.3011334080521695e-02 3.0829488864796439e-01 4.5047567499673420e+00 6.1185836951169248e-02 -3.7874849154469938e+00 -8.5050051108846891e-02 5.7628225438795662e+00 -7.2333204316485422e-01 -1.5845848652995045e+00 -1.4843089067298649e+00 2.0418571790824103e-01 5.3654275274415646e+00 -1.6285406739971795e+00 2.0472936949011233e-01 5.9929855740772453e-01 5.7233180204514582e+00 9.8584835410292726e+00 9.2972585099194982e-04 -6.1310202138468384e-02 2.7764997318735567e+00 -2.2214652688949599e-01 -8.7788340252759633e-01 5.7642971997652670e-02 -2.2816648807560256e+00 1.0757455674414196e-01 -2.7491770396827651e+00 -6.7999607171237209e-01 1.8597550047751293e-01 -2.7200566267690531e+00 2.6572927899221619e+00 -2.5808920168093863e-01 -7.2830961821654832e+00 -1.9856741111145752e+01 -7.8838802248878892e+00 2.2436307181503318e-01 1.6750060469353553e-01 -7.5453996485941310e+00 7.4225257872933992e-01 3.3836460541321163e+00 1.8481179025041117e-01 1.3678174179129833e+01 9.8757921912320989e-01 3.7922741728277138e+00 9.6139588409621943e+00 -4.6389285273809433e-01 2.9072243528603416e+00 3.4669410095185533e+00 3.2263276934030527e-02 1.5092509121196684e+00 -3.1807904632441932e+00 1.9004757915809023e+01 -6.7163156209718661e-02 1.3988969092520576e-01 2.0729087251595502e+00 3.2204161459019942e-01 2.5662638278222829e+00 7.2278282972324248e-02 2.8251161704820333e+00 1.0776853280669485e-01 -1.4077408607117832e+00 -2.2162398485334052e+00 -5.1349512078854914e-03 -3.5282566079638511e-01 5.5688743440476349e+00 -9.2714537080328674e-01 3.7485345383941895e+00 -4.9535540058772973e+00 -2.4761135155952729e+00 8.8857144582440983e-03 3.4397678697280054e-02 -3.8488024651685402e+00 -3.5353900198502530e-01 -2.3085544988426285e+00 -5.5391395664496468e-02 7.3823269181965223e-01 -1.5418190334253956e-01 -1.4035673014197589e+00 4.8745115912116184e+00 -3.0936494518363022e-01 -5.1864880525982331e+00 -2.8625016760224214e-01 -1.8755405823292988e+00 -2.8722280869184741e-01 -3.1040803486680460e+01 7.8108394429527523e+00 6.0491049126058308e-02 4.2029079308034220e-02 -1.2754328541800998e+01 -1.1917691121571455e-02 -1.7448066671409718e-01 3.8312924024708594e-02 2.6338587538591547e+01 -2.0108414515400939e+00 2.5381824237716297e+00 -9.0880338376100855e+00 1.6483233502336542e-01 -1.6445109848447936e-01 -4.3303991351873012e+00 
      </Row>
      <Row Index="18">
        2.0838727321455419e-01 5.6055900919693613e-01 5.3438110341521678e+00 -7.1598509154229273e+00 -3.9463153641147073e+01 -1.5658413518307177e-01 -1.2161308178295366e-01 -5.7589460869094182e+00 1.7696374862641612e-02 -1.1575194516294309e+00 9.8619198736374869e-02 1.9476685202389778e+01 -1.3905153238111243e+00 -2.2271570553034614e-01 2.0409055674374059e+00 2.4245354190917506e-01 1.1448994554702363e-01 -1.3527276623092008e-01 1.3653037885797527e+01 1.9437542038338267e+00 1.9296498690344182e+00 -3.0480812779001872e+02 2.4216424646759138e-01 1.4687926313960292e-03 8.2535323959715683e+00 -1.2737066758119589e-01 -3.4446366216601620e-01 9.1946477615327218e-02 -1.6749829166124471e+01 -2.1938052639014658e+00 6.6375585691171102e+00 2.9488033173099417e+00 -5.3987437549008491e-02 1.8744996104736922e+00 -4.6795154477672352e-01 4.0073742400211305e+00 -2.4289783117947472e+00 -1.6339450612388241e+01 2.2363669125059005e+00 -8.5242115955835723e-03 7.9409360186010969e-02 2.4047941769089363e+00 -3.6652531552072848e-02 9.4938226937579850e-01 -6.7199504034376675e-02 -2.8819080435339320e+01 1.1595935536166233e+00 1.5954769482909592e-01 -2.5258369913146709e+01 1.3580321385597927e-01 7.3539822570307944e-01 -2.9187592370659055e-01 -1.3621171961307792e+00 -4.1783231764005269e+00 1.0879139467571804e+01 1.1256751924008222e+02 2.6399298522053205e-01 5.5250713992546524e-02 -1.2289459531166358e+01 -1.0581201784478744e-02 4.6133267768665664e-01 -5.5183675299946604e-02 -2.4745467531652103e+01 9.9522490556392285e-01 4.7560864346443630e+00 2.5037929239670351e+00 -3.9642659513971390e-02 1.5274133599296107e+00 4.1278407446147206e-02 -6.2652499599667255e-01 -1.9855416710158220e+00 5.3895101006970201e+00 -1.4638537218356316e+02 8.5913932041279881e-02 3.9121158309160881e-02 5.7156693377594747e+00 6.3709026428000470e-03 -1.9049305264366390e-01 1.9213220435094880e-02 -2.4068455417449268e+00 1.1829401769916572e+00 6.1822657363076927e-01 -5.9545052673225776e+00 -9.7422425671874952e-02 -2.3658801859223955e-01 2.7442352896407818e-01 7.6152678889210434e-01 -2.4291330195826966e-02 1.3092909913998923e+01 1.0883451561792754e+01 -1.1186618944953478e-01 -6.7574020683760200e-02 -5.8777179735120768e+00 -1.5382842609147906e-02 -1.7749761035736289e-01 -3.5441906100582177e-02 -2.9303114327516209e+00 -3.9771639809793274e-01 2.1593901741471200e-01 3.4978171651817576e+00 -3.2556043508054933e-01 -3.4800319767145993e-01 7.1638750744714527e-02 -1.3621500644163561e+01 6.9855617713336091e+00 -8.3496778296936895e+00 1.2107887203635073e+01 -4.8758448899775458e-01 -2.1458938289669277e-01 -1.1104403816654838e+01 -9.5755446694769195e-02 5.0973720394022426e-01 1.9503875175344876e-01 4.5038491944110234e+01 -4.4377023929796753e+00 2.1591303340197676e+00 1.2847490079455639e+01 -3.6285944671333614e-02 -1.9824143354670758e+00 -2.1393318396167280e-01 5.7100558278930080e+00 -6.5290805528117488e+00 -8.1623751599447534e+00 3.2506355941376057e+01 2.9320279528230259e-01 1.2742026986028987e-01 -4.5380484986459706e+00 8.0872303788700556e-02 -4.9861939473065497e-01 -2.8822975028324406e-02 -1.7713176979900382e+01 -2.4827893872243099e+00 7.9261762130074231e-01 -5.2370199414845757e+00 -1.1112873797966240e-01 1.5526329634140010e+00 -4.4727879986564500e-01 2.7427184747117419e+00 -2.0944682168273161e+00 -1.5936795368117817e+01 8.4620007902271368e+01 1.0155760202491732e-01 9.8013416074310508e-02 9.4251188378046891e+00 -1.8036912874939343e-01 9.1641122970482014e-01 -8.0419146696062552e-02 -2.7242512754676788e+01 1.5828644305297734e-01 1.1546504437711675e+00 -3.9597025865738296e+00 3.1514318780246575e-02 2.0642351847299478e-01 3.2415791590861487e-01 -9.5339714774262880e+00 2.3030937594291956e-01 -9.0887218300518384e+00 -3.1409888190795755e+01 -4.9573890912026089e-02 3.5827278860889322e-04 -1.4786735664124450e+01 2.3791437130492032e-02 1.0600330108393816e+00 -3.8332382515484487e-02 -6.1238066510604341e+00 1.4302098663422746e+00 -7.4652085360220077e-01 -2.7586736299387947e+01 -1.9191237992976196e-01 -1.6966388020061967e+00 2.6322683625551446e-01 -3.3854651805280458e+00 8.9455682973596442e+00 -2.2924477948259621e+01 -2.2941053887117619e+01 -4.5061675023092984e-01 -2.1455714110595830e-01 1.1626017395957916e+01 1.8796671357890971e-01 -9.8884059331280971e-01 1.9519539186326540e-01 3.0153880634480810e+01 2.4916458140915272e+00 -1.1673875347043044e+01 -1.6675331708245253e+01 7.2028803006737196e-02 9.1539429421995688e-01 -1.2982287950549967e-01 4.5019035843907096e-02 4.6314647371885265e+00 2.6394449403160252e+00 -4.0933684919756161e+01 -8.0740288431842916e-02 -1.9759928320995962e-02 -1.8490409038513462e+00 2.6378634182226579e-02 -1.5259329265973065e-02 -1.7640214138455117e-02 3.5623175598739181e+00 -7.5205388621986913e-01 -7.6870843477081507e-03 -8.7553573589684675e-01 1.2355533475887999e-01 9.5940368612553395e-01 1.9130705888225763e-01 2.7807805277600721e+00 4.4021968954231046e+00 3.1199502732770668e+01 -3.9782765481412298e+01 -8.5812792947665778e-02 -1.7579872355164566e-01 -1.0625661134483033e+00 -2.9806713113508287e-01 -1.4062604510813070e-01 7.4027598352855328e-02 2.1693217233745155e+01 -9.2366046195421987e+00 3.7310980078088633e+01 3.2833883468631541e+01 -2.6067245130305972e-01 -1.2602787571539260e+00 1.0755048552322143e-02 1.3843387191668882e+01 -5.1519970331172460e-01 3.8762714467255570e+01 -1.9229919033202123e+01 -1.0526863364691996e-02 -1.0043188432809956e-02 1.6936630136958719e-01 -1.2367702343857433e-03 -1.0323932068456720e-03 2.1850440630746506e-02 -4.7978813878871392e+01 7.9504245928579298e+00 -6.6034569016134526e+01 2.4864443814399770e+00 7.3285048083198495e-02 -1.8698159253953017e-02 -3.4463825135445994e+01 
      </Row>
      <Row Index="19">
        1.4694320400086380e+00 -2.9234088932971645e+00 2.5790887103856949e+02 -1.0454130491487190e+02 -5.9678766059514601e+02 -4.9584313687827763e-01 6.4420712500699384e-01 2.0448618737209472e+02 -9.0735047211294528e-01 2.4849451553896307e+00 -3.5252113102818128e-01 -3.9650281049668532e+00 -6.9414556312047537e+00 -8.4605519731123110e+01 -5.4425179940841332e+01 -3.0244284230495975e+00 -1.7499698773456034e+00 6.1974270342430122e+00 1.9437539706462292e+00 1.1129026298907618e+03 2.5412665294937540e+01 2.2720932000511493e+02 1.2950115781224339e+01 3.9426425678888055e-01 -1.4444667737678742e+01 -1.5130025840959727e+00 3.4982324366871529e+00 6.3893020273011825e-01 -6.9873989554389951e+01 -3.9504326614937213e-01 -1.4802961819347132e+02 -7.4793583699948044e+02 -3.1277321237715511e-01 2.6724672862619503e+00 1.0685599006273705e-01 -7.5088638181355094e-01 -3.2740532881580117e+02 -9.4253184761989075e+01 -3.6061644564239032e+02 3.2812716301639893e+00 -2.1377933444458880e-01 2.8635741326128078e+02 8.1929458922693743e-01 -6.0309918572633752e+00 5.5666866241569757e-01 -2.2093573214229679e+01 3.2730090309609565e+00 4.1670195817077143e+01 -8.6172413927482125e+01 2.3674467517635094e+00 2.6540066731159406e+00 -1.0945888889116171e+01 1.0196022546989226e+01 1.7490825507391912e+02 7.9444173974203295e+01 -3.6593311730958521e+02 -9.9201115322766853e+00 4.3820985902545728e-01 6.0361564188147895e+01 4.8499092383068820e-02 -5.0519091802513483e+00 4.5465130257417719e-01 -1.0908947560882481e+01 5.6466746559191066e+00 2.6357738458268447e+01 8.6808983320853486e+01 -3.2622990483913119e+00 -1.0819483098197651e+00 -2.8268111462600798e+00 2.2574425896307631e+00 -1.7412558473550027e+02 5.9788176847499443e+01 -3.6587292805666402e+02 -1.3736002413547301e+00 -2.4557738485634140e-02 6.1791385809955386e+01 1.2760656024991022e+00 -2.2469855726687751e+00 -4.9632288333895780e-01 1.1436995414864121e+01 1.1614500808553531e+01 2.9598025227108799e+01 2.6964460437508947e+01 1.1659890502817412e+00 -3.5796549105612634e+00 -2.4561098398615471e+00 6.7103968721794283e-01 -2.9776014102758137e+02 6.4895563789630160e+01 -1.2820618813005276e+03 -3.3655068970614845e+00 9.1690605592626651e-02 2.7030565644061318e+02 -1.0058598014718756e-01 1.5205482287863390e+00 1.3271100004602898e-01 1.5425067855224199e+00 -9.1568314733485892e+00 1.1441977863843931e+01 2.9941036370073050e+02 4.4452133804527350e-01 -5.3997084686852759e+00 -1.4424182825845385e+01 -6.0238257270204834e+00 -7.7696915608916652e+02 -3.2804031611061441e+02 -9.9854277741291298e+01 -1.9714148500908347e+01 -5.8925621260242289e-01 -1.3799728655780734e+02 4.0854463914458297e+00 -7.5174665912094198e+00 -1.4737016551472499e+00 5.5767074556146120e+01 -1.2924637187981801e+01 5.1921509185731850e+01 5.9759138721016575e+02 -2.0371332212657967e-02 -1.9348882026389873e+00 3.2351499902274168e+00 4.2426222355833039e+00 1.1197312333476958e+02 -1.3369060538929944e+01 -2.0434834524676262e+02 2.0623998767432838e+00 5.7451665218165970e-01 -4.1882748613460495e+02 8.9163879813070168e-02 1.9246009762673744e-01 5.7907880791955246e-01 -3.6177490852843391e+01 -5.6321104925466408e+00 2.1429530464695290e+01 1.0354403950553518e+02 6.0195285005552512e-01 5.3176952081012701e+00 -5.5108966779449977e+00 2.1278042333898384e+00 6.5061214949436334e+01 -1.0138068274053001e+02 2.5042654018429312e+02 3.7633464670860874e+00 -4.7817034388150481e-01 4.4639810483855683e+01 7.4176038598063387e-01 -3.2202525570927634e+00 8.3628295505579586e-01 4.5416003897247492e-01 1.4833248315297212e+00 -1.5809305129342732e+01 -2.9615938394084367e+02 3.1013256377443010e-02 -4.6817979128723088e+00 7.4109965617607472e+00 1.7705678965487239e+00 -2.0261659670371685e+01 -5.2995016118307944e+01 -4.0995529319372145e+02 1.1869910220699042e+01 -1.3273168526895347e+00 -3.8422883752191460e+01 -2.0593854314300755e+00 3.3203186272795620e+00 6.6892072249178725e-01 2.6606546222003772e+01 -1.0748216445256801e+01 6.2956159781370289e+00 -7.0403385704589709e+00 -5.5166249543155921e-01 -3.3569901827034663e+00 -2.3347552303065481e+01 -1.2878664199598241e+01 -1.2130669904292420e+03 -2.7129281071062394e+02 -4.4800030572353990e+01 -2.5341647478000581e+01 1.1920990555979218e+00 -2.1085121647437518e+02 2.1093874364148975e+00 -1.4562242083910988e+00 -2.2451145220260571e+00 -2.7994510666995467e+01 1.9359649667362543e+01 1.8318875245249120e+02 -3.0330266053572598e+02 -4.8416373101188559e-01 -6.0192154351361076e+00 4.0390369393245029e+00 3.0810891509605476e-01 2.3903675476798307e+02 2.1957521049771458e+01 -7.6620779287815094e+02 1.8084100526833318e+01 -1.2109390685859425e-01 6.1516205107887799e+01 -7.6701520745212548e-01 2.0648195502299131e+00 1.6050204626600242e-01 5.7279052376979962e+00 -4.3950611468485477e+00 -3.9591576671809889e+01 -2.3878363218370941e+02 3.5383291533593886e-01 -3.0866505036569611e+00 6.1698767288189034e+00 7.4426084586578343e+00 8.0411273855144191e+02 5.6773726666535808e+01 7.8616068108189211e+01 5.1798623892058000e+00 -3.9178238820565292e-01 3.2042162538160812e+02 -6.2206528810695261e-01 -8.2197576873663358e-01 7.8692823519280575e-01 1.4346546888256109e+01 -5.1048657808937350e+01 -4.4187760669866992e+02 5.4860465320571365e+01 -2.8911338960062554e+00 4.6261575863040392e+00 2.3129807650800988e-01 -1.4132590181988784e+01 -9.2044390051023157e+01 2.6946698523210631e+02 1.8949387717794986e+02 -2.3573080815016098e+01 -2.4484500189949443e-01 4.9762979559660084e+02 5.3241164552627146e-02 1.7777602130081505e-02 -1.9336265542116660e-01 -1.0497564434597624e+02 7.0475270212241298e+01 4.0822123200388967e+02 2.3464285135917652e+02 3.0844851400988693e-01 -2.5608922273666934e-01 1.6498990981537418e+02 
      </Row>
      <Row Index="20">
        -2.2178494112894720e+00 6.0218115036659583e+00 3.6386077842616942e+01 -3.9671808307359356e+02 -1.6061858606114984e+03 -7.1331262528191774e-01 4.6090691671828454e-01 -1.1065196981653571e+01 -2.6315984524841829e-01 6.1104636663513441e+00 2.2511767287827100e-01 5.5046082661876881e+00 2.3574887132650284e+00 -2.8692138295293077e+01 -7.0486714848367996e+01 3.4427400945604164e-01 -1.8554975006362685e+01 1.4040432195799786e+00 1.9296465355133847e+00 2.5412680375739633e+01 1.4981365358778603e+03 8.3006877280055414e+02 6.2390721142802086e-03 2.2361906423140798e-01 6.3252466020049468e+01 -9.6628789575028051e-01 2.5301306787859232e+00 3.8709495574084224e-01 -8.6838933965882461e+01 -2.7518324011973796e+00 -1.2766658597230514e+02 -1.4365028949832407e+01 1.3137145506038574e+00 -3.0213984542109657e+01 1.0057095755628076e-02 1.2809144686613125e+00 4.6569808959676479e+01 -8.2515115085369564e+02 2.4736246242806374e+01 -6.1431990439460926e-01 -4.1159169530637696e-02 1.6533220139833665e+02 -1.6237760823036556e+00 -3.1358329554830711e-01 -3.6785385031110396e-01 -6.2282943600500289e+01 2.2988840788017768e+00 -5.4877667374718591e+01 -1.2495213925647465e+02 -4.8825493826734601e-01 2.1799092336296653e+01 -9.5094267092177276e-01 -6.9826889559181460e+00 -2.5509706997838080e+01 4.0888146122777835e+02 6.3547037800401449e+02 8.4953032299485276e-01 -7.9301552477801540e-01 -2.4371293514221907e+02 -3.4810051220446836e-01 -8.9590494780188124e-01 -3.2203358401416526e-02 -2.9469714533460746e+01 -5.2908257582077027e+00 -7.9120941748073562e+01 -1.4704925981325295e+02 1.2694842705161054e+00 3.7860482294361191e+01 8.3765445113675951e-01 -3.0580532181390208e+00 -1.2569009182124706e+01 -1.9514300046177004e+02 -2.3797905168821308e+02 4.1752234715421455e-01 -3.5789341010632336e-01 -1.9043644090708133e+02 1.4830397292753332e+00 2.3640453120685674e+00 -4.0915468700426422e-01 -5.7267107352727606e+00 -1.3012167382711770e+01 -2.5845658586887446e+00 -5.1638418848448026e+01 -1.1577848178018568e-01 1.5804571063099946e+01 5.4449641174996666e-01 2.1198027803959612e+00 -7.0865270522470695e+01 4.5142657411735638e+02 1.1013892667181790e+03 8.4787011355368214e-01 1.8362479907705254e-01 -8.0835513499857825e-01 4.8666016445589522e-01 2.1267128503967250e+00 2.4703988489606943e-01 -3.3053856875917347e+01 4.4340309759250722e+00 5.6206511026306543e+01 -6.0089755453379325e+00 -1.0318487564432024e+00 -2.1741800543997670e+01 1.7375800840478917e-01 -7.7913805270080516e-01 -1.2852986436560053e+02 -3.4464642221274653e+02 -6.7408109686523676e+02 -1.7905921762597687e-01 -1.4041895619048361e-01 -3.8485100222666017e+02 -3.9034257779846615e-01 -7.5639397769164418e+00 3.0842024470424900e-01 9.8957814360887099e+01 -3.3647662290303515e+00 -1.4718754793478729e+02 3.9186604088928357e+02 -4.5905734027005707e-02 -1.5723580587972990e+01 1.2104841411829494e+00 -3.3337991073758957e+00 1.9485546142751630e+01 4.9295770165595150e+02 1.7226591111232301e+02 7.2454250990806990e-01 6.3825517605694937e-01 8.5469165525390167e+01 -7.9162092834970377e-01 1.0861988977268879e+01 -9.5632923593630403e-02 -4.3386547754544225e+01 1.7661195033934792e+01 -1.2189333103597390e+02 3.3834456438715063e+02 -4.3551350532715116e-01 6.2900655193740818e+00 -2.9494507030602224e-01 -2.6634527661494642e+00 3.2314698229384234e+01 -9.3981063518348651e+02 -5.5112122786186956e+02 -9.9709581618129528e-01 1.0152664460618845e-01 4.2814464545380395e+02 3.1179491802477566e-01 -6.1471277984831794e+00 3.4162983670241115e-01 3.6050211340076430e+00 5.5289314024709171e+00 4.1632666999494802e+01 -8.1132630475695692e+01 3.5709726215691751e-01 2.0985356887502199e+01 6.2063192366000663e-02 -7.6566991942561060e+00 -8.0374057035072823e+00 -9.1978578342664787e+02 4.9758315883113391e+02 -1.0295720849528118e+00 6.4546758016831518e-02 -3.8093638148788796e+02 -7.5179138428615389e-01 -1.0745826499661177e+00 6.7126224332706563e-01 6.8344851173635078e+01 3.5137752277948096e+00 1.0317389286854524e+02 -2.0212736029659186e+02 -1.5629174765822085e-01 -2.0195180924773929e+01 -2.1948856447128389e+00 -1.2650563674503882e+01 -9.2501087592777296e+01 -1.0954048552808890e+03 9.2269878799825528e+02 -4.4419299950335116e+00 1.3933140820756604e+00 -9.1593753227214279e+01 -4.0913443041337660e-01 -6.9519601759322924e-01 2.3841988091430721e-01 -7.2881067285251078e+01 -4.7265097606804687e+01 2.6252610654080445e+02 1.1389402234970180e+02 6.1992924499755508e-01 -4.8605643824708665e+01 -8.4883141990125865e-01 -6.8810571649023267e-01 -2.7832725837830225e+01 2.7099818253889680e+02 4.4400324989266664e+02 1.4832227649615677e+00 -3.6122850201142365e-02 -9.5891366678697523e+01 3.7595834133491390e-01 9.9388638991076732e+00 4.5108983610564368e-02 2.5246681403368711e+01 6.8131842616876384e+00 7.9517349800094962e+01 -4.9691162111703306e+00 1.7586893860655128e-01 -5.3224121252977605e+00 9.9838870747470665e-04 1.9429655626772902e+01 -7.5059133271024933e+01 6.9575090085706270e+03 1.1726795368294547e+03 5.1101475837875361e+00 -1.7960809386525753e+00 4.5227324019663502e+02 -1.7457490276458287e-01 2.2873476683534895e+00 3.3491032098753659e-01 -1.0390938702610504e+03 2.7589723416596176e+01 -1.7509152349541243e+03 -4.4339967176263207e+02 1.4699132753487992e-01 1.2146357836040195e+01 -8.4775390603775425e-03 1.9091427203218188e+01 -1.1165535664476312e+00 1.1930364439979945e+04 -6.9203825909429688e+03 -6.1777957814386220e-01 2.7358237704191296e-03 1.0056177594733451e+03 1.2884939336116286e-01 -3.5461722243092453e-01 -2.1330485468066068e-02 -2.0831331191952718e+03 -2.9697431232738097e+01 3.6759690712745801e+03 6.8643439899351176e+02 -5.9670903681325771e-02 -1.8179459903020216e+00 1.1178583246977664e+03 
      </Row>
      <Row Index="21">
        3.0305492816197628e+01 3.3210089118365431e+01 7.9774122769571841e+02 -2.1892294011771060e+03 3.9372396036797669e+04 -1.0220702221416630e+01 1.9122472520099354e+00 -4.5791087535617407e+01 3.9825973979697977e+00 2.0697799457230985e+01 2.4784438203414680e+00 1.9612514629522832e+03 3.4808544183311250e+02 7.9468069040189403e+02 -1.1675353894096229e+03 -9.4784363486492200e+00 -1.5183601574153073e+01 -1.2645069155090603e+01 -3.0480812412501996e+02 2.2720934810885001e+02 8.3006782853120239e+02 7.3875541961305495e+05 1.2913147876143441e+01 9.0793362881328417e+00 -1.0308534781347418e+04 5.0081652712926523e+00 2.6438885082318173e+01 -6.0892968129146050e+00 3.7037154393626006e+03 -1.7877881467134378e+02 2.9286941868904296e+02 3.8382810580753157e+03 -1.2557635199967015e+01 -1.0437838804559328e+02 2.2775671958405226e+01 -1.4705453876484309e+01 -5.4976834377437137e+02 -1.4315687489622674e+03 5.1604924340573489e+04 1.4956688169758273e+01 3.5671635962530477e+00 7.2094459244412574e+03 -2.6341803973981790e+00 -6.9895734530202134e+01 -3.8771143053242030e+00 1.3851467602054040e+03 -5.9816619799399852e+01 -4.9168032716606655e+02 -2.9007887118916660e+03 6.4520520373025647e+00 -1.0842146822772267e+02 -2.0872566109966648e+00 1.7691892701788814e+02 7.6519714684447308e+01 6.1462119376618648e+02 -5.2958283025752753e+04 -2.9194460869126459e+01 -6.2228930752826672e-01 -3.2160352807026356e+02 -4.6207713955526426e+00 -9.7860173262930530e+01 -1.8151884215810168e+00 7.5960009426961233e+02 -6.7719178523844505e+01 -2.6441623514049797e+02 -1.5455906851512450e+03 -8.9774495541946209e-01 1.1647642826831516e+02 -8.0617585461967565e+00 -7.1660238906078234e+01 -5.4653023358283190e+02 5.3588152394694998e+02 -2.0959733013150821e+04 1.9567518842427161e+00 2.4815497210614583e+00 2.3276713075131247e+03 6.0087669553740852e+00 -1.4654796960270943e+01 4.3770319013219581e+00 -1.7861926006727072e+02 -4.3247546905161158e+02 -7.1413871067280013e+02 -2.2232621849934967e+03 -6.2548109318581808e+00 1.0502004390137526e+02 1.5894693566538777e+01 3.0039706936903499e+01 2.9892747828071867e+02 1.0114146279061752e+03 -2.1847373021859676e+03 -3.4120790179342571e+00 2.8736751402600236e+00 -5.6325554214445128e+02 2.9656716176779945e+00 -4.0091372369399494e+01 -1.5121101350832053e+01 1.4264798197814680e+03 2.9291707434982015e+02 4.4995666900486685e+02 5.9675819789595607e+01 -2.0630729836207230e+01 1.6172315808966232e+01 2.7968017819194067e+01 -1.1964391857168368e+02 -1.5824816735836748e+03 -2.6408571055658722e+03 -3.0462126811839800e+04 9.5450220280175024e-01 -5.6228100075052936e+00 -8.0356728694897356e+02 -2.6358613290094901e+00 5.9081216661875352e+01 3.6698669749327602e+00 -2.1595165658559881e+03 1.5026057045436096e+02 -1.5227955972844418e+03 -4.1256219827998157e+03 -1.8323592027915874e+00 -7.5230916660871571e+01 3.4795973815660481e+00 8.4702727576022198e+01 -4.6941848223811684e+02 3.0065913527993700e+01 6.3244498298281222e+04 -8.7984639194208398e+00 -1.9041730734967688e+00 -6.7891198164033885e+03 -8.9153501833926256e+00 -1.3422416369045118e+02 3.6733018637100212e-01 -3.9408314036616343e+02 3.7929512971730753e+02 1.1810953503557965e+02 7.4738444694317741e+02 1.5614236974767497e+01 -1.3405273671138980e+02 -2.2023987934209686e+01 1.6629428297574780e+01 -9.5786887579238055e+01 -5.9359741704379758e+02 5.3526995715192694e+04 7.4215598624253154e+00 4.5973061053020174e+00 5.7843884355265145e+03 6.6219330937040031e+00 -7.4224241304827615e+01 -8.5679556576162526e+00 -1.4564957977302884e+03 1.1154328029196984e+02 6.2947574005750766e+01 -7.5598444986120649e+02 2.7167554324329295e+00 4.0401454769689508e+01 -1.1540474993788473e+01 1.5499458672946758e+01 -6.4187566893867120e+02 -3.7325490800676962e+03 -4.1587410787952715e+04 4.6827271836247931e+01 -5.2509303027111400e+00 -8.6720958335993982e+03 8.9291807582802996e-01 9.3743511378305016e+01 3.4006400458230512e-01 -7.6656430575236209e+02 1.7100186214048767e+02 8.7422886904512734e+02 4.9606629982889690e+03 -1.5427452504501737e+01 4.1886082446417902e+01 -5.4863256445849572e+01 -4.6984913593344038e+02 3.8790844931302854e+02 9.5867299632138690e+02 3.2330847252656124e+04 -4.9786296604626926e+01 9.4313514823414690e-01 -6.2891451011621102e+03 -2.8457717377177385e+00 -1.1208278405448100e+02 1.2361965252134837e+01 -6.1456848879452200e+03 -7.7673338783391455e+02 2.7518125406791455e+02 -6.7145018552259808e+03 -4.7055716547088622e-03 -2.1817215888462567e+02 3.2516443691887602e+00 -2.7089650877046438e+01 -2.9032245965113043e+02 -6.6164710840536281e+02 -1.2463749705395766e+05 3.6714268760914827e+01 7.5274150719384458e-01 -7.1684077752110315e+03 -1.3315259154303334e+00 -8.2632975752965649e+01 1.0808407722545557e+00 -9.4624767653038725e+02 2.2308962404017166e+02 3.2882808372355066e+02 -2.2593733696022537e+02 1.3501416873442507e+00 5.2749556308302346e+01 9.3053145294601705e+01 3.1601215955777576e+02 1.3023146093327455e+02 -4.8159139295032946e+03 3.3014191845925205e+04 2.2090617876166689e+01 1.0707276215810921e+00 5.0846253349166363e+02 4.2601846672601482e+00 1.3249350201284403e+02 -1.7021485633379633e+01 -7.6221216310830569e+03 2.2038093964596155e+03 -1.5612601001715693e+03 2.4288932556825193e+03 -2.8741629267435407e+01 1.5111766691627531e+02 -1.5757362142981846e-01 -8.2001590743323817e+01 -2.3145387827526451e+02 -3.3956484578431537e+03 1.8357700809388167e+04 -3.9133595977538107e+01 -2.0602443986120411e-01 -1.2471952915265081e+04 1.3796066771537054e+00 3.7994774151205206e+00 2.2207024222423377e+00 -2.2325048275532248e+04 -3.5376147341508936e+03 3.8540840848054795e+03 1.5045202852303219e+03 5.0153809208197746e+00 3.1886533655519997e+00 5.0843024406108009e+02 
      </Row>
      <Row Index="22">
        -7.9088751304337068e-02 -1.6392945674013504e-02 6.3424848599441361e+00 -1.1419727445850425e-01 1.1220076689520283e+01 -2.0338694511659050e-01 1.0137034898760805e-02 1.2195803357235491e+00 -1.4555177725655417e-02 3.1798586160046782e-01 -2.7513187029898471e-02 -1.3552059090423461e+00 -1.7025157196297291e-01 -2.6749957722432756e+00 7.1904496132020226e+00 -6.5741205673217035e-02 5.4144496375327256e-02 -8.3473439336519781e-02 2.4216424632443273e-01 1.2950115800980919e+01 6.2402315413692122e-03 1.2913147308892803e+01 1.0891616494334420e+00 -2.5652505374528289e-02 -7.1925955083533282e+00 -3.0251009348823531e-02 -1.0406775736881829e-01 3.6021087662804589e-02 7.2493678802568340e+00 -3.8368045645095972e-01 2.5128764971447035e+00 2.5987551321755110e+01 -1.1349499615363176e-02 3.1129219766588717e-01 1.1493524816870776e-01 -1.5964483497038806e-01 -7.9417322554173468e+00 -8.8644675336297496e-02 -1.1434064636428843e+01 5.7732813355633894e-01 2.1209431227341473e-02 8.2102672307219926e-01 2.9755994272073278e-02 -2.9365520407840062e-01 9.8216409815132522e-03 4.6367230101774464e+00 2.7041235095355570e-01 7.3849537017418143e-01 6.9368794176749802e+00 -3.9874897852918423e-03 1.7745734581045280e-02 -4.1352255438690189e-01 8.9088669269765719e-02 2.4569144574553254e+00 6.5533324847228869e-01 8.2914384329342283e+00 -4.5940785383563970e-01 -8.6472004280040080e-03 2.3281604742351192e+00 -3.7957352070648362e-02 6.4507686985157986e-01 2.8872768919604948e-02 -1.1874409866414153e+00 -4.1346655361592921e-01 2.5450596732191646e+00 2.5050697662742323e+00 -6.3536537218133654e-02 -1.5195654841928796e-01 2.5143447737010716e-02 2.2919467322185749e-02 -5.9306452091459052e+00 2.5229471977137763e-02 -1.7357522764201121e+01 1.1224878621544997e-01 1.0951758292833139e-02 1.7900330950951826e+00 1.7331072236070000e-02 1.7920560264266916e-01 -2.1202942844470156e-02 -6.0050516226392392e-01 2.2365363606559413e-01 2.3436985765546554e+00 -6.2910710808130332e+00 1.1331698598929879e-02 6.0544074191880681e-02 -1.0829737716447409e-02 -4.8923140200522533e-02 -5.1563797538922973e+00 -1.5068768416468767e+00 -1.3980531469540438e+01 -1.1871166286756130e-01 -1.5281377061760023e-02 5.5587740308917333e-02 2.3418350598354287e-02 1.0173620733490962e-01 1.2136339476202643e-02 -6.5584605947050356e-01 -9.5915713730343466e-02 -4.2944176324375576e+00 3.3493137684831300e+00 7.1285229871800443e-02 -5.1872435768558489e-02 -4.8061103257784110e-01 -1.7311135916251219e-01 -1.6216620570061743e+01 -4.8464514744175879e+00 -5.8037786243467053e+00 -7.8455698499448978e-01 1.2468184728129911e-02 2.3181769674996877e+00 7.6215052365887964e-02 4.0217943378109133e-02 -6.4972282754549179e-02 -8.7279065898649328e+00 -1.7509278655335692e-01 8.4400510656791035e+00 -2.6061031244777340e+00 -4.2474564420577954e-02 -1.4747392548576232e-01 2.9885990757092273e-01 2.8314475267573258e-01 2.1541544556929271e+00 7.0503524188303046e-01 5.4437806979335619e+00 1.6808580150950667e-01 9.5324873170899299e-03 -5.6874503786553419e+00 -4.0707514753943880e-03 3.0043370836981143e-01 3.5109137056207877e-02 4.7159023852223694e+00 -1.1365995949246233e-01 6.4581694247677213e-01 4.8533130959482946e+00 -1.7237743468096228e-02 3.1529739114864203e-01 -2.9517012290014161e-01 -4.1627982326177659e-01 2.8921201627265631e+00 1.3787154905704639e+00 -7.2839934905292694e+00 2.0006052056466594e-01 2.9189116017657758e-03 -5.6374726442779082e+00 3.5946648555581009e-03 -2.7733458252797383e-01 3.4058318698221762e-02 1.7625722520345075e+00 -1.5360860922503683e-01 1.0301852030831355e+00 7.3103606249113398e+00 2.3548472872387136e-02 -3.0114065077862012e-01 2.6405020106372934e-01 -8.5501418246617167e-02 4.7304291467321953e+00 -1.0880244849814389e+00 1.8954553262841728e+01 1.5780165775600352e-01 -4.6794067376305093e-02 3.2641049550872197e+00 -1.2478151568535510e-02 -4.1644658159858738e-01 1.1589754825988952e-02 8.5302240165162324e-01 5.4196688643254509e-01 2.2739341652266210e+00 -2.2044120103512064e+01 1.1607901315344972e-01 -1.5119556028309922e-01 -1.1109759297554764e+00 -3.3625118601680842e-01 -2.4668925194452321e+01 -1.6468729556457280e+00 -1.1546747225997933e-01 -1.3196459335123734e+00 6.5039865062119270e-02 -4.8965433056978966e+00 4.7958469059880909e-02 6.3766167371838056e-01 -1.4705567279721143e-01 -1.0227808228772687e+01 -1.5406161458710981e+00 -7.7076578078144848e+00 3.6696500510504766e+00 -9.4322048323645741e-02 -3.8651814386569117e-01 1.2468131237428015e-01 3.2020694982841658e-03 8.4634643969900161e+00 1.7839879812581785e+00 -8.2746203496624275e+00 6.8267556392711193e-01 -9.4792230552356443e-03 -1.2970905315908112e+00 -8.4516333094541984e-03 -2.9356345512835702e-01 7.9299910077287282e-03 1.3867582212983507e+00 3.9096552875150792e-02 4.7198249948723969e-01 3.7532264253491121e+00 3.4606946386970996e-02 -6.5822354846965414e-02 1.2503552726860556e-01 2.8878939427614858e-01 8.9585101088678947e+00 -3.3276223691082096e+00 5.2461745682812335e+00 5.9153472523908246e-01 -6.2939429337298458e-02 7.6939477562050342e+00 -3.5917389421179835e-02 1.2797829241393499e-01 8.4764720504688459e-02 -1.1952323593631413e+00 8.6551265004070399e-02 7.4750529200116045e+00 3.6839636822648609e+00 1.7525893660342490e-02 3.1434261780265649e-01 1.2497929153186364e-02 -1.1561759365224344e-01 -1.4605838653985641e+00 -5.3711853472457116e-01 -1.7271611396576748e+01 -9.4304635112951840e-01 -6.8340479842773239e-03 4.0018410622907279e+00 2.5942156678551275e-03 -8.4298149713754045e-03 -1.1224139723555827e-02 3.5038305791440667e+00 1.0765634931908941e+00 -9.7258329630878855e+00 8.8505053739384216e+00 -1.0719593815079149e-02 -2.7542833186217641e-03 -1.9918330728883531e+00 
      </Row>
      <Row Index="23">
        -2.4904760588987510e-02 -6.0774791250281623e-02 4.6517538881232667e-01 6.5081436851191832e-02 5.3371917943622975e+00 1.6696758855025973e-03 2.0361511616284099e-02 -3.8972217661489594e-01 8.5526140386228328e-02 -1.5637097230634767e-01 -3.3932400329569234e-02 1.0920134343945902e+00 -1.3610018025049822e-01 2.9078425575984035e-01 -1.5772837659964605e+00 9.6644531484436746e-02 2.4168907628430947e-01 3.5051665193235063e-02 1.4687955215290094e-03 3.9426424412044581e-01 2.2361965583650090e-01 9.0793358331429772e+00 -2.5652504735799775e-02 2.1670713401000574e-01 2.7718666109851053e-01 -1.7772278145500875e-01 3.0108174087643269e-02 -4.6817932655069956e-02 1.9152375490986415e+00 -1.6158557088638670e-02 8.0464502341723865e-02 -2.1334188976462549e+00 -8.2859544680693828e-02 -6.2463788916499841e-01 7.9477978214905959e-02 -6.3239837226633400e-02 -6.6439249049704685e-01 2.4779816862897519e-01 9.4070838541775288e+00 -5.7263290625739205e-04 3.7829543394140019e-02 -1.0724846192699324e+00 9.7676128697440356e-03 -2.0786759282666134e-01 -1.2955573784911967e-02 1.5685340214023080e+00 -8.1439839580905726e-03 1.2653109509661498e-01 -1.9465163294066414e+00 5.3136013981809782e-02 5.8581640897762965e-02 9.1814417241995960e-02 -8.2601467284579400e-02 6.0951748211524226e-01 -3.6864267066607681e-01 -3.3648331819567829e+00 1.2340558662666513e-02 -1.5928564902192126e-02 -7.2731928130451706e-01 -1.0105542128446943e-02 3.1808446208038132e-01 -7.5660081937179852e-03 7.7205414671879957e-01 6.1091179164547205e-02 1.8703310361680803e-01 7.7334328631620508e-01 -3.1251056226749716e-02 4.9281518507664046e-02 3.1982241081105242e-02 -1.8012584681806221e-02 -8.6978705386469457e-02 -5.3230120646375390e-01 5.5926217734991042e+00 -1.4396965642164250e-02 3.0975649456124181e-02 -2.2104004080944151e-01 7.6327555315319984e-02 1.3726289913103157e-01 6.0714382029274337e-03 -3.1535828610359040e-01 9.1466063601276071e-02 6.4709434252051978e-01 -6.2948205645282229e-01 2.7660659549648775e-02 1.0421397568388971e-01 -6.0448224777820303e-02 8.4087608700631478e-03 4.7677800558139305e-02 -3.2391814511287720e-01 -2.3875433951616287e+00 -2.0009949988959441e-03 -9.6807238573395002e-03 -5.9264034580840530e-01 8.2952296009225907e-03 1.1653120574226739e-01 5.9863792688325798e-02 4.0876670455871800e-01 -5.9530465027339829e-02 -5.7898412560837187e-01 7.5362559874302093e-01 -1.4658204114685000e-01 -1.0001729716086061e-01 1.8205270461556039e-02 -1.5806692730867322e-02 -2.5658598426651302e-01 1.6254139957933518e+00 -4.0764372637004271e+00 1.9086128765271215e-02 -1.8313132594216561e-02 1.2843286372347613e+00 2.1125893937777487e-02 -2.9514964334260840e-01 9.5934845920364262e-04 2.0305459529125578e+00 -2.4004484380495850e-02 -3.8640087061477857e-01 -3.0128147854102494e-01 1.9626836264017924e-02 -1.8290373177766606e-01 -1.0900108879751852e-01 7.1256667354006265e-02 4.3460644567353768e-01 1.7384998682095620e-01 -3.1539904374761818e-01 -2.5677745406174665e-02 6.1393608089678614e-02 1.7034227422731760e+00 4.1232967965917841e-02 4.1264471470892294e-01 5.7755173095218867e-02 -1.9142776078389545e-01 1.1249955056750593e-01 2.1436182762903400e-01 -1.0296455915977276e+00 -2.4450455679274341e-03 -6.3817875723570783e-02 2.4354460139175393e-01 9.1502862784950234e-02 -2.8849704242470864e-01 2.0788896972794069e+00 2.7557061803108809e+00 1.8079489380359304e-02 -4.2189008258212271e-02 3.4097817243572059e-01 -4.4252902793278620e-02 -1.1682991723498626e-01 1.6484722619228495e-02 -3.2958540129255454e-01 3.9167342524153104e-02 -8.8147985923431449e-01 9.6456381029840310e-01 -6.1863103406171627e-02 -2.5449884160974801e-01 -7.1215901600959586e-02 2.2159837047159181e-02 -2.3889279201083813e-01 9.0957306427384843e-01 -1.3672218826923199e+00 3.3057513679763020e-02 -1.8263155070530168e-01 -2.2737321632006200e+00 -1.2576274721641120e-01 2.3286089738047178e-01 1.9413289555518291e-02 -1.6811375504689892e+00 2.5928229695242777e-02 -1.1231099593345384e+00 5.5539964049556900e+00 -7.7470055130893195e-02 -8.6430337778654387e-02 8.4216590988900608e-02 -4.3859018746283729e-02 -6.2372265739966615e-01 -1.0101202004064298e+00 4.5586646925078185e+00 7.3543794301007548e-03 -3.2445922053014456e-02 2.3498491517256874e+00 -5.3707571742532462e-02 4.5066251145621805e-01 -5.4485859384774349e-02 -5.0541321340364931e-01 2.7621932843108132e-01 -1.5511583746349444e-01 -2.2401564238180178e+00 1.6649743134809880e-02 -6.7748948397006181e-03 1.6775740216306295e-01 2.2295541406449626e-03 -5.1778762758180008e-01 -9.5689889188361121e-01 1.6757005321678662e+00 -5.1034861328794201e-04 1.2196239815962058e-03 1.0945300197761298e-01 3.4424788202989873e-02 2.9124006950827663e-01 -5.7355661550916905e-03 -5.4182273270998849e-01 -1.8597608269026011e-02 -3.3754925563516736e-01 -1.4981845430916110e+00 -1.3554396843735578e-03 9.9219564762544121e-02 -3.7317408326048580e-02 -9.1787634422171249e-02 5.7576421216041007e-01 -1.1938340058134485e+00 4.8410763373346697e+00 1.1478862763925367e-02 1.4268587807714470e-01 1.3771310103948053e-01 2.9631727753261294e-02 -5.2686951845507624e-01 -7.9237476953412933e-03 7.4548748570963195e+00 -6.5676074442945120e-01 3.5939608898460218e+00 9.5578746310740503e-01 -9.2849431865610885e-02 -1.9211435782617547e-01 -1.2045452476518094e-02 -5.4762111705721983e-02 -7.5362256774568245e-02 -6.5340521404180860e+00 -5.5083226141223172e+00 1.7973898377374745e-02 -3.8260494703283111e-02 7.8318969219477297e-01 1.0239759488988830e-02 -1.4781746303817594e-02 -1.2630243025909161e-02 8.8282799170274107e+00 5.6413469169813613e-01 -9.9871705941522997e+00 -3.6124601402534453e+00 2.3799648735977806e-02 3.0051421377817397e-03 -3.0692442831104287e+00 
      </Row>
      <Row Index="24">
        -4.8495164793249856e-01 2.7276200373016763e+00 -1.6772794279851951e+01 -7.5996422430914393e+01 -1.3884210815504193e+03 2.1730831612322556e+00 -1.4633076890075092e-01 -1.1185419134579133e+03 -1.1416100719680013e+00 -2.2759051071954701e+00 4.4210240676407331e-01 1.6100106874284756e+02 5.2687794392852680e+01 -1.5301147640645530e+02 7.1484164599309466e+01 1.2419917611173017e+00 1.7888519963954426e+01 -1.3211259553472212e+00 8.2535333761780159e+00 -1.4444668253268471e+01 6.3252500770380720e+01 -1.0308534141063690e+04 -7.1925957160203815e+00 2.7718642931988602e-01 3.9351675037586647e+03 -7.9492027201024751e-01 -9.1686825208807008e+00 7.8772917970948841e-01 -4.8834010317570022e+02 -2.7914311500163848e+01 5.3084856690900004e+01 -1.8768008929705618e+03 1.5109128591209431e-01 -9.1675552342196447e+00 -7.7769852014296470e-01 -6.2025566147381532e+00 2.9014182406454995e+02 -8.7482439701495537e+01 2.5409471426415548e+03 -2.2670326928837996e+00 -6.9597182681171599e-01 -7.6991429167117644e+01 -7.5276150122804109e-01 8.0225861005021457e+00 -6.1346877835102509e-01 4.4408670656382654e-01 -6.5095660802790377e+01 -5.0702385198892514e+01 2.5346944356223156e+02 3.9383674098280608e-01 3.3509418756591216e+01 2.1572035791421578e+00 -1.9677938573995313e+00 2.6009529939955346e+01 1.1616581744118594e+02 -5.8336191090345383e+03 5.9430591457481192e+00 5.6741255326198625e-01 -1.4137211468797177e+03 -9.3193421594849024e-01 -7.7424678099860849e+00 2.7827307700299897e-01 1.0585639028843590e+02 -1.0348337662532401e+02 2.1736355798105873e+01 3.7610333023584951e+02 -9.4160074613834022e-01 3.2479023031464649e+01 3.0944619183686646e+00 -1.2701354073837283e+00 1.4387910806204098e+02 7.9419633606015566e+01 4.3038213805725691e+03 -9.4513879337461626e-01 3.3692148738655930e-01 2.6807514175491235e+02 1.1764637548403698e+00 -3.4864437942870521e+00 -1.1784692733560737e-01 1.9527998586350748e+02 -1.3756940700632833e+02 1.6323913101152538e+01 -3.8658921924432775e+01 3.2472920507507252e-01 -1.2179617262924815e+01 -4.9562087107183017e-01 4.9267474007318635e-01 1.2352395480881596e+02 2.1298687686040802e+02 5.3542594630941749e+03 1.1608840479649496e-01 -2.8398094998717499e-01 -3.3202630628820043e+02 8.7885134362970185e-02 -5.8499901810624504e+00 5.0998548137343214e-01 2.8260020721712053e+01 7.6558007433033310e+01 -8.3775437735952437e+01 1.4099088192195450e+02 -2.4404108421581840e+00 -8.2237757509283256e+00 2.1718918162983529e+00 6.6253730987934887e+00 -1.7216728923364721e+02 -3.1481998565472986e+02 5.4232779415712630e+03 2.3889232793331763e+00 8.5071163979167541e-01 -5.9834006479857926e+03 -8.3769216136109215e-02 -9.8897123760750958e+00 1.1667332290225749e+00 1.1107901393052714e+02 1.6130307182907849e+01 5.3486911075970806e+02 2.6855182449522351e+02 2.0431597736239366e+00 -2.7160639318154082e+01 1.9114785075459784e-01 7.5706437465595702e+00 -6.5940217101889232e+01 3.2754495179307362e+01 -2.5911392097907001e+03 4.3007191431802028e-01 -1.4325423679872062e+00 1.5461840399399916e+03 -2.5342469354595054e-01 -1.0283064039827201e+01 3.5199289235038611e-01 -2.0690444476096798e+02 1.5228145221155214e+02 1.0681670697283081e+02 9.6901543760700406e+00 -2.0652779446281966e-02 9.6037346200449072e+00 1.3748230951311644e+00 -3.7304609631621588e-01 -1.9413237518820128e+02 -2.3120919296709874e+02 -3.0811164051529595e+03 -2.4556209866281304e+00 -2.1268060428780000e-01 2.2518499224140112e+02 6.1536688497539149e-01 4.1231713622294031e+00 6.0551245877194315e-01 -5.3834076751545908e+01 4.5784491615995890e+01 9.3607138578891124e+01 -8.7600379665233390e+02 -1.2659906904310256e+00 3.4484924438158480e+00 -2.0928116589011401e+00 1.0258262219243640e+01 -4.2496130617010976e+01 -2.6013895693073579e+00 -2.6302178676297444e+03 5.2163016260319068e+00 3.0172489369117272e-01 -2.9874516032137018e+02 -1.4418526566383374e+00 3.2340039104733137e+01 5.0892654073267840e-01 8.2606280808647193e+02 1.2910887645762287e+01 -2.8768303414485479e+02 1.8085776428298698e+03 -1.1534448780878896e+00 5.4764881323771419e+00 1.0309623550528563e+01 2.5790545687405995e+01 -1.7566410831186514e+02 -3.3887530426108322e+02 -4.4197417164165090e+03 6.3816542574032766e+00 -9.3361482146874009e-02 5.8399689277262860e+02 3.5570934953566229e+00 -4.6074118691007868e+00 4.9827560606857446e-02 -6.9558597816118379e+01 -1.0446597564809989e+02 -1.4706791734876512e+02 -1.4492865147683765e+03 3.2446934816828854e+00 -2.2795960154612093e+01 1.9294879764719486e-01 5.1923577933797027e+00 -4.7143079348072618e+01 8.9836660239845514e+01 -9.5085067069038232e+03 -3.7464115131717515e+00 2.1874091675935306e-02 -4.0303721611853689e+01 1.0560395601109462e-01 -7.3358834127866430e+00 -1.5623519338216979e-01 -1.8111069064587355e+01 4.1031866008666839e+01 1.7492398340255022e+00 3.5746001931279898e+02 -2.4279563699298823e-01 -3.4743059507284739e+00 -8.9738357157350030e+00 -2.1168507636938564e+01 2.5705509766875991e+01 6.9186660041131086e+02 -6.1970563622579284e+03 -2.9001326501030493e+00 1.7830434850076435e+00 -5.4854093800187111e+03 -5.0001049186219078e+00 -2.8029746743444377e+01 1.0609936929513115e+00 4.6425985049967414e+02 3.4722315898518940e+02 5.7710632946338546e+02 2.3162021697253845e+03 -2.6580447968382552e+00 1.5336539047865159e+01 -2.0913628178188973e-01 2.3900742833054345e+00 4.8163955809468497e+01 1.4859297657727850e+03 -1.2743499001813893e+03 8.5103087169664189e+00 4.9491326595072153e-02 -4.8133115914217578e+03 9.6249756160968120e-02 7.5397486402529523e-01 -1.1047165442521997e-01 8.1627222181610705e+02 -8.4429453844133718e+02 -5.7796774150814838e+02 -2.6793516256507064e+03 1.8614342111881188e-01 -8.7009180044644197e-01 -2.8515207471537065e+03 
      </Row>
      <Row Index="25">
        -1.2579963772915093e-02 -6.8667909410223160e-02 -8.6909828012665002e-01 -1.2078934371122987e+00 -9.7843467411730671e+00 3.2042571055950653e-02 7.9167777427809893e-02 -2.7583777145764543e-01 -2.2353746896937032e-03 1.6729216686382742e-01 -1.1178449770905541e-03 6.5428085244388257e-01 -6.8312056379237873e-02 -6.5911824389652018e-01 2.3151064901769587e+00 -3.7228438844133405e-02 -1.4758272129877581e-01 8.5434998132230322e-02 -1.2737067162525306e-01 -1.5130026113071660e+00 -9.6628819168722657e-01 5.0081665440811776e+00 -3.0251010385065558e-02 -1.7772278163941621e-01 -7.9492003421711566e-01 8.0070107388157086e-01 -3.8351397025237133e-01 -2.6560297833152828e-02 8.5475493902571031e-02 -1.3003423089982746e-01 8.2086484242998026e-03 2.8149551744135115e+00 -8.6040004271014797e-02 5.0760724853227801e-01 3.1410104802661265e-02 1.5149467455268795e-02 8.5059834716926574e-01 -3.6716513081582391e+00 1.6293232871711098e+01 -2.0775545641893670e-02 3.2465716417552137e-02 1.0784744862375000e+00 -3.1255619993968642e-02 -3.0285009727214596e-01 -5.4487580986463027e-03 2.6322290925784229e+00 5.9732864514385753e-03 1.0153456013126281e+00 2.9966923506203003e-01 1.2068117626094832e-01 -1.0318347594317601e-02 1.3063755662537868e-01 6.3217711785773942e-02 3.0139170155904949e-01 2.8863409717580453e+00 -8.3778290541376919e+00 -1.2504137677556648e-02 -1.3464195938144741e-02 3.7311563660841784e-01 -5.5781445304941946e-02 -7.6815285518882348e-01 -2.0853791734538052e-03 7.1050972129634005e-01 2.8960229264980875e-02 -1.2727740591027370e+00 -2.3448590259699298e+00 9.2044847337764163e-02 3.4977424153362247e-01 9.1378784905434371e-02 3.4999255530402174e-02 -3.5075931571645924e-01 2.0895341289248872e+00 -1.7685727079556273e+00 3.1771681957490035e-02 5.1721870071949644e-02 -1.2894717414283186e-01 5.2471239791785251e-02 9.1651113981339627e-02 8.3657868433699434e-04 -6.9586867121121543e-01 4.4061061144955893e-02 -2.5624591482180619e+00 9.7325720337601496e-01 -1.4181430502142939e-01 2.0794676983597160e-02 -1.3930486114121177e-02 -7.9961701992818934e-02 -1.7645358618381124e-02 2.0247697134390137e+00 1.6778060952347005e+00 2.0030138967046252e-02 -4.1037194183924583e-02 1.2503238786788984e-01 6.2443218186304772e-02 2.1075627617157711e-01 -1.6828959078238337e-03 7.5115410795770998e-01 -4.3616260266663431e-03 1.0428427051885478e+00 7.3261479366692583e-02 -1.8757802223665390e-01 6.1556870051049373e-03 5.9525376206117420e-02 -1.1867177214041513e-01 -5.4182604820932312e-01 -1.4528102885702481e+00 -2.9529767227786579e+00 7.3149505132698300e-02 1.4683995812959254e-02 -1.4877954004549601e+00 4.3305214555048432e-02 7.9669899604479077e-01 -4.4320194457870624e-02 -2.2175239848607227e+00 -4.7977029966599471e-02 -4.3743034966930718e+00 5.5431291277285339e+00 -1.1854090727341159e-01 -7.5834800699277061e-03 -6.6736427699771200e-02 1.9989415057842486e-01 -3.2072287620518836e-01 -1.2696975890288904e+00 1.2986986562839320e+00 -1.9759359754149608e-02 3.9601560662360896e-02 3.8690269103670971e-01 1.6396680336807856e-02 -4.3404172412230713e-01 5.3617650251746307e-03 6.5716800026212852e-01 -7.6858715786673137e-02 5.4058564087992877e-01 -3.0160776002798784e+00 -4.5347829499949643e-02 5.0438271136976898e-01 1.0589930672535286e-01 -1.4255596739050458e-01 -5.2945894867608545e-01 -4.1625358688354304e+00 -1.2696182455847520e+00 1.1902084950407565e-03 -5.3210239086403155e-02 -1.0793175677369997e+00 6.1736615804739992e-02 1.8957919632908826e-01 -4.4580497976733344e-02 -1.1568440854534998e+00 -6.7189049148388191e-02 -3.0385331565085494e-01 1.7959966710163471e+00 5.3311073307634738e-03 -1.9283796394276242e-02 -2.0678981504444749e-01 3.0886687341378227e-02 6.1486464503988003e-01 -2.0846329929440657e+00 7.9220667883600981e-01 -7.0103060245134671e-02 -9.9907479201691962e-02 4.9679917843096888e-01 -2.0179865636118374e-01 2.9790718019010054e-01 -8.0342166948813853e-03 1.4146022657233459e-01 1.4994386056564046e-01 1.2022530821161510e+00 -4.2441631700518627e+00 1.3354077607769116e-01 -5.5008692443233009e-01 3.3819330392137709e-01 -2.2305706845393236e-02 2.8356317197636498e+00 -4.3279516211499569e-01 7.1040581257966551e-01 4.9295311354277851e-02 -2.4594009578712328e-02 -3.7477108782717039e-02 -1.2223703445097689e-01 -8.4489821409777766e-01 8.1078028886180264e-02 -9.4858533505115794e-01 -4.7064235410758798e-02 2.1056935520831814e+00 3.0162971399293426e+00 -6.4175741376311157e-02 -5.6433792390995219e-02 2.7155061816467740e-01 5.6241378994718039e-03 -1.3921146482774418e+00 1.0339528925142076e+00 -9.2016680672895745e-01 -1.6397929824288726e-02 2.3077922570545181e-02 -1.9967478292710439e-01 -2.2241979795850186e-02 -2.8691236349864369e-01 1.4697727106666100e-03 -5.8088191860042571e-01 -2.7840586897688979e-02 2.4571918339279364e-01 1.6231258400111983e+00 -7.5074792512293542e-03 1.9294072113759642e-01 -9.7150924992778609e-02 -2.6304638849801237e-01 -3.4119032667667448e+00 1.0113231588717637e+00 -1.9393625370720713e-01 4.3299810942634680e-02 -7.2037890699597346e-03 -2.3151426172053107e+00 5.2909257891787331e-01 9.4915886560206886e-01 -1.1157830731141113e-01 3.3674844879920411e+00 -1.5499608328124470e-03 -8.6561092063340297e+00 6.2437108945717474e+00 -1.9919494604937288e-01 1.5840608826858160e-01 -1.4890620867719008e-02 -2.7036179285928219e-01 8.2314290555128886e-02 6.7404119186612625e+00 1.0353747160611384e+00 4.8426266370494291e-02 -3.6902756272865656e-02 -6.0326717374655470e-01 1.3000576011995169e-02 2.5840538125403628e-02 4.6651452792864471e-03 9.6057616122754457e+00 -9.6715282969923461e-03 1.3900988055334050e+01 -9.5426999436464000e-01 3.4076233422798322e-02 -3.6762515532181329e-03 -3.2989761143476191e+00 
      </Row>
      <Row Index="26">
        -4.5046772491042641e-01 -3.3361647588535437e-01 -9.4339073858851208e-01 4.8331995012720146e+00 3.9613850521703171e+01 2.1599368991794685e-01 3.9203956641354093e-02 -2.1977220276314711e+00 -3.1950451766413090e-01 -1.1030117475500360e+01 3.0236466716396682e-02 -5.8046833836897189e+00 5.6671466949228888e-01 -7.4274762712960829e-01 6.8928651294297083e-01 -2.0405535554694554e-01 -2.2528361435708724e+00 -2.6050329101193834e+00 -3.4446367245156817e-01 3.4982325012466724e+00 2.5301294785914905e+00 2.6438890096480463e+01 -1.0406776201800894e-01 3.0108172039980730e-02 -9.1686831654957857e+00 -3.8351397077574867e-01 3.3540892003740652e+01 5.8803067946297388e-02 2.2917259827742598e+01 7.0624154711979781e-01 7.1919265023459698e+00 -1.6282327348847460e+01 2.8932641997267616e-01 -1.3375646981162879e+00 4.1862788932564726e-01 4.7420942760541740e-01 2.9592128095314862e-02 6.9623335369708457e+00 -5.6728822925801069e+01 -2.5564394303575166e-01 -4.2976690027130332e-01 -1.4426709773774562e+01 6.6716069732812311e-01 1.2793223926928141e+01 -3.8121752172663004e-02 -4.2745098819000056e+00 -1.9618874067393399e-01 1.9954866466681587e-01 -8.8451548126515434e+00 6.0369507060384464e-02 -3.4288327652116610e+00 -5.6353548806349096e-01 -2.6224194014961788e-01 -2.8675227323948516e-01 -3.0240120031729418e+00 2.1216518216811892e+01 3.3004817177855339e-01 3.5791862264510499e-01 2.1847196112676102e+00 1.3074553271369094e-01 -1.6649984173294119e+01 6.0171801996077079e-02 -6.4244632839868450e+00 1.4766414880649670e-01 -1.1782575712985022e-02 4.1951704066377289e+00 -4.5318266361240989e-01 -2.7014356808512385e-02 -6.9537405292028631e-01 -6.6169371273773647e-02 -2.8591821704136833e+00 -2.3263159011520855e+00 -2.4452451616234839e+01 1.9882799938209128e-01 2.0333826686343448e-01 5.1622995139902770e+00 -6.5092019784444743e-01 -2.0823374729256983e+01 7.5962247143540329e-03 -2.3540065038230913e+00 -2.9250843501278190e-01 -2.2290264263815907e+00 -2.3730464487121345e+00 -1.2139381812214203e-01 -1.8510875322020546e+00 -7.0596768549441191e-01 -1.7378077531677505e-01 -2.1143355828106438e+00 -8.1879487274250522e+00 2.5647715587883795e+00 6.6625872785303408e-02 3.1222445634202478e-01 -1.5886893899692396e+00 -2.8927136315775570e-01 -6.3187262514168863e+00 4.1415323090798761e-03 -5.6530011295848013e+00 2.6254319439339557e-01 -5.7397526421126912e+00 2.3592373403679971e+00 2.3797599344820250e-01 4.8745499161292152e+00 1.5624107979842483e-01 7.7428503016703409e-01 -4.7716120322240814e+00 -3.2601598156650624e-01 -2.6937980456694277e+01 1.9089699252671199e-01 -1.0757559040008831e-01 1.6224695159868688e+01 -3.9715131796245529e-01 -3.3347171003705629e+00 -1.3532497660913809e-01 -1.7430109702554290e+01 6.6291062111316634e-01 8.1997961373206820e+00 -8.9842308468877334e+00 1.3776228700618437e-01 -7.9566009051672681e-01 5.9864686936857459e-01 -1.0660465027299004e+00 -5.7398226189992858e+00 5.7659745170665992e+00 9.7413651243119403e-02 4.8113410146667523e-01 1.3265027981693900e-01 6.8854747730673012e+00 -2.9262611726636639e-01 -6.6776006204543545e+00 -3.7533085583017517e-02 1.6678400206580989e+01 -1.0972778564377097e+00 -1.0674164595500280e+00 3.5934131621244717e+01 -1.7490570731618624e-01 -1.0135689177663055e+01 -7.2040736819936990e-01 3.4086625831713713e-01 1.5709752343738881e+00 1.3245903887318104e+01 -4.6485109412017664e+01 -3.4776051244640732e-01 -2.2557607652668232e-01 -1.2820561205053558e+01 -2.1643067888867207e-01 1.1947724234769387e+01 -3.9852852722039700e-02 3.2916356116540868e-01 4.7664374898891815e-01 4.9239664197030883e+00 -1.5117055136791667e+01 -5.8461937023187416e-02 -2.6067640316252072e-01 1.5695684572495283e+00 1.2665680368219778e+00 2.1593919167882021e+00 1.1228216708908050e+01 9.4724610042521817e-01 -1.9305616239960421e-01 2.0463045524899853e-01 2.3635430992389956e+00 5.1314404344122344e-01 -8.9269823336174579e+00 7.0246962418006320e-03 -2.7604700472810634e+01 -1.1162924951011810e-01 -6.9024239217614509e+00 -2.1334602308882637e+01 1.9063402719565747e-04 8.9968942548430100e+00 -1.0041151363323753e-01 -8.7341693111399366e-01 -6.5112370765804339e-01 2.2729276755612204e-02 8.4877638085158651e+00 1.9101513588487321e-01 3.1565369456490905e-01 9.1356039825692577e+00 -4.7574137021248375e-01 -2.9481638159494743e+01 2.5021887809388299e-03 -9.7190287444036727e-01 1.2688452905852672e+00 -1.6150734937231434e+01 -3.3386314095017809e+01 3.1468109700684088e-02 -4.2659295489591820e+00 -1.2678349235843775e+00 -2.9450861093471659e-01 -3.6318092537461197e+00 2.6697869879512837e+00 -9.9008569207471737e+00 6.2828698211824241e-02 2.3100111822813318e-01 -1.5370478355237083e+00 -2.8744533154841911e-01 -1.7836268175684609e+01 4.4541001960211185e-02 -4.7166708139403681e+00 1.3129458025250473e-01 -1.4825567830457658e+00 1.7178551181123680e+00 -4.3916551038489637e-01 -3.6781132013099294e-01 -1.9935570796158355e+00 5.3294896620873766e-01 -2.7918832827497573e+00 2.0975615599556320e+01 1.6857998383468157e+01 9.4961003161589674e-03 -1.0859350351573202e-01 -8.1637705420872919e+00 1.2563183428670799e-02 7.6264636548306850e+00 1.5191613800519255e-04 -2.2401677580952441e+01 1.1881831863333681e+00 8.2509993774900110e+00 4.7801209798285988e+00 3.4313527027567298e-01 4.2565996651562887e+00 6.5441995347693516e-02 -7.6137122916167421e-01 -4.3130511195104193e-02 4.8075388431022645e+01 -9.1382404489601967e+00 1.1225076796772449e-01 1.2201249767504750e-01 -1.3101121994959055e+01 -8.5694915618567860e-02 9.8814168875351593e-01 2.9209353700206026e-03 -2.4654830926680891e+01 -1.5496659906805019e+00 2.4463439527857577e+01 -1.8190811394137123e+00 -8.3835777204264952e-02 1.4601941798008505e-01 2.3696066862755991e-01 
      </Row>
      <Row Index="27">
        -3.4947584789281075e-02 -6.8619625335628598e-03 7.1617759696192707e-01 1.6620576511751706e-01 1.9314268019497831e+00 -1.4832179071430744e-02 9.3436252221870547e-03 2.0067696807791435e-01 -6.1722445961019806e-03 1.0326812043511252e-01 1.7155336493088130e-02 -1.6056966645753104e+00 6.7939708478563565e-02 -3.4187083422893227e-01 -1.8442962826370888e+00 1.0353656349455037e-01 -2.0718867460867540e-02 9.4929135367849776e-02 9.1946482470392318e-02 6.3893023681719252e-01 3.8709548824976991e-01 -6.0892978280026000e+00 3.6021088640912802e-02 -4.6817932731282111e-02 7.8772893900592855e-01 -2.6560297850586168e-02 5.8803068571648964e-02 1.8071074541607160e-01 -1.3295905468280509e+00 -6.0946531338390786e-02 5.2266039129960085e-02 -7.4520447242267096e-01 4.1385489643806193e-02 3.1167955599588182e-01 -3.6705085236500928e-02 -1.2729198750421000e-02 1.9791867109427486e-02 4.2013359719772581e-01 -1.0245413699580219e+01 -1.3347508959406229e-04 1.1245565220784806e-02 7.4462561505748232e-02 3.2767648016345928e-02 3.2844300633084966e-02 -6.9219997155069123e-03 -2.3766621638445402e+00 4.4119248585514637e-03 3.0945142201342446e-01 4.2470680593553141e+00 1.4410731886485273e-01 8.2529888259337714e-02 7.7858763276134613e-03 1.5078055066655383e-02 6.2927851803086288e-01 -7.5563165218022732e-01 4.4202856857882580e+00 -2.6534945566397808e-02 3.7835684307657670e-04 2.0983745907869888e-01 2.0440631999496368e-02 1.1470202370955351e-01 -1.1867418581558563e-02 -8.3727461896016120e-01 -1.6822217741983003e-02 1.0663354321645979e+00 -8.6710217065968109e-01 5.3215611936773231e-02 -1.3866763220800937e-02 1.7941637590621937e-02 -2.0985157820692102e-03 -3.7778132853102731e-01 -5.6356792252835475e-01 -1.3271600641667192e+00 -6.3801590596037211e-03 1.0235902057933011e-02 -2.8147663286265612e-02 -9.8265698755284347e-04 1.2378536514339089e-01 1.7700148693567952e-02 4.3448435016015319e-01 -7.0685624782528045e-02 4.2951252224266390e-01 2.4789266067142997e+00 -5.3555783096701150e-02 -9.3951715651640955e-02 2.3038814384872819e-02 1.4710150542697420e-02 -6.5289306647962875e-01 -5.0627537158261759e-01 2.4232321766467066e+00 -6.3188329907473348e-05 -3.5064018992086880e-02 -2.1868484522912013e-01 -4.0763457532027834e-03 -6.6721607968973085e-02 3.4642656912456382e-05 -7.1971694076611836e-01 8.3618833226465447e-02 -2.1718757210865647e-01 -1.0572510082817672e+00 -2.7597808751940683e-01 -3.4054432382276900e-02 1.9051734512323726e-02 -3.3530416980305899e-02 -6.7230980921354799e-01 2.7444419537789244e-01 1.5491994458743648e+00 -4.1091785155511346e-02 3.8652469252387443e-03 -1.0467852755827067e-02 -6.8677057814017936e-02 -7.9783731681085435e-02 -2.7508837689252316e-03 -1.7342568133973737e+00 4.5966985674813721e-02 9.4874348318334567e-01 -1.9375786822216448e+00 -8.6730244352382371e-02 -6.3625433442357604e-02 -6.7398089857272608e-02 4.6155940614637903e-02 -1.7697240732819308e-01 2.6800577370457468e-01 3.1656929832449805e+00 1.6643452956095275e-02 3.8985653376861162e-02 1.1840983855485376e-01 3.2662296296993361e-02 2.0047548076118313e-01 1.2282761567829474e-02 1.2681979961100360e+00 -1.2087160957479082e-02 3.0167910020210087e-01 -1.4100303473314066e+00 -3.6588715716297515e-02 1.0287353957825585e-01 1.4780737823727408e-02 4.4351832360296634e-03 2.2668860891759479e-01 1.4401303142189015e-01 -1.4457359385983182e-01 1.3035586975275813e-02 -1.7775207762187634e-02 6.2577335886935348e-01 -3.6272593006354270e-02 -1.6764901917700414e-01 -3.6482665252834071e-02 5.4931511093949226e-02 -1.8007863166692673e-02 -3.0699831719654291e-02 -1.5333508713288744e+00 5.9441596878264558e-02 2.4973265818615048e-01 -2.6822236374148267e-03 -3.0899753052737733e-02 4.9050250666233097e-01 6.5210602168741616e-01 -2.2756098192062382e+00 1.0029892330504914e-02 -2.0531545987813996e-02 8.2474328421184850e-02 -4.1945193657432142e-02 -1.0408349002413475e-01 -4.0964622333326151e-02 2.1773330485123310e-01 4.0842501644773321e-03 -2.1702767423025726e-01 1.3951939068389905e+00 -4.3296764531459406e-02 -1.6114147606946516e-01 4.4314821583372188e-03 -2.8867029356658747e-02 -1.7500906090299502e+00 -4.2922880228738514e-01 -5.1277177868655599e-01 -8.1101395936621953e-02 1.7568146231542646e-02 -9.4634499167756303e-01 2.9407875028457126e-02 2.9720419231698791e-01 1.5101647625851089e-02 1.8160502013839679e+00 7.4844552634884667e-02 -3.3971429828519462e-01 -9.9173009568057868e-01 -6.3018102965151201e-02 -3.0665690361465381e-02 6.9806450519869126e-02 -1.9835490284344504e-02 9.0950705350707040e-02 2.0236961319824331e-02 -1.5497579620007969e+00 4.8178612864560405e-02 4.4343548343015113e-03 -5.2021634837956299e-02 1.0099336952800464e-03 1.1370249928354781e-01 -1.2054787052516537e-02 4.5685702751188728e-01 2.8024326401492772e-02 -4.4940658002087730e-01 -2.0968032976543327e-01 6.0056701304265325e-02 1.4544413299499404e-02 1.0054206145315955e-01 5.2116012445336576e-02 9.5115527350472795e-01 -2.5900009098510957e+00 -1.0195851890765777e+00 4.8724761695986385e-02 -3.0025553722236122e-02 -7.8058170382314529e-01 -7.6367680231743978e-02 -1.6543146389547900e-01 7.6516031195254713e-02 -8.5413858523053889e+00 1.5204025274375435e-01 5.7645913854326603e+00 -1.5251650185005814e+00 -1.7274039883739029e-01 4.8673753336961667e-02 -4.2107268699176359e-03 5.7392917604651872e-02 -1.2302414900432138e-01 -7.4315731892487307e+00 -5.2706086742692229e+00 -4.0156778742190168e-02 -1.0987820878877425e-02 -2.9122212582581888e+00 -2.5714632426787239e-03 -7.7123799485036837e-03 7.2812949376825182e-03 -1.0400740594209504e+01 -4.2908867912825294e-01 -1.5232579458552102e+01 3.7372888644607274e+00 5.2720759670446038e-02 -3.9121996247275317e-03 1.6521055820234982e+00 
      </Row>
      <Row Index="28">
        8.9626575779010942e-01 2.2608858839565073e+01 3.8174273244338110e+01 2.7726298831793578e+01 6.7996721727717668e+03 -1.9071934786543370e+00 1.2314372429168969e+00 3.2141663385648280e+02 1.8517038316787591e+00 -2.0941758413875156e+01 -2.7144831315617504e+00 -7.9778060790922609e+00 1.1464187064808648e+01 4.8441107659544130e+01 -4.7175243632518686e+00 3.3870088173314494e-01 -5.7737851284606023e+00 5.2171115357423670e+00 -1.6749829684904281e+01 -6.9874016614642386e+01 -8.6838663339382038e+01 3.7037156757116318e+03 7.2493678184567898e+00 1.9152375156759787e+00 -4.8833976814778316e+02 8.5475704984346090e-02 2.2917261555936420e+01 -1.3295905378484880e+00 3.2277398705113410e+03 4.9647115018961578e+00 1.6757561076681306e+01 -1.5539196196996335e+02 1.0260608298987639e+00 3.3093668713871999e+01 9.6333655054460436e+00 -3.2444532643757356e+01 -1.1764478405631098e+02 -1.1250488009463999e+02 2.9021452523532207e+02 1.0326343238378353e+01 2.1783512176245456e+00 -1.8337728182899980e+02 3.9717939969079943e+00 -5.9588102596959089e+00 -2.4345338504428620e+00 1.4725688683007704e+03 1.2539871467663488e+00 -3.3505021346350233e+01 -1.8146392956640642e+02 -3.1418446487878100e+00 2.0814240104130842e+01 -4.3229849854794189e-01 -4.2192089118127484e+01 -1.1706972292648569e+01 -4.3622855686582625e+01 9.1931840524077415e+02 -5.1066257637523016e-01 -9.5948827314501051e-02 4.1440717682428658e+02 4.4455736315828220e-01 -2.3218294747075447e+01 2.2873227617926362e-01 2.1043359022143875e+02 4.4722585875338581e+00 -3.2127782950233410e+01 4.1311968021003963e+01 -8.0138947330173371e-01 3.2905631885970266e-01 -4.2487694746884017e+00 -8.3728717202034009e+00 -2.6852182797212336e+01 6.4149471956475850e+00 2.9651816847680516e+02 8.2488205737895726e-02 7.0311756221278077e-01 2.5433739431933986e+01 -2.9025033475409145e-01 -9.8540313494994933e+00 1.4871559889603314e-01 -2.6525607758449962e+02 -9.6198704725614093e+00 -3.3903989377914684e+01 -4.0230702337336197e+00 1.5284713864359358e+00 -4.5491791735283371e+00 3.2311349919633914e+00 -1.2632090672559571e+00 -4.7659456059412335e+00 -2.6691945720971546e+01 1.0896752573698759e+03 1.5211485368977633e+00 1.7011391401056575e+00 6.2151288283639587e+01 1.5574524569003967e+00 -2.2927691497602588e+01 1.2918942779065055e+00 1.7242486990759130e+02 6.8287194574282513e+00 -4.2910122992296237e+01 -8.2938093772623688e+01 -5.8753747351436258e-01 8.2702359889808577e+00 -6.2199281117914289e+00 4.4567382806475834e+01 -4.4091790927669933e+01 2.5649108090703817e+02 -1.2972077596377421e+03 -2.4157305447630222e+00 -1.1883460545995419e+00 7.7473196901745268e+02 -7.7221151523267684e-01 1.6739565110672444e+01 8.5611086241833023e-01 -1.0345780787402814e+03 -1.5448538035107134e+01 -1.3023660300386754e+02 -2.4937104840367454e+02 1.4435594670181615e+00 -2.9199000508455384e+01 -1.3162177842727010e+00 -2.8100118194788323e+01 -2.5831591133334356e+01 -1.0886779766400196e+01 -8.7918722213413957e+02 9.3088319998142799e-01 -8.2067038591371100e-02 -8.4249149854975258e+01 -1.6067882495875461e+00 7.2910248075482453e+00 2.0518195901460530e+00 1.6987983104873365e+03 2.0515455214943657e+01 -5.5817440277884771e+01 1.1882917953951687e+02 1.2920432673810995e+00 -1.6378963521259969e+01 4.3001535367830543e+00 -5.5988873473873710e+01 -8.3111682288360917e+00 -2.6706590529361165e+00 -2.1580915466782753e+03 3.1108020196504116e+00 -1.3835423084352492e+00 -4.8605133096296868e+02 1.2158256493120017e+00 1.7770688369532152e+01 1.9534459705139384e+00 5.5653398116423068e+02 -6.2273719320730692e-01 -7.7119910476186533e+00 1.0508811418885671e+01 -2.4579558905246741e+00 1.5884409499946401e+01 -1.9465547614467651e+00 3.6702803945871381e+00 4.6395935215096927e+01 1.1266152802305965e+02 -1.8129290125334228e+03 -9.8873714558289993e-01 -2.9051203188482297e+00 1.3906852647740925e+02 -2.2417597860155620e+00 -2.4691106083746647e+01 9.5542624432539991e-01 -2.9059626195372457e+03 -4.4861373849993953e+00 1.6784501573940929e+01 2.3482528667900641e+02 1.6089079892200298e-01 1.8023705960368233e+00 -2.0973799023840854e+01 9.5083053050723976e+00 8.4953006619531692e+01 1.7644630317786294e+02 2.1671030899567131e+02 -1.6145425865997176e+01 -2.9167467633273905e+00 7.9638524987853089e+01 -6.9104855889558570e+00 3.7792192671851630e+01 1.3792454336618505e+00 2.6712833526205395e+02 9.8669457064919044e+00 5.4075878495546874e+01 -1.5992507214479247e+02 6.3611726857345818e+00 -3.2678573703163600e+01 -2.1725984913288268e+00 5.4936190517551573e+00 2.2177847283063556e+01 3.4632002547383308e+01 1.4632983899977662e+03 7.6728701529166699e-01 -2.4749861107442950e-01 3.6121131086256355e+00 -1.1299371239804770e+00 -1.3356138626855682e+01 2.1771053600703666e-01 -2.6456771792285144e+02 2.8718157045586850e+00 4.1346696227788925e+01 3.8103589597158134e+01 -2.5407840666762094e-01 -1.5977465407047871e+01 1.8408206707795589e+01 3.9743005570262667e+01 -9.6708192645341114e+01 -1.0150107109526582e+03 2.2799564871601797e+02 1.3568096247935889e+01 4.5772158950989885e+00 1.1190720211125445e+03 8.3054074028710900e+00 -6.6375131012738990e+01 -3.6410737022791029e+00 5.9183534353784980e+03 -1.3884170508069380e+01 -6.2913527211539804e+02 9.9663835440399043e+02 -3.4503072959499437e+00 2.8486911633734401e+01 2.2941598527971527e-01 6.0695721527154546e+01 -7.2530689891803650e+00 -2.0492750670843529e+03 -3.5138327291923561e+03 -2.7183211111052854e+00 -6.3261815724920423e-01 1.8154828495615125e+03 1.8171068500381948e-01 5.7319202320485729e-01 -7.8637905203888159e-01 1.3086799015223745e+04 -2.3127198118364362e+01 1.3572458935961463e+03 -1.7936969051980659e+03 -6.6535677418240491e-01 3.0010451263192817e-01 -2.4770740596310434e+03 
      </Row>
      <Row Index="29">
        -2.3224477045428188e-01 -2.4270730544230901e-01 2.4875869094721565e+00 -6.5224152393758565e+00 -8.4923201358993538e+01 3.6661818959948089e-01 3.6197860809372352e-02 -1.4475064921280136e+01 2.6549681198898667e-02 1.2412285400787021e-01 3.8986143084247887e-02 2.7658535286369670e+00 -1.6223450912988042e+00 7.3291390840955328e+00 5.7507801226982338e+01 -9.1258874702529968e-02 2.8730956879496683e-01 -6.1176465902889565e-01 -2.1938052705739031e+00 -3.9504306747050499e-01 -2.7518305986959604e+00 -1.7877882074750960e+02 -3.8368045569078313e-01 -1.6158558081740576e-02 -2.7914312697128651e+01 -1.3003422697663045e-01 7.0624154937377170e-01 -6.0946536190210072e-02 4.9647134975627338e+00 3.0553740653879924e+01 3.2046499961142851e+00 -8.2864233143957080e+01 1.0622225685823231e-01 1.3146058306063493e+00 3.7466329998421999e-01 6.9379719081279623e-01 -4.9002639809519737e+00 -1.9672596215591419e+01 1.1591989869216832e+01 -1.7767475177596775e-02 -3.4977515087227018e-02 -2.2168305136091877e+01 1.1355151539735078e-01 1.7034111092604864e-01 3.3087639195685636e-02 -1.0957491435474513e+01 1.0205020054454536e+01 -7.7022371026683238e+00 3.7547827253399404e+01 -4.7962261546558693e-02 1.0328722286419803e+00 1.7544954616891517e-01 1.7576227740852643e+00 -5.6078758198864183e+00 1.0806373986255494e+01 1.2653912031650543e+02 2.6193904766623387e-02 -1.8465297030110794e-02 -3.3280616231262684e+01 -1.1722202233493639e-01 -4.8441417600851544e-01 -4.6422179274361319e-03 -1.2954450002907674e+01 -1.3159093833748958e+01 3.0478916149858710e+00 -1.4453719297002766e+02 1.2865043089941824e-02 9.7171363898153951e-01 5.6936199589670367e-01 9.1698500885673462e-01 -5.0808351817382800e+00 7.8348215157675440e+00 1.4217035732361001e+02 -4.8210713769197111e-02 -7.1738573735398214e-02 -1.1654192699729606e+01 -1.9257187464870640e-01 -4.0005965639704577e-01 -2.3127127853769969e-02 -1.6396453941547993e+01 5.2385561073942615e+00 -1.0977305784170506e+00 -1.2487771384581507e+02 4.7749544435871788e-02 -1.3117977989083844e+00 -2.8759713073412829e-01 -6.4783621172955463e-01 2.0105962376945685e-01 1.2763558927009424e+01 -6.6998235521139577e+01 -6.6463672513170036e-02 5.6209906795671158e-02 2.0814736571355752e-01 -7.5615489843369355e-02 -1.2618630841585787e-01 -4.4756653785941652e-02 -8.8112598431919764e-03 -2.6461088202903120e+00 4.5440717335641239e+00 7.6116148233595595e+01 1.3887725693129149e-01 -4.5604952565463464e-01 -6.1605820676609868e-01 1.8821731598179081e-01 5.0596538712612968e+00 -2.2144070355112262e+01 1.0606123030450675e+01 6.0274901756768506e-01 1.0670986131098070e-01 -1.4169238530667840e+01 8.6234457482372129e-02 3.3261342385446813e-01 -1.3062563530225269e-01 -1.0325565315757387e+01 -2.8603413846314791e+00 -2.6869543758046074e+01 1.3125546111354453e+02 -1.0131427960268924e-01 -1.2703355495671618e+00 -6.0795137584939185e-01 -3.2470077091767049e+00 5.2155269370931947e+00 -5.6993335924800324e+00 -4.2006737512610016e+01 -4.0166631067458003e-01 1.6166488267155707e-01 7.9665789514261405e+01 2.4498375571513492e-02 -7.5942331168882049e-02 1.4020540024173134e-02 2.7559583877090194e+01 -9.2874497573852928e+00 -1.1528636773853020e+01 1.7705034843687099e+02 -8.9357764968807943e-02 1.6071793950666016e+00 -5.0126739896967054e-01 3.4769972203697286e-01 -3.3221773096729201e-01 -1.8699839376222130e+01 5.1700454019798144e+01 -4.7807924563591064e-01 -1.4147951897899504e-02 -2.2280182592796805e+01 -1.3692288328228713e-01 6.9134970461319978e-01 -1.6348181441507570e-03 -3.8803942811604433e+00 -2.3536667202001076e+00 3.2021757035990177e+00 -2.2598888858969246e+01 1.2062264481187879e-01 -1.2521955625915826e-01 -2.8365659150779621e-01 6.7566568332393340e-01 4.0611801789078825e+00 -2.2633216291699796e+00 -2.8757929654044074e+02 5.5794737424107521e-01 2.9881057799399979e-02 -2.2370833633798725e+01 9.3628778735708906e-02 3.8145294862260748e-01 -4.4516510177472220e-02 -6.6343601874924474e-01 7.8304584809090123e+00 -7.8761531568496537e+00 2.1740426281718436e+02 -1.3337632577290753e-01 2.4758003692192965e-01 -5.6720846835287442e-02 2.8400471206502012e+00 8.4471468425612919e+00 -1.3428167957391729e+01 5.6826368026586351e+01 1.4113900437500924e+00 -9.0826498891517879e-02 5.9420518327400217e+01 1.6168218956468944e-03 -1.2153435250237454e+00 3.1209115791748232e-02 -5.1842106363754617e+01 -9.7176752132059576e+00 1.0252171970082076e+01 -2.2611393903202980e+02 1.8109641670461232e-01 -1.5749393175023951e+00 -9.6364053160505858e-01 -1.0826685073971234e+00 3.1015002701325294e+00 6.3083639050601050e+00 5.3128675867505081e+01 -1.1228452479699252e-01 2.9081192922959062e-02 1.6859345158609358e+01 -5.6238344721344868e-02 -3.0685845630296171e-01 -1.3114619629388119e-02 1.2702176318591228e+01 -1.8275857690523480e+00 -4.7242779165389948e+00 2.0853306080451875e+02 -6.3169227686630705e-02 -7.5832806677164433e-01 -6.2374885625716792e-01 -2.6791068448343838e+00 -4.1352377068083523e+00 6.7705635802495188e+00 -1.4192150763916800e+01 -3.6905465207034283e-01 1.1759188886170518e-01 -9.1380883291647478e+01 -1.3985070032750180e-02 4.9138579759368595e-01 -1.1986037800716440e-01 -3.2521421529422456e-01 -1.3647674564281793e+00 5.5629339521711216e+00 1.2348826645212766e+02 -4.6026483796269890e-02 1.4442736212255154e+00 3.5807154644017736e-02 -2.4936059876697048e+00 -8.4338161612485529e-01 3.7556634051591374e+01 4.0202017992378401e+01 9.6697939738033167e-01 -1.2417740564941084e-02 -4.4153971551040101e+00 -1.2805922629693149e-02 1.0972279352034153e-02 1.2872481618277743e-02 -7.0385568081664658e+01 2.5747746111123909e+01 -2.5929480634999759e+01 1.3950776595639738e+01 -9.9435851392675762e-03 -4.0918255178967633e-02 -8.1675756207509679e+01 
      </Row>
      <Row Index="30">
        -4.4569463498042463e+00 9.2946714782320896e+00 4.7737326152355308e+01 4.1449339680757703e+01 6.6179085906571709e+02 -3.9266635353224855e+00 -5.8176081238564659e-01 -9.8076250598336628e+01 1.3512794457728048e+00 -5.2208916607716844e+00 -3.4182852428884514e-01 1.6255192649074047e+01 8.8172197310136813e+00 -4.2844434065485117e+01 -2.2146852137244423e+01 2.6021841235732595e+00 -2.4873265685568136e-02 3.0239382764910392e+00 6.6375596714777911e+00 -1.4802961303868503e+02 -1.2766639038085850e+02 2.9286915607936680e+02 2.5128767330048998e+00 8.0464471703856066e-02 5.3084849057359293e+01 8.2087158301349383e-03 7.1919269825843912e+00 5.2265998038308087e-02 1.6757577408025270e+01 3.2046508637609907e+00 8.3419209387821945e+02 7.8379662333003580e+01 -1.7752260351297786e+00 1.9036798384447491e+00 5.4683314321776688e-01 2.3962745528920895e+00 -5.6709253813690367e+01 9.0571945803333620e+01 -1.2786448926351841e+02 5.4795831433549074e+00 -2.8250195125232619e-01 -1.0178888195368256e+02 -1.6820767316427832e-01 1.8852732070975229e+00 -1.4410764320554006e-02 1.5734840373585257e+00 -1.2375522968986967e+01 -1.3354125212522342e+02 1.5262331118846353e+02 2.0545812435194648e+00 3.7512544191540744e+00 -3.3966194123211668e+00 -1.7717741129199947e+01 -2.2590244625766779e+01 -7.9406865492066572e+01 4.1250348290544935e+02 1.9757796438961084e+00 2.2465827450433093e+00 -1.0231650802958757e+02 -2.8286191150768381e+00 -5.7477667327789197e+00 1.1382093592513058e+00 4.0735364020783891e+00 -7.4304868068257690e+00 3.0737149929459741e+02 1.1610990918682830e+02 -7.0467881703803572e+00 5.2048903002349078e+00 3.2516242190836859e+00 -3.7017734683878558e+00 -7.8039319713955223e+01 -3.9676796973264572e+01 -2.6479048642329872e+01 3.6960086215132546e+00 8.7903683522304799e-01 4.7031788177631597e+00 -1.9062732257871744e+00 -6.2155993090141948e-01 2.0447077128485877e-01 3.8647879978252604e+00 -1.8626599004343280e+01 1.2319132449337066e+02 8.2556525963946967e+01 -2.2282006950825046e+00 4.3997840576436786e-01 -1.4936427219329840e-01 2.6117778252692005e+00 4.3873393570813647e+01 -7.0420440187245163e+01 3.9860345614235848e+02 -2.0755974635828780e+00 -2.0239886276755059e-01 -8.7647504911566102e+01 2.0299206864241393e-01 1.9576009928495068e+00 2.2130227479338460e-01 -6.5334555986829059e+00 1.4273724612521276e+01 -1.8548132730405632e+02 -2.2510049060669553e+02 -1.3940532611601812e+00 -3.1359511439904963e-01 2.7202516065275484e+00 1.4236927747645204e+01 -1.6785494729341210e+02 1.9018714680169069e+01 -9.8355755175486593e+01 2.7465785217584453e+00 1.6743298531397606e+00 -9.6217008424855408e+01 -3.2962251428075620e+00 1.1935764790275119e+01 -2.5480908941651892e-02 -1.4930892215464098e+01 1.5550748982845988e+01 7.1450912741620414e+02 -2.3675188860718754e+02 -8.5683348097656662e+00 -7.4180054028861839e+00 3.3279758000074171e+00 -8.1533123512083883e+00 -4.5146002899705216e+01 -6.7787589330031523e+01 3.3762923434866298e+02 2.7321757728585987e+00 -5.4537500102699732e-01 1.3888604731587196e+02 -8.0924536885937692e-01 -5.3698050405594344e+00 2.7142801401554595e-01 4.8500771324490870e+00 1.0326628531078832e+01 3.5588770534451265e+02 -5.6167485768966799e+01 -5.8215167182495864e-01 1.1086996867944077e+00 3.2231222314583496e-01 -1.9079841358933272e+01 1.2739216040478794e+01 1.3158152618955256e+02 2.5380717090844701e+02 7.3166780670206411e-01 3.5403473763231696e-01 2.8859717389191701e+01 1.6410832166407427e+00 4.2978502115917649e+00 3.5267452220016560e-01 5.7765854574442415e+00 4.4368352227166952e+00 -3.9865234641868881e+00 -2.1056458938272950e+01 6.6236733220015032e-01 1.3347268017647345e+00 -5.2758009081659019e-01 -3.2139355880683098e+00 8.0986589953577024e+01 1.5128631763197313e+02 9.3334665725327795e+01 6.6352582633899415e-01 1.4068809630819601e-01 -6.0452727113435458e+01 7.2601170438946472e-01 1.7709460543916293e+00 1.6843414298454856e-01 1.7583241058148232e+01 4.2064708002920170e+00 -4.2444591582973982e+02 2.4353744279975786e+01 -4.6624481288030495e-01 8.7580179085968144e+00 -5.0071694561914653e+00 -1.2967343239190726e+01 1.9117345632587683e+02 -8.9336063842604915e+01 2.4579204050424732e+02 -1.8292084325820387e+01 -3.9542063338419284e+00 1.7742555909843310e+02 1.0454496862506925e+01 -3.1643103034099383e+01 -2.9198554588486090e+00 -8.6914165892264521e+01 -1.7459018975638372e+01 -6.1063183230159302e+02 -5.4401684327048190e+02 8.6275270962048083e+00 6.2141468487427787e+00 1.1596151282406995e+00 8.8762154764808088e-01 4.6908127137274676e+00 1.3112809849844780e+01 1.4037928756036854e+02 2.4680429950819978e+00 -6.9318623701534188e-02 -3.5457835705439720e+01 1.4380667540253411e-02 -6.8202057776293259e+00 -2.5010886098586249e-01 -7.8929827907268191e-01 4.3235303425132656e+00 -1.1298488153217477e+02 5.7758581969181250e+01 1.3589971736223168e+00 2.1291640884189000e+00 1.6885734502825134e-01 3.1866455273430599e+01 -3.3025369750197012e+02 -8.0558622958678416e+02 2.9847606093594550e+02 1.5770767116785303e+01 5.7308415687093213e+00 -1.3939350805287904e+02 -1.2879634322713855e+01 3.0099878244265135e+01 2.8410641216841741e+00 -2.6656059542163132e+02 5.6475080489138314e+01 2.5162221015030900e+03 3.0114859507964394e+02 -1.7835341967051427e+01 -1.3250502076204640e+01 -2.7359824067477279e-02 3.2507742134842253e+01 3.7826759718786579e-01 -1.7969531446981769e+03 -1.9746354083683036e+03 -3.4024658135091230e+00 1.5686262689910149e-01 -8.6122565859725455e+00 5.2644539475677182e-02 3.7782003944927056e-01 -1.3219661421039086e-01 -5.6427343260774512e+02 -8.2294642524927028e+01 -4.1883156368835253e+03 2.9686654087469731e+02 9.9314896618935999e-01 2.0504707476296757e-01 -3.7933338446962686e+01 
      </Row>
      <Row Index="31">
        7.0243205103140980e+00 1.2697612704359926e+00 -2.3749806479888503e+02 1.2941585371236314e+02 1.2583255734294653e+01 -2.3833404314788362e+00 2.7609537732829104e+00 4.7037385756708682e+02 -7.2174087753735972e-01 1.2580193551816940e+01 -6.9506079065656889e+00 -2.4767839819597430e+02 5.0525715159108358e+01 9.3906518922124363e+01 8.8567734172084602e+02 -1.8964954246824073e-01 2.3190226415211175e+01 -2.0228488479567730e+00 2.9488015727915773e+00 -7.4793582009971033e+02 -1.4364646094618365e+01 3.8382799801230431e+03 2.5987551497172397e+01 -2.1334189183947392e+00 -1.8768008921825838e+03 2.8149559400525286e+00 -1.6282326500746422e+01 -7.4520528372730999e-01 -1.5539150678423312e+02 -8.2864234741938660e+01 7.8379531074298399e+01 1.9178742745582538e+04 2.6654860450073120e-01 -6.7891063924216990e+00 -1.8254902133096391e+00 -1.8889378589796468e+01 -5.3333196670724035e+01 4.1425137262056961e+02 2.8995250034588098e+03 1.3142797967818389e+01 5.9103358856141597e-01 4.3255158565526506e+02 -1.2114783647798388e-02 -1.9554556470255665e+01 3.0176347669475048e+00 -7.3336424998618469e+01 5.3178668781798081e+01 2.6159586748013709e+01 1.0067448991868256e+04 -7.2893648030840268e+00 -4.6398620057280269e+00 -5.3276245572191403e+00 -1.0527686443240469e+00 -1.4257660480665828e+02 -3.0374915245547891e+02 9.8062930543720722e+02 -1.8205143476889692e+01 1.2425001250243386e+00 1.2842273914813995e+02 6.4281170431045531e-01 3.8445208540085446e+01 -2.7613306796546757e+00 7.8498998526066771e+01 -2.6054817937324395e+02 1.6045705565018579e+01 -2.7316803432915476e+03 -3.3423369480415630e+00 -3.6680283110399614e+00 -1.3761456992904517e+01 -4.8706121690217685e+00 -3.5609094819599801e+02 -2.6201193927344866e+02 -1.4739858912229538e+03 -9.4594956440548099e+00 7.3409628543616989e-01 -3.2757616635209843e+02 -1.4772408127464587e+00 1.2095329285276712e+01 1.7097068521140146e+00 -1.4701849927524435e+02 -9.8077504112042817e+01 1.8045191897890649e+02 4.5790655570979980e+03 5.1829473616444472e+00 1.0972043284698197e+01 1.1526090293587497e+01 -5.1629223069176078e-01 7.2427596247732833e+02 -1.8039149855020673e+02 -8.4867622691392899e+02 1.0893131161301177e+01 -1.4388830797892060e+00 1.9490082871905179e+02 1.9578293059863343e+00 4.7283181012861490e+00 4.0520044462616260e+00 4.6735478211635325e+01 6.0764814750875729e+01 -4.2563861754478421e+02 -2.7582373886359856e+03 2.1922114949421942e+00 6.6984388632117771e+00 -1.6495865417754288e+01 4.4242019189125756e+01 4.3936690559290355e+02 8.5359664641568020e+02 -1.2409978391256518e+03 -2.1222065869494472e+01 -2.9247927181445155e-01 8.3632928657716548e+01 -2.9573075456605515e+00 1.7412960056787668e+01 -6.1863516793195217e-01 1.3912476120747488e+02 1.6722881216202484e+02 1.2769748526265346e+02 -1.8298787291447825e+03 1.0620219012518870e+01 -1.0430400821695329e+01 1.7818434135078249e+01 6.1174396738724113e+00 4.6885059885531496e+02 2.6140754974215054e+02 1.1832907500023257e+03 2.1150389872477184e+01 4.7466111506780333e+00 -1.1495540489014384e+03 1.5749535753670325e+00 1.8283133436661615e+01 -8.9954087070470123e-01 6.9135905078607720e+01 2.4790362941570683e+02 -2.0314528961496040e+02 -9.0219822208038058e+03 -2.3509052508138422e+00 -3.5641111935866888e+01 6.4827459303918662e+00 -3.2425469278551589e+00 5.8119663969876592e+02 6.4206767432054176e+02 -2.9118640950422341e+03 1.8350195215802145e+01 -7.8684890140421349e-01 -2.0449688412285491e+03 2.7401683108597172e+00 -6.0620696686300803e+00 -8.8571218891656311e-01 5.0560442068153861e+01 -1.0160647494527950e+02 -4.3716413990480413e+02 2.0835657340748785e+03 -7.6476798790084057e+00 1.3558476502708800e+01 -1.6851621573324749e+01 6.3827112903413585e-01 -5.8361405998437272e+02 -1.2139454413814110e+02 4.6297780236082035e+03 -2.5245711010796171e+01 -5.8225123413839128e+00 2.4088338546673504e+03 -3.9196474990580814e+00 -3.6255631554583452e+01 2.0367400271447744e+00 -4.4328453191054678e+02 2.8586758302722785e+02 5.9747268125853486e+02 5.6079804866592040e+03 8.5006855502929213e+00 -2.2207896961319321e+01 -2.5998362689840782e+01 2.3907929200655772e+01 -8.0318946749694510e+02 8.1826406618136775e+02 3.4177226231989334e+02 -2.4945559511599804e+01 -7.3388507153241733e-01 -9.2408774291214354e+02 -8.2680471495787806e+00 -1.7333256871847311e+01 -3.9912625176651666e+00 -1.2910695504611072e+03 -7.4620901092677173e+02 2.8619644191564987e+02 1.0660915743922962e+04 1.0693276373894992e+01 -2.1582123542541467e+01 2.9961216264330837e+00 5.0852999107795540e+00 9.3543435228370413e+01 1.2932990735396743e+02 2.4741251937380657e+03 2.4083000677617555e+01 -1.3536966104924306e+00 7.4288788377447054e+02 1.4710467714284903e+00 4.4685956781904679e-01 6.7822955080022229e-02 1.0957991491071880e+01 1.4173367091050386e+02 -6.1280249115079641e+01 9.7817888288199902e+02 -4.6516740775738574e-01 5.1427826075888277e+00 1.6042921360807171e+01 6.5304816270146224e+00 7.4595621439934087e+02 4.8051727853391031e+02 9.4080366538973067e+02 1.3480182277308531e+01 3.4502254062584692e-01 2.5887122636553831e+03 7.1188082304993969e+00 7.2546988816403442e+01 -2.7893129248711110e+00 -2.0641500834048793e+02 2.3835109606039015e+02 3.4248281600022779e+01 2.1984374101518097e+03 3.6295806016385290e-01 3.7883035837033901e+01 4.1161646840375121e-01 -1.7183924756237971e+01 1.1536829440845850e+02 1.0864054112749168e+03 6.1077465788664142e+02 -2.3688510482350775e+01 -1.4764769399049884e+00 4.9312438222050905e+03 2.1875903220439258e-01 -8.0277431538488031e-01 -1.9419671774589387e+00 -2.6902014585358238e+03 -4.5389559577706230e+01 -1.1476840281150223e+03 7.5366262892367959e+03 -2.6004243303067840e+00 8.7463236334139793e-01 -2.5947708720042651e+03 
      </Row>
      <Row Index="32">
        1.1840764946365084e-01 2.1032633022862157e-01 -1.7305092016491130e-01 3.8529053753545828e+00 -1.2349151206326496e+00 -5.9593644641246779e-04 -3.7096990162620386e-02 7.0507132496663871e-01 1.0991271298324976e-01 -1.9488362389717045e-01 -2.2072546746338667e-01 1.0993674408609184e+00 7.1560396195691434e-02 1.9649830551632714e+00 -2.8758591684628527e+00 -5.1448558007653589e-01 2.9254683705680773e-01 -5.2385638045569016e-01 -5.3987440028218758e-02 -3.1277319493119027e-01 1.3137141868817253e+00 -1.2557635003046016e+01 -1.1349500150178882e-02 -8.2859544768610655e-02 1.5109107413290701e-01 -8.6040004238343890e-02 2.8932641866424547e-01 4.1385489369377582e-02 1.0260608530141333e+00 1.0622225605173319e-01 -1.7752261052618463e+00 2.6654861668665220e-01 1.2293253605567289e+00 -3.5272710434484222e-01 -1.3507125124802022e-01 -6.5455839327133170e-03 3.1723317593470743e+00 4.3514875553285624e+00 -3.5475739282503582e-01 -5.6659813240847817e-02 -1.0287777319441396e-01 -7.2908910440586716e-01 -1.4429131445991905e-01 -3.3123799924594577e-01 1.2729335964737448e-01 1.5879076830462626e+00 -6.7266102552339668e-03 2.6390859220602234e+00 6.8338075740997226e+00 -1.3566366096879472e+00 -9.1394843664151715e-01 -1.9563476747317693e-01 -1.4074176888094814e-01 -1.1475994844294943e+00 -2.8532519454332714e+00 -2.1541860520737828e+00 2.9315743875996777e-02 -3.4386246462669356e-02 1.9582928867203009e-01 -1.0004266392490328e-01 -1.0862121268108993e-01 7.0887153440704162e-02 1.0841282891520798e-01 -9.4070447154584791e-02 -2.7083582751067752e+00 1.0941387319565425e+00 -3.2703448865944851e-01 8.4395553665951917e-02 -1.3752528738236836e-01 8.3897088572593148e-04 -1.8073011614378132e-02 -1.8796763965643777e+00 1.8974968048351002e+00 -1.7531158182650303e-02 9.3951664209429436e-03 5.2562483891997402e-01 9.2943685780475072e-02 5.2576635948644146e-02 -1.3901379106662892e-01 -3.6626445296014598e-01 -1.0196008833897574e-01 -1.5989503616123271e+00 4.0234244678768967e+00 4.0993280284492095e-01 3.7302154297269696e-01 1.2069944014985712e-01 -3.3253877485748262e-02 -9.1091949702203201e-01 -5.5221450975705579e+00 -1.1796355548685824e+00 2.7600643701634391e-02 1.0917997404335200e-01 -2.1449335178988349e-01 1.2290416141383705e-01 3.5112157243603725e-02 1.7410803334517810e-01 -2.6911349701518805e-01 9.2973689950042182e-03 -2.7843470739932883e+00 -2.7527546913885317e+00 1.6566607295417557e+00 8.6052022303852738e-01 1.3617441687797344e-01 2.2246699726629005e-01 -1.6111100379595928e+00 6.0157831791710876e+00 1.1071048500252800e-01 1.3565395498906382e-02 5.2206831734391418e-02 -5.2450829148742173e-01 1.1843382004108188e-01 6.7930114637614414e-01 -2.2245672943640724e-01 1.1031477160778991e+00 3.0221558275394722e-01 -1.3455559975952296e+00 -4.5329614193882151e+00 6.7564938100630534e-01 -7.3734307441012170e-02 3.4474487621325028e-01 -2.6388470325802038e-01 3.8455063904088593e-02 2.9230163627696975e+00 -4.2522167294689552e+00 2.4647943775524622e-02 -6.6841691734894987e-02 1.8719841880773913e-01 -1.5396527194251911e-01 -3.5399538638930755e-01 1.0443664809542658e-01 -3.5988775150608454e-01 -1.2559660063961609e-01 -1.8566065678436523e+00 -4.5837347544752838e+00 -2.4556177235888176e-02 -1.3283096196195205e+00 -3.4778421839730378e-01 -1.9274074562864474e-01 4.4238327738651329e-01 6.3726011118539247e+00 3.9079262155837569e-02 -1.0504400173217410e-03 5.0377604517668914e-02 -3.7373704556198106e-01 2.3594917404812360e-01 -3.0575782620362357e-01 3.4328796675780904e-01 5.2709848501816836e-01 5.4782878184463257e-02 2.9067973683613282e+00 -2.9909978979815506e+00 -2.0919191189005187e-01 -4.0970326734705026e-01 1.7790090431235139e-01 -3.8545006302158846e-02 -1.7203182190287238e+00 4.9426365746040801e-01 -3.1665132560895017e+00 1.5512252954986983e-04 1.3005064950846046e-01 1.9878172448778741e+00 4.5491844698210021e-02 1.6745851702654990e-01 -9.2716456442922368e-02 -6.8628603327545079e-01 -7.4037502064381755e-02 1.9237370162666778e-01 3.6679203667820133e+00 6.3291083438779672e-01 1.1944077834049538e+00 -4.1189534214251733e-01 1.1519737822845122e-01 -7.9073419062868577e-02 4.7884824664761538e+00 2.6606599064903094e+00 6.9470873066433715e-03 -1.9326555500835424e-02 -1.5839301033098820e+00 -3.4219377576477117e-01 3.1806068897226436e-01 -5.1613243217902216e-01 -2.7414104876791772e+00 7.5665000490238388e-02 2.8452577107326800e+00 4.7383070345356080e+00 8.4385063186587950e-01 3.1396144139568360e-01 -4.3746305071296854e-01 2.2890972569239332e-02 2.0707518983797399e+00 -1.3901525774590482e+00 1.0864556214495565e+01 -3.5108846867751335e-02 -1.7830408045992025e-02 7.3689066189683672e-01 3.2042946446407677e-02 -4.7194284097506412e-01 3.2801933523780094e-02 2.7142350928647829e-01 -4.5376854728989002e-03 1.8119733204721342e+00 -2.0523958892895280e+00 -3.7756756973265160e-01 4.4297006383520909e-02 4.4997178683931917e-02 3.3377118626975744e-01 -1.2740531467906420e+00 7.1729934511710676e+00 2.0869590171271852e+00 -2.1093819776871737e-02 -3.1932809181532740e-02 2.4605302676889096e-01 3.4242405970279932e-01 2.6856010781496081e-01 2.2774667732189310e-01 -1.7634450205696424e+00 3.3790619307126990e-01 -5.4935780318362832e+00 -2.8644279775383659e+00 1.3637561927028323e+00 -1.5438158848036407e-01 3.3371535219052222e-02 5.3913064800791644e-01 1.3363709105198454e-01 7.6853422091007468e+00 4.2564411370799373e+00 -2.8063548416862694e-02 3.2054988023845619e-02 2.6151761877183821e-01 3.0888145887596780e-02 1.3346346712094365e-02 -1.0546306212076070e-01 -8.0350797614254148e+00 -1.5759023721197093e-01 4.9288010041581520e+00 8.6233933306039467e-01 -4.6758499788328928e-01 2.8276207297622591e-02 9.2463151770522045e-01 
      </Row>
      <Row Index="33">
        9.0485304963510843e-02 6.3648613149348421e-01 5.2121590760216350e+00 -2.8084306518966777e+01 5.9136495740967803e+00 -4.3645128428024815e-02 2.1249473230463145e-01 1.6436833983912948e+01 -1.3431672223727353e-01 -8.3956533734445360e-01 9.9801377207702213e-03 3.7002748924546722e+00 -9.5647264340679605e-01 -1.5044950044803094e+00 1.0095702303319740e+01 -3.7058922700166197e-02 -2.1343699205432998e+00 1.2564034788700944e+00 1.8744995433193565e+00 2.6724672244053682e+00 -3.0213986462171306e+01 -1.0437838250305504e+02 3.1129218474728448e-01 -6.2463789163390671e-01 -9.1675535944108049e+00 5.0760725540347418e-01 -1.3375646927488560e+00 3.1167954742729459e-01 3.3093670650730388e+01 1.3146057713949499e+00 1.9036775746716454e+00 -6.7891148268554389e+00 -3.5272710482290665e-01 2.4449955660638146e+01 -1.0318350757945733e+00 -7.3632973325533868e-02 -4.7370217138236868e+00 -6.7866143251070241e+01 6.6608686549466256e+00 1.3490462575582840e-01 3.2963568065903659e-01 1.5039243361951804e+01 2.7367301004181255e-01 3.1847193617772405e+00 2.6392068881900599e-02 3.7353396537502256e+01 3.0860106741342008e-01 -5.6831085611265912e+00 3.4127519947802512e+00 -2.5103338142866960e-01 -2.1518200126516076e+00 -5.1669520567654681e-01 -1.2746385913617075e-01 1.8258694433808671e+00 6.7137879519086709e+01 -5.3560431746300310e+01 1.8580579357639904e-02 1.2048910589820255e-01 2.2113233590003802e+01 2.1548738112645482e-01 -2.5366526962955400e+00 -3.5061033823323359e-02 4.1302401991158320e+00 4.3528849062492814e-01 -3.6523172367069492e+00 3.6062894618025325e+00 3.7269533741734029e-02 5.5836504601860426e+00 8.1981947985533754e-01 -1.2201030448428796e-01 -7.1756956165636581e+00 3.7516421445950982e+01 -6.7173780899960548e+01 1.1507458848295932e-01 4.7696188154700891e-02 -7.7565481825814686e+00 -9.0867393837470445e-02 -3.0001668655284917e+00 -2.9728577742161713e-02 -8.3864983098542965e+00 1.9298225599312993e+00 -3.2514640724843797e+00 -2.3044698598411600e+01 -9.4429989343055243e-02 1.7765240231813768e+00 1.1770671290422849e+00 -1.0305459460960265e-01 -4.1678626037635684e+00 4.7916071037826043e+01 -7.9769564126851037e+01 -8.2252676335286989e-02 -2.9374065556319240e-01 8.0566481940491030e+00 -1.6240956279593954e-01 -1.7786020389220036e+00 -9.6816006462748239e-02 -4.5814629026768205e+00 -5.2220832175034992e-01 1.1938568069185749e+01 -5.1337380144614144e+00 1.7323604945537013e-01 4.8731539237733159e+00 -6.1204034595051571e-01 -2.3412460002676494e-02 5.5629064867501299e-01 -1.0905244295920856e+02 3.5196413700844914e+01 -1.8020656512608318e-01 -2.9273235085803451e-01 -1.0770791730602944e+00 -1.7097911338780314e-01 -9.1635574665554120e-01 -8.5889676622541711e-02 -3.4395225076873245e+01 -3.6365059224188734e+00 -1.5972179220571462e+01 3.0555699644086708e+01 -7.3623700935635250e-02 -1.7187668310125872e+00 -8.2865164278552295e-01 4.8322436620664933e-01 -2.0203301122080362e+00 -4.7124084141668504e+01 4.8150709932765324e+01 2.1775645027306556e-01 1.1698677614434201e-01 -9.8228567164674985e+00 3.9100687507305837e-01 -4.2242559891153952e+00 6.7379853752475072e-02 3.3547529947524296e+01 -1.5892702314081468e+00 4.7279167504415085e+00 2.9184917089270385e+01 -2.9769780281353009e-01 2.0311483788640086e+00 -1.3819387722262186e+00 -6.2605066237393814e-01 3.8206111055384504e+00 -6.5953069218005979e+01 -1.5775749796115633e+01 -1.1615649126928207e-01 -2.3080595959085498e-01 -9.0008221028313073e+00 5.8989675293572824e-02 9.5991509958491505e-01 9.9666855784437486e-02 1.3482140724046722e+01 -2.4376402932317625e+00 -5.9646951411015436e+00 3.1309579461732532e+01 4.0829185907184251e-01 -2.8997528113991784e+00 -7.7632129498382052e-02 -1.8713565360361066e+00 1.3951351381723569e+00 -1.4835890569192742e+01 -6.6559542449936998e+01 -1.8594957698446102e-01 -3.3560015009842914e-01 2.4078801092531705e+00 -4.0551806497061560e-01 1.4850670723518835e+00 -1.6496641092321859e-01 -3.9827092275347880e+01 -1.6700900525724247e+00 5.6843435166212384e+00 -2.6068206017775438e+01 7.3846600022295406e-01 -8.0284917257082284e+00 -1.2487636686865233e-01 1.4135126934429083e+00 4.6376246589191101e+00 -3.6557744898183159e+01 -2.5132171468101092e+01 -3.6875032025887211e-01 -4.5611195118060499e-02 7.6752782534342430e+00 2.4299482327451538e-01 -4.7095125369835253e+00 1.5688233717960465e-01 -1.9450268686768695e+01 1.1666231491640850e+00 -8.1198893468420152e+00 7.2917233518532498e-01 3.3443221272804524e-02 -5.8297605946940063e+00 1.4096706891351278e+00 -8.3515725946270436e-04 7.4304490446957061e-01 1.3370329676021356e+01 -1.2000280061818194e+02 -8.9083479852646863e-03 1.3643334571074861e-02 -2.7430036971909431e+00 5.3013778579469872e-02 -2.8492181253818671e+00 2.0875894792039495e-02 -1.8738914162517176e+01 -6.9650183773512708e-01 4.6288115334173199e+00 -4.3797142477997113e+00 2.0158521611785574e-01 2.8305624090667454e+00 1.8087411568006848e+00 6.9768639351819428e-01 -3.5904460371047300e+00 -2.4752236768937429e+01 -3.6579015021461316e+01 2.7824071434500997e-01 -3.1641469187379667e-01 3.4598940617033804e+01 -3.1059888827588322e-01 -7.0942005155806154e-01 -1.6395158447429165e-01 -4.7452547742626727e+00 -3.9574169361799525e+00 -3.3400462336208172e+01 -3.0518140314860169e+01 -3.1071729232440487e-01 1.8103421143608180e+01 -1.4839615128635061e-02 2.6711228183318436e+00 -9.8445098065636016e-01 1.2354117099982233e+02 -4.9133314193784472e+01 -3.9656802536317537e-02 -1.2836368689913194e-01 1.0236640989788341e+02 -2.5756691613482208e-02 1.1160922211551427e-01 7.1152307829551766e-03 5.3647357747539218e+01 8.1027297066559942e+00 1.0299536963738184e+02 1.7390499678547986e+01 1.5052670597465109e-02 1.5851986722510580e-01 5.3551687616981127e+01 
      </Row>
      <Row Index="34">
        -1.1536609340769283e-01 -2.0997104960346746e-01 6.6392865223838271e-01 -9.6644240469537301e-01 5.9388382079996518e+01 -9.1459655994419242e-02 2.2089340115420925e-02 -4.7402234461817443e+00 -1.1950731896409447e-01 2.7380517606733079e-01 -9.3011335276354884e-02 -6.2886208738926896e-01 5.2246869071735702e-02 1.3763775360193158e+00 -2.6181668613816100e-01 6.9703317110823587e-02 1.9266068519898050e-01 -3.4826191606729712e-01 -4.6795155512201980e-01 1.0685592433498314e-01 1.0056637226625753e-02 2.2775674759643152e+01 1.1493524549145051e-01 7.9477977685699586e-02 -7.7769782232049067e-01 3.1410105259221700e-02 4.1862789167618075e-01 -3.6705085664136494e-02 9.6333651642332079e+00 3.7466328957830508e-01 5.4683288591806800e-01 -1.8254922751602258e+00 -1.3507125126833525e-01 -1.0318350890933827e+00 3.4443231639024754e+00 -2.1929385651759947e-01 1.8720481409347771e+00 2.2383133721643844e+00 -7.2636755758792333e+00 1.1359531534177236e-01 -1.2857832717828802e-01 -7.0671215886069945e+00 8.2314099638909094e-02 -4.7100452409950311e-01 -5.0265846480680054e-02 1.6395718794040413e+00 7.9287263356629278e-02 1.3260651619826902e-01 2.5065741813793068e+00 1.4876694887265884e-01 3.4364512335031072e-01 -2.3386008512802237e-01 2.1304632904353871e-01 1.3690188055004437e+00 2.5256158313522974e+00 3.3040726402337896e+01 -2.8908889596180104e-01 -3.6315554160717856e-02 -4.2045837176192435e+00 6.5258493398112405e-02 4.5229101186336873e-01 -2.2167213170642137e-02 5.4262628787899558e-01 -4.5878013975964027e-02 -2.7636484405229567e+00 1.0700614807380533e+00 -5.8522988102265361e-02 -4.5528760595849238e-01 -1.0613261027117654e-01 1.4862347300711720e-01 -8.5060240189030489e-01 1.0114026549799746e+00 8.9359255417657550e+00 4.4842148280480179e-02 1.3650314445610819e-02 -2.1288404401901460e+00 -1.6467815073205472e-01 3.7481618910482162e-01 -2.9523814827869942e-02 -2.2017894717777935e+00 -3.4670345173269546e-01 -1.2198028863565340e+00 -2.0008471411362336e+00 4.7730992742136574e-02 -2.0075678822858323e-01 -3.5023598779843201e-01 1.4538072356970133e-02 5.3073406306938242e-01 -1.2635700338336164e-02 -2.8252577602979727e+00 -2.9314710747987957e-02 -2.7221233553673799e-02 -1.3197202819842460e+00 -1.3827456168909930e-01 -6.1045313070408613e-03 1.0653550358150601e-01 2.6105990385996591e-01 2.3869377495264521e-01 2.6761145911387985e-01 -2.3479541583760692e+00 -5.4592426719625914e-02 -1.6036228129996744e-01 -4.6123052501239431e-01 -5.7079330763269287e-01 -5.2626197190643191e+00 -2.2226853854749731e+00 -6.4578764177383619e+00 -1.2619025742676199e-01 -5.1828313094503267e-02 -6.4196715549150838e+00 -3.3792578045723765e-01 6.3866415850349578e-02 -1.4991920532868913e-01 -4.5377225945005950e-01 5.6464357080628491e-01 -1.6335848983872934e+00 8.4911390571236538e+00 1.4916127948484720e-01 -8.1609739849399654e-01 3.8187627600388074e-01 1.0950111742151303e-01 2.9412100122866214e-01 -8.5752029728051404e-02 -3.9396087727700433e+01 1.8309196902774541e-01 1.1726544958444542e-01 7.1128603662407386e+00 1.7733540128275349e-01 1.3081222114632524e-01 8.2525311771474166e-02 -6.9373254107318516e-01 2.4597823256976348e-02 -1.0719498009287132e+00 7.1618637643409500e+00 5.9654519635868507e-02 4.6772464378192824e-02 -8.5507759949747852e-02 -2.0874340733494390e-01 -1.4817775191981379e+00 3.4641299244218615e-01 -2.6193848041171691e+01 2.0901171276153929e-03 -1.2977658578222714e-01 3.2408095536481341e-01 -1.9625142111734412e-01 3.2318459582667414e-01 4.0055017637120188e-03 6.4032326735140428e+00 5.2747041554547280e-01 4.1059116301402732e-01 3.2905285537561397e+00 -2.2577341344317003e-01 -1.3941602257279229e+00 -1.2102633948635634e-01 5.6654792697094114e-01 2.8799491643061650e+00 -1.1260904040284032e+00 -2.0932241718423938e+00 -8.0933175107545455e-03 -2.0640795739752821e-01 -1.7838852695344514e+00 -5.1960575102703410e-02 5.7720489508748418e-02 -5.6915305497245924e-03 -6.3704982666496059e+00 1.7607344929531799e-01 9.6123693994206505e-02 -1.2966018004649463e+01 3.5925735849253182e-03 6.2410971919161673e-01 -3.2004243555632650e-01 -1.3791903622905684e+00 -2.0032660279772436e+00 5.4960100967462306e+00 -4.5053436121247614e+00 -4.7850257717436812e-01 -8.7410616726282808e-03 1.7388519951126824e+00 -1.5323577604127170e-01 1.2469855580788844e+00 -2.1174999370200065e-01 -1.0992161886004581e+00 2.1780108412521071e-01 2.0530718716422314e-02 4.2925497952160629e+00 1.5758446936110504e-02 -1.4641665885639601e+00 -1.9545280815804256e-01 -4.6617849582446524e-02 -3.1827860579021490e+00 -1.3136576568176679e+00 8.8650435979266376e+01 3.3390485927764629e-01 -2.5106288429802420e-02 -3.7985777901371875e+00 -4.7740964160531862e-02 3.1745844100493059e-01 -3.3480982819439814e-02 4.2300670587455897e+00 2.2829401315391351e-02 3.0448130736276653e+00 -4.9157978686980641e-01 -1.4516823546755075e-01 -7.5635615385180066e-01 -1.4295788452568496e+00 3.5836293974387079e-01 -3.5775027442155807e+00 1.2503111450393209e+00 3.4418356518827409e+00 2.1670979083617287e-01 8.7410388723162535e-02 -2.6307600637073847e-01 -1.0044628768364550e-01 -6.5662970738675575e-01 3.5918670367424410e-02 1.7327368034609584e+01 8.6821834751878768e-01 -8.9117664704990425e+00 1.4601415827864486e+00 1.8691921950600696e-02 7.7279575025724867e-01 2.1850731171231583e-02 -9.9597741132261330e-01 -1.2170354047593876e-01 2.0104948501345643e+01 -3.0592317168497125e+00 -2.4942640524288745e-01 -5.7347609739671526e-02 6.4085086568231340e+00 -2.8784127589657087e-02 -2.2788942835432147e-02 -3.3390735550371864e-02 2.8246992968733654e+01 -1.7064683517049142e+00 2.7973537667327964e+01 -6.2485591227636954e+00 -1.4960223188951391e-02 -4.8222639141407078e-03 -3.8393282017087325e+00 
      </Row>
      <Row Index="35">
        3.3310708471931261e-01 -3.6085928163442418e+00 -1.9380588862791228e+00 3.3844958857460945e+00 1.5760432181878423e+02 -1.6028764684157537e-03 -1.3239832436155585e-01 1.0461341558402637e+00 2.0159701978777061e-01 -1.2258115206828653e+00 1.4941534255458508e-02 2.0987550494889916e+01 1.1513387859899933e+00 -2.8674717113986379e+00 3.9603198409788547e+00 -1.7047579231077337e-01 -1.3142487833581706e-01 1.1566912721114725e-01 4.0073742362814766e+00 -7.5088645252207176e-01 1.2809139931996469e+00 -1.4705459261778742e+01 -1.5964483283743011e-01 -6.3239834529687664e-02 -6.2025560984813026e+00 1.5149469067372558e-02 4.7420942191661197e-01 -1.2729199952333105e-02 -3.2444529715288937e+01 6.9379718266708013e-01 2.3962747114204275e+00 -1.8889379025979792e+01 -6.5455861710773111e-03 -7.3632971867297892e-02 -2.1929385206522420e-01 1.5115227671026096e+01 2.4187984396597013e+00 6.3403432513344882e+00 -1.9305670623442438e+02 1.4606813647254852e-01 3.5528985178288258e-02 1.3326255054766506e+01 7.7327734840056506e-02 -5.0097097423372705e-02 4.3138009657208001e-02 -2.8700938233004859e+01 -3.8324078722736292e+00 -1.4863738209537729e+00 -5.9915427966858559e-01 -9.2502361841667380e-02 7.4666633967523843e-01 -4.9315764644080162e-02 6.1388298753377235e+00 -1.2352055272659568e-01 -6.1127354938043936e+00 5.5139584263390861e+02 1.5028655024121801e-01 4.8901278706905929e-02 8.4481897537189070e+00 -8.7910239489802144e-02 3.0048713153880779e-01 1.0802896866490719e-02 -2.6215350964304729e+01 -3.0913338324229045e-02 1.9225045443954514e-01 6.8192861414579298e-01 3.0333694396044414e-02 -1.8351842156203624e-01 3.2336355401523811e-02 2.7944521088184158e+00 1.0909779873306338e+00 -3.9529984068230988e+00 -1.1996875648974674e+02 9.8600400998572230e-02 -4.4236110026914244e-04 3.0571753757066205e+00 -2.8467517541587029e-01 7.7216058249047398e-02 6.6412090259016301e-03 -5.9360686216081149e-02 -8.8210691145638842e-02 1.1086220765253483e+00 -5.7770741788569246e+00 1.8468226858841585e-02 5.6080535997453995e-01 -6.3204300779392764e-02 -1.5541315289531212e+00 -1.4381820302271175e-01 -2.4165434688493406e+00 1.5267128354235319e+02 -9.0135534006535151e-02 -9.3204604771168834e-03 -4.2674531130364812e-01 -5.6054176203982106e-02 -2.2999058586863141e-01 -6.0507611314200849e-02 -4.1754773237905471e+00 2.0438838835601736e-01 1.1628738309279925e+00 4.1085138320904662e+00 3.0234016007408299e-01 2.5837555840553250e-02 4.4480442656616587e-01 -7.5767075668200210e+00 -2.8960897489215398e-01 -3.1762063437938792e+00 2.2585570566365050e+01 1.2782535610158585e-01 -1.1986797501673878e-01 -1.7206433429536844e+01 2.9572370201840681e-01 1.1081685522190210e-01 2.6655247550898126e-02 6.5089270086763463e+01 3.3159619384067325e+00 3.7564819311740578e+00 1.5435063356833929e+00 7.3594423209705218e-04 -9.0667456021913218e-01 -7.1137089276671950e-01 5.9763021367669733e+00 -1.3192642246613389e+00 -9.5546933059297867e-01 9.6460521176782777e+01 4.1358671012775072e-02 9.5374904063064009e-02 -2.2076397153275593e+00 -3.3549441328599117e-01 -1.6840866616690775e-01 -9.8970838913561843e-03 -3.3436683363633485e+01 -2.7942601990032490e+00 1.2348744500761066e+00 8.8393220839173381e+00 9.1441610402643939e-02 6.0844230385568077e-02 -4.8748083326282199e-01 6.5186627981508432e+00 -1.3054198504100896e+00 6.8780715053267514e+00 6.7761995757285149e+01 -8.9572946018687760e-02 1.8367090110155204e-01 3.6152775634016123e+00 -3.3617096319265716e-01 1.5016607245201270e+00 -4.2759499206784561e-02 -3.2749437621013676e+01 1.7557239719844375e-01 5.3019776684636533e+00 -7.6496400532964710e+00 1.2642695510105645e-01 4.3730456360984410e-02 -2.7981719282611506e-02 -1.7618389816225593e+00 2.2305753434593498e+00 2.6951872759037023e+00 1.9143629997163771e+01 -8.8496509623376934e-02 1.0053912946212051e-01 -6.0251333703052978e-01 3.8122923653768570e-02 3.8595709719835192e-01 -1.8841849701923041e-02 6.2824100654401605e+00 5.5500443355179740e-01 -2.2438715354888323e+00 -3.3848103715747619e+01 4.1789848959960352e-02 8.0626491215688412e-01 9.1133085970900141e-01 3.3973756133929811e+00 1.1127206130076031e+01 -1.6424763075224920e+01 -6.5876927431342665e+01 5.3007773681561954e-01 -1.7497188866233487e-01 -1.1627243111381944e+01 7.6055415160983597e-01 -2.5987886537581941e+00 -5.0864719934839542e-02 4.2181406756431649e+01 1.1312288182659742e+00 -1.9281655925119608e+01 1.0800931510507176e+01 -2.5620845725387020e-01 2.9354796767621476e+00 -1.1190701856907848e-02 -1.4360736506794183e+00 -1.6118056824370797e+00 -1.7510366278002039e+00 8.1360235679667312e+00 -1.3301583710595621e-01 -8.0937396046819043e-03 -2.9225532140699215e+00 -7.0791154430988379e-02 -1.3778333012277244e-01 3.9094988697581948e-02 5.1372250265158073e+00 -4.8963107622753910e-01 1.0740691517203231e+00 4.0798883014358580e+00 -1.0870939883366404e-02 2.7796090789126460e-01 3.3210441022676895e-01 -1.2112918284071839e+01 -1.0126065742911450e+01 1.8306233252143890e+01 -6.5355875478885537e+01 -5.1760662680534186e-01 -1.8772120925603278e-01 7.3442273421042046e+00 -3.3076844996227095e-04 1.1913094988604325e+00 8.2818750085159459e-02 6.8583045298840688e+01 8.4295850090114310e+00 1.6447401278217921e+01 -1.0781226246187046e+01 3.0669555797437675e-01 -4.0129899327253407e+00 -5.0553966431131411e-03 -6.0707726451940678e+00 8.0538002858252633e-02 -2.6007371821171428e+00 5.0349242194685417e+01 1.3947904772266101e-01 2.7305121614895671e-02 3.6182780237216903e+01 -2.0910720505459352e-02 1.7233114739194644e-02 1.8702819749462259e-02 1.9994591178284260e+01 -6.2393910172305826e+00 3.4733281752546681e+00 -1.5431931165601100e+01 -2.6480980761998438e-02 4.2188424159611215e-02 -1.2601246672534748e+01 
      </Row>
      <Row Index="36">
        1.6030315019841535e-01 -1.0095488058886986e+00 -2.5204223156205990e+02 9.0660389015911989e+01 4.5447843365767039e+02 8.2595800328026048e-01 -3.3398998429344784e-01 -2.3984621288877679e+02 7.2806448722575656e-01 -2.6866233280331677e+00 2.6846116718446533e-01 -6.0888170904976505e+01 3.3303483014961515e+00 -2.3822644450667866e+02 -1.2934001987268493e+02 1.5086785212153555e+00 1.3605735705804456e-01 -1.1593238774693209e+00 -2.4289781141764966e+00 -3.2740532863384107e+02 4.6569806211686227e+01 -5.4976826129108667e+02 -7.9417322691881083e+00 -6.6439251583228365e-01 2.9014181750087118e+02 8.5059829945712329e-01 2.9592164843052160e-02 1.9791914413051725e-02 -1.1764483186326913e+02 -4.9002637541474954e+00 -5.6709248929750828e+01 -5.3333182887213617e+01 3.1723317853625783e+00 -4.7370219853813040e+00 1.8720480139756219e+00 2.4187984104942348e+00 7.4986705951314798e+02 6.9036749103641185e+01 4.3576146403844541e+02 -7.7316942491852947e+00 -4.2776969620976496e-01 -6.8724217134243645e+01 -1.2103708315015596e+00 1.0162862979278913e+00 -4.0934398332072019e-02 6.3661822238398599e+01 -1.3423946579404245e-01 1.4993600514317279e+01 8.2823593505981279e+01 -2.9700729437763584e+00 -2.9870599404064180e+00 7.1841454311731461e+00 -6.6102947824269886e+00 -5.1276727490375819e+01 -5.6031358760810690e+01 -5.9000317597575486e+02 4.5129265856129956e+00 -1.1196009368682397e-01 -9.6606549653224647e+01 2.1843357428631111e-01 -4.7912600735416078e+00 -3.5185192052523218e-01 -1.9949153019146017e+01 -1.3920384636134457e+00 5.9931792243645759e+01 -4.5545425693660540e+01 1.1324309535022716e+00 2.6486185941303972e+00 1.3139827752875370e+00 -1.2683414832764894e-01 2.5669263333262148e+02 -6.3511071129119955e+01 1.2948199035543948e+03 -5.6852097480279751e-01 -6.7140621960626701e-02 -6.2982047548169021e+01 -3.6212538107020009e-01 -5.8775335821212895e+00 3.4023901964808645e-02 4.0409015740722324e+01 -9.5197251992107645e+00 1.7573535522117643e+02 9.5166835519335990e+01 -6.4562224958127401e-01 4.6930937484457509e+00 9.1082912015292905e-01 6.7909173758380348e-01 1.1714985375001299e+02 -4.0244313056056853e+01 9.0855219235178083e+02 1.4803127511485934e+00 1.9128266489258450e-01 -2.8495693144666802e+02 2.6016664321175020e-01 -2.0242575977711779e+00 -4.0506723937286471e-01 7.3528578670448780e+01 7.0613667984637232e+00 -1.0444488029602508e+02 -5.5557200767972972e+01 1.4783436910774503e+00 5.9002916698154877e+00 6.6624074651033895e+00 5.3394700134597528e+00 5.1777993759840820e+02 3.9978302245830207e+01 1.9422521298137144e+02 8.5906912476791675e+00 8.7951245942245304e-01 -3.0208293346750162e+02 -1.3670891404319883e+00 -1.1357881539253167e+00 1.6972976178676991e-01 1.3689025578396917e+02 2.0798643223113984e+01 5.6249028052047117e+02 1.2390592470530487e+02 -7.5838135543031737e-01 9.3606439110879300e+00 -1.3048191586349684e+00 1.4208586618109420e+00 4.1203081469484822e+01 3.5404893175515539e+01 -8.1247245434461001e+02 3.2305383104493290e-01 -5.1457450782240444e-01 3.1928625837066920e+02 -7.0810442447552968e-01 -2.3353080405360860e+00 -5.0143403053195446e-01 -5.2137141303531621e+01 8.6939922862993164e+00 5.0744847528990974e+01 3.4435788260629101e+02 -5.6128689802782961e-01 -1.0319770830038825e+01 2.5768392487991232e+00 -5.0525329088765831e+00 -1.2544477178690529e+02 -2.1417586531055349e+01 -8.9835246917567565e+02 -1.1552334845143721e+00 2.8320147945948859e-01 1.3885782425679110e+02 2.8498608573700412e-01 3.0816564659658079e+00 -1.5782449061718923e-01 -8.9058955782745670e+00 2.0990093696794965e+00 1.8005314334622483e+01 -4.5619492857951371e+01 -4.0806618944122797e-01 3.3240708861879185e+00 -3.6165812823470662e+00 5.0854201663970144e-02 -9.8774210635195033e+01 5.8625704546403085e+01 -1.1430464217824192e+02 -3.8838407641036525e+00 1.0162908188972324e+00 -4.7228287578988812e+01 1.5418851573046621e+00 6.0696041137876477e+00 -1.5813853024883190e-01 2.4060592821963731e+01 2.8536694937581863e+00 -1.5513678776934813e+02 -2.8372814918352344e+02 2.0834238160949301e+00 8.0497268054223525e+00 1.5953418498964110e+01 -4.3972738184226259e+00 3.0102188458008598e+01 1.5108471764562847e+02 -2.8681373384916878e+02 1.3667807904574994e+01 5.4216372562867654e-01 1.8539846959506434e-01 -2.1711581440347412e+00 -1.0452259487639921e+00 -1.2867726103564792e-03 -2.6172655990716251e+01 -1.3316118505903077e+01 -1.6691329527768511e+02 5.0508870479087454e+02 1.8135263585215815e+00 -7.5057236741144671e+00 -2.1777059471249776e+00 5.2850379912342760e-01 -1.2084634784342779e+02 -1.1881243675015867e+00 2.1358116207670537e+02 -7.1176366559793971e+00 4.3541078409929657e-02 -1.7469248743986827e+02 4.0422321357123892e-01 -1.9835387749299116e+00 4.6644331805898998e-03 -2.0419335236831103e+01 5.2115877551354970e+00 -4.9880715437815525e+01 1.3860662807768676e+01 -8.8792684141409950e-01 3.9437618915475392e+00 -6.1407679602308907e+00 5.9854027370239926e-02 1.5884455658295531e+02 9.0635671853379520e+00 -3.9597197570860772e+02 -6.7452348606464501e+00 -4.0510215832025565e-01 -4.0619022729224525e+02 2.1511242814434723e+00 -8.1990675383802163e+00 4.0524903126513578e-02 -5.0148985269377107e+01 3.6427856538047436e+01 2.2815501557982483e+02 -2.8232344381896530e+02 2.0153798245204211e+00 1.2997699035763802e+01 -1.2937000026142581e-01 -2.9655158077597199e+00 6.6797462707022632e+01 3.9656672820380059e+01 -1.2585789463444468e+02 7.9432454065434328e+00 2.9902516555912895e-01 -7.6998340259133715e+02 1.0611500520928305e-02 2.7495124801459170e-01 4.1428505864723256e-02 -9.5351826715153038e+01 -4.5876068103137499e+01 -1.6027752260378170e+02 -3.8129772749044002e+02 -9.7020636710182095e-01 3.2948277562796413e-01 -2.6662227151062649e+02 
      </Row>
      <Row Index="37">
        -3.8134420639039255e+00 -1.7295268684669281e+01 -1.1264617363666184e+02 2.7232288059681946e+03 1.8095417465828359e+03 -7.7161570794226342e-01 -9.6813874514852705e-01 2.8865904922573827e+02 4.8649512006628726e+00 5.2094615013786747e+00 -8.1544511354350258e-01 7.9255115133000800e+00 1.2116123189499755e+01 1.1209685033363911e+02 2.0915045395164634e+02 -3.0330082416588509e+00 9.9769188238866022e+01 -2.1651936541834731e+00 -1.6339446281463673e+01 -9.4253201228556406e+01 -8.2515103347017430e+02 -1.4315701132267714e+03 -8.8643152421969518e-02 2.4779888967275876e-01 -8.7482382422957585e+01 -3.6716515587677114e+00 6.9623323743289802e+00 4.2013415146172794e-01 -1.1250448865291901e+02 -1.9672593936911092e+01 9.0572172615756827e+01 4.1425186599216158e+02 4.3514871259602907e+00 -6.7866144057145675e+01 2.2383131307603401e+00 6.3403425299815126e+00 6.9036744930810528e+01 8.7885176497676821e+03 -6.5451038371598770e+02 -3.4353216373270712e-03 5.1224034684775255e-01 -1.8560886036024044e+01 -7.4211574922873185e+00 1.5080152694375645e+01 6.6046220541081824e-01 -4.8959129122085869e+01 -1.6449371838925288e+01 3.5171682941338054e+02 1.0380968864758902e+03 -3.1751785633605323e+00 -6.3186206478415784e+01 9.9381106001397050e+00 2.6144973626033064e+01 2.0477502097493286e+01 -3.8031987693406409e+03 7.6445009437203407e+02 -1.2269492999594058e+00 -1.7067941576990340e+00 6.2045372210629284e+02 -1.0648574581675139e+00 2.0194579683765994e+01 4.1313687302396129e+00 -1.4186783209503881e+02 -8.2646622865245263e+00 1.8017338554243906e+02 4.2248242002549557e+02 5.2674941596631042e-01 -2.4800453862044233e+02 -1.2036338489385603e+00 1.2841946478438206e+01 8.7474582933302074e+01 -1.6670462946917396e+03 1.7213580567315221e+03 5.3433353497121505e-01 -6.2245753014535787e-01 3.7788876773748632e+02 3.3862690625937830e+00 9.7585744075637830e+00 4.2535712491705358e-01 -3.3837919475291557e+01 9.4592809048241868e+00 7.7383000098516476e+01 -8.7701813461445340e+01 1.1601113257566862e+00 1.8457319907391359e+00 1.2574541798271355e-01 -1.0181456974387402e+00 6.3994403003199551e+01 -4.5721970382439904e+03 -1.4253633798509836e+03 2.6145807736195836e-01 -7.3117692555247804e-02 2.8452158309132210e+02 4.2603665264800945e+00 6.8159710505851194e+00 1.2707659755124707e+00 -6.9411877750645203e+01 -4.9995079745313031e+00 -9.3746518280499731e+02 -7.0902160304365680e+01 6.8600861403670503e+00 3.2465982434368925e+01 2.7469823717192021e-01 -1.2425834837569312e+01 3.0251846295278256e+01 3.6753294578883269e+03 4.1792381865253265e+02 4.5179226797311482e+00 4.3778529954897509e+00 1.4157039640073663e+02 7.3223836199579022e+00 4.8431920131744484e+01 8.1463525337470877e-01 3.6896286473836068e+02 3.8279648519103688e+01 1.3883141121698964e+03 -2.1881958661448562e+02 7.8206099851184501e+00 4.8665480193638047e+01 8.4322924910797052e+00 -1.1898134748836853e+01 1.1421954745826213e+01 9.0938143087478579e+02 -7.9558534181874711e+02 -1.2187020231476691e+00 -3.1922755211065761e+00 -2.4083197538496825e+02 -5.4686158236010147e+00 9.6299557312890016e-01 1.1179370480906499e+00 -1.7485771526792786e+02 -4.8526610941136738e+01 1.7946040467025500e+02 2.2159508787463210e+02 1.3235049267245111e+00 -1.2108822318866950e+02 -2.1621073645574604e+00 2.6672152240873217e+01 -5.5517017559994857e+00 6.0805333063763310e+03 6.1354963862361274e+02 1.2533828557652562e+00 5.0853030106719421e+00 -7.2960557678309510e+02 3.3191784671530478e-01 1.0489475515792421e+01 -1.7164716683745258e+00 2.4883611287546387e+01 1.6289451183035197e+01 2.9157767228914997e+02 5.7357766136746562e+01 8.2547218989652027e-01 1.8080738372864715e+01 -6.4483604637555203e+00 5.1337902917193730e+01 5.3711719574252356e+01 2.1810488718970855e+03 -7.3142166636991897e+02 1.6302834560689241e+00 2.7604138434510901e+00 8.4870405052337810e+02 1.0367260580876099e+01 8.4249505005427352e+00 -2.2449911745578888e+00 2.3154840619747802e+02 4.5869944801735443e+01 1.6238010146412785e+02 -1.1492437354720068e+03 3.9161141664514698e+00 1.8536571970939110e+02 -5.5480847871240160e+00 -1.4395929753146532e+00 1.8352513747536779e+02 5.2868210628957413e+03 -7.1381079452300037e+02 4.3006589136582525e+00 -3.5803500651270941e+00 -3.3477895186511159e+02 1.3766207682336500e+01 -7.4636033234298793e-04 -7.5196620776721375e+00 -1.3602070847766106e+02 -8.4754395009299017e+00 -1.6984755941690071e+02 1.3252390411133709e+02 -9.8356641741320594e-01 1.9284555604844365e+02 -4.6006252334539139e+00 5.2370277798909228e+00 -9.4442005694145337e+00 -1.7733173881769180e+03 -1.3182348063876707e+03 4.3238746032002329e-01 -1.5227628289993000e-01 2.9864837438735412e+02 4.1429815583278762e-01 -2.3916529004782205e-01 -6.5377646739290318e-01 -2.7147464714245871e+01 -7.8888205186322011e+00 -3.4834371677972376e+02 -1.3964447595248930e+02 -3.3239882063951427e+00 -4.8456940164549565e+00 4.1805404838513534e+00 -3.8636847937314478e+01 -1.9183304833902812e+02 -7.7582788117338660e+03 -9.3276448136608997e+02 -2.2906661106618733e+00 4.6863225321425768e+00 -1.8330409694078844e+02 -5.0684798785677572e+00 4.2318814611806388e+01 1.1135980045632548e+01 2.0660871582309223e+03 8.6706869579225355e+01 2.4827985288460332e+03 5.3256880596454766e+02 1.1551834324720366e+01 -2.7263563522049827e+02 1.9268293747971610e-01 -7.3794624851517142e+01 1.4745153439695223e+01 -1.5142421452088733e+04 7.4126558276185488e+03 -1.3683977014802906e-01 1.0141228200807417e+00 -1.6182903007065443e+02 4.9924090659733095e-01 -8.2215710508107520e-01 -2.5105546844598253e-01 2.8592740167962911e+03 -6.6088146572757466e+01 -6.5094286633513029e+03 -5.7365386593284222e+02 -1.9634766054857389e+00 2.6707132299321330e+00 -1.2255511698018479e+03 
      </Row>
      <Row Index="38">
        3.0753402437653065e+01 -7.8136858613230288e+01 -4.3354300501139369e+02 1.4651482350623326e+02 9.6204881981426850e+04 1.3977179167708906e+01 2.5301677123756972e+00 -3.6635675055428874e+03 -5.9915737196630880e+00 -2.3592067348632213e+01 -2.1085696244949048e-04 1.7414038093056552e+03 -5.0902904592954883e+01 -2.8408541918069568e+02 4.5998657845199341e+02 9.1835879225912702e+00 7.6978818268012006e+00 -1.7805725973219214e+01 2.2363666258387696e+00 -3.6061638367452804e+02 2.4737069542519748e+01 5.1604924789130688e+04 -1.1434065595577287e+01 9.4070826331692690e+00 2.5409469059588673e+03 1.6293233574119874e+01 -5.6728819117968669e+01 -1.0245414792708024e+01 2.9021405770863885e+02 1.1591991684830845e+01 -1.2786482668117407e+02 2.8995251210098590e+03 -3.5475636842467573e-01 6.6608833108796830e+00 -7.2636738254222202e+00 -1.9305670506098389e+02 4.3576142747234553e+02 -6.5451151707954705e+02 7.6452025027457881e+05 1.2009513838213763e+00 2.9151742757618671e+00 -1.2273094383302840e+04 9.7746611805146895e+00 7.3463904104215999e+01 1.2485489312087257e+00 3.8715584491838235e+03 3.9449272564094002e+00 3.3642403272549325e+02 2.2151334186571976e+03 -3.6961784517625347e+00 -1.9134574021407207e+02 -1.3194109474349688e+01 6.4996511558575367e+02 -2.4851594961676352e+02 5.3576074257469736e+02 5.3540331004172564e+04 -2.0260645894239673e+01 -2.9450819615581736e-01 -2.5265558467675000e+03 9.1075124399049194e+00 -1.6129924302004176e+02 -2.0686860663640321e+00 1.1724593152081029e+03 -5.1347486165179362e+01 4.6847735845256830e+02 -1.5979973390063169e+03 3.7114979694541992e+00 2.6218513194837215e+01 4.3200639534649294e+00 5.8481908061023603e+01 4.0119190419704194e+02 6.5060603753663599e+00 -1.3839177999094129e+04 -6.6249272700087083e+00 7.2062584883539760e-01 4.1271704375455192e+02 -4.5976305866242910e+00 -1.0012826394789749e+02 4.7740622314661296e-01 -1.4826375012435960e+02 -4.3084319500587753e-01 1.2285609833509051e+02 -3.0641489451157122e+02 -5.2617382799886023e+00 -1.0265948370793865e+00 1.0261402748042883e+01 6.3035448435257422e+01 1.8268627191399807e+02 4.1943318926263601e+01 -3.6263284729614854e+04 1.9492577912894664e+00 3.1171132083377584e+00 -2.7676202527494752e+02 1.9618593981442265e+00 -9.5406657151664817e+01 5.8417450100399648e-01 1.3213659463601114e+03 -1.6508138240876406e+01 5.2507335713249631e+01 4.2655495633906685e+02 2.0161870585730142e+01 6.1299853448494105e+01 8.2856821381783625e+00 6.4513209947397058e+01 7.4617290031598588e+02 -3.9372718974703821e+02 6.6839525715780357e+04 6.4176543298814124e+01 -6.6058405135035940e+00 -3.6113775952614833e+03 -1.2316431006189260e+01 1.2026991406216837e+02 4.4033296915994402e+00 2.4222892355305921e+03 2.7986364829204803e+02 -4.0945126843454460e+02 6.2160520910284558e+03 4.7702833060388734e+00 2.3879006602508940e+02 1.1960164055540844e+01 1.8475940134631662e+02 1.6909746488575252e+02 1.2182852199217740e+02 -9.5488459317397210e+03 3.9783998426013767e+00 -4.5563874439927350e+00 9.5211437877512526e+03 5.0015594894988835e-01 -1.6634420063830635e+02 4.8191284461623809e+00 -1.3381958167814973e+03 9.6630003165279732e+01 4.9825017879928964e+01 5.7193640337051875e+02 -4.3017420041942600e+00 -5.6682858621044957e+01 -3.4449787942420855e+01 3.3500034204675239e+02 2.1555934232444514e+01 4.3074129453027626e+02 2.2937827548932415e+04 -8.3386782065189706e+00 -1.4612820537987119e+00 -1.4575544820410360e+03 1.5266037166033895e+01 -1.0503910652013161e+02 -1.2109866357289901e+01 -3.2022195665686077e+03 -8.7936373666655868e+01 -1.1121564446462253e+02 1.0779018538116952e+03 -1.2979671998250726e+01 6.8758636823243098e+00 -2.6062398613637953e+01 3.4313072515623844e+01 1.6239357147416581e+02 3.2217553937613411e+02 1.6030882270692382e+02 -5.6001258740166051e+00 -5.0746131696849694e+00 4.9404583213185879e+02 2.7629914863080636e+00 2.2847887106205491e+01 -4.1370709584558085e-01 -3.1570096855498750e+03 4.8242610106178063e+01 -5.0072158465303164e+02 -6.3898536286778435e+03 -5.5680099837728179e+00 6.9466059685127789e+01 1.8372238210416235e+01 8.1168081183823995e+02 -7.3573848784012478e+02 -3.3796091373969671e+03 -8.0428920595350210e+04 5.1918100174933770e+01 1.7771712222094473e+00 -4.7119651349515534e+03 -2.8772647432273430e+01 -6.9015592390428537e+01 7.5281050909683440e+00 2.4403388548041039e+03 1.6997173695969821e+02 -7.6250732200556024e+02 6.2854844339478432e+03 5.5694479934309911e+00 2.3090396385617817e+02 -5.4440265389781786e+00 -9.4427254724840168e+01 -5.4498668119311333e+01 4.9582289831340313e+02 1.5158460685696715e+04 9.4258612428244888e+00 -1.6735394716024263e+00 -2.0514569148836890e+03 1.7584185585630294e+00 -1.1365452937927330e+02 -9.6499854042425071e-01 -7.3452229134924710e+02 5.9540607276307128e+01 -4.2115038594231009e+02 2.0390537060145289e+02 -1.1587884085054156e+00 -1.3355470401347706e+01 7.5207278666404775e+00 -5.7698225960354580e+02 6.3190270567633331e+02 9.0601099820915460e+03 -9.4257678580670035e+04 1.9127040211027104e+00 6.2326330310487617e+00 2.8598394354607444e+03 1.9078404053867132e+01 2.3131440488818555e+01 -7.7790883801835662e+00 -5.6107766255330553e+03 -6.4511263548047509e+02 5.9846648234552640e+03 -5.8915636790865699e+02 2.8236957389322598e+01 -5.2965265447299146e+00 1.0119844135491705e+00 -4.8585434977833364e+02 1.3799110824002719e+02 1.3494782548623711e+04 -2.1866487481428645e+04 1.5957507141592568e+00 -1.2168613218712818e+00 5.1864129787730326e+02 -5.0947062497869222e-01 6.3967497608826847e+00 -1.3270659809849650e-02 -1.2116343139527487e+04 9.2193290313979719e+02 -1.4448765667817599e+04 2.6091126680013444e+03 -2.8973071255469880e+00 1.7758482459327354e+00 2.6805989321860579e+03 
      </Row>
      <Row Index="39">
        -1.5873604189586404e-01 4.8297787928390790e-03 1.3549433134660376e+00 7.2441791964890234e-01 3.2668471290598973e+00 -2.8073209704448793e-01 -2.0113696488719739e-02 -7.1161949280322006e+00 -2.6895502143832010e-02 4.5145721427594609e-01 -1.2404821274983557e-02 -1.3338111386553066e+00 -9.5004814232689583e-02 -2.9077709062161556e+00 5.1545883665127121e+00 4.4192515913337074e-02 2.2116999821446648e-01 -1.8423504975209637e-01 -8.5242110978204222e-03 3.2812715815294178e+00 -6.1431981623809406e-01 1.4956688327249140e+01 5.7732813402992211e-01 -5.7263256281212156e-04 -2.2670322785560479e+00 -2.0775545813899447e-02 -2.5564394224863918e-01 -1.3347449813133107e-04 1.0326343278148366e+01 -1.7767476972544410e-02 5.4795832797661106e+00 1.3142797584283498e+01 -5.6659813551503450e-02 1.3490461857573499e-01 1.1359531477546247e-01 1.4606813275427810e-01 -7.7316941884939752e+00 -3.4354275449004490e-03 1.2009522649207156e+00 1.2695370914949029e+00 -3.2630485685428388e-02 -8.1212403490864915e+00 5.2394539815709996e-02 -4.3177759165988039e-02 -1.1313373550176496e-02 7.4829355384952123e+00 -7.0929387651895270e-01 -3.1044539427729272e+00 4.6439301480653846e+01 1.0956828325959123e-02 2.0225467327399727e-01 -5.6163898702985426e-01 -2.6862422996429608e-01 -1.9106709633248187e-01 2.6571044256161258e-01 2.8977800561639015e+01 -5.1424532531892697e-01 -2.5436220863465839e-02 -3.9156870162769337e+00 -3.9626786887199672e-03 7.6743339095298224e-01 1.6138293374983157e-02 -1.0887163442728465e+00 -3.6323437192141050e-01 2.3778037747542839e+00 5.1883873681399564e+00 3.0547061413081465e-03 8.0174965939873388e-02 -1.2724368867351267e-02 2.9305552547390312e-02 -2.0986121342775634e+00 4.7928520050572843e-01 -2.3501393915445078e+01 2.0920801249049917e-01 1.3511938975402843e-02 3.3640063324898790e+00 -4.0420354196641028e-02 1.4174382296152971e-01 -3.1927478273147160e-03 -1.0647126577610955e+00 7.8473348351455030e-02 2.4659349241422852e+00 -1.2953739947527474e+00 -3.3403823539739877e-02 -1.1081099627479152e-01 -8.8800498397082483e-03 -6.4834395945581491e-02 -1.1636769240001914e+00 -2.5857262848694518e-01 -3.0539010641339701e+01 -7.4678396711474915e-02 7.1055026377896732e-03 -6.7972528433942898e+00 1.2743563179835798e-02 3.5967857521762348e-02 -2.5208773112594396e-03 -3.9011359243206201e-01 2.7432554440978585e-02 -4.5933679096747255e+00 -3.1771990075230860e+00 -9.9845091131976149e-02 3.2813027587508259e-03 -3.1037891456786632e-01 2.1250718841601302e-01 -7.0067705002874536e+00 2.6062533306672861e+00 -5.5297804480187551e-01 -4.1968593979812863e-01 -1.0005041112336174e-02 5.8383392721292964e+00 1.9878293328044749e-04 2.7590313833076185e-01 -4.4161973242808975e-03 -9.4076476049680373e+00 -3.6739101079375835e-01 9.1932878986872897e+00 7.0851236239637458e+00 -3.5537361264100141e-02 1.6793810443883850e-01 3.0659673502804746e-01 2.1873501379813520e-01 1.5503392792941431e+00 7.2606468069551511e-02 1.7126456892920032e+01 2.0031214531230529e-01 1.3775976084469382e-03 3.5259153605988445e+00 -2.9022086722520622e-02 1.0906668998173608e-01 3.5662705715846553e-03 6.4357475093493246e+00 8.4064410698349246e-02 8.8040336073287806e-01 -2.5950342921830956e+00 -9.4787981863855911e-03 2.9226540326550809e-02 -2.2566591498618080e-01 -4.0782097770840442e-01 -3.8818370763534116e-02 5.1757005001802270e-01 -1.9850614567722005e+00 1.5090018815846890e-01 1.1136541548262602e-02 1.2483723322808791e+00 -4.5425333003168471e-02 -1.5937538922438321e-02 -4.6931714368401226e-03 3.1786641010674543e+00 -1.5135892600256007e-01 1.0772225592034257e+00 5.4506457113919140e+00 -5.0170973781927905e-02 -1.4250137860470924e-01 3.1880695348550436e-01 -8.2316731184083974e-02 2.3127461243469485e+00 -1.0859912235997431e+00 1.6889573427658434e+01 1.6245958042359743e-01 4.3315990867695497e-02 -3.4780423208777052e+00 -1.8643759826189876e-03 -4.0476329643663878e-01 7.8868240405219614e-03 -3.3061438827375440e+00 3.2102887526733959e-01 6.8930901960757707e-01 -1.8128676198703477e+01 -5.8798448530114594e-02 -4.6808886277939665e-02 -9.4137065542628562e-01 -1.1228499576229134e-01 -3.0020237993709245e+00 4.6348725506270938e-01 5.0883332889587791e+00 -1.3324970109030512e+00 -3.0690764610693966e-02 1.1436564705406500e+01 2.3124395460826125e-01 5.2227992688000657e-01 -8.5503359687995051e-03 -1.1845052288937460e+01 -1.2878127321501265e+00 -1.4542360337987681e+01 1.7372497641722802e+01 1.3224565635145380e-01 6.9127617960522691e-02 8.5758540907790975e-02 1.6066413858538908e-02 2.7987260006225370e+00 -6.4453821061761118e-01 4.3048795109555158e+00 6.5586219801129397e-01 4.5206953759285053e-03 -7.8108419549462269e+00 -2.1120637270986484e-02 -3.7335892419108063e-01 -1.2373580017718870e-02 1.3258344667701749e+00 1.1341861092310523e-01 1.4898095848620869e+00 1.5979158048066893e+00 -1.1436399674433773e-03 -2.3637229617642477e-01 -4.0547206132480855e-02 1.0827779350294331e-02 -2.0933448663973451e+00 -3.3662796974009339e+00 8.9806597463273761e+00 4.4802959704798700e-01 -2.7742515030487785e-02 -1.7977580799961288e+00 -1.9471142580851311e-01 3.6189720993018004e-01 3.2507647557600688e-03 5.8532194893311846e+00 -9.6953771062865846e-02 8.8855214223397923e+00 -2.0491765820108885e+00 -1.6344658684857749e-01 4.1230935717409645e-01 1.7479463952257433e-02 6.9928726033356314e-02 -5.7000310175914171e-01 -1.0375177776911846e+01 5.3510124290807326e+00 -8.6980430690226951e-01 8.4266371319822037e-03 -3.8612527848565383e+00 -5.3118290324440567e-03 -6.4232448804345393e-03 -5.0260976744343974e-04 1.6137876385457410e+01 1.2428979773573627e+00 7.7789259628172216e+00 4.2205028197445005e-01 1.8865474025223497e-02 -3.6489580696128787e-03 -8.4928498945143112e+00 
      </Row>
      <Row Index="40">
        4.2803508280503194e-02 7.0655313601406533e-02 -1.4354278007863286e-01 1.3021332286270493e-01 6.4823786377346551e+00 -1.9837281576910851e-02 5.0333316736732539e-02 8.5226165993753966e-01 -8.3842564346088222e-02 6.5823090008619412e-02 -3.4360376479868296e-02 1.0074045771989759e+00 -1.7104709597819090e-01 9.2467344700246201e-02 -5.8251010142532778e-01 -3.3907203692910018e-02 2.8319552583403085e-01 1.1020727217928405e-01 7.9409360019404795e-02 -2.1377933683197270e-01 -4.1159351565511315e-02 3.5671643203822896e+00 2.1209430882598773e-02 3.7829543232743693e-02 -6.9597186201495731e-01 3.2465716143286125e-02 -4.2976690039336063e-01 1.1245565463064471e-02 2.1783509332190860e+00 -3.4977514705695684e-02 -2.8250194232361547e-01 5.9103353328985975e-01 -1.0287777308547322e-01 3.2963567745662914e-01 -1.2857832803855257e-01 3.5528985062420748e-02 -4.2776969182648372e-01 5.1224055218153808e-01 2.9151741102998585e+00 -3.2630485867630288e-02 3.7122235583129010e-01 1.9715942475080794e-02 -7.3735949649066101e-02 8.6121578758501460e-02 -1.8299112426867284e-03 -2.6595647153283153e-01 1.3971861986714895e-01 -8.5759533312000258e-02 -2.3351227217726169e+00 -7.6076529219044176e-02 -4.6434026632999770e-01 -6.4967440427936479e-02 -8.6988800465884641e-02 -3.0221601507645079e-02 -2.1943128560451441e-02 -6.0228021245857235e+00 -2.7567833913387560e-02 -1.2384947924845156e-02 6.9730849483312340e-01 5.2213759762459011e-02 2.8401886961901462e-01 -1.4047556821979636e-02 -4.2193298119005096e-01 -1.5049344447703117e-02 -4.4686705931189863e-01 1.0770798794055736e-01 6.6758054247491816e-02 2.3356544824202574e-02 4.7125375964570476e-02 -2.2549639354329853e-02 -2.9623350614765087e-01 1.8871552951441117e-01 9.3717377503053285e+00 1.9353642124407267e-03 1.3434661316010154e-02 -1.6350461378749515e-01 -7.5445187896846733e-02 1.4261264890267400e-01 -3.3047322030340907e-03 2.2249196272045779e-01 2.2172836813921770e-01 3.1688895910304993e-02 1.2894195659933025e+00 -7.6072605864474160e-02 2.1328521748434137e-01 9.2142490702466495e-03 1.1900413639978069e-02 -3.0613943788500997e-01 4.9472577362212178e-01 -1.3642236352461623e+00 -2.4970803041133027e-03 -1.5178857014570057e-01 1.2790623909103260e-01 -6.2028840551464029e-02 1.0754029795434339e-01 3.1150648475488457e-02 -4.1071187507782270e-01 -9.2485776209906057e-02 3.7850210463477652e-01 1.2030985696437710e+00 -6.9578584909008000e-03 -2.1957200462423998e-01 -2.6156562509236037e-01 9.0732199278117043e-02 5.9297194021702015e-01 1.0663970093906627e+00 -2.7373350310443811e+00 -6.5256537491563515e-02 -1.3489473003827540e-01 1.8568828489483735e-01 -1.4904381076984891e-01 2.0540954750909479e-01 -4.6070297119309878e-02 -2.7185056780488104e-02 -2.2731917399515056e-01 -1.0655198525966796e+00 1.3282130845508062e+00 3.4735857839812735e-02 -3.0950011036281966e-01 1.8989111704322692e-01 -1.9803318455464369e-01 -7.8552974648661955e-01 -4.2393763371859539e-01 2.5321474619404398e+00 1.1339781312457256e-02 1.7024157266436768e-01 9.5917820986262825e-01 1.0518423534755318e-01 -8.9282042061587963e-02 7.0729219045799374e-02 1.6776709424975884e+00 -3.1061142004132458e-02 1.3147395535827799e-01 -5.9165400599520304e+00 -1.7254939732205959e-01 5.4520725545778870e-01 -2.4302943203018662e-01 -1.2013393232337598e-02 1.1857698887471957e+00 4.6425699037375878e-01 -3.5596322558644715e+00 1.3951168450014151e-02 -1.2469818856736670e-01 -1.6925300002700183e+00 -1.4513000282658151e-01 1.1116629574611125e-01 1.2895892595664225e-02 -1.7301683960390619e+00 2.5100208272714253e-02 -1.2545711293343595e+00 1.4804352368274927e+00 1.6751542560769456e-01 -7.7258687300014361e-01 -3.2616826298846902e-01 -8.2503744415864610e-02 1.6764141143967128e+00 -9.1367667667208252e-01 -4.9094704366671067e+00 1.7165058739380235e-02 -2.9525154979235468e-01 -7.6602056176319877e-01 -5.0689181425287735e-02 6.8632456755458682e-01 -3.3321390009636187e-02 -4.0282784878937008e+00 -2.1075487553172678e-02 -4.1538583700803855e-01 7.7027340720513209e+00 3.1236740225808335e-01 -1.1121671321306859e+00 -1.5221547415971287e-02 2.1780411262361665e-01 8.7160379429752233e-01 6.3576202609622356e-01 2.9696202942850505e+00 -6.0223348098016369e-02 -1.1690530143907057e-01 -1.0562538157144301e+00 5.6160269683141639e-02 1.6422575888912172e-01 -4.9532557988222925e-02 5.0043230254870608e-01 -4.7413436571203310e-02 7.6387929764669238e-01 3.2148541243282032e+00 -1.8848382754555693e-02 2.6465638263202473e-01 -3.1278122639326000e-02 4.6935874092696395e-02 4.4485441890333277e-01 4.0312008659384446e-01 -1.8027882719634363e+00 3.0271775715472141e-02 1.6116911694105634e-03 9.8891047349479777e-01 -1.4752793428845834e-02 2.8530415803007259e-01 -2.1319055841241275e-03 -4.4275048474901268e-01 -1.1945556329716567e-01 2.1721104419339099e-01 -6.7478150932947756e-01 3.3331579311980608e-02 1.5071008430833599e-01 -1.8642061986558767e-02 6.2065822094639178e-02 -1.1534809688821666e+00 1.9001257152167419e+00 2.1769110911600080e+00 -4.5060382487569078e-03 -1.8446168964982718e-03 -2.8200091745343343e+00 -1.2089039641872323e-01 1.5898523490693539e-02 -1.6030140701924447e-02 9.6783968674723253e-01 -5.5287166060841075e-01 -1.5594926478408959e+00 1.9007261302698826e+00 -3.7016619214898905e-02 2.2285011031129454e-01 2.8127236574535821e-03 2.5159523809064127e-01 -2.7090257983431225e-02 3.4696865615488552e+00 2.5508401755857322e+00 -3.3965117469076503e-02 -7.5154627714912478e-02 -5.1468097595907860e+00 -1.8298734782058394e-02 -1.3530763915518218e-02 -6.1502607117603454e-03 -7.1774679492760551e-01 8.5754539044751288e-01 2.8597099909107473e+00 -3.4222315322078063e+00 1.8963565214721867e-02 7.5383254817456280e-03 -4.7644938660244964e+00 
      </Row>
      <Row Index="41">
        -3.7817621090752302e+00 -1.6883398333302466e+00 1.0124970470764674e+02 -4.9317507152840585e+02 -5.8133052601292729e+03 1.7759175849687119e+00 1.7089939714769784e+00 3.6147795014125295e+03 -5.8386531607732262e-01 2.0577324750691176e+01 2.4116477636363159e-01 1.7667902937985491e+02 2.5246168356125072e+01 1.0047889787112932e+02 1.5415990562683437e+03 -1.2938133813759114e+00 -5.3781996071021460e+01 8.8722146937619151e+00 2.4047917053730878e+00 2.8635741521745069e+02 1.6533233089884743e+02 7.2094447911381721e+03 8.2102690431247005e-01 -1.0724843590478039e+00 -7.6991353733787491e+01 1.0784751839906574e+00 -1.4426709927443881e+01 7.4461856218476896e-02 -1.8337666355157990e+02 -2.2168308014343147e+01 -1.0178896726669022e+02 4.3255142785732647e+02 -7.2908938144714064e-01 1.5039248344045227e+01 -7.0671197256551368e+00 1.3326255409177904e+01 -6.8724219852127135e+01 -1.8561060890555382e+01 -1.2273094798559003e+04 -8.1212396146667238e+00 1.9716008819167685e-02 8.3686275384891014e+03 -3.0781923281830714e-03 -2.3868724934706197e+01 2.1268837368618271e-01 -4.6038599936524406e+01 1.3911399200271140e+01 -6.7890631880725806e+01 8.5684210376584713e+02 6.9155054494331125e-01 -2.6454477686508994e+01 -3.1488760185042857e+00 5.3179080299585792e+01 3.8978224402750357e+00 1.0168618720537052e+02 -4.8309541847407818e+03 -1.3870194900707418e+00 7.0988344443250617e-01 2.7496509113088250e+03 2.7098987772015173e+00 3.9153726976446137e+00 -1.7296980515887239e-02 1.2698717989215559e+02 1.4058709324911550e+02 1.9354205702082254e+01 5.2153047837223858e+02 -2.1249634484624719e-02 -2.4638770265067791e+01 -5.5534916704422264e+00 4.1142038968766750e+00 -1.5195789901959151e+02 8.8042857018299401e+00 2.3518419001102448e+03 -3.0837479324333548e+00 -4.3205928858610099e-01 1.0167431898361767e+03 3.5518071533078910e-01 -1.3981587304556442e+01 -4.9908349586351708e-01 5.0409350675530902e+01 6.0389549926391531e+01 -6.4814134051095689e+00 1.7949077305521482e+03 -2.2331863372934189e+00 -1.4161621499591162e+00 -6.8153780903842431e-01 7.0419758697389625e+00 -6.9027233466006763e+01 1.9404666542075574e+01 -2.3158818296045065e+03 1.2297190284807824e-01 1.3764993677326171e-01 9.2397749625227880e+02 -2.3935909198062397e+00 -3.2976418708380351e+00 -3.1667824736760979e+00 1.9371070032706484e+01 -2.4687782942657059e+01 7.4431284126476385e+01 2.7057793741859496e+02 -1.3310133972886911e+00 -5.3125831514771562e+00 -1.4899823052202930e+00 -2.4258653517556212e+01 -2.9076154436150279e+02 -1.5135470275896146e+03 1.4154299366163686e+03 -4.3560881671819747e+00 1.4364652770134345e-01 -6.5303494803541707e+02 4.0741038444711304e+00 -1.5726841036489816e+00 -5.3877891826214896e-01 2.7051853832488450e+02 8.9693612485364795e+01 -1.5169933819405139e+02 1.7446364990061193e+03 -1.8273007274153423e+00 -2.7133856712424532e+01 -3.0212868365710612e+00 2.7059214405981749e+01 -4.0078088618966561e+01 5.4764003590134223e+01 1.3976758684693559e+03 -1.2300130787716235e-01 -1.7127083113710622e+00 -6.4348558425974297e+03 2.5284284500069254e+00 7.6945653167393502e+00 -8.2689715079597326e-01 -1.7517560553410493e+02 -6.5881139845325478e+01 -1.4978774950700767e+01 -3.9444795060208871e+03 3.8356171303812414e-01 2.9546727158846494e+01 1.1846295106431874e+00 4.0115328406305579e+00 7.7991352725799459e+01 2.0738341052748444e+02 7.7816193585774090e+02 -9.4382772836106343e-01 5.5426168755248550e-01 5.0737541821119953e+02 -1.7199865175362028e+00 1.1667985346808720e+00 5.2711819076463484e-01 -3.3905196981143149e+01 -4.1839821119792020e+01 -5.4815226475702559e+01 -2.8025568154436414e+03 2.8732929052233924e+00 3.1376372522498308e+01 -4.7895353637047648e+00 -1.3169783642227770e+01 -2.7247777060509338e+02 -3.5404366413392245e+02 -4.5820844471152523e+03 -1.8500257127108171e+00 2.8615564472462296e+00 2.6490611775968932e+03 1.6450437343751112e-01 -1.9932116561222287e+01 3.4875389650943794e-01 -1.4083682089253216e+01 -2.4343973190393342e+01 3.5966855995329672e+02 5.2620590786903467e+03 -9.4002848311707798e-02 -5.2078047560924048e+01 -1.4726242529507303e+00 -3.2350057775981476e+01 -1.2429939332867684e+02 -6.8313290637359478e+02 4.6184172858035890e+02 -1.8071808211673215e+00 -2.7978021627401546e+00 -4.5574252690833591e+03 1.1506181150338055e+01 -1.2832693063666113e+01 8.9067079852222264e-01 1.5963829275208593e+02 1.9504065351795202e+02 1.7171388580552957e+02 -4.4712905164871881e+02 -4.9381198405637665e+00 5.5726785610973650e+01 4.4029822729077246e+00 -1.3855460601509549e+01 5.7765397517941892e+01 -7.6488970663398504e+01 -4.3135037338965994e+03 8.6273278827566946e-01 -2.6921170443131048e-01 1.5782455112948082e+02 -6.2129046955482448e-01 1.3274835972420988e+01 7.2128462656282200e-01 5.6588209740817547e+01 -5.7115365473000566e+00 -2.5408204942941666e+01 3.4177372013963759e+02 1.5802459742039900e+00 -5.1138485966108203e+00 8.0154610564322475e+00 2.5265574740847498e+01 1.6615226947673335e+02 -8.1295657774078450e+02 6.5877649697892775e+02 5.1026452588004094e+00 3.4991072161767178e+00 7.1984501693965867e+03 -8.0028373065403429e+00 4.3028724481983431e+01 -2.3180426146511897e+00 1.0267196859213550e+03 -1.5052004264279020e+02 -3.9431104610018394e+02 2.4740523536520968e+03 6.5200636977242388e-01 -9.8914247753408944e+01 -2.1388306890784750e-01 -3.1774735949535604e+01 -3.6910561365359825e+01 -1.2294022208463389e+02 1.7502010754364210e+02 1.3514829594705384e+00 4.3501448950522448e-01 1.0248458311426235e+04 -1.9690059001833049e-01 -1.0670257517498571e-01 6.8979487786820270e-01 1.1875496548188657e+03 3.7904750075475727e+02 4.2584539215328294e+02 4.9452255907549334e+03 7.3469464019610509e-01 7.1388931021477298e-01 4.0399070253307195e+03 
      </Row>
      <Row Index="42">
        -2.2662115493475291e-01 -3.2499548507951204e-01 6.4287882007170083e-01 -6.1181410784808321e-01 -1.2079716024472873e+01 5.5421889855163803e-03 -1.3837262523709926e-01 5.2306692464389926e-01 -9.1815374908786462e-01 -7.7627662342628634e-02 -7.1561669505031039e-02 -3.2668261452439395e-01 -2.2666939957990206e-01 8.9761771054920736e-01 3.7527100802321911e-01 3.7143893349585727e-01 -8.7951492047205049e-01 4.0661398514040048e-02 -3.6652531097238226e-02 8.1929454832943804e-01 -1.6237765591922653e+00 -2.6341795630287379e+00 2.9755994336351288e-02 9.7676132294573087e-03 -7.5276132612907531e-01 -3.1255620739218018e-02 6.6716069611408102e-01 3.2767648978218489e-02 3.9717937701428285e+00 1.1355151482384485e-01 -1.6820747922378487e-01 -1.2115019168383867e-02 -1.4429131477695861e-01 2.7367299828518243e-01 8.2314097619158783e-02 7.7327733305609492e-02 -1.2103707935395960e+00 -7.4211568730424915e+00 9.7746613928320585e+00 5.2394539744026969e-02 -7.3735949669786471e-02 -3.0786499275770041e-03 2.1376234666276108e+00 -2.8892085471478079e-01 -6.2381757590412243e-02 2.2823573960690737e+00 9.4011245834185075e-02 1.2962225938856236e+00 2.1889960947738132e+00 -2.7911534531099846e-02 4.5343480718899098e-01 2.5226141952316777e-01 1.7475128533796946e-01 -4.7616219836271467e-01 1.4447726653866084e+00 7.1407171267201193e+00 -6.0155360565622984e-02 1.1692045314692594e-01 1.4584560253424570e+00 7.3354930492416837e-01 -7.4186032905533172e-01 -3.8754494078203333e-02 1.1341329706626091e+00 6.5982065329388995e-02 -2.1649882300338277e+00 -1.3151004499686678e+00 -3.8973024274234019e-02 1.1835973578137913e+00 -2.4514412196820573e-01 2.5048492135844436e-01 7.5140248255487663e-01 2.5332326469733744e+00 -2.6734048935584724e+01 -1.0967923359990611e-02 -1.6160700837149319e-01 -1.1455377030514740e+00 -1.2556164794098592e+00 -7.5583228080853937e-01 2.6574524268150601e-03 -2.0768112036401192e+00 2.9258308871877237e-01 1.8328225752684535e-01 4.1355044278131174e+00 1.2248694870519983e-01 -1.0446173824046427e+00 -4.5767859138083011e-02 -1.0771185069216926e-01 8.2502859266509354e-02 5.2992268895022789e+00 -1.3024355052461033e+01 1.5658808055232759e-02 -6.6862831551214932e-02 -1.2496101988454029e+00 -8.7392675358846061e-01 -5.7453656151626697e-01 5.6515425955773274e-02 1.9158320632755022e-01 -1.8311572388016906e-01 3.8050430796973842e+00 1.3440630676459477e+00 -3.9698758022449138e-01 1.9948380331925364e-02 -4.2405172135898322e-01 -5.4196602271877425e-01 2.3985543453677103e+00 4.7309845624758751e+00 -4.5336418729096977e+00 -3.4423248566428089e-02 -1.7318634999414950e-01 1.8014884305611734e+00 -1.5558107025258507e+00 7.8519147163656777e-01 -4.7173551043177581e-02 -5.0938402036372352e+00 -4.1570816442831449e-01 -5.3818505616450629e+00 1.1900492542660430e+01 2.7545098599761914e-01 -2.6006789296579100e+00 9.0264035027685402e-02 7.4210411048002989e-01 -1.7226688201210649e-03 -1.0137833316947438e+00 -5.4954680043174449e+00 -1.7275413046544397e-03 6.5334994153512474e-02 3.2027723732768010e-01 3.0236488349137319e-01 -1.0738833143627300e+00 6.3128831076636194e-02 2.5442597523751100e+00 -3.3664616693246796e-01 -8.6764072308902485e-03 -1.8570025336470835e+00 -1.7344929592105973e-01 -1.1512362653783901e+00 -3.1710153234723343e-01 3.6240362730201214e-01 4.6508225104701673e-01 -2.1490867390862682e+00 -9.4348280191543950e+00 5.6086466279772124e-02 -1.9171273700179586e-01 -2.0439066657633020e+00 -4.1113997570260563e-01 1.0604591524011668e+00 -8.9182266616402717e-05 2.1543729473764417e-01 1.0797023712011111e-01 -4.8827708741607978e-01 9.6967695252430985e-01 9.9250975445929202e-02 -1.9588010948066192e+00 2.3569500364492157e-01 6.5838520175180548e-02 5.0323154607555054e-01 3.1725872918440672e+00 8.1047933404806827e-01 4.0339753317900628e-02 1.2765593249794213e-01 -2.9680337057393302e-01 3.3292334384870298e-01 -3.3309715948894603e-01 -3.4080653667993149e-02 -3.5299071610440294e+00 -1.6061875932343206e-01 -3.1301180336842371e+00 -1.5117914032182966e-01 -1.2256275868443758e-01 7.2765698062044359e-01 1.7332993084373716e-01 -1.5961046983943517e-01 -2.7274599554556245e+00 1.5974820756768591e+00 2.1464729499864461e+00 -3.4923491299502916e-02 7.9841237063222423e-02 2.8257424443968135e+00 7.2097587751543180e-02 -7.4486399804285908e-01 -2.0075232033149426e-02 3.0920276964590414e+00 5.9883496167067540e-01 5.1327554022184287e+00 1.8557093205171888e+00 -8.7693200509499941e-02 -4.8223157154904150e-01 -4.4482622176222786e-02 -5.0640295528182833e-02 7.8836816251282471e-01 9.9254335380101111e-01 -3.6666840969337500e+00 4.9293045187603080e-02 -1.0787588007125926e-02 -1.0699201531338076e+00 -1.8647216119065946e-01 -7.8612191032482315e-01 -2.1557038862239336e-02 8.4764581419221940e-02 -1.2740722907915369e-01 7.8131923984255991e-01 -1.3655529150464645e+00 1.0810441688749073e-01 3.0252339481078039e-01 -3.7031843866372027e-01 -9.5366690030873280e-01 4.2302098208631609e+00 -4.6693438202742117e+00 8.4594482981992769e-01 -4.0368967829624229e-02 -1.4374797349648546e-01 -4.6345314518375744e+00 -1.6056333772850930e+00 5.8200046856465337e-01 -6.0563200576061786e-02 -2.7158078639029002e+00 -1.1247279621726982e+00 -7.4679633619258778e+00 9.0413039207425889e+00 6.0708593542141226e-02 1.8334463596156758e-01 -6.7454199140093429e-04 -8.7038732586728096e-01 -5.0134855666627141e-02 -6.5283327474772648e+00 7.8601582484110093e+00 -7.6033854821577124e-02 3.0550566703773763e-02 -6.9770297974620590e+00 -1.9137757084763293e-01 4.4035726516110735e-02 -1.0029105979653338e-02 7.9326087868366084e+00 1.2669240960289241e+00 1.1578210692894684e+01 -1.6141147937047100e+00 7.9773624684853606e-02 5.2796460099327105e-02 -5.0778294013333509e+00 
      </Row>
      <Row Index="43">
        -4.7071303200884873e-03 -1.3313961200620952e+00 -2.6917940758630721e-01 -2.2245974854094044e+00 4.6573761753272265e+01 2.3297388204510389e-01 -1.6250644294872815e-02 -2.2845016243814825e+01 -1.4022998700419168e-01 -8.9819145543807437e+00 1.1904723772867044e-01 -4.5294739000366917e+00 -3.1158839682540806e-01 -2.6294497120795199e+00 8.1554876986365343e-01 3.4202205898512950e-01 -1.2672551326923194e+00 -6.4215181643565644e-01 9.4938226806385595e-01 -6.0309918634048145e+00 -3.1358748045204266e-01 -6.9895722934044898e+01 -2.9365520962898006e-01 -2.0786759456049730e-01 8.0225849394720967e+00 -3.0285010315914340e-01 1.2793223918402873e+01 3.2844305379946093e-02 -5.9588148574956605e+00 1.7034111894486292e-01 1.8852736392027865e+00 -1.9554556727786718e+01 -3.3123799803797804e-01 3.1847193037282828e+00 -4.7100454028191141e-01 -5.0097089547062268e-02 1.0162862753127229e+00 1.5080157790711382e+01 7.3463900363887660e+01 -4.3177762369712824e-02 8.6121577903560564e-02 -2.3868724836310349e+01 -2.8892085528225775e-01 3.0037575037990944e+01 2.4743417801347090e-02 2.1580787126136329e+01 -7.6410795968330802e-01 -3.0039420420257841e+00 -7.0037434235312332e+00 2.1281955794108853e-01 -4.2490195782263545e+00 4.6640687165909966e-01 -3.0702489248023723e-01 -3.2145155889114996e-01 -3.6075076653723954e+00 -4.5648235744796693e+01 5.0780345510384028e-01 2.6009063710215513e-01 -2.0572840638807975e+01 5.2574915166191860e-01 -1.0498332146083726e+01 4.4849614333422980e-02 -5.1453924224687988e+00 -1.1855367935954844e+00 -9.4344336209451285e-01 4.4198074643572909e+00 3.4945472243071268e-01 -8.8157454552797354e-01 5.1283639644449419e-01 -3.6575381135087820e-02 2.5597002717686621e+00 6.4627156788264983e-01 -7.6299996601883322e+00 1.2409446268399571e-01 3.4041555735410692e-02 2.3142063943906521e+00 -3.2295093522569118e-01 -1.6871645583085069e+01 1.1579239641136869e-01 1.5756173177145172e+00 1.3218481666012760e-01 7.9805460370834780e-01 -4.6793574901180364e+00 1.9081795648197369e-01 -2.1550771156590782e+00 -1.9189493226460297e-02 -6.7399890287242670e-01 2.9354092673072145e+00 -8.6625036013720091e-01 -6.6646667297231033e+01 5.7273430460413721e-02 1.7622738621833339e-01 -1.9734344982518451e+01 -2.0790339610090314e-01 -8.0037895704824891e+00 1.5823193074935960e-02 -1.3329722814412889e+01 6.2452778772232875e-02 -3.0346104922064114e+00 6.8195733151696913e-01 -2.0643160532960500e-01 3.8165356220843023e+00 1.8395379120939692e-02 -1.3240792401659691e+00 7.1099790162181939e+00 -4.9240893988993628e-01 4.5058961236954929e+00 4.7150877680756687e-01 -1.4802218949254814e-02 1.3236851423190970e+01 -3.6768464076926854e-01 -8.7837061581680576e-01 -1.2718038131174808e-02 -1.7854438656636763e+01 -2.4875866453792561e-01 1.4908631629402826e+00 -1.3589598094512979e+01 -2.8708991050172566e-01 9.0230440974323667e-01 3.7798292864809985e-01 -2.0666182573257608e-01 -1.0161830781641701e-01 2.3043217767188553e+00 2.9109387012586012e+01 6.9531957700303543e-02 3.5170539698923003e-02 3.2133453738425317e+01 9.3239338519375436e-02 -9.8145287339420140e+00 -1.4215509500152898e-01 9.0419807788240050e+00 -2.4347448649092263e-01 2.7426072505419548e+00 4.7906679512315932e+01 2.1329963325897217e-01 -8.2168166959429563e+00 -2.6754936611339231e-01 2.3483027911636647e+00 -4.2329747691818849e+00 5.3204193109110278e+00 -8.5656769338019785e+01 -2.2785649276209596e-01 -1.2613531950278592e-01 2.9708289058654600e+00 -4.2462980516349447e-01 1.0389109332508809e+01 -1.4032115673912401e-01 6.6543142498813923e-01 -5.9694998639261687e-01 3.3507915607605021e-01 -7.3636435030320513e+00 -2.2771057293591701e-01 2.2006206641687345e+00 3.7742945006309636e-01 7.2746432025393482e-01 -1.6878634817257101e+00 3.8902905110523420e+00 4.4660226221968514e+01 -1.3049628597084717e-01 2.5805277118929698e-01 -1.6939802007112135e+01 2.7503764527959756e-01 -5.5795620379624822e-01 4.0480428106649174e-02 9.9590855106737166e+00 -3.5921770179474066e-01 6.0236456466209276e-01 -2.2627900102736859e+01 -2.3071670729420574e-01 5.0094710301273668e+00 6.5736821585770566e-01 5.5188119792929369e-02 7.4542715523801979e+00 -1.5054032513555171e+00 -9.8764170893575738e+00 6.4716471059657599e-01 9.6387179323403002e-02 1.6789576106717334e+01 6.1150699872132175e-01 -1.4570631648416548e+01 5.9187683027388882e-01 1.0722741159394783e+01 6.0479440011592311e-01 -5.3509562915180098e+00 3.3732731530504516e+00 5.8053465825678940e-01 -4.2210278020710064e+00 -1.4361678215102525e-01 -1.7794280967882514e-01 1.5076309185715218e+00 1.9567420249804854e+00 -6.7755213242337049e+01 -1.7975999784317126e-01 1.3430771259973703e-01 -6.4637691096277194e+00 1.4125784657159479e-01 -1.4486539196248259e+01 4.0515893546678561e-02 -9.4216896022116998e+00 -1.3207913144697159e-02 1.4434667995374184e+00 9.8557464231707854e+00 2.4647480251231002e-01 -1.6531070144612547e-01 -1.0653834943089315e+00 -2.2684645101764196e+00 -2.3525816295844182e-01 1.0320477427770950e+01 -5.0925228414686785e+00 -9.6630091425481526e-02 -8.4486730290341497e-02 -1.5112025945414644e+01 -6.5789863205576760e-01 -1.1164263535150782e+01 -4.0060774536431271e-01 -6.1253855848825552e+01 -2.7980397302116882e+00 -1.9904176322405821e+01 -3.5369437281176616e+01 -9.5788605513203151e-01 7.5662630170627043e+00 -7.2230600245057966e-03 -1.7422968700861325e+00 6.2667611294287839e-01 2.9650777468474192e+01 -1.0506962352566948e+01 3.5878228154192743e-01 9.4747340958862725e-02 -5.3927149792709400e+01 -7.6960883964380833e-02 7.7296646265664659e-01 3.7430255840027550e-02 -3.2250393144066877e+01 3.2175870721559208e+00 5.0899441251055279e+01 -1.8433553521832618e+01 1.0358638972233854e-01 8.7328226863361932e-02 2.4546132773276103e+01 
      </Row>
      <Row Index="44">
        2.1359551863090576e-02 1.0873026892905102e-01 -3.2159874118349308e-01 6.1930016613556127e-02 -1.6055867434952233e+00 -1.7151067536123887e-04 9.6067708793571172e-03 1.4440406461562816e-01 -2.6595303935049046e-02 8.3532481766177336e-02 -4.2031933924466761e-02 -1.2046038828961478e+00 2.5657063144966186e-02 1.4100215811879258e-01 1.1647845179680871e-01 -2.5360751745063653e-01 2.0400615659967497e-01 -6.0270311152652661e-02 -6.7199505612842603e-02 5.5666868086169652e-01 -3.6785378914623834e-01 -3.8771143312915228e+00 9.8216406192836170e-03 -1.2955574009982262e-02 -6.1346887672088513e-01 -5.4487578212678509e-03 -3.8121751866640352e-02 -6.9220001571395073e-03 -2.4345338243399866e+00 3.3087638549323672e-02 -1.4410871830121907e-02 3.0176347428977639e+00 1.2729335979376660e-01 2.6392072779254622e-02 -5.0265845766840456e-02 4.3138010793587811e-02 -4.0934414331672997e-02 6.6046209656451538e-01 1.2485484999560867e+00 -1.1313373496648946e-02 -1.8299112362629459e-03 2.1268853856240355e-01 -6.2381757429638932e-02 2.4743418227226810e-02 2.8691363583222762e-01 4.8060078574388854e-01 -1.3817247408295064e-01 -7.7869513114041577e-01 -4.1277130162424278e+00 -1.6658603536925298e-01 9.2442950675165780e-02 -2.8844437696718128e-02 -7.5191481238081614e-02 -3.5218968229518932e-01 1.4459898506675017e-01 -3.8574789244739804e+00 -4.5887501737664552e-03 3.8290060425054864e-03 2.0867066745995544e-01 -2.5220434025341479e-02 1.0355746909670374e-01 2.5345135538504433e-02 -4.1552711035429457e-01 -5.6849488290038996e-02 6.7149695655984942e-02 -1.0085176030879666e+00 -8.5662565456248799e-02 -3.6203690671461342e-03 -2.1987897423680396e-02 -4.2322445132427722e-02 -1.1025864247158612e-01 1.2694535295850073e-01 -1.8755082802381366e+00 1.6141810264708706e-02 -5.5430957563938985e-03 -4.1471415496646813e-01 2.2801758040394304e-02 1.5978955406064554e-01 -4.4439953862393099e-02 3.9467988557089484e-01 -4.7016228761437517e-02 -3.9016941199128380e-02 1.7765878485314168e-01 4.9066782981410692e-02 1.7038105927017266e-01 4.4457978316357338e-03 3.0586949923701923e-02 5.2838919185196898e-01 1.8086303394011338e-01 8.6681099950510543e-01 -7.7791599142192427e-03 -4.0763754625646888e-02 8.3913764359976994e-01 2.7311374265715921e-03 2.8304587041676266e-02 -1.8271735197799843e-02 1.0447571916051857e-01 1.3529556026365519e-02 -1.9085116359241283e-01 6.6463389480122714e-01 5.9592897065932426e-01 -4.2866658865989393e-02 -3.3820165301203825e-02 1.8473176560996779e-01 -4.5533808017813326e-01 -8.2021947275076879e-01 3.5308519458949377e+00 6.6629050544214901e-03 -1.6702736817169890e-02 -8.8234499765774999e-01 -1.5932073555580614e-02 -4.5695340649184235e-02 -1.1210640121462433e-01 -3.7551915917805451e-01 1.8570025116336297e-01 6.7622762559823357e-02 -2.2966124830381620e+00 1.1406377199121705e-01 2.9502687276461975e-01 1.8957808069623175e-02 -1.6788475609296097e-01 3.5424559283168944e-01 -3.8865882176563571e-01 4.4446730970479393e+00 -3.6795134523557645e-03 1.8038325659413497e-02 -7.6074045226172871e-01 3.2514468085642914e-02 1.2457007573179979e-01 9.4086788079234887e-02 8.9082258798366531e-01 1.1712810264947171e-01 -2.4559692410709189e-01 1.5368032590533582e+00 1.6031963967474222e-02 -9.7596620140590895e-02 -8.8205215935034692e-02 -1.3884867057495631e-01 1.7872813226671580e-01 2.7127000615725549e-01 -1.0928044677082198e+00 -6.7313198846563060e-03 1.5493390455462726e-02 -9.2483745526988148e-01 -2.7615651067090241e-02 -1.4679190506994466e-01 4.8353262886363726e-02 1.4266092463916280e-01 4.7941991478114510e-02 -1.9590432303573602e-01 3.3175079317446077e-01 3.5839547578311814e-02 -3.8341711531351874e-01 -8.7493751744105452e-04 -3.2565507156201212e-02 -1.3784539891947034e-01 -2.7340227695269448e-01 3.3487939072733752e+00 1.7737227372159110e-02 -4.7883717884174101e-02 6.5068031484181432e-01 -1.0233069024721860e-03 -5.7738904217132347e-02 -1.1275032930603300e-01 1.2646036511036449e+00 4.8914936385818120e-02 -2.4020277930050682e-01 -1.5676444786157444e+00 3.0176094201130815e-01 1.6426492384020719e-01 -1.5090762599362095e-02 6.7125632734421903e-02 -1.0596918687409134e+00 7.0761715173263640e-01 -3.8177151538302496e+00 3.8363214450072486e-02 -3.1960996120613830e-02 8.5176372061377315e-01 -6.2974259834423549e-02 4.6369163749049080e-01 -1.8582691608019797e-01 1.0063706498056835e+00 -3.9095996162360980e-01 -1.5676834961360120e+00 -3.8886628110352550e-01 3.1336334578289354e-02 4.4698227299042270e-01 -3.8229198546725573e-02 4.9717713668485430e-02 1.9992593954066251e-01 4.1978889207166503e-01 -4.9130443725937312e+00 -3.3353720280718396e-03 4.5202381587079610e-03 6.0045920871232283e-01 -7.7935084549528300e-04 1.0684898278806543e-01 1.8381093613720846e-02 2.7667223719436151e-01 -1.1195590521516863e-02 7.3228756942626205e-02 -3.8596626165417547e-01 -8.5038392468285373e-02 -1.4642054282597627e-02 -1.2672060473466374e-02 1.4299407085866966e-01 7.5910546778008747e-01 6.5474653311331643e-01 -3.8000382636641916e+00 -4.1427560701392155e-02 3.6632580598630032e-02 -1.0500031825176848e-01 9.8569861965110972e-03 -2.8247466942710231e-01 3.5164417988040042e-03 -5.7679925826346379e+00 6.0112500216892428e-01 1.8332518095394001e+00 -3.0056035828720642e+00 4.5038789675096602e-01 -5.2522848436447500e-02 3.9303499035798911e-03 1.0249633209762748e-01 2.2179884262552768e-02 4.3261202256770890e+00 -4.0011189627982144e+00 -1.0878741912041887e-02 -8.3929497885046611e-03 2.3555418398979238e+00 1.0678866304476235e-03 -6.4372293841110095e-03 -2.2546612432972971e-02 -4.7983308251777066e+00 -3.7937911081802550e-01 2.5585514167412599e-01 4.1054044980459459e+00 -7.9302397432515742e-02 1.2544592516133962e-03 3.4271641942475775e+00 
      </Row>
      <Row Index="45">
        5.9894312428524099e-01 1.7739784595862147e+01 -2.8294279188499786e+01 -2.2768266350358743e+00 2.3004276974629611e+03 -5.2392567890860753e-01 5.3205741012519536e-01 -3.6898771965526976e+01 1.3848606269407160e+00 -1.5240333716094893e+01 -1.8353147825389544e+00 3.8311674749580561e+01 7.8753552343066158e+00 -1.4929462968221692e+01 -4.7215538042306434e+01 -5.6400040198541912e-01 -2.9667374674576852e-01 2.8283646074593616e+00 -2.8819080810259841e+01 -2.2093592894662066e+01 -6.2282762829679996e+01 1.3851469844579697e+03 4.6367229436350463e+00 1.5685339890620971e+00 4.4432579066597100e-01 2.6322292179250510e+00 -4.2745086541981436e+00 -2.3766621336299067e+00 1.4725688463938166e+03 -1.0957492852304711e+01 1.5734746394932841e+00 -7.3336756532470687e+01 1.5879076721598944e+00 3.7353394877456708e+01 1.6395720548500954e+00 -2.8700940325628842e+01 6.3661856903636362e+01 -4.8959393885917962e+01 3.8715587799251080e+03 7.4829354896011102e+00 -2.6595626944280404e-01 -4.6039049000013620e+01 2.2823575539125676e+00 2.1580790468453024e+01 4.8060076666993357e-01 1.6500563133717515e+03 -7.2592170133278922e+00 -3.4491858097196172e+01 -3.3966771179532242e+02 -5.4341505909724219e-01 2.2888213036535870e+01 -1.2286032822213961e+00 -3.9236386923075131e+01 -1.8877310644241618e+01 -3.5989993987837806e+01 -1.3606518810242414e+03 -5.6802893778728780e-01 -2.6253490597816231e-02 1.5593905763700604e+01 1.0984152390547079e+00 -2.4603376590212008e+01 8.8155104133447543e-02 3.0133487404720927e+02 -9.6456696994362119e+00 -2.5711759988276754e+01 -3.6227280849125236e+01 -1.4831901422133598e-01 4.2239667048949663e+00 -1.2216137471277990e+00 -7.0412271268907904e+00 1.4292678224735276e+01 2.8924896724987775e+01 5.7617976414412260e+02 7.6855393604326458e-02 1.9530975890978008e-01 -8.1632039311947040e+01 -8.9273368218891846e-01 -1.8149605877431398e+01 3.3731895426335745e-01 -1.2129942046426004e+02 -1.2366338871301309e+01 3.2850882474823457e+00 4.0641162925955925e+01 1.6624214380204121e+00 -5.5071949981645396e+00 4.1391790814465912e+00 -3.2578491397434846e+00 6.1321699346166085e+01 1.1530014190240763e+01 -6.5903393097594380e+02 1.1568052361451158e+00 1.4757171459688514e+00 -8.1460147519654129e+01 1.5263394103761292e+00 -2.3868428835432219e+01 7.5732299957541938e-01 1.8752728700148873e+02 5.9578911450091709e+00 -5.4396821490779985e+01 -1.0926566449261736e+02 1.7365469564758591e+00 1.1917763299818034e+01 -4.1112187752448417e+00 5.7870029260008536e+01 -4.1152476986528235e+01 1.5105166857546686e+02 -2.6040492534835357e+02 9.4114737070094101e-01 -7.6046591119732854e-01 3.0849746684279853e+02 -9.7107186904889398e-01 1.8813893292617621e+01 5.3925207591611501e-01 -4.7126372829300021e+02 1.5035346586013162e+01 1.2753543211325109e+00 -5.5440880285207982e+01 -2.3476552859607125e-01 -3.3910009028100845e+00 6.5171773890498512e+00 -1.7165869893894651e+01 -2.8011231474303599e+00 -1.9853549690568570e+00 -2.0047819588440325e+02 1.4471955947069719e+00 -6.9392336882674199e-01 2.2475522138119845e+02 -2.4260849900251551e+00 -7.9671074946914011e+00 1.3043103635365727e+00 7.8318968712195056e+02 2.1539463375976837e+01 -2.1369397027927562e+01 1.6885564267470329e+02 2.2017827077130239e+00 -2.6132934911747633e+01 1.9040095429405737e+00 -5.6972356238640060e+01 -2.5809353925521975e+01 -3.5766250448937114e+01 -1.1967399554206131e+03 2.0625943057279992e+00 -1.1461453599544544e+00 2.5007352174193670e+01 2.7799975631577620e+00 1.6204103143731864e+01 1.1140272561992315e+00 4.0631982096210334e+02 -5.0122205205137291e+00 -1.7053160900074289e+01 -2.5641505267002685e+01 -2.0100600327917224e+00 2.8133872729630244e+01 -3.8738753982070353e+00 1.6881592293373672e+01 -5.0902412116310160e+01 4.3804959169933682e+01 1.4452486333750858e+02 -1.3143431640813956e+00 -8.4992136593943712e-01 -8.5953266383476148e+01 -2.0166537844393000e+00 1.5227931025054261e+01 1.0288137795252501e+00 -8.4735452081451194e+02 5.0047025495175035e+00 -1.9505937552194581e+00 9.7893741210142764e+01 -1.5958748934350584e+00 -9.4227085718854653e-01 -1.2709531714372432e+01 2.4540907801575717e+01 -1.0357990955529411e+02 1.6748574382496125e+02 -1.3176112032222227e+02 -1.0084736332481759e+01 -2.2014275757410817e+00 1.0350147329599713e+02 -3.7395248828207253e+00 2.5257461761341325e+01 1.4643955589789925e+00 4.0154086866001535e+01 -1.4186361646716623e+01 1.4465689960910538e+01 2.6001782342253432e+02 3.1948864339762864e+00 -3.1340604319884779e+01 1.3444857429746446e+00 6.1066819284169469e+00 1.0393059680354781e+01 2.1369502659887075e+01 2.0556266421492910e+02 1.1684403522331903e+00 -5.0924796795253391e-01 -1.1093593376810895e+02 -4.3850198362132886e-01 -2.3480776694646920e+01 3.2152639580328479e-01 -2.4197226726962253e+02 1.0397853529688291e+01 3.1982662674039602e+01 1.6897074617911130e+01 2.5147429367689256e-01 -8.6347054856888228e+00 7.7905276745016092e+00 1.4551025868111767e+01 9.5023531265828240e+01 -8.4025262560346528e+02 -1.2005454541336167e+02 1.0236138359740826e+01 3.9309545272348760e+00 7.4373249436845072e+02 6.8690568763134436e+00 -7.6320547075583193e+01 -4.3332109632035234e+00 3.9484072986853898e+03 8.4355650513922669e+00 -5.3994235861006666e+02 4.3433961702025050e+02 -1.0362548148036523e+00 5.2049979688525752e+01 1.8484090344935750e-01 4.1467208671298081e+01 9.2361507935390481e+00 -1.5417080524526111e+03 -2.8590378961171318e+03 -2.3947016541505373e+00 -1.5196711470615526e-01 1.1237628770173715e+03 7.8340909464231556e-02 1.1020887343971779e+00 -4.9820007604278105e-01 9.3982631676426645e+03 -2.8483112351052810e+01 1.2353649369720818e+03 -1.1694624201420543e+03 -6.0746596207621906e-01 3.6547866718205047e-01 -1.3862924004445056e+03 
      </Row>
      <Row Index="46">
        7.7179939167817693e-02 -1.0523347900175395e-01 1.5136753101360227e+00 2.1497194305934109e+00 1.1573437236336758e+01 8.4380527318188264e-02 1.3706716945433517e-01 2.7461489144667212e+01 8.2445928284100495e-02 5.3159175483838617e-01 -9.2499774335027263e-02 4.1641374271543441e+00 -1.2577507352325320e+01 6.9984092837782264e-01 5.8664611991778656e+01 4.6679043899022665e-02 2.7306372876915841e-01 -4.0484164509509779e-01 1.1595934823059135e+00 3.2730090691052056e+00 2.2988831606453459e+00 -5.9816649578511715e+01 2.7041235809838382e-01 -8.1439750190105201e-03 -6.5095660587928023e+01 5.9733012213014636e-03 -1.9618876467893642e-01 4.4119099966906106e-03 1.2540036766838778e+00 1.0205019975049453e+01 -1.2375524323954616e+01 5.3178666794224156e+01 -6.7266197270548223e-03 3.0860116423577189e-01 7.9287302770325141e-02 -3.8324078576636631e+00 -1.3423971283327774e-01 -1.6449370638554683e+01 3.9449126436957158e+00 -7.0929385439131531e-01 1.3971861904034349e-01 1.3911401685923920e+01 9.4011258106687617e-02 -7.6410798844470307e-01 -1.3817247888327400e-01 -7.2592050314233347e+00 5.2843769089694234e+01 4.3141007805755898e+00 -2.5443942939220409e+02 8.1276702869701012e-02 4.2068083466397788e+00 -3.6935732116440745e-01 1.6497797874339137e+00 3.4587922958560142e+00 -3.2942280161187227e+00 -4.7907955158269033e+01 -4.7711394589369949e-01 -1.5003111000795488e-01 7.0702547375200083e+01 -8.2742307812452565e-02 -3.5857408958535197e-01 -5.8498405726889607e-03 -1.5657351481209048e+01 5.6164512387109902e+00 -2.0819341902579254e+00 -1.4973445264055044e+02 1.5303511064832992e-01 -7.0529334228863405e-01 -4.2910070653375776e-01 1.7430429506594614e-01 -5.0345730976640226e+00 -1.0174003826250555e-02 2.3344261932675727e+02 1.5103281307383476e-01 -1.9120984259766502e-01 3.8385403199342250e+01 -2.7161127786186512e-01 -4.2307135115118794e-01 1.5295689010674060e-01 -1.9764068034715820e+01 2.5682786535649893e+01 7.9513664067840484e+00 -1.1208949555985254e+02 3.2412713672683069e-01 -6.6893252072013798e-02 1.8912017522937319e-01 8.7954655583871499e-02 -5.4047344794645702e-01 3.2950335502537200e+00 -1.2859928452956956e+02 -1.4020957717308546e-02 3.4465545001337965e-02 6.0205294458910430e-01 8.1047835897340437e-03 7.4053820680786142e-02 3.1953260623955870e-03 1.5668360141426092e+00 -1.4740277803265858e+01 3.5943244420941483e+00 7.9729784755290893e+01 -4.1559003578517140e-01 -4.2605106405494553e-01 -8.9722420258362023e-02 -2.8496056253716655e+00 4.9506955378171664e+00 -1.3431952800711713e+00 3.1748277922852139e+01 -1.4019066929215729e-02 -1.8971561243469159e-02 -2.7824015047684895e+01 -7.8023009025098539e-02 3.2397763773650268e-01 -1.2769985358279554e-01 -1.3861988388251559e+01 -3.0600750037003287e+01 -1.5661340215312563e+01 1.7010150855728898e+02 -1.0702777802685427e-01 -7.7692827298978306e-01 -2.7027573147090733e-01 -9.3196002796561928e-01 2.0873664662343359e+00 -1.3662451737175636e+00 -1.1159946676907657e+02 -2.1067497546694480e-01 2.4482566390549698e-01 -5.8678310473366430e+01 3.2310981980318199e-01 1.9288547397954035e+00 -1.3193982570390450e-01 3.8871904046014926e+01 -2.8628567080253216e+01 -1.4525296331648882e+01 1.1326931209221070e+02 -4.2554835216481640e-01 5.9578092317321474e-01 -4.8814670425970186e-01 3.2024446826441788e+00 3.7326938828910352e+00 -1.3340946267139149e+01 4.6818054059611541e+01 -3.8990615888590807e-01 -9.4548927492181745e-02 -4.7176276363307522e+01 2.0582249708255923e-02 -2.7229331053014089e-01 6.9596497275189823e-02 -3.6917297226616244e+00 -6.3928424517400568e+00 1.0208379062358404e+00 2.6620463787349919e+00 6.8570043969370428e-02 1.0932812551027551e+00 6.2633667441535146e-02 -8.7939051277914349e-01 -6.5432474486137604e+00 4.5427785227033723e+00 -2.8172255241893254e+02 4.9865987357055963e-01 3.0451237723908786e-02 -7.9963208089332056e+00 3.7408671207393662e-02 3.2506897491818965e-01 -2.8713702544923447e-02 1.0935156596386602e+01 5.7470625118141561e-01 1.1835717027609745e+01 1.4287204540129807e+02 -1.1119481058707026e-01 -2.0483317511380701e+00 -1.1906202194795357e+00 -2.3161110696676581e+00 -1.5084369968783404e+01 -1.6178999387261889e+01 5.7885211586769856e+01 7.8101246417231063e-01 -8.1461657041510885e-02 1.4340899483893708e+00 -7.0451132020707297e-01 1.3096746218147235e+00 1.8478858825369926e-01 -4.8056998284553487e+01 1.6219493960958999e+01 1.9626249988920108e+01 -1.6550725665352834e+02 -1.3885131120017163e-01 2.9497870042828334e+00 -8.3972400499106481e-02 -2.4812568059724072e-01 1.8456778025265521e+00 3.2374052816012409e+00 7.4673161782155148e+01 1.5987464827978015e-01 2.3364977951336498e-02 -3.2370883807732753e+01 8.9471318418251400e-02 7.0842676943289007e-01 -6.2847244211227560e-02 1.7974116433222662e+01 -4.6948466895996148e+00 -3.4577684839023277e+00 1.4171279178836267e+02 3.7326910353449705e-02 -2.7639125733493897e-01 1.3323827246078479e+00 2.6251049388771537e+00 2.0469915518845383e+01 1.3175933409201200e+01 1.9338774953830125e+01 -4.0542548268688405e-01 -4.1955656123805432e-02 6.1791998357974080e+01 4.6395717746589082e-01 -1.4370493123096537e+00 -2.8009132869949205e-01 -1.4766530807313778e+01 -9.1871674412717567e+01 -4.7320397514565883e+01 1.7688492486441064e+02 -5.2143092094341453e-02 -3.4433953807828130e+00 3.8588086455298841e-02 -3.2103681216589974e-01 -5.0386901024814068e-01 -1.7649748728754048e+01 1.0791287109009247e+02 2.1089131038188869e-01 -3.1884661529549461e-02 1.8847258532489144e+02 -1.6367421409881268e-02 -2.9048931698234304e-02 -2.2770826322804916e-03 -6.5140855867867941e+01 1.3773950081202202e+02 5.5354663686268729e+01 1.0825790673596386e+02 3.7986568456964152e-02 1.3319395312432203e-03 -2.8303452411538789e+01 
      </Row>
      <Row Index="47">
        1.8548701818777307e+00 -1.3777484559686854e+00 -1.1543081922751298e+02 1.5504838080403616e+02 3.2329116162192076e+02 -7.9704454423253501e-01 2.4693306172862239e-01 1.9304548451123992e+01 -2.5424418842805752e-01 -4.0883832487714287e+00 -3.5371982408484504e-01 2.9123763888360372e+01 -4.5381368160192359e-01 -2.1190444118002739e+02 -1.0437634240390253e+02 -2.2859975308491860e+00 2.0156057603539459e+00 1.2149696860140393e+00 1.5954895673802483e-01 4.1670200390475962e+01 -5.4877463384604198e+01 -4.9168055481463671e+02 7.3849561723388890e-01 1.2653105679938259e-01 -5.0702389113090703e+01 1.0153456420182978e+00 1.9954919737210730e-01 3.0945141562210665e-01 -3.3505028826436387e+01 -7.7022361236101844e+00 -1.3354124680688102e+02 2.6159722988185990e+01 2.6390860026866214e+00 -5.6831064741531137e+00 1.3260670631575522e-01 -1.4863740664231209e+00 1.4993596513493685e+01 3.5171659350488335e+02 3.3642442062404007e+02 -3.1044541186685466e+00 -8.5759542303747827e-02 -6.7890554634155706e+01 1.2962223715269801e+00 -3.0039424241154755e+00 -7.7869501160797006e-01 -3.4491865702337236e+01 4.3141018891249416e+00 7.1244611505513035e+02 -2.4784574200995689e+02 -4.9772774883126658e-01 8.9118058623390972e+00 -1.4641113285209484e-01 -1.1436236889926699e+01 9.7171151879322451e+01 -2.4240097468349268e+02 -5.1297777733951807e+02 7.5888219398517087e-01 2.3054454795702811e-02 1.5507447456009686e+01 6.1975242598903080e-01 4.3586840527315047e+00 4.3434091453189771e-01 -2.4787333280705806e+01 -6.3338553970894793e+00 4.8462859597580973e+01 6.6025323356967419e+01 2.9343780457265853e+00 -2.1628303093634091e+01 -1.4697103263088920e+00 1.1009481504808143e+00 1.4031719051243789e+02 -1.1820688289726968e+02 -1.5259577145054936e+02 1.9690598946162496e-01 2.6134634045688254e-01 -8.4247738634294365e+00 1.9452744628938490e+00 2.7130845376858090e+00 6.0631665666427720e-02 -2.7897309030100587e+01 -3.7436127774939152e+00 1.7905322346570438e+02 7.4508837203416789e+01 1.1502906651572355e+00 -2.3691428926796938e+00 -8.1939854359327935e-01 2.5945925352425547e+00 -9.1207051339774907e+01 -3.9406075976799184e+02 5.9399032304156572e+02 -6.4354140053553333e-01 -3.5408379913156218e-01 3.6399492812657627e+01 6.4941625968039429e-01 -8.9932936442479239e-01 1.8290631805350202e-01 1.9812046479011769e+01 5.3300217585442056e+00 -1.8390936785534723e+02 -6.6156717425008537e+01 1.8358389445947982e+00 -2.3443551627697161e+00 -5.9756005153247456e+00 4.2682338464050176e+00 3.0366655888599325e+02 5.1342703097745868e+02 -4.0870352438774353e+02 1.1957066224869752e+00 8.6003276091492720e-01 4.2227027309445828e+02 2.9512644062193973e+00 9.5112427889218694e+00 4.4910794196575365e-01 -2.3560183373571249e+01 9.0982974805207064e+00 4.1709444375086122e+02 1.6558391010858259e+02 5.6947816324193905e+00 -4.8772269477883068e+00 1.2084593139178748e+00 -4.4750041908443219e+00 4.9796265905572767e+01 1.2318177255268040e+02 -8.8840819771401584e+01 1.3867001201403533e+00 3.0838583564199396e-01 1.0944012958332269e+02 2.1798462081540637e-01 5.3089206958545976e-01 5.8796594873046737e-01 -5.1410200565674515e+01 2.1098607514945691e+00 1.0873623982727517e+02 1.9050794352465755e+02 6.4495013490833064e-01 -9.9604731567095151e-01 -1.8369540152121289e-01 -7.4955620462334593e-01 1.8215645389307383e+01 4.7111916364780723e+02 2.6822260729841582e+02 5.3936612656393490e-01 6.1905875235759744e-02 2.2713067663166839e+00 7.8745165422057117e-01 -5.0824247673704193e-01 -4.7062514728331251e-01 -1.8444813557892871e+01 3.6468630292049768e+00 -3.0769692285887430e+01 5.1473779542252714e+01 -2.5283351821506295e-01 4.5024408045615729e+00 -9.6607945513835691e-01 -2.4621201422820178e+00 -7.6311759165571772e+01 6.6624794291973103e+01 -2.6734004083837135e+02 -1.3000434716484559e+00 -1.0144594029906688e+00 -2.0483767201604792e+01 -4.0340526523828557e-01 2.1243338989745268e+00 -7.2189068065021922e-01 3.4512825197035852e+01 1.4227484090905520e+00 -9.0984276004991699e+01 -2.2216193676410523e+02 1.0407193969772264e+00 6.3101071721603024e+00 -7.4675492150520739e-01 -1.7768898663168802e+01 -4.5193856617153148e+02 5.9438101915525351e+01 4.2588350317422010e+02 -6.5129724997200773e+00 -1.1248048821951905e-01 -2.7235674248413818e+02 3.8424614382417083e-01 2.0415649328396057e-01 -5.2075057586452154e+00 -7.2074110582824204e+01 -1.6871081534570433e+01 7.7166408694760446e+02 -4.6594724278850157e+02 -3.4687657069437332e+00 1.4529409354913845e+01 1.0970586692097335e+00 3.1975728127472394e+00 -3.1196852831038996e+01 -1.5466227939352393e+02 1.7591533006733152e+02 1.7800714321543243e-01 -1.5740857298321770e-01 4.5175288608188566e+01 -3.6200003433918426e-01 -3.0336902648596151e+00 7.1753748515536842e-02 1.0489951123774517e+01 1.8719562538808532e-01 -8.5424057749798521e+01 -3.2408407507406082e+01 -1.4519545431683412e+00 -1.6036295345328835e+00 -2.4256417537045016e+00 1.2996858555802234e+01 5.8270521029045403e+02 -5.7308522304888299e+02 3.7177022030985700e+02 7.5121783341099606e+00 1.0969899175990148e+00 2.2417187925757025e+02 1.2678438255534203e+00 5.0297787416131037e+00 5.8424708959783818e+00 -1.4552235083314758e+02 1.7496018171019408e+01 6.4358227238924542e+02 3.6771427296255831e+02 9.1481900062238211e+00 -3.5305494934174618e+01 -1.0276966393780868e-02 -2.2409881316047882e+00 1.0737001109773839e+01 -2.1055619069894310e+03 -2.2050451432432983e+03 5.3658378145677244e-01 -2.4242595431741265e-01 -4.1522145149971266e+02 1.6334591942947391e-01 3.5889755689460401e-02 -8.0552495633784291e-02 -3.8775038375096165e+02 -1.5487978751794939e+01 -4.3244139509906199e+03 1.8334994019098673e+02 -1.0125862344344194e+00 -1.1037360985807898e-01 -2.0198825293041295e+02 
      </Row>
      <Row Index="48">
        2.0452882704513478e+00 -2.0567496439267416e+01 6.5894588299561292e+00 7.0473891746307174e+02 -3.6375353287514299e+03 4.7343490874009397e+00 4.7345049276082491e+00 3.0060082176446449e+03 1.9575553147225246e+00 -1.9369643836192836e+00 -6.4489543510625786e+00 -3.4675972767072017e+02 1.4860101852818934e+02 -1.9749300687110599e+02 2.0875039218927559e+03 1.1660853272025062e+01 -9.2539454563096299e+00 -3.2601368619336668e+00 -2.5258372399020956e+01 -8.6172395433516897e+01 -1.2495177286956459e+02 -2.9007898174822330e+03 6.9368794847347388e+00 -1.9465163622486745e+00 2.5346944300725534e+02 2.9967009322756133e-01 -8.8451539827801753e+00 4.2470671240930642e+00 -1.8146342621318217e+02 3.7547825107694166e+01 1.5262315398792634e+02 1.0067448934076940e+04 6.8338075503491789e+00 3.4127609390255884e+00 2.5065764655373641e+00 -5.9915361876687712e-01 8.2823578990821261e+01 1.0380964020295069e+03 2.2151331306211650e+03 4.6439301956108295e+01 -2.3351226505607539e+00 8.5684225617442280e+02 2.1889964430359492e+00 -7.0037428936433628e+00 -4.1277130308429726e+00 -3.3966734440112486e+02 -2.5443942743301454e+02 -2.4784590389062430e+02 3.1528446699523087e+04 -1.3533051618764148e+01 -4.5261486859422071e+01 7.4228730386528596e-01 3.5353209140938141e+01 3.5785341826233889e+01 -3.7310185283841565e+02 3.3176230888664722e+03 -8.4353431864422603e+00 3.3827725543607841e+00 1.4396584765482694e+03 2.5663833662346036e+00 3.3406244367072787e+01 -8.4096181446543916e-01 1.1919002734167441e+02 -2.6964398329722269e+02 7.8270004445337690e+01 -7.0581581260170788e+02 -5.4843111271482572e+00 -1.3751228193744581e+01 -5.6664024568075124e+00 -4.4169428075342125e+00 -1.4131978937274425e+00 -3.4318811348592862e+02 3.7788588590770960e+03 -2.1564728266291567e+01 -6.6648363557632706e-01 2.1092851649918593e+03 6.7148706774460152e+00 -1.9809346687794886e+01 1.6468767115856275e-01 -2.0505394524964504e+02 -1.8737189111176735e+02 1.4502456204325222e+02 6.2206377102300794e+03 7.7269210759777245e+00 2.9290212311437323e+01 2.5534611806021843e+00 -5.2018138532002922e+00 -8.3193049629389328e+00 -5.2935744714504108e+02 -4.5175724895820022e+03 1.3032652729731609e+01 1.1574475793234784e+00 1.1195979289142706e+03 1.9411114062862054e+00 3.3494341180193814e+00 7.6340222844320023e+00 5.6819761769962497e+01 1.2632869530799849e+02 -3.0697665025910828e+02 -2.2999541526013054e+03 -6.9472082993948785e+00 2.0707627951953327e+01 -1.0454161414108906e+01 -6.9102040249397305e+00 5.6916466195158002e+01 5.0095163086879904e+02 -4.1769973546991969e+02 -1.9189162367314871e+01 2.8745904248267689e+00 2.2615639397065734e+03 6.4248713656177792e-01 -3.1678459289094150e+00 -2.2150943253776596e+00 -2.7616530215745820e+02 4.4305034762921184e+02 5.4223348541074188e+02 -3.8083959213790786e+02 1.1679761014486349e+01 -5.1411782301586143e+01 1.1332352237544594e+01 3.6300963303113463e+01 1.0717337494404939e+02 2.1305713414314130e+02 1.0590809290159959e+03 1.8414826482872364e+01 4.0456510361895894e+00 -4.8095642247219257e+03 -4.8193294162152727e+00 2.7202649388017221e+01 -2.9264463473486035e-01 2.9421673156658403e+02 3.0231182667190808e+02 1.3033030050310913e+02 -1.1775249918020138e+04 -1.0823292891577559e+01 -5.9144673623583941e+01 1.4312659220904408e+01 1.9392449709400466e+01 2.1640214807341920e+01 8.3701963803949889e+02 2.6919340092343191e+02 2.2608665292217665e+01 -5.8766907236932209e-01 -4.6100865601669211e+03 1.1558265790031577e+00 7.8956243857919333e+00 5.4037072595373803e-01 3.4193249994665337e+01 -6.6737946096263101e+01 -2.2633683739212518e+02 -2.2103287212094783e+03 -1.8259629577524770e+01 1.3910513680663286e+00 -1.8451224170520433e+01 1.5721948273084081e+01 -2.8015059884399489e+02 9.3749670753763280e+02 -3.4955164807182737e+03 -2.0362576958780380e+01 -9.9072473664727951e+00 7.3666899011223686e+03 -7.1899914754939758e+00 -5.0219312721406610e+01 7.9925545938888902e+00 -8.5291040938708738e+02 2.4168934048364099e+02 1.1227811031299643e+02 1.1902863228125709e+04 1.2678105928614087e+01 2.2279061532080711e+01 -5.5684499638065290e+00 -1.9230738494656535e+01 7.8113865895174627e+01 6.0472364043219568e+02 1.8478847781920631e+03 -3.1195271597323234e+01 1.1340171064563620e-01 -4.4085020992120951e+02 6.4087322265497360e+00 -6.2533781226708228e+01 -8.2258369554051285e+00 -2.2396273865684971e+03 -3.4143292780620664e+02 -3.2129768570970049e+02 6.7754579035003135e+03 3.8345428515819592e+01 6.7817641809508160e+01 7.2323704024047082e+00 -9.6177674236532766e+00 7.8758711418719031e+01 4.6931581575423479e+01 -2.9077768819748308e+03 2.2252913987567567e+01 -3.1982519091939632e-01 1.9523329535269877e+03 4.5630509065290425e-02 -1.0851931126482668e+01 -1.5907206902643540e+00 -3.3237920177634805e+01 1.5326623223190836e+02 -1.6024105289392173e+02 1.9127457157904282e+03 -4.8109019492626430e+00 -7.4450689957920204e+00 -6.2418160573775427e+00 -4.3272672179407351e+01 -1.0554119359514311e+02 1.0449010883345952e+03 2.0688066198579018e+03 2.0123518985397531e+01 7.7306510677288909e+00 3.2088049775119871e+03 -3.8308425762153320e-02 7.8924751766511562e+01 4.0275131683060721e+00 3.2326563003287174e+02 2.8723492508724541e+02 8.7476794225465369e+01 1.7748903672830602e+03 -1.6206649298299588e+01 -1.0163188843180912e+02 -2.4839180474197398e-01 -1.0282109120524626e+02 2.2179298780164039e+01 2.2083436801278704e+03 7.5020053275009900e+02 -1.5132487133548587e+01 -1.6937967606114794e+00 5.9104865296050775e+03 6.6334854579690261e-01 -1.0092833753768105e-01 -2.7072547243017699e+00 -3.1224603862714607e+03 -3.3413438087002697e+02 3.7786008035192430e+02 8.9621566012375224e+03 -3.3385955063187263e+00 1.2860373183585310e+00 -2.2424797571310096e+03 
      </Row>
      <Row Index="49">
        -4.3819054832233501e-02 -4.0095520352944902e-01 -4.1935265564347901e-02 -4.0674302890248484e+00 2.1863414741215820e+01 -5.4802061595150275e-03 -2.7567322823478305e-03 -2.5776236267379318e+00 -1.2116873792301458e-01 7.2718278473325237e-02 4.5681308450124491e-01 -1.4848868080466495e+00 7.7199776656195263e-02 -1.3102860068620450e+00 9.6434178496059531e-01 1.2484941151083357e+00 -1.5024923511248323e-01 2.5205422489163987e-01 1.3580321675333717e-01 2.3674467557338703e+00 -4.8825465526101652e-01 6.4520530879381113e+00 -3.9874899815600107e-03 5.3136013493968556e-02 3.9383675403232310e-01 1.2068117583647481e-01 6.0369508921297665e-02 1.4410731931197596e-01 -3.1418453078157818e+00 -4.7962258693332149e-02 2.0545812613868932e+00 -7.2893647146511364e+00 -1.3566366092037014e+00 -2.5103338248037121e-01 1.4876694778003241e-01 -9.2502362878620570e-02 -2.9700729343977059e+00 -3.1751789245809050e+00 -3.6961776016323711e+00 1.0956827303044286e-02 -7.6076529162227610e-02 6.9155045714887819e-01 -2.7911535100452023e-02 2.1281955995020851e-01 -1.6658603506755504e-01 -5.4341553171627766e-01 8.1276701389415784e-02 -4.9772774471549397e-01 -1.3533051501045335e+01 3.6440648221662748e+00 1.3447584130796180e+00 8.8388594222546080e-02 2.4560883138794876e-01 6.3538305653560201e-01 2.9693118978632356e+00 2.4785612986597698e+01 -1.7793553991706124e-02 -2.0615410888136440e-03 -2.3987494149350823e+00 2.4141053116540773e-02 1.2859812432745876e-01 -1.4052740302147196e-01 1.2792484807673432e-01 2.0277405493745659e-01 1.5490111645594311e+00 -1.5266653693179251e+00 9.4609361365653633e-01 1.7361422886029043e-01 1.4620931618658084e-01 -3.3446745912418807e-02 9.4813013588003869e-01 1.8945823647604811e+00 -9.8090167905611452e+00 7.7148846024207712e-03 4.6870051506054979e-03 -4.9896411394047391e-01 -5.5479093115959444e-02 -8.6524734681145077e-02 2.7174348068969389e-01 -1.0546425946927229e-02 -5.3418435796263708e-02 8.4652010709537473e-01 -7.3312871978519016e+00 -8.9850438103371499e-01 -5.8132216795538416e-01 2.0203954926339029e-02 1.2837997566481363e-01 4.0285625004596504e-01 4.1554498148002494e+00 -4.2595627297851024e+00 -3.0038453916933883e-02 4.1349715469989785e-02 -6.3407487713089949e-01 -4.3744364806379929e-02 3.5712357324912958e-03 -3.0088339240522360e-01 1.2413659919741349e-01 -1.1344873385594756e-02 1.2479918732475426e+00 3.0357821099901230e+00 -4.0878317559865449e+00 -1.2936081121037546e+00 -7.3726386977398348e-02 -4.5135078259990191e-01 1.0820166988116373e+00 -4.7056493168834521e+00 8.3342015672537428e-01 -2.0940144693024895e-02 -2.4953295229013100e-02 1.5166031350724509e+00 7.2372331668649967e-02 -3.4553192681682632e-01 4.4049702259488999e-01 -1.7108935088595061e+00 -3.1919459856494070e-01 6.3589643421484432e-01 4.1838219270800785e+00 -1.7757631795612872e+00 4.4349527122547394e-01 -3.6694441266481964e-01 6.1814799077712457e-01 3.1466096137002797e-02 -1.8432774581507552e+00 4.0796294647681179e+00 -3.5286879182689329e-02 2.3912023623846937e-03 1.3341566228181705e+00 1.0743095971477165e-01 -3.1149104087875981e-02 -2.7208591722664771e-01 -1.6363493558454558e+00 7.2091264764248958e-02 1.7272045409745056e+00 1.4486208919779179e+01 2.7552330589478180e-01 1.0646994472539630e+00 8.3576480541409426e-02 2.7535929686630251e-01 -1.0658130455282260e+00 -5.0610701454179825e+00 -2.1963102407025872e+00 -1.2956488092161322e-02 -6.9820729917401320e-02 4.3348279160999788e+00 -2.3404476725530732e-01 5.4540202928540205e-01 -6.0174905961030523e-01 2.2371553857961466e+00 1.4450061030758210e-01 -2.2279746342387590e+00 2.7041880208914044e+00 4.1194734500577523e-01 1.0736408747940840e+00 4.6896990338814420e-02 1.1394034683880250e-01 1.3923705920111522e+00 -1.2135899502213476e+00 2.5261116027354547e+00 1.9746263717191116e-02 4.7238478680027313e-02 -5.3825085141139226e+00 1.2978461076449388e-01 -5.0944049578557055e-02 2.2993736759220129e-01 1.9495004096966717e+00 9.5208470504030362e-02 -8.8160283471825984e-01 -1.1987884261920016e+01 -2.3195834035989047e+00 -1.1307490399145192e+00 2.1401181280689208e-01 -6.4755027985491143e-01 -1.8943832748192408e+00 -5.5057593374966789e+00 -5.6183610868753249e+00 -3.0046390226521086e-02 1.1433158240486443e-01 -3.0464342706580663e+00 4.5309235527933722e-01 7.0602396933316824e-02 1.0988217989394293e+00 4.4364581025770384e+00 -1.3759414019222238e-01 4.8956299859663179e+00 -8.8449148984805817e+00 -1.8578549420185553e+00 -1.3209231356351971e+00 1.5646634129492937e-01 -4.5083449853109414e-03 -2.1549850649864766e+00 -2.0244352806184907e-01 8.5920729693839348e-01 1.4138390830727666e-02 -1.2454201620166003e-02 -1.9622286803956968e+00 -1.0006572801005581e-01 -4.5059520613179416e-02 -8.3113848428352566e-02 1.3265571727079077e+00 9.5453400534093902e-02 -1.5466572141940560e+00 3.0258337960303834e+00 8.4574509080721350e-01 3.9642943323632690e-01 7.3749249899186728e-02 -2.5988104990951311e-01 3.3599750258993915e+00 -2.7557147263797788e+00 -4.3126272528414233e+00 3.5425918370545997e-02 -6.7477660182129154e-02 2.6990915403794133e+00 -3.1988816728065006e-01 -4.7632724960953510e-01 -3.9240500521450250e-01 -5.7724679177077451e+00 -9.8094952628218102e-02 -2.7476875162500347e+00 -4.7330355191710360e+00 -2.5053730500702516e+00 1.0217698494323968e+00 -1.5857903530649243e-02 -1.0086495488339822e+00 -1.6337337654500025e-01 -2.6146145087176396e+00 -1.2626765805606341e+01 3.7154023412026255e-02 -5.8589361516746766e-03 -6.8159432611434143e+00 -2.6955531763712695e-02 2.1768397561851491e-03 2.1308558571275849e-01 3.3794586130724191e-01 -2.5253370378459050e-01 -4.4107741926847499e+00 1.0092740593366596e+00 1.0811410324040416e+00 -3.2378205874598935e-02 2.5672691834203447e+00 
      </Row>
      <Row Index="50">
        1.3479670423432433e-01 -1.2676280505866089e+00 -5.7513000199833186e-01 -3.5076210696557013e+01 1.8215822532109451e+02 3.1136490441474851e-01 -1.0607658623672682e-01 -7.0917478029601625e+01 4.3785961584439681e-01 1.9769326648246377e+00 3.1190668204760263e-01 1.4641909393872083e+00 -2.9734270662969227e+00 -4.9969465329675131e+00 1.5442815172613336e+01 5.0506379421822734e-01 -9.0233195165489430e+00 2.7859794346431896e+00 7.3539833043042613e-01 2.6540066058585126e+00 2.1799091204986325e+01 -1.0842144802212715e+02 1.7745742113596974e-02 5.8581637770797945e-02 3.3509416349925061e+01 -1.0318368593269747e-02 -3.4288327650756401e+00 8.2529911539552359e-02 2.0814225228112520e+01 1.0328723321501290e+00 3.7512583307970999e+00 -4.6398524030255999e+00 -9.1394843087257449e-01 -2.1518201311801639e+00 3.4364507131658684e-01 7.4666632670558997e-01 -2.9870600134272536e+00 -6.3186203469755128e+01 -1.9134571784501895e+02 2.0225465154039202e-01 -4.6434027034012870e-01 -2.6454474675876554e+01 4.5343478798667503e-01 -4.2490196168859100e+00 9.2442957453130248e-02 2.2888202082824137e+01 4.2068084413793159e+00 8.9118095280433920e+00 -4.5261477074324674e+01 1.3447584122720855e+00 9.6268864270440446e+01 1.6215621645518272e+00 1.5752800830473923e-01 2.5740307589876465e-01 6.5359402640606277e+00 1.7398223735205829e+02 2.6755515168905464e-01 -4.7121041240424694e-01 -7.4421823184355162e+01 -1.1201424712809778e+00 -1.0562140346760174e-01 1.2589278614754645e-01 2.8097217928143436e-01 -3.7852197966761203e-01 2.7063749013796041e+00 5.8891185293905437e+00 2.0145360383049027e-01 -2.6620142698941741e+01 1.0246422573139935e+00 9.9055482163121900e-01 2.9050778082521873e+00 3.9078355501405895e+00 -8.5059220252558589e+01 1.8139205055760677e-01 -3.1168986604089566e-01 3.7098403675918235e+01 2.6717996774482344e-01 4.5349343362114745e+00 2.8736645626517560e-01 -1.9426889313544962e+00 2.9697308804724543e+00 -2.2998965640245297e+00 -5.1602464108444643e+01 -3.1298836463017210e-01 -2.9222325270272297e+01 -4.7158726829205388e-01 1.1111026046819461e-01 1.4593092711150497e+00 -3.5853481578087667e+00 -7.1632027847226709e+01 6.4977341072485983e-02 -5.4773562152154454e-01 -2.9315784791415354e+01 -6.2816773638872725e-01 8.7904131063647784e-01 -1.1778974969119410e-01 -7.8921963124375907e+00 -7.3729810102597071e-01 -2.1326008381398424e+01 5.8706316431052983e+00 -2.1038744205546744e+00 -6.2030647863653940e+01 -1.1244211422653549e-01 -3.7742040004837976e+00 6.8927377379596777e+00 8.7890956910158295e+01 1.3915382498915642e+02 9.6235369308189656e-02 6.6319586003583963e-01 -7.2634926076841680e+01 2.5225963253989114e+00 5.4004368887297627e+00 1.5370975370769907e-01 -8.4349166303059633e+00 -7.9868437286717908e+00 1.1176813773740783e+01 5.1175573205921523e+01 -7.9184499353366544e-01 5.1400963500440033e+00 -2.0547999280676619e+00 1.7819768641260136e+00 -7.8829268710076761e-01 3.8423056793825118e+01 1.0519433543109699e+02 -3.9940672062026683e-01 4.3152499761176599e-01 2.6969731945175653e+01 9.7899355389877540e-01 8.8204710499636789e+00 -5.2440748640368268e-02 4.0502198239526876e+01 -2.3202434901154998e+00 1.0109792865066389e+01 5.7652076500309064e+01 1.4585885982724078e-01 7.5168828036228717e+01 -6.2227133225145925e-01 7.5807475361738952e-01 3.9031254993979481e-01 -2.5913005964110596e+00 6.5022115790733551e+01 -1.3874104250312524e-01 1.1280393835904741e+00 2.7787818420373583e+01 1.8121958700238494e+00 4.0777636004619096e+00 -7.7513579121390652e-01 3.9960789749778698e+01 -3.0480443383190092e-01 8.5365806431358422e+00 1.3904789700592829e+01 3.0908686945502239e-01 4.1539695754180045e+01 -1.7851904579267224e+00 -8.1269337095186245e-01 -2.5204645347258463e+00 -3.8416686326374133e+01 -6.8658197931064933e+01 9.6505629213398891e-02 -9.6573275808792852e-02 -4.5710077005940917e+01 -7.1864563622066369e-01 9.5498883929833767e-01 3.2231148970993484e-01 -3.2781009414903949e+01 1.8568246926835741e-01 -8.3121243629574622e+00 -3.8374449134300590e+01 -1.0580140303400980e+00 -3.3158916450138079e+01 2.3277261310234176e+00 -1.4013206013834001e-01 -5.4973882088770800e+00 -1.5103565178197428e+02 -8.3151313948659663e+01 -6.0562732093275917e-01 4.8381268716044645e-01 -5.7895569591244964e+00 7.5416765540050001e-01 4.1591371236952224e+00 4.1178375942950662e-01 1.4811691718500981e+00 2.1449004686022777e-01 9.6667022957460489e+00 -9.1636135922597859e+01 -1.0672850157810725e+00 1.0543300093285321e+01 1.6286093775797585e+00 1.6615264387946809e+00 -2.4556352189028985e+00 -1.8250502184499055e+01 -3.1142790152174530e+02 -3.0272721215572049e-02 -4.0857879378581757e-01 1.3378761592321098e-01 -5.3944366303401781e-01 8.7890841224998439e-01 1.6703325203293445e-01 -1.9434152822010219e+01 -7.8933169289712168e-01 -1.2160228149616159e+01 5.8285947238618974e+00 -5.3091701487105070e-02 -2.7915803274549027e+01 2.1169166827715800e+00 -5.0481909174967630e+00 1.2527551253509372e+01 1.2315344628883491e+02 -1.2062752979236774e+02 1.0123806624360105e+00 -8.9068185859771210e-01 -1.5226578811145737e+02 -7.3213280739401654e-01 -5.0263534316285607e+00 -5.2721776627643546e-02 -8.3789784868766276e+01 -1.4808167400368909e+01 -7.3282090097395098e+00 1.3821774316936606e+02 -1.6281600469272832e+00 -5.7369779097235671e+01 -1.5238521695881685e-01 -5.8206235594894746e+00 1.5425116909185776e-01 -1.2827136081714787e+02 4.6542308128152762e+01 1.3835606769695363e-01 4.1259442297147883e-02 -3.3058983644665500e+02 1.5175616601100989e-01 -2.0490719552334036e-01 1.4078146175352638e-01 -6.2673255244787157e+01 1.6897903964804751e+01 -5.7494269806909820e+01 -9.1434726976644427e+01 4.4157281986813518e-01 -2.7991103465751910e+00 -1.7230331132112732e+02 
      </Row>
      <Row Index="51">
        -2.7454875280665358e-01 2.1643572998650740e-01 -5.8418633803021009e+00 4.0596158805997327e+00 6.1566245719068320e+00 3.1569087491818038e-01 -6.0112667435942430e-02 -2.8324041253443397e+00 -1.7104139057369411e-01 -1.7325141097384034e-01 3.5157951140487420e-02 -2.6166987378269395e+00 6.0757510424285011e-01 1.0055879070173503e+00 -3.8895273653243123e+00 2.0317944893391071e-01 -5.1093577081714869e-01 3.1361581172369348e+00 -2.9187592487797231e-01 -1.0945889013157412e+01 -9.5094541034927715e-01 -2.0872555144014768e+00 -4.1352255357775214e-01 9.1814419557725818e-02 2.1572037515774767e+00 1.3063755410703587e-01 -5.6353549869282915e-01 7.7858793409937288e-03 -4.3229824541182893e-01 1.7544954307538174e-01 -3.3966186469693973e+00 -5.3276248410243241e+00 -1.9563476950317438e-01 -5.1669524704174208e-01 -2.3386009168271649e-01 -4.9315764336050449e-02 7.1841454888363501e+00 9.9381142161500975e+00 -1.3194110761543925e+01 -5.6163898546935442e-01 -6.4967441014398553e-02 -3.1488767082751110e+00 2.5226142007570607e-01 4.6640686260682784e-01 -2.8844438799772387e-02 -1.2286031219566382e+00 -3.6935734164333756e-01 -1.4641027318042443e-01 7.4228661105834703e-01 8.8388595411045934e-02 1.6215622155659393e+00 4.7149720292560495e+00 -7.2445521235703247e-01 -1.2788524908397960e+00 -8.0855444788365958e+00 2.3114023151792935e+01 5.7268394823714885e-01 1.0986340891194546e-02 -3.6980914408832177e+00 8.5114868286993217e-02 1.9418779856929191e-01 -4.5655854729264728e-02 1.8678603921086872e+00 8.6841194063103977e-02 -5.6917547108470785e+00 -3.8581532898717796e+00 8.0624475283761043e-02 -9.9987269052834504e-02 6.8665180633037604e-01 -1.6820006310577851e-01 6.0764308515372285e+00 -4.7661483676026819e+00 1.7291991451507783e+01 -2.2347877498895127e-01 -6.1834313193429580e-02 -4.3801912733169956e-01 -2.4374933455108749e-01 4.7149416446850445e-01 3.0256674580524695e-02 1.5452067545154478e+00 -8.3720620999466755e-01 -8.6474289821250450e-01 3.3386305918688635e+00 -4.1570955321257930e-02 -5.2498652030068504e-01 -3.1485681253381093e-01 7.3737067312521276e-02 2.9168745703276926e+00 -4.0917604793733062e+00 -1.4656811560922506e+01 6.7098527025348131e-02 1.3358687179499507e-02 4.2669979409680536e-02 -1.8556701909295173e-01 3.5575860318445596e-01 -2.9627579955004226e-02 -5.2905699356927016e-01 3.9198324331424572e-01 4.2365541744326833e+00 1.8668236075261575e+00 -3.7396807962187245e-01 -1.2716175423385323e+00 1.7793740912867180e+00 4.4612835513686389e-01 5.9425775854535310e+00 2.2720718457899807e+00 -6.2694005179346277e+00 7.0126966180993633e-01 1.1885145217039610e-01 -1.6023953862678155e+00 -2.3987246383455374e-01 -3.4203595361706629e-01 2.5695724531299736e-02 -1.1053652479896563e+00 8.8544804200346627e-01 5.5147605409015767e+00 -7.1618239226999485e+00 7.7941548160022855e-02 2.8375792645819586e-01 -2.3079303794293975e+00 6.3902805572142229e-02 1.2052293184118072e+00 1.8404326787210863e+00 -2.1378607849797163e+01 -4.5652033224039501e-01 -1.3923085826066414e-01 3.1055570896436677e+00 9.8635503762344034e-02 1.1353334027834956e+00 -1.0002799211450975e-02 1.0643722518436505e-01 6.1696393370087899e-01 -3.7111297689778020e+00 -5.7839928063875377e+00 -6.5398932088343575e-03 1.1433549607456142e+00 2.8876933119187065e+00 -2.1931186815658332e-01 -2.4266865025476667e+00 4.2177378546622322e+00 -1.7967845012150065e+01 5.4208180647874804e-02 1.7615770170830991e-01 5.0071608194954820e-01 5.3672513367013508e-03 -9.3452477612932228e-01 -1.1204213072711292e-01 1.4172897998419351e+00 6.7080333928308367e-02 5.0676144874248905e+00 -1.3991616519489867e+00 -3.8632287262382992e-02 2.7973413963835956e+00 -9.3895829197619041e-01 1.0902671069390335e-01 -5.8962203334448304e-01 6.2056432364837519e+00 -3.8738361202949818e+00 -2.6377415089141054e-01 8.8444009318122463e-02 3.0517090906926683e+00 -4.3131443101282779e-02 -1.1612285944361744e-01 6.6520799581968659e-02 9.1256401818996835e-01 -5.0213214218075564e-02 -3.7383482314293559e+00 1.6725305807281472e+01 -3.9308490713532374e-02 5.5418908204675610e-01 2.7234289554247892e+00 8.2227513891640758e-01 1.3032035756930396e+01 1.0015946232115510e+01 3.6427713454013428e+00 1.2820106414957517e+00 2.5547084866574088e-01 -6.5164481731899571e-01 1.6378522261823231e-01 -1.2612579634889087e-01 1.5018919961938848e-01 1.0609742974944197e+01 1.2499705015706741e+00 9.1402941257813701e+00 2.4281843458799415e+00 -2.9958899210736778e-01 1.2048876215334254e+00 1.6921330610589400e+00 -2.0144803593311167e-02 -4.4038129831159267e+00 -3.1003938348203519e+00 1.5566984845478146e+01 -6.3340057646858894e-01 1.0479970232020255e-01 2.4758843720083519e+00 1.0790571042383279e-01 -3.1996269338194949e-01 2.0626208824960655e-02 -2.2615607189413822e-01 3.3142065622767980e-01 4.0278093915035242e+00 3.6846873573085759e-01 -1.2472914608411956e-01 2.5276871319892907e-01 3.2207053238196450e+00 -7.6830300630979309e-01 -1.1917505608545053e+01 -1.1147725927949157e+01 1.3783320079886607e+00 -2.0695819837952317e-01 -9.8386292910183165e-02 -6.5913705809365410e+00 -3.3637010851652316e-01 -5.6754877955716054e-01 -1.4186774851695505e-01 -1.0801234203253429e+00 7.4664898293449800e-01 -1.3179745140825084e+01 -6.1781776681904983e+00 8.3549014811702405e-02 -3.1556504768703451e+00 -1.7687146224137912e-01 8.7362441859824957e-01 1.2569890136889912e+00 -1.9303205185019081e+01 4.9561817069563631e+01 7.7414158522745569e-01 6.3607069490742019e-02 -1.0757618851352781e+01 -3.8639673062413588e-02 -1.2709977833493313e-02 2.1626310914480223e-02 1.6135247927436573e+01 -3.2522495706720780e+00 4.4269908407397224e+01 -7.2350867207675655e+00 6.5183814527170564e-02 -5.2000135754086685e-02 -9.3865361120679802e-01 
      </Row>
      <Row Index="52">
        1.2312167484526495e+00 -1.5514622619469037e+01 8.8960034144402016e+00 -6.9270594032092117e+00 -3.1111430945864413e+02 5.8455552162564572e-01 4.0812867555697713e-02 2.5878510747486871e+01 4.3072028979658283e-02 9.0372201928171503e-01 -1.7525443683612585e-02 7.6755221884581601e+00 2.9566374632150456e+00 9.6117389315314892e+00 2.3527037395566367e+01 3.4239661758436352e-01 1.2704720399636398e+00 5.5871241378768410e-01 -1.3621171738823306e+00 1.0196022461024823e+01 -6.9826892671189853e+00 1.7691894131898880e+02 8.9088661618486720e-02 -8.2601471008010879e-02 -1.9677934916810216e+00 6.3217705410604882e-02 -2.6224192888093967e-01 1.5078060445091523e-02 -4.2192096465565768e+01 1.7576227958857729e+00 -1.7717740812783461e+01 -1.0527708548905164e+00 -1.4074176489244289e-01 -1.2746390847448263e-01 2.1304631206828617e-01 6.1388298697070240e+00 -6.6102945560078297e+00 2.6144973715418018e+01 6.4996511980332434e+02 -2.6862424009436869e-01 -8.6988799229821112e-02 5.3179077636043075e+01 1.7475128133156198e-01 -3.0702486474729085e-01 -7.5191480369539931e-02 -3.9236392208766119e+01 1.6497797642656824e+00 -1.1436236627187551e+01 3.5353206436502724e+01 2.4560883111314524e-01 1.5752808276847685e-01 -7.2445521421802694e-01 3.9174741620336547e+01 -3.3790192843152909e+00 -2.5944564282472129e+00 3.3360774044366553e+02 -7.9621742239124316e-01 -8.9328287286321584e-03 3.8916839462704957e+01 -1.7334692313290323e-01 7.1356549641522271e-01 2.6150842379313310e-02 -1.5439716194591636e+01 -3.5273118843247353e+00 2.2994774156977655e+00 -2.0908774013296352e+01 2.5788586324312690e-02 -5.6270797216822501e+00 -5.5086753703026836e-01 7.2614959537056247e+00 -6.3903655851707173e+00 -3.7053013399199699e+00 -2.1095372724393383e+02 -3.7135275923899003e-01 -4.6504002562001823e-02 -1.0497533982736059e+01 -2.2282564882783618e-01 4.3740988110552936e-01 2.8265907749266503e-02 4.5481849313728162e-01 -1.5047000248509992e+00 -9.7029485694769289e+00 -2.7886620738993408e+01 -4.6218281804483674e-02 -1.5274244826397672e+00 -2.9287760041536193e-01 -3.5598012272903361e+00 -8.9404078455466163e-02 -1.7565120353530801e+01 4.2396434750990011e+02 1.7901520870211807e-01 1.0859145943655266e-01 2.5414347944109068e+01 -1.3550557270133529e-01 -5.6355607562283638e-02 5.9099890295276292e-02 -6.6323332970277988e+00 4.4297872212424494e-01 1.0129300419135689e+01 1.2564852607785724e+01 -2.6386309526222007e-01 -1.3648129958874051e+00 1.5456090925757759e+00 -2.1264503988947840e+01 -1.6318585411999535e+00 -6.8672857170296936e+01 2.2722306234002826e+02 3.5064371696110519e-01 -9.2982212825435007e-02 -1.1204661358580202e+02 4.6238036162295160e-01 -2.4149278062564505e-02 4.3092895804045336e-02 4.6029047378299069e+01 9.0024223394885787e+00 -5.3302849620773571e+01 2.6128219630996185e+01 1.3953624685533816e-01 5.7236243194510408e+00 -1.7393638624403061e+00 1.4064888693424443e+01 -5.5169767694727199e+00 1.3361373008291020e+01 -8.3326550611743073e+01 -7.1446337397254189e-01 6.0231811171684239e-02 -5.4269946838016779e+01 -1.9564930946928463e-01 5.8974383102115180e-01 -6.8002319760283619e-02 -3.7615427900050982e+01 3.3953252348925957e+00 1.7070166495930295e+00 3.9353203402962507e+01 1.7531780957006846e-02 -2.4994967759054925e+00 -1.1062785378302755e+00 2.1739867637132676e+01 -2.4088637244251352e+00 3.6431017637096048e+01 1.3668159779068901e+01 -5.7148516298150875e-01 1.6911164420501390e-03 1.9033686156859261e+01 -2.6241623574005968e-01 7.2165023131143435e-01 -6.5139609757252692e-02 -2.4742204203298066e+01 4.7333413372463085e-01 1.5280498082802630e+01 -2.7122921343374820e+01 -1.8564284431185624e-01 -3.1382846630032084e+00 -9.6942696144844254e-01 5.5493433906574872e+00 -2.0953299477478069e+00 1.7713106594011023e+01 -3.6369510293654457e+01 -1.2879101832183418e-01 3.7893694184361948e-02 6.7774721403782934e+01 -4.2215390608977998e-02 -7.9869428788707530e-01 1.0758464367369674e-01 1.8379500913326218e+01 2.3783302840766964e+00 2.4239590346165699e+01 2.6765885144622985e+01 -3.4253317127291161e-01 -1.7614984721860214e+00 1.5212094608114084e+00 -1.7245050921454698e+01 -1.6830334759274258e+01 5.1923256051642710e+00 -3.5345423835664678e+02 2.0161344034399602e+00 -6.0010419373968671e-02 -9.0328959657110772e+01 -2.5827240878771041e-01 4.5040884084785873e+00 7.4981282844390762e-02 5.4713039607778100e+01 -3.3654905554102377e+00 1.9493422820536495e+00 7.3268111379324807e+01 -3.0215252637568968e-01 4.0865188923800568e+00 -8.3065885287709501e-02 -3.0138888211995436e+00 5.5567747165659966e+00 -2.7034249117714353e+00 1.1488003233176914e+02 2.4417763022668243e-01 -4.7428919154560434e-02 -5.5149994611310831e+00 2.6570870840087135e-02 -1.8333716220899987e-01 1.4099641640323065e-03 9.3086536649207119e+00 1.6030342660172892e+00 -7.8686114174488466e+00 2.8122949492273619e+01 1.8609577750602568e-02 -3.5589822759227383e+00 2.1579720360215142e+00 -1.7345868253104204e+01 2.9504299101720907e+01 -5.1487313768287571e+01 -3.1974817755555887e+02 -6.4100435498892971e-01 -1.6177938911670464e-02 -7.3179354213993065e+01 8.1716898981247255e-01 -3.7593940420390828e+00 3.6016541998366541e-02 3.3530108858685196e+01 5.8670303622479505e+00 -3.4591702478381762e+01 -2.3342019538968231e+00 3.5343539671103497e-01 3.7218774391963230e+00 -1.3143741464175518e-02 -7.4363360764205453e+01 -1.9644571874745962e+00 5.0810286483188570e+01 -5.2409369494811173e+01 -1.3787724304435134e-01 4.7704989619517350e-03 -6.4185436340857535e+01 -2.1653691851070144e-02 -3.3291660877828200e-02 1.6125982935805756e-02 4.6049171216865759e+00 -4.0718422264809675e+00 8.8707902474886087e+00 -7.2740015057582823e+01 5.8361405590664432e-02 -8.7460705004542838e-02 -5.7571224750816597e+01 
      </Row>
      <Row Index="53">
        1.2088005210585795e-01 -2.5938517661542164e+00 6.7356628388277386e+01 -3.4625171863687520e+01 2.7965517706335231e+02 1.6128769560486256e-01 2.2100878469495661e-01 -5.2262774348637322e+00 7.5202040195684361e-01 -2.3075124446322963e+00 -3.2264336383150649e-01 3.1026344882115779e+00 1.9094621029165979e+00 -1.6155364799514390e+02 -4.2141795424134216e+01 -1.3636181223671469e+00 1.8242736230943390e+00 -1.1949307861618552e-01 -4.1783232262886756e+00 1.7490825482563105e+02 -2.5509718466384584e+01 7.6519721369724721e+01 2.4569144493013111e+00 6.0951748732683786e-01 2.6009529638157360e+01 3.0139169769147728e-01 -2.8675231116130817e-01 6.2927852036893484e-01 -1.1706970432512833e+01 -5.6078758554284676e+00 -2.2590243990956935e+01 -1.4257660941946753e+02 -1.1475994904116897e+00 1.8258693289068688e+00 1.3690187933608797e+00 -1.2352053086397063e-01 -5.1276727398060302e+01 2.0477516113067395e+01 -2.4851596762787085e+02 -1.9106708661549954e-01 -3.0221602315147145e-02 3.8978202971120481e+00 -4.7616218925331899e-01 -3.2145157048330475e-01 -3.5218968862117883e-01 -1.8877309341013188e+01 3.4587922725150451e+00 9.7171152774540218e+01 3.5785335831933082e+01 6.3538305608759060e-01 2.5740323033562795e-01 -1.2788524573707476e+00 -3.3790192757585356e+00 2.5971212251469296e+02 1.1001699902308246e+01 5.8057124268729240e+01 -1.6988946730942258e+00 2.0655959651739375e-01 3.4173405739420559e-01 3.2119482742205063e-01 -3.6134015246285927e+00 3.9974950642867801e-01 3.2410524223888615e+00 -8.8146155695716999e+00 -2.6286843732905254e+00 -4.1630647284117003e+01 -1.3891198835526610e+00 -1.0623523670972705e+00 1.3765409522950817e-01 1.7372596054977461e+00 -5.6904946451466003e+00 3.3264020978902408e+01 2.2156752527924255e+01 -3.1468834084790459e-01 5.4345907619709810e-02 -1.7315206269020564e+01 2.1639827991816674e-01 2.1032913098833235e+00 -7.9709776219152029e-01 -2.6976652501334684e+00 -6.1696487622692846e+00 1.0262869792915298e+02 -2.8887249745787717e+01 1.0422049683931633e+00 -3.0890496491597039e+00 -3.6450769732227895e-01 1.0333293237636099e+00 -1.0650525095667817e+02 1.9966969039369360e+01 -1.6898335688275984e+02 -4.4256093070271019e-01 -2.3985284211917654e-01 -9.0087675314400713e+00 2.4474647929305138e-01 4.5575117591433845e-01 8.1267838247147983e-01 -5.7757266691778568e+00 9.6061633711501138e+00 -3.0614512996327903e+01 8.4122130945692334e+01 5.5654240084571693e-01 -2.6403359770449697e+00 -6.2229208993409060e+00 6.5387549209745046e+00 -4.3957713773080997e+01 1.5371599248471512e+01 -7.3827520818354060e+01 -1.2158606328763635e+00 1.0883334397836464e-01 2.9803968788008916e+01 2.7951108786533641e-01 1.2764633460169108e+00 -1.0934339584303747e+00 -1.3453315563285344e+01 1.6925321665200975e+01 2.7782419202772996e+02 1.0880119867848634e+02 1.5381295807244972e+00 -1.5720473254054745e+00 2.1142868566038424e+00 1.0136748807374261e+00 -6.5805728577852847e+00 -2.0644689464442934e+00 1.0099944617639903e+02 7.7836717050172854e-01 3.6538121214321845e-02 1.3064009651626975e+01 -2.1987091148313320e-02 -2.8103343957325322e-01 5.7501269876885486e-01 -5.8551251699857119e+00 9.4088220288129456e+00 7.9272162530772277e+01 2.4687578730925458e+02 6.8970294346023531e-02 3.4793042689475246e+00 -7.4873596653767116e-01 -1.7599072752023517e+00 1.9885073102694896e+01 1.0489648167541759e+01 2.0251490711641600e+02 3.0992002032437860e-01 -2.3475283667093516e-01 4.9045164371680585e+01 5.5290190803578565e-01 -1.2290867759588284e+00 9.8798624000096158e-01 -1.4619946959520576e+00 -2.4049117245677394e+00 -3.0708540662372613e+01 3.4288472044172323e+01 -5.6756848169143514e-01 6.1007671566463983e-01 1.5212005191680711e+00 -1.6407104804125012e+00 -5.1259546584697091e-01 8.9775723259926732e+00 -9.2028756591873389e+01 8.9940717225766154e-01 -8.7322333801783714e-01 8.2376854365994632e+00 -4.6015642675670154e-01 1.6812479683963488e-01 -2.8057956958675634e-02 6.5005637430437488e+00 1.5195789176212351e+00 -8.8404114753824501e+01 1.9665866812238278e+01 1.0307374335632637e+00 -1.9884228058205276e+00 -2.2876084555883658e+00 7.6291255361975452e-01 -2.4341037047755106e+02 -9.6569399253739078e+01 9.3184713132748584e+01 -3.8859310340286526e+00 3.3110859200686737e-01 -5.3121561926605722e+01 -2.1744147036866943e+00 4.1234630120595028e+00 -2.4833301388341624e+00 -3.3753707660911132e+01 -2.6242335238330980e+00 -4.5830981986432803e+01 -2.8451197515210549e+02 1.6783879573637526e+00 -6.7767524432861066e+00 8.8727806615851224e-01 -3.0662295741262824e-01 -8.6238914583540463e+01 3.1477180829388089e+00 2.0379798453772310e+01 2.5715906301086235e+00 -1.0325865997484285e-01 3.6399206333453549e+00 -9.3142864727949526e-02 6.6657898383186875e-01 5.1981373118557710e-02 6.1536569983582012e-01 3.3029508449900788e+00 -6.5172738574910909e+00 6.4483977058167511e+01 -8.3408246757084470e-02 -1.0270620812671201e+00 -5.5602194102682567e+00 -3.9736055419424181e+00 2.4262419206854662e+02 7.0386617010903194e+01 8.0814268193994394e+01 5.0338278964406094e+00 7.1764376674638464e-01 8.3419668312822978e+01 2.8612445705113494e+00 -5.6106669194126244e+00 1.9309512100250799e+00 2.9722524999003657e+01 6.1416714708567746e+00 -1.0133777820325784e+02 5.0524840692764030e+00 -2.3104211014737905e+00 6.8376813394665987e+00 5.5296912580767743e-02 -7.0924794369138748e+00 -2.5332740614519000e+01 6.0055922742272443e+01 1.5156532648032049e+02 2.8597077505964030e-01 -1.9231910173934758e-01 2.9189606042348174e+01 7.0468746688948730e-02 1.1583685241539854e-02 -3.4143324133566766e-01 -1.1150164682848263e+01 -2.2131823915875227e+01 2.2323988387038142e+02 2.1772738289068904e+01 -1.7279108459820366e-01 -4.8331802001682966e-02 1.9915686442454842e+01 
      </Row>
      <Row Index="54">
        3.3063222326752451e+00 4.3040557757267379e+00 6.3249026203353424e+01 -1.9352957391213274e+03 -3.9594223353918642e+02 3.4628533925841487e-01 4.2370658194125888e-01 -1.3527882371644955e+02 -2.9502309105185307e+00 -3.0204447431748016e-01 7.6507414528605111e-01 -2.4697530111059677e+01 -1.8106469648978376e+01 -2.7367011389788175e+01 -1.5061579631234054e+01 8.1326931888621834e-01 -9.4672918368132883e+01 1.5906405162644250e+00 1.0879133401679209e+01 7.9444198145392846e+01 4.0888135885086376e+02 6.1462312914431095e+02 6.5533107006861258e-01 -3.6864374039617859e-01 1.1616574889723245e+02 2.8863413738282344e+00 -3.0240100666123908e+00 -7.5563248253934034e-01 -4.3623424559314628e+01 1.0806370791422408e+01 -7.9407200511679548e+01 -3.0374986616585608e+02 -2.8532512950276843e+00 6.7137881267522332e+01 2.5256162821260659e+00 -6.1127346443281567e+00 -5.6031351369427284e+01 -3.8031988553032279e+03 5.3575919522531331e+02 2.6571024880652638e-01 -2.1942811622270020e-02 1.0168592065991834e+02 1.4447735346706274e+00 -3.6075000441123848e+00 1.4459885271776329e-01 -3.5990377981768688e+01 -3.2942266338073569e+00 -2.4240132322030237e+02 -3.7310254924006722e+02 2.9693113943631033e+00 6.5359443868153022e+00 -8.0855393856577074e+00 -2.5944560886508512e+00 1.1001720191969071e+01 3.3707782857880229e+03 -9.4696646787971258e+02 -3.7056018437989025e-01 1.0799055969890656e+00 -1.7641609763819724e+02 1.5620718980953439e+00 -2.5367198988323878e+00 -2.5370858931866458e+00 1.5872847270865522e+01 1.6571968957383802e+01 -2.9139718622106011e+02 -4.3552235645009205e+01 1.9569014306657384e-01 1.3495922376901245e+02 3.4346059221804981e-01 -6.7425752105999601e+00 -5.4773569888100894e+01 1.3810449426650302e+03 -3.6698844010382891e+02 -5.5733431099478714e-01 2.8621908669533508e-01 -1.7353424720512703e+02 -1.0335385880298418e+00 8.9555802610817281e-01 -2.3586798079660765e-01 1.3598364753532223e+01 1.4606433048742474e+01 -1.4033062330944941e+02 -6.9756968798078987e+01 -9.9226922504883008e-01 -1.7090630293917506e+01 -1.7708395638116845e+00 2.0354855324403616e+00 1.1318690479191961e+01 2.5167943578616250e+03 1.1333727088160813e+03 -8.7544488472583981e-01 9.8616055372988565e-02 -7.8581822675390868e+01 -1.2595604501263225e+00 -3.0467574323302848e-01 -5.9271281809874843e-01 -1.0174697488604579e+01 -4.8158750274969861e+00 4.2757015764334938e+02 -2.6009219374158420e+01 -4.0119039725754586e+00 -3.6212900771657587e+01 -6.1818821437203901e+00 1.5144225039030914e+00 2.9262892020594791e+00 -4.5046175211581613e+03 -8.0667020027128092e+02 -2.3611757211423523e-01 -2.8796278535912276e+00 -6.3973049601720868e+02 -5.6801326748554293e-01 -1.6103400849539995e+01 -1.6642040533992484e+00 -4.8875688157106680e+01 -1.6913836509996955e+01 -8.7226807845768053e+02 3.6762088265575017e+02 -3.7943575235654956e+00 4.0452350689138768e+01 -7.4265898590250652e+00 1.4025944285789084e+01 -1.1481432762579942e+01 -7.9149141762803856e+02 5.6724340757141181e+02 1.8474124440041590e+00 8.1127514686034075e-01 -6.2326258831588348e+01 3.2347475625054027e+00 4.0028400883857422e+00 -9.1643797072472588e-01 6.0901011974234379e+01 1.4501587207341505e+01 -8.2406272872401303e+01 -2.0540265849369621e+02 -3.7998348159930340e-01 1.7591073489577713e+02 5.2646537554458490e+00 -1.0142835171518264e+01 -9.4714190012628805e+00 -3.4167603608920181e+03 -1.8578665676228775e+02 -4.1186806329499071e-01 -2.2506956547567389e+00 3.0818074442143552e+02 -9.6516669217832796e-01 -9.8550172718799178e+00 5.6499306638268409e-01 -3.2016660882906081e+00 -2.0580661490231918e+01 -1.5911030717546504e+02 1.5023623739720256e+02 -7.8944967685964818e-01 -2.8423824195627901e+01 7.1235854458392645e+00 -3.3196729620268499e+01 -8.2341296089154241e+00 -1.6959198547628948e+03 8.3857037154371938e+02 -1.0556410282461377e+00 -1.2878766047145405e+00 -4.0039984411590558e+02 -3.6231702362618456e+00 -9.9165960003755629e+00 1.1360034650130260e+00 -7.2680084473511215e+01 -4.7359307820735722e+01 2.1698934267521281e+01 6.8388181017391116e+02 -1.1049204163330657e+00 -1.9450855049742978e+02 2.1535171566032638e+01 -2.6671442579704895e+01 -1.0316697042404704e+02 -2.1087977003355277e+03 9.5990382498106919e+02 -3.3859816566608396e+00 1.3192003530429892e+00 8.0880936343460485e+02 -6.6957856418283939e+00 2.5223704427963511e-03 3.6180931411254278e+00 3.0829073329458197e+01 -2.0824446141166000e+01 1.9428923350401431e+02 1.2907515864396157e+02 -7.9865344564581520e-01 -2.5743752565157865e+02 3.9575949401303614e+00 -1.6272218469384825e+00 2.8614752503810450e+01 4.7523811815865338e+02 -1.0266750689702894e+02 3.6824849710987062e-01 1.9627291929941243e-01 -1.4705208190274425e+02 1.2602769266074976e-01 3.0848846320586745e+00 5.0766874078774860e-01 3.0056744607863948e+01 -3.6908948361051443e+00 2.4504321914631873e+02 -9.2593347666086629e+01 9.6781794652531516e-01 -1.3700547814513753e+01 -2.6878999222713873e+01 3.9604003877846040e+01 1.6013282654437492e+02 7.6966252854524137e+03 1.3232251540370089e+03 2.8057822712516773e+00 -2.0447315178971248e+00 -7.0570090571045876e+02 5.4838454855745411e+00 -6.1666614127500772e+00 -6.4419172327455350e+00 -2.2084024481759125e+03 -2.0625865211496826e+01 -3.4444596434584787e+03 -5.4651403788060315e+02 -5.8673150078211016e+00 3.0677203116174815e+02 -2.3881101045383052e-01 1.2992773147111677e+01 -9.8990562370020534e+00 2.1916080117765661e+04 -1.1292684751160565e+04 -7.8993163258742882e-01 -3.8225517752343385e-01 2.9612167353930408e+02 -2.3387807238925989e-01 4.6275330375436852e-02 2.5197453334010178e-01 -3.6793212668295182e+03 1.0804601874915988e+02 8.3353937115530280e+03 4.3439669936870268e+02 1.0557737954645592e+00 -5.7315942856776019e+00 1.1554781746464357e+03 
      </Row>
      <Row Index="55">
        2.5337904942538430e+01 1.8410237203555880e+02 2.3856042704777792e+02 1.3872192004559611e+02 4.6730987697068602e+04 -4.4179216339212495e+00 -3.9543651783244993e+00 -3.1091725838719867e+03 2.8174228523752873e+00 1.1262229652909909e+01 2.6323320605480944e+00 -4.8262891463608685e+02 -6.6207131963942743e+01 -1.3636897302009328e+02 -1.9866709526117775e+03 4.5819440087635481e+00 6.1196233069791994e+01 4.2964324089227837e+01 1.1256751701268720e+02 -3.6593316847499545e+02 6.3547041902691126e+02 -5.2958283213317394e+04 8.2914384753389214e+00 -3.3648327639868043e+00 -5.8336185946908072e+03 -8.3778286801671875e+00 2.1216518912231550e+01 4.4202856326364781e+00 9.1931881562620140e+02 1.2653911548375392e+02 4.1250350247499227e+02 9.8062853441792186e+02 -2.1541865150590835e+00 -5.3560436928078943e+01 3.3040727114625042e+01 5.5139583908783970e+02 -5.9000310611713212e+02 7.6444998230971396e+02 5.3540331088498235e+04 2.8977801196811924e+01 -6.0228017612351152e+00 -4.8309551117829978e+03 7.1407178077979907e+00 -4.5648230893886648e+01 -3.8574792399758735e+00 -1.3606515580873238e+03 -4.7907981031904001e+01 -5.1297770973885542e+02 3.3176221954671055e+03 2.4785614033353340e+01 1.7398226240835299e+02 2.3114023477016165e+01 3.3360775057085289e+02 5.8057119042146951e+01 -9.4696627939259633e+02 6.2722324005031586e+05 1.4521043937173765e+01 -5.1599986951089623e+00 -5.1724359631314874e+03 1.5445443588466546e+01 9.4168583610768962e+01 7.8887676512664733e+00 1.7056549077233842e+03 -1.3304803453178405e+02 1.1941984790959395e+02 1.3991835112534463e+03 -9.0576586925612901e-01 -1.1882139695554088e+02 -4.0364135559876786e+00 4.7141866827559589e+01 -4.1825238905518347e+01 -7.4665900492062792e+02 -9.6496352889537811e+03 2.6369545721558740e+00 -1.1691907033549445e+00 -1.3084642349854112e+03 1.2166409188212128e+01 -2.0161342058210693e+01 3.7569108261980793e+00 -4.1886576444096863e+02 1.3245995371980825e+02 6.3564492741880166e+01 4.0560063083168188e+01 -1.0620159724143750e+01 -3.2643537415763738e+01 4.4960905569334670e+00 3.0679175520600984e+02 -4.0644263752761037e+02 -1.1223324368512258e+03 -2.6272041509345174e+04 2.8203751562136024e+00 4.2663478818734539e+00 -3.4635051871685428e+03 1.6062666048779128e+00 -7.4589348255447732e+01 -9.3984058289446182e+00 -1.5560718353420962e+03 -4.9277195250453133e+01 -7.3810328173253220e+02 1.0873043668502942e+02 -2.0538154636921643e+01 -6.8878521458333125e+01 3.8887172041042454e+01 -4.8944642345320392e+02 -1.5025526313716227e+02 -1.0593000532599126e+02 -2.5031774131764134e+04 3.2327404087701161e+00 -2.2510979830922686e+00 1.2052350082389316e+04 -1.2832052904624373e+01 2.2442045579460279e+02 -1.9938256754731620e-01 2.3962986364077906e+03 1.3772775534927143e+02 1.6660896470348421e+03 -7.0770606558126947e+03 -1.3241657684107608e+01 7.9444973702489776e+01 -4.4088325767171739e+01 -3.1554569617067534e+02 1.5910126113758452e+02 3.8624572688076722e+02 -6.7933313189633627e+03 -1.1368636451029637e+01 -1.8164242662918362e+00 1.0498545892520284e+04 1.2584038147695804e+01 2.3812042209545496e+01 -2.0369640424383029e+00 7.2674157317660763e+02 -3.7630391514376277e+02 2.6621313907954300e+02 6.2945012426566063e+02 6.4688680187042209e+00 2.8563514416846932e+01 3.7464794498361378e+01 -2.9550190299774408e+02 1.7349125701288699e+02 5.5918636636812153e+02 1.0012186000619666e+04 -1.0039618448992986e+01 5.4221977776052199e-01 9.4772464785287157e+03 4.5006781798435593e+00 3.7255484058584102e+01 2.4617137291756892e+00 1.7896987190883792e+03 -3.7914117519521596e+01 3.7342829105178453e+01 1.4668282175361924e+02 1.9304331936066042e+01 1.5096507694349532e+02 1.1300539131022035e+01 -4.1186340596809941e+01 7.9210780523706717e+02 -3.3184655172131534e+02 4.0845596621079254e+04 -1.5116623045641349e+01 1.2214440849018047e+00 1.1442786912956517e+03 1.3194624230641441e+01 -1.0218030032733594e+02 3.1471134723474741e+00 -2.4970436981908742e+03 -1.6622319395356499e+02 8.9155280814939033e+01 -9.2412593156442235e+03 -2.8930548644182892e+01 9.2183993994250073e+01 -1.5410114725689539e-01 -1.6774113850381086e+03 1.3968348844699449e+02 -1.0843504342836495e+03 -2.5370262284898898e+04 -4.1421261835150801e+01 1.2307022849239535e+01 -3.7999373033234242e+03 -7.6127315746247902e+01 7.9594946465925636e+02 1.5995456069605979e+01 6.2990050928035544e+03 2.0575745346140201e+02 -2.3375988583431126e+02 7.5416053010678097e+03 -1.5697310289736677e+01 -3.4675284492190627e+02 -9.4561317541283501e+00 -1.3419373945525149e+02 -2.1186052688979544e+02 -3.4632919856533408e+02 -1.8513501270723261e+05 1.4333735353701134e+00 1.2794298763432934e+00 1.5333071018531919e+03 3.3142370461834423e+00 1.7977184008108452e+01 -9.0770518690595026e-01 6.3087401877995580e+02 -1.8777923326145537e+02 1.0470481692254543e+02 -1.3246909303711727e+03 2.4816790553104511e+00 -5.4693423104006641e+01 8.4728408916046050e+01 1.6658315369176244e+03 -8.4338349801320510e+02 7.9872101683043184e+01 -4.4559052021121606e+03 5.7645483283377814e+01 -1.5918412112534163e+01 8.4584179810434580e+03 5.1153255068829651e+01 -5.0320815198174660e+02 -9.4720021902188911e+00 9.6978513708941846e+03 -7.9321427283078464e+01 -1.2104367276080889e+03 -9.0291351499120246e+03 -1.5637230585503527e+01 2.4441781652788501e+02 -1.5773782222225332e+00 -6.9502896340228730e+01 -5.7679989617386333e+01 -4.0092605487132296e+03 -2.4382711979905525e+03 -6.0312598066251386e+00 1.8100811705371214e+00 1.0973005662038951e+04 7.5635159400112684e-01 -1.2077618406313508e+00 3.2104200646096821e+00 2.0693524139445497e+04 7.6656598121285253e+02 4.2688380864746632e+03 -4.0886973011758810e+03 8.0257935658757003e+00 -4.3628340478365004e+00 4.2027091464733494e+03 
      </Row>
      <Row Index="56">
        1.4408612070020588e-01 2.7169911683910186e-01 -2.4875895518143807e+00 2.0260520142274285e-01 1.4974019384382700e+01 3.4361533995150262e-01 2.7739471088789193e-02 -1.1125864380392159e-01 7.3854723176787956e-02 -4.5854141780433466e-01 3.6552032126947714e-02 -7.5075287766367182e-02 -1.4845002107108751e-01 -1.1749304553007249e+00 4.4637926880332088e+00 8.2370273856530174e-04 -4.2054571441485777e-02 2.1571505013276937e-01 2.6399298473122507e-01 -9.9201115698615805e+00 8.4952853321647126e-01 -2.9194458035286516e+01 -4.5940785500159403e-01 1.2340558958723144e-02 5.9430589449270466e+00 -1.2504139573539623e-02 3.3004816654693059e-01 -2.6534943830313296e-02 -5.1066343196764308e-01 2.6193905677990736e-02 1.9757799247123273e+00 -1.8205143675558030e+01 2.9315743543879186e-02 1.8580554735347643e-02 -2.8908890123094011e-01 1.5028655205335895e-01 4.5129265984242011e+00 -1.2269470626924885e+00 -2.0260647455463186e+01 -5.1424532531618183e-01 -2.7567834186816215e-02 -1.3870197060714418e+00 -6.0155360353425946e-02 5.0780345251337167e-01 -4.5887506884785267e-03 -5.6802956890464884e-01 -4.7711394323766854e-01 7.5888249170369138e-01 -8.4353435798426446e+00 -1.7793554197538697e-02 2.6755517642227788e-01 5.7268395100306158e-01 -7.9621743233273123e-01 -1.6988946793551349e+00 -3.7056344547454501e-01 1.4521042911801487e+01 1.2232097360058167e+00 2.1887279685727287e-02 -3.3923807669780217e+00 5.0678088357443037e-02 -7.3825431022922472e-01 6.3604766748855228e-03 2.4731371971434790e-01 -2.6079108059293699e-01 -1.9849482864024139e+00 7.0116832507264917e+00 2.6360680755039695e-03 1.3418364067146937e-01 4.5682329219297262e-02 -7.5666672880223662e-02 3.0742378416827369e+00 -8.7444341697846539e-03 1.7280621370126028e+01 -1.7883982620766709e-02 -2.6633975054901424e-03 -1.4208350410699495e+00 3.1352854584909551e-02 -8.9446329038560438e-02 2.5990313568056613e-03 -1.3497827189894451e-02 3.3015514505780175e-01 -3.9774079415511421e-01 -3.1536191139392471e+01 -7.7260342819522321e-03 1.4422810737809399e-01 -2.9459318242583531e-02 1.3475087804829400e-01 2.5064045713112133e+00 1.0118724890435260e+00 -1.4660805605817586e+00 -7.2565373528641522e-02 -7.7789244463004666e-03 -1.7524404034986674e-01 -1.3713372833183274e-03 -1.4449497680770801e-01 -1.8919833346135770e-02 1.7960623591761760e-01 -3.7114392680954644e-01 -8.6086679324375837e-01 2.2459843113090756e+01 2.1373630960084711e-02 9.0429640680554257e-02 5.8726094414434682e-01 1.4381785750167453e-01 1.3676447397393172e+01 2.3137120538050020e+00 2.6086326580185641e+00 7.6199989252036038e-01 3.3022814154942591e-02 -3.8080014001234463e-01 4.2909157239773094e-02 -7.7292973423244038e-02 1.4565874534641594e-02 -6.8636284378599033e-02 4.3003765887325063e-01 3.3501407170630921e+00 -2.4951967648859487e+01 3.3662248242247818e-02 -2.9005428839805913e-01 -3.3338176832171823e-01 -5.6209209368248958e-01 -2.8999154155434241e+00 4.4213190653720913e-01 1.0612108111747261e+01 -3.3578726890203808e-01 -1.6240045571228087e-02 3.9657134233263633e+00 -1.7359111874821444e-02 -1.0286818040520523e-01 -4.6687084674546121e-03 -1.6153316877568491e-02 -7.2481922429572099e-01 1.6488014662719905e+00 5.2472691868555145e+01 2.6404241573896120e-02 -1.4021357057202111e-01 2.4554083977411270e-01 -4.7243248428940976e-01 -2.5637562747756357e+00 2.5997255425128571e+00 1.3135146883608741e+01 -2.3073466621062932e-01 -1.8390648960033680e-02 7.1742665655256133e-01 2.8490368799081827e-02 3.2910700531773834e-02 -6.9508895794009179e-03 1.1979932862449161e-01 -3.6367550557082851e-02 1.6153575025777673e+00 1.8775972477576609e+01 5.2558815414671188e-02 -2.4110445162580951e-01 -3.9117636076960410e-01 -1.3424956880429620e-01 -3.2590226408959806e+00 -3.2698823115911502e-01 -2.1061670689481161e+01 -3.3340158986104157e-01 -2.3723666750800648e-02 5.9685883560525044e-01 -4.0777322800405066e-02 4.2865925250892700e-01 -7.1692589410888435e-03 -6.5863070261031320e-01 -5.0981008700012098e-01 -2.2531244390515202e+00 -2.3941215824909452e+01 -5.0909419043891013e-02 3.7026893601976502e-01 7.9625047617892553e-01 2.6211341655444520e-01 1.5293304992121310e+01 -4.0022617285523481e+00 2.3725319724380824e+00 1.6398708899030234e+00 7.4443315510354879e-02 -2.6081090677198517e+00 1.3799849802535701e-02 -4.2817318503429092e-01 2.8275962795386078e-02 -8.2160839629362759e-01 1.2355558316593735e+00 -7.0602257252532246e+00 -5.9629413584204976e+01 -1.1441914079493393e-01 3.5947936176109807e-02 -9.1561488461669921e-02 2.5047319008626800e-01 -3.4651176601500993e+00 7.8010450456349645e-01 -1.4392858199375496e+01 -1.3069758131735314e+00 -1.2846056085325325e-02 4.0072960042621162e+00 -1.1331590203028527e-02 1.6668741818767785e-01 -6.7794925011743154e-03 -2.5461045424890472e-01 -4.5238349357192931e-01 2.9596484735302511e+00 2.0103190175890632e+01 1.2342014045822580e-02 4.8723349908983984e-02 4.1419904747324909e-01 -6.2301765970155354e-02 -3.7972227565726113e+00 8.0495134064388036e+00 -2.0150003035245732e+00 -2.3384580852629344e-01 1.7209995299195716e-02 -1.1623812415355133e+00 1.0171285654968709e-01 -6.1854299012480407e-01 -5.0510399210114201e-03 1.2977723588854273e+00 3.8515243522759857e-01 1.0879280295874540e+00 -1.9715818288597614e+01 1.3561035383385733e-01 -2.7223211927301932e-01 -1.7825405439309737e-02 6.0801620554488778e-01 1.1654884386513720e+00 6.8369061039950028e+00 8.7240520825172911e+00 1.5351139308371597e+00 -6.7947474040901262e-03 -7.5295839754295688e+00 8.0483479399710862e-03 1.0401498307229917e-02 9.8077355339900654e-03 1.0261983765718696e-01 -3.0337920434025623e-01 1.4902915800557714e+01 -1.8429876119322479e+01 -2.1954906397951245e-03 6.8383021850403763e-03 1.0705940752736085e+01 
      </Row>
      <Row Index="57">
        -3.4292156481984665e-02 6.1913886805832874e-02 2.7653893851049816e-01 -1.0516080165051926e+00 -3.2026806226931512e+00 2.4024045582001878e-02 -5.4278845151638708e-02 4.7751888203492854e-02 -1.9514921747416553e-01 6.0363230210585428e-02 1.5832719673461816e-02 -1.8021311886041502e-01 1.6666350458770762e-01 8.9968648453161926e-01 1.0060351935987057e+00 -2.9262970790641010e-02 -1.2819369244174722e-01 2.2320603036793701e-01 5.5250721110226664e-02 4.3820990002321913e-01 -7.9301416941336811e-01 -6.2229054258204997e-01 -8.6471992223255689e-03 -1.5928565394098787e-02 5.6741247231608172e-01 -1.3464195526528078e-02 3.5791862653874773e-01 3.7835653793427682e-04 -9.5948961990682591e-02 -1.8465290901108045e-02 2.2465826963457509e+00 1.2425009464630676e+00 -3.4386245770433199e-02 1.2048912133966883e-01 -3.6315552629549330e-02 4.8901277661201448e-02 -1.1196012595377169e-01 -1.7067957655644932e+00 -2.9450598923358484e-01 -2.5436222049773249e-02 -1.2384947939361055e-02 7.0988399433190352e-01 1.1692045183661431e-01 2.6009063564676183e-01 3.8290068225661500e-03 -2.6253599745018619e-02 -1.5003109982961860e-01 2.3054363946195977e-02 3.3827735635560288e+00 -2.0615413260465232e-03 -4.7121043877765967e-01 1.0986336275825404e-02 -8.9328310153033996e-03 2.0655959560616566e-01 1.0799079449056990e+00 -5.1599990788090508e+00 2.1887278303957092e-02 1.9445586380227031e-01 -3.2808305608341470e-02 3.4268885003773675e-03 -5.4324714485329384e-02 -3.2657033991204967e-02 -4.4092124569492386e-01 -1.3064574484176283e-01 5.6149126756838541e-01 -2.0050551802482914e+00 -1.6694094485074126e-02 -3.1725294035413798e-02 -9.9898857026314014e-03 3.7288578495722202e-03 -3.5018047496615523e-02 -4.8411315855764769e-01 1.2705881449801382e-01 -5.4293941577833876e-03 -4.3510263479148770e-02 -2.6515051605679218e-01 -2.3253513055898622e-01 -1.0973385477528863e-01 -7.2294100125737532e-03 8.0465888124649609e-02 -2.1683611076173293e-01 1.3262989505931184e+00 1.9694239614058926e+00 -2.2097186493944362e-02 -3.4327629997080278e-02 -4.3290132080454118e-02 -2.6020933297957072e-02 1.3581318196888351e-01 4.9754849838836890e-01 1.9496414164605085e+00 -3.0810065886103383e-03 6.9630862102617319e-03 7.9015307099240317e-02 -7.6095661960172423e-02 -1.3230935840979463e-01 -3.6636214137555967e-02 -1.0930446328688959e-01 1.6977758275973498e-01 -1.5398491642589818e+00 -8.8072843869940698e-01 4.2975437590571680e-02 4.2990135419842090e-01 9.4172313136335700e-02 7.0763739095173417e-02 2.7117872069998050e-02 5.8769157612031364e-01 -1.2151701829606623e+00 3.5309958924169854e-02 8.1931015442860411e-03 9.9625050252310388e-01 -2.2225575721478269e-01 -8.3756007682770806e-02 1.4408294617448664e-02 1.1153637323212706e-01 2.6504362638761136e-01 3.8785614043101191e-01 -4.2037841843698232e-01 -2.2576224730511213e-02 -7.1139127185867790e-02 -1.7551707345648154e-01 -9.9363407241938040e-03 1.6045434295703842e-01 -1.1511205863612535e+00 -3.1459993358474776e+00 -1.0800279669193058e-02 -5.3858514340516778e-02 -1.2723975104717056e+00 -6.2332710663744614e-02 2.3325604888897677e-02 -3.2001518613835378e-02 8.9890156328973347e-03 9.0638478020480751e-02 1.9625980226427808e+00 2.6895906475431985e+00 1.3728611995799337e-03 -5.4657957310064986e-01 2.4062557090579834e-01 -7.4525688692346548e-02 -2.6968320472068719e-01 6.6085260846543292e-01 -4.7763448711839374e-01 -4.6687234126234836e-03 3.9933464500235563e-02 1.1414053125577084e+00 -3.7597426238565532e-02 -2.0480655210358023e-02 -1.1686004667113611e-02 -2.6294824672281436e-01 -5.7727126331737821e-02 -1.2029436427390410e+00 -2.5054791722379264e+00 1.9474301967081831e-02 -5.7426409089902375e-03 2.4905024816150978e-02 -4.2037541365684383e-02 -8.4215204525706966e-02 3.6091194141598635e+00 4.6260857832930924e-01 -2.1291985905389221e-03 1.1557081039262879e-01 1.5315499917597331e+00 2.5925220217276757e-01 -6.0406179484033551e-01 2.2231489783221536e-02 -1.5636941303161933e-01 1.8044751762472727e-01 -4.7160226796205080e+00 -3.7622209372678697e+00 4.5041500834567025e-02 3.9816108186307064e-01 2.7200328122136863e-01 -3.7307396890962075e-02 -1.0947802908143445e+00 -4.3370719289632937e+00 2.0783867951620323e+00 6.1007524309841764e-03 -1.5539445272556990e-02 -1.3500451973695711e+00 1.9343177434687039e-01 -5.9363358259375554e-01 2.2931055529802180e-02 -1.0754953712486408e+00 -1.1571754668439713e-01 1.1531186690845807e+00 -1.3580588269477472e+00 -1.8385450446424478e-02 2.3224837806078336e-01 1.6054423938933254e-01 -1.7627271465983085e-02 -1.0968043682134976e-01 -8.1513029627058131e-01 -2.2192915444684331e+00 -2.4591010471125725e-02 4.4682607344272039e-03 1.1980359753090397e-01 -1.4908802014643840e-02 -2.3566720864343438e-01 8.0130671457362967e-03 -4.6155636649928056e-02 8.2967383164096020e-02 -8.3717113693364809e-01 1.5135793565659696e+00 -5.3360844771686011e-03 1.8833453002485759e-01 -6.7936123657248909e-02 1.9260465684363942e-01 1.3047629555284126e+00 -1.2894081482927509e+00 1.7204522793026626e+00 4.1465944213306002e-02 8.7903187395038995e-02 3.5370996347933215e-01 -4.4285666280673819e-01 5.3632345495426237e-01 -1.9309293980995679e-02 -1.9160691723024252e+00 6.5843644722988126e-01 9.7681431456225667e+00 1.6607480542456701e+00 -2.1249456451091657e-02 -2.0342245032181161e-01 -1.4697071304258631e-02 1.8269267922030147e-01 -3.6337024792144512e-02 -8.5952034000065272e+00 -1.5740393369340762e+01 2.4262033264479507e-02 4.5196258256314022e-02 -2.8272341217451569e+00 -3.6709173365837428e-02 1.0678542767001906e-02 9.0581809676230363e-03 -5.0365031865339427e+00 -1.0930138253680104e+00 -2.7352859288023378e+01 2.2204515655359374e+00 1.8192001908622366e-03 1.0231764937399340e-02 -1.8133374731959879e+00 
      </Row>
      <Row Index="58">
        -2.8877213295343758e+00 2.9501687593874522e+00 7.8184193827677518e+01 4.0659772780647643e+02 3.8278588044643402e+02 -2.6914842172629942e+00 1.1229014924375949e+00 3.0176734154382721e+03 8.9989807169931435e-02 -2.7055309655119886e+00 -7.8508049453011042e-02 -5.4898147169740696e+01 3.1291392742863358e+01 1.5368615698969859e+02 8.2290656899346504e+02 -4.9256084322968208e-01 -5.1688587560885935e+01 2.3232401494954606e+00 -1.2289462259839638e+01 6.0361566098191787e+01 -2.4371280494797975e+02 -3.2160480666160583e+02 2.3281606841380942e+00 -7.2731897290689029e-01 -1.4137210634736571e+03 3.7311640723306649e-01 2.1847193591529503e+00 2.0983667800646799e-01 4.1440787676753132e+02 -3.3280619450617181e+01 -1.0231659974263312e+02 1.2842256475025476e+02 1.9582896586889220e-01 2.2113239033313164e+01 -4.2045816508471034e+00 8.4481902005791198e+00 -9.6606552991783246e+01 6.2045354663208127e+02 -2.5265563254654408e+03 -3.9156861811643466e+00 6.9730856495485383e-01 2.7496509145721793e+03 1.4584565360559543e+00 -2.0572840880020522e+01 2.0867047474939682e-01 1.5594413412036374e+01 7.0702544605825096e+01 1.5507364802059854e+01 1.4396583063482190e+03 -2.3987493191743852e+00 -7.4421826531150842e+01 -3.6980906702128684e+00 3.8916842268802121e+01 3.4173631470184773e-01 -1.7641582749551162e+02 -5.1724349130988121e+03 -3.3923805467589538e+00 -3.2808901077582608e-02 3.8972346712723374e+03 1.4673324957530802e+00 -7.2061087075633026e+00 1.0997725480756482e-01 -7.2760053836794754e+01 2.0100007525661417e+02 -3.1049848662689328e+01 6.3485737808048725e+01 7.9256737932860066e-01 -5.6613504593687651e+01 -6.3403971463332880e+00 6.0422428595719779e+00 -7.5894790111778391e+01 -7.4441028572618961e+01 1.2019495943188667e+03 7.4857491555048616e-01 -4.0178736756210603e-01 1.1685574794393033e+03 1.2414100101304939e+00 -2.7872488797870165e+00 -8.7567576942571418e-02 -6.0349654244724661e+01 8.9848317499388941e+01 -8.0302391431163528e+01 7.1208858062891488e+02 4.7413111785066442e-01 2.7447480034168194e+01 -4.2473333374351974e-01 1.5487672537565231e+00 7.0861879928017881e+00 -4.0651155306585133e+02 -1.6731423332989216e+03 -1.7714530388434035e+00 -3.6161764985283874e-02 8.9182695358758792e+02 -6.6258264960376345e-01 2.5654887658966223e+00 -3.5634143051212197e-01 3.2721875074319541e+01 -3.5272553211184459e+01 4.2406875667977147e+01 9.5520029899664223e+01 6.6880115034177603e+00 2.6321405158203561e+01 -1.2064285832796907e-01 -4.1088375290160073e+00 -6.6969187663794088e+01 1.0340854665899023e+02 2.3608759355711300e+02 -7.9449064040885382e+00 7.2664089408527310e-02 8.7225853288078497e+02 2.5268403604752594e+00 -2.8013356253587709e+00 -7.6208202849499829e-01 -1.5985474018976737e+02 1.0574221914742515e+02 -2.3499346609165957e+02 1.1390750561253981e+01 2.8239185465026035e+00 -3.8320937668290782e+01 3.7216632592924661e+00 2.0299442756184050e+00 -3.6819213966654878e+01 -2.7888428507161336e+01 1.3654510673137920e+03 -1.6645499881170354e+00 -8.8624113721360798e-01 -4.6304173041308386e+03 -4.2862373129060283e-01 1.2569260161186506e+01 1.4362271270736349e-01 2.4157565614637610e+02 -1.3563942411015819e+02 -6.8154119218597941e+01 -2.1374266504417023e+03 -7.5761157844518390e-01 -1.9431638157511845e+01 -1.0232064013091868e-01 1.0954845141601623e+00 2.1888100519366880e+01 5.6866752858740756e+02 2.1707129548821904e+03 -1.9209224089369581e-01 8.0947298398820466e-01 -2.0947871542042121e+03 -1.0366795820549870e+00 -4.7543590070899127e+00 1.7118047349637422e-01 -4.5710858029317137e+01 -4.9331665758198859e+01 2.1903099083213249e+00 -7.9331125073359453e+02 1.2330359284597064e-01 -1.5492632807065714e+01 -2.2477338919977634e+00 1.5788079993587205e+01 2.2958723704864724e+01 5.7138152737724579e+02 -4.2514033931129234e+02 -5.5001897761782717e+00 3.8864600258543902e-01 2.9257574269130082e+03 3.4886828826966498e-01 -3.4671548752345359e+01 7.8368355274571222e-01 -6.1815440958281374e+02 -1.2344585017117382e+01 3.0240331058063498e+02 1.1299162961447798e+03 5.7242073568467591e+00 -1.7115068114883982e+01 -1.2246763127678637e+01 -2.0481625272767218e+01 1.1818125073988108e+02 3.7405813517834588e+02 5.3546428633048345e+02 6.7713830709625453e+00 -8.6963263070930874e-01 -1.4664063699552280e+03 1.2242316304744314e+00 3.2748040304858463e+00 -1.7487024162055889e+00 2.1053149532387692e+01 1.7613222832563690e+02 6.7090129961112638e+01 -9.3929858665126744e+02 -5.5717904623931371e+00 8.9328231243919063e+01 3.9475426179160107e+00 -1.0803118595969863e+01 5.1992165646515787e+01 -1.2078980322182178e+02 1.9272297604396385e+03 -1.4045591119580800e+00 -3.9884556983580843e-02 -1.2937489678803831e+02 -4.4648792842420404e-01 1.0600855663768016e+01 3.7787276812131498e-01 -2.6207033121958375e+01 -2.1833722604220384e+01 6.5208339281380177e+00 2.8344855778478086e+02 2.3393794736375639e-01 -1.5771469991920890e+00 1.1033739723802160e+01 3.0828533811126491e+01 -2.2841424557842231e+01 -3.5510702262680650e+02 8.9146591711914516e+02 -1.2477272124980725e+01 1.1570967576832674e+00 6.5736698272293434e+03 1.4101996493183222e+00 1.1982060452767815e+01 5.7156116105114663e-01 8.0280214290905792e+02 1.5511267915294127e+01 -1.7384756883469456e+02 -7.0592876786899274e+02 1.1021452803493622e+01 -1.3222629901658797e+02 8.1157500197915469e-02 -2.5366611857614743e+00 -2.6617042233438095e+01 -2.7792824326178595e+02 -3.2213848506024374e+02 -2.1499954957149749e+00 6.6548365583683003e-02 1.2076284620290320e+04 -1.5102657605620564e-02 -3.6304710483763003e-01 7.1145184828359437e-02 1.4631237405852717e+03 3.0409167286185209e+02 1.3649506378448902e+02 5.2941169739236975e+03 -1.2103425217475459e+00 2.2456248267186498e+00 5.7208041732176789e+03 
      </Row>
      <Row Index="59">
        -1.1418860666435304e-01 1.7957811079458708e-02 -5.0254486806912269e-01 -1.4799047668520657e+00 -6.9218384427067576e+00 -8.3594538165953358e-03 -1.9089011196946187e-01 1.3532840887243651e+00 -6.6339145771258878e-01 -3.3411243974763372e-01 -3.7261422217563095e-03 -1.0413870371882119e+00 1.0134684094566460e-01 -1.8005070345758956e+00 -3.2714972988573123e+00 1.6412500313497955e-01 -1.3989374195142545e-01 3.7034731869363924e-01 -1.0581204268130584e-02 4.8499074435592648e-02 -3.4810127864420792e-01 -4.6207695690973196e+00 -3.7957353170528174e-02 -1.0105542269577897e-02 -9.3193423578374279e-01 -5.5781445989943196e-02 1.3074553132756250e-01 2.0440632567217509e-02 4.4455684236989157e-01 -1.1722202355466960e-01 -2.8286190790421690e+00 6.4281129802565573e-01 -1.0004266393272743e-01 2.1548736993311102e-01 6.5258491274270192e-02 -8.7910239084564523e-02 2.1843359453050937e-01 -1.0648565669307573e+00 9.1075114638642845e+00 -3.9626787465874003e-03 5.2213759778129171e-02 2.7098984496592493e+00 7.3354930533530449e-01 5.2574915377464748e-01 -2.5220434298588501e-02 1.0984148707697159e+00 -8.2742311248139799e-02 6.1975247386971333e-01 2.5663828662499952e+00 2.4141053089234532e-02 -1.1201424551625028e+00 8.5114870786819674e-02 -1.7334692350531622e-01 3.2119482957038770e-01 1.5620705685805660e+00 1.5445442999007355e+01 5.0678089429719908e-02 3.4268885559621265e-03 1.4673321461928026e+00 1.2191132447201201e+00 9.9826267686999870e-03 -3.0190413492129850e-02 8.5632150533556217e-02 -3.9438844467529321e-02 -9.5239763425797719e-01 1.9078557269158409e+00 -2.7629547335643118e-02 5.4640095106395004e-01 -9.9342406182181597e-02 1.1192954581368886e-01 -9.4932148002410344e-02 9.2927993782996055e-01 -3.0394548668446077e+01 -7.1390262546867478e-02 -2.0151922665103444e-01 -2.6813374725405765e+00 -7.8698895472505459e-01 -6.0442762359256630e-01 7.5504717320883513e-03 -7.4321715313834602e-01 1.2811728252557941e-02 -2.7199734599905163e+00 4.5795192549172619e+00 3.4524299430670202e-02 -2.0226324006415997e-02 -5.8273032455829821e-02 1.1210704093717538e-01 1.2719129541873109e-01 1.9457346513056564e+00 -1.1766334044979885e+01 -4.4143831476119132e-03 -2.3380862432040295e-04 4.7614254759344021e-01 -4.8410624187858553e-01 -5.4316150115510453e-01 9.3845510616848843e-03 -5.4437374719566378e-01 3.4619277125112924e-02 2.0474247821433949e+00 -1.8755134291718605e+00 -2.0682508668401389e-01 1.0574418001500092e+00 3.3019415297948940e-02 -2.2913173087913918e-01 1.0080992174770564e+00 -1.0449252291117261e+00 -4.3139028363384568e+00 -3.7508163443992104e-02 -1.6730581854506615e-01 2.6045683355980564e+00 -8.7575761296795385e-01 -5.9481883486191689e-01 1.2534585123438361e-02 -2.5719314901817310e+00 2.9148313037854923e-02 -5.3861511212524462e+00 1.5627937167736832e+00 9.5163011725237667e-02 -1.0955721407195249e+00 -2.5234771901439434e-01 4.3430046122418520e-03 1.0505465353042354e-01 1.6635086335146454e-01 -6.4120732490455339e+00 -9.8709962095281101e-03 -7.5386302087137869e-02 -4.4917340449092080e-01 1.0661949357135525e-01 -7.2097031690251390e-03 -2.8143173895230987e-02 5.5843238378042770e-01 1.4038784500992096e-01 -1.0622046628819701e+00 -5.4833553925179075e+00 -5.5794010513851119e-02 -2.0300051016608176e+00 3.7827110900131666e-01 9.2551276594616816e-02 3.8155930870201438e-01 -4.2510148418352323e+00 -1.0351511264900410e+01 1.7462956161398091e-02 -4.7654503361928197e-02 -6.6361374549774155e-01 -3.0346552702589780e-01 -4.0696178368087921e-01 3.2665375343007813e-02 -1.5530866129025611e-01 -6.5994493963395406e-02 -2.1706042087670490e+00 2.7403367755066910e-01 1.4316037917926877e-02 -1.2125001557790196e+00 2.0539984272324036e-02 3.8727069684709292e-02 7.9110803645646399e-01 -1.3047778928641947e+00 6.0785230315741501e+00 2.5302513701281004e-02 3.1045562838894158e-01 8.9658842054103616e-01 4.9711839675011116e-01 -1.3264237008371538e-01 -4.9747286307895155e-03 -1.5349482513040869e-01 -3.9150264343659913e-01 4.6098392735029989e+00 7.7364164523313121e+00 -6.0864653331030971e-02 7.3862965572685058e-01 3.5810197345882733e-01 -2.7263661695078412e-01 7.1318173935083795e-01 5.8313118181069115e+00 -7.0186091398090866e-01 1.2271285241943919e-01 1.1180188997355517e-01 2.0688917295150766e+00 1.0622053969038736e-01 1.6391236759246519e-01 7.9554606954071627e-02 2.1368356211437041e+00 1.0655324661841931e-01 -1.4846380537161750e+00 1.8242999619102122e+01 -2.0379405560192979e-02 -5.8313129126072916e-01 2.0972511411525235e-01 4.1252474510386605e-02 -3.6818304357984744e-01 1.1610990915432922e+00 4.6775151667452519e+00 -3.1936876235591813e-02 9.5330224310701261e-03 -1.2074448420119666e-01 -8.7932418915968813e-02 5.2185759824403988e-02 -1.9428468686665312e-02 6.8325069828779306e-01 1.8560895041284553e-02 3.6589709669033255e-01 -3.3970292324021329e+00 2.5229721067459854e-02 5.3341306297548141e-01 -1.3234381984054872e-01 -1.1098421606459910e-01 -5.9044748376931278e-01 -4.2654238430349167e+00 4.8715016603483718e-01 -1.5125354820758105e-01 -3.2041024046003275e-01 -5.3942775637740397e+00 -5.4815273534434794e-01 -8.8838030107789012e-01 -6.6682850790729539e-02 -3.8742071003670615e+00 1.2430858357432450e-01 -6.3465707451234206e+00 -1.0986154805307459e+01 -7.4658365553592551e-02 9.9940743321577941e-01 -2.2523404751825418e-02 -1.4871199129151819e-01 1.4283727893388790e-02 7.2211029204256203e+00 4.5015366147771214e+00 1.7910065307958283e-02 8.3203255693359540e-02 -6.2334225081524153e+00 -1.4243348042631737e-01 -4.8421060673367461e-03 2.2601799999557373e-03 1.1618743234081075e+00 -2.4534852596213286e-01 1.4702354168605572e+01 -3.6089762483402152e+00 3.5719416924321845e-02 5.2534177904358895e-02 -7.1898083658568779e-01 
      </Row>
      <Row Index="60">
        -5.2880179501420033e-01 -1.3203511323174553e+00 -1.1521378879006079e+00 1.6101953908699038e+01 -1.2430060764658265e+01 -4.3166335366262132e-01 -1.7103488712424314e-01 9.8655120174225885e-01 3.8227287853805547e-01 1.5702080816274391e+01 8.6140166896942844e-02 -2.4260600852508162e+01 -4.0040163943965634e-01 7.7956884021205974e+00 -7.7671772236340075e+00 1.2088051671949773e-01 3.6443219325836935e+00 2.2363773972739693e+00 4.6133265006710644e-01 -5.0519091294880276e+00 -8.9591302375265514e-01 -9.7860176055226475e+01 6.4507686863303193e-01 3.1808446682302882e-01 -7.7424703402723054e+00 -7.6815285747785444e-01 -1.6649984210094317e+01 1.1470202401454799e-01 -2.3218291514554323e+01 -4.8441418928012592e-01 -5.7477661573290959e+00 3.8445209729513806e+01 -1.0862121729953081e-01 -2.5366527338365685e+00 4.5229100688334256e-01 3.0048716457156388e-01 -4.7912604070488669e+00 2.0194590166473063e+01 -1.6129925636248663e+02 7.6743339901901209e-01 2.8401886665721876e-01 3.9153765534865670e+00 -7.4186032514863187e-01 -1.0498332193956912e+01 1.0355746559359602e-01 -2.4603374437733692e+01 -3.5857398843381816e-01 4.3586846331136258e+00 3.3406245192464922e+01 1.2859812011356553e-01 -1.0562144383584560e-01 1.9418781654072692e-01 7.1356545102655655e-01 -3.6134015228653880e+00 -2.5367349684092915e+00 9.4168592330999672e+01 -7.3825431610095127e-01 -5.4324714198794949e-02 -7.2061042685236316e+00 9.9826212098572675e-03 5.3697371040059693e+01 3.5656746265671613e-02 -4.0356374528985555e+00 -3.8887562951217092e-01 -1.1640936839391543e+01 -1.0015544289053651e+01 3.3730224899077632e-01 -5.2533612426554299e-01 -7.6584231587858231e-01 -1.4007362759595399e-01 -2.2214147964943329e+00 -7.4645977863001463e+00 -1.0140053508291021e+02 -4.8479868410345023e-01 -7.8143252185172651e-02 -1.6017868663951958e+01 4.9986590737847791e-01 2.3698549621485725e+01 5.1233695780192434e-02 -7.2048969834140735e+00 -2.1766608525786069e-01 -5.2947279389817457e+00 -8.3303321605368126e+00 -2.5547963570980659e-02 2.3513832753387964e+00 -3.0173886311542364e-01 -6.1368798228750165e-01 -2.7999594152181659e+00 -2.3756264441857638e+01 -2.3459854434512090e+02 -1.1476574456661273e-01 -1.6910819518558054e-01 1.1055968761203530e+01 2.0887716685019050e-01 9.8595581993382115e+00 2.8943230738786130e-02 -2.5568122864040561e+01 -5.3065277187452509e-01 -8.6942138730391889e+00 5.4131693421732052e-01 -1.7980184291803711e-01 -8.3327556809240377e-01 6.5258007337282153e-01 -1.8772989996856779e+00 3.0588398843728921e+00 5.9785712746268409e+00 4.3461454406846315e+01 -5.1003169755816147e-01 1.2795053556213112e-01 3.9631716724915833e+01 1.7498269893547547e-01 -3.1708513890894920e+00 -4.7062841429138330e-02 -8.9367948735014355e+00 -8.8031909891657989e-02 -2.1110104684261220e+01 -1.1678615911419797e+01 1.8732158356314144e-01 1.9466370739670715e+00 -1.7859650521873613e+00 3.9489964930095489e-01 2.1838226361863846e+00 6.2063182212645103e+00 -4.1554371810138946e+00 -5.7378902740475979e-01 -1.5817902487723928e-01 -5.1812296787311425e+00 5.7754418531189355e-01 1.8122338737342162e+01 -5.3940931941582559e-02 -1.8389639266388208e+01 1.8757334961635834e+00 -1.2507920567524568e+01 -5.9110609316992992e+01 -3.2718155028049561e-02 4.3853208644067756e+00 2.1712551792906032e+00 3.4585914797419668e+00 2.2339285805858782e+00 2.0534884995608195e+01 -4.0884209428677423e+01 6.0455086125723956e-01 3.3933204533532740e-01 1.4275314324338979e+01 -9.8650976801375645e-01 -1.5503839752348862e+01 5.7057657500947934e-02 9.7555147571072922e+00 -6.8709968109456288e-01 3.2333985515667387e+00 2.4294806134690187e+01 2.0161665578634458e-01 -1.2616582852980098e+00 -5.8553246712860574e-01 1.2132360678062071e-01 6.4130324020560607e+00 9.4704856455007302e-01 -2.8145818683611651e+01 4.0398366035999311e-01 -9.3898321239492266e-02 3.5395230104875282e+00 1.0557154954523362e-02 -5.7843099792993620e+00 -2.7967066696323650e-02 2.8994468166634491e+01 1.2527614816438817e+00 1.0609017378839916e+00 1.1268029265967712e+01 -1.3014882397197525e-01 -3.7456045692431932e+00 1.5072857486810745e+00 2.0590416487384187e+00 4.3463510855952379e+00 4.7999119668501450e+01 1.4918857908057817e+01 -7.4633763399595399e-01 -3.1347002795836282e-01 2.4969143354278806e+01 5.0945182597711813e-01 2.5533273541003314e+01 -1.4884842099184814e-01 2.6353200475878168e+01 -2.7141224552244902e-01 1.0203143625592773e+01 4.4408701975852992e+01 -8.4888669077601131e-01 1.9922824196448297e+00 2.4834661762405885e-01 -2.1235657811848796e-01 1.7143567494695162e+00 -1.7684154471644433e+01 -2.5159385571420353e+02 1.4284793747844637e-03 -9.1852954496517758e-02 7.7927327956040244e+00 4.8538881801532741e-01 6.2532351641049218e+00 -4.3088112159744840e-02 -7.0213960688633961e+00 1.0667983595715214e-01 -3.0881043619592674e+00 -1.4861915174486057e+01 5.9958552851764324e-02 1.0557826094789027e+00 6.1249738688976463e-01 -4.0268461413419638e+00 -9.1658343882133249e+00 -1.2614739676802026e+01 9.7584957906624368e+00 1.8277150396870295e-01 3.6086601312931782e-01 7.3708659561525565e+00 -4.8804237456654609e-01 1.9122623647182998e+01 2.4311191969758006e-01 -7.2912026774726115e+01 -3.2746889471496674e+00 -5.9776680018398970e+01 -3.6789391244591677e+01 8.9168455829118831e-01 -1.5318216073414543e+00 -7.6886460442844751e-02 -1.5926910353094199e+00 1.2388954160124421e-02 2.1717991633238892e+01 1.3037071785228238e+02 -4.4248968398054322e-01 -3.9147415748144079e-02 1.6050017994811817e+01 1.6958158827812542e-02 -1.2658800040388039e+00 2.1402608641292373e-02 -9.6531613880920460e+01 2.4428260195524283e+00 1.1592106329538881e+02 4.0036669004285301e+01 7.1475702078008657e-02 -6.3212854902655435e-02 3.1645995023455406e+01 
      </Row>
      <Row Index="61">
        -3.1674402973330587e-02 4.0789633566991057e-03 7.2195479058544265e-01 1.1088198798974780e+00 -2.1501700911039734e+00 -1.3069130705674614e-02 1.0560285254494709e-03 3.5383140460845652e-01 1.2673370263671106e-02 -1.8642277657953343e-02 -2.5367911246020329e-02 -4.5884487495985482e-01 -4.1001585776988814e-02 -5.1574775125816430e-02 8.4711062248808844e-01 -9.1712174302840538e-02 -3.5905844532713616e-02 2.9181446122539256e-04 -5.5183669742501884e-02 4.5465132410491371e-01 -3.2202403638166288e-02 -1.8151903945908998e+00 2.8872770480713877e-02 -7.5660080462187154e-03 2.7827305844973438e-01 -2.0853787239706600e-03 6.0171803708563232e-02 -1.1867418847723132e-02 2.2873265932008024e-01 -4.6422140747246488e-03 1.1382093955859496e+00 -2.7613299623132637e+00 7.0887153557680854e-02 -3.5061021873288301e-02 -2.2167211479676929e-02 1.0802896256381089e-02 -3.5185194822049937e-01 4.1313676581478376e+00 -2.0686843677913203e+00 1.6138293012631255e-02 -1.4047556915835062e-02 -1.7296497201186867e-02 -3.8754495013715577e-02 4.4849610581461974e-02 2.5345136009590707e-02 8.8155363963934974e-02 -5.8498341958568290e-03 4.3434092985039285e-01 -8.4096097672552617e-01 -1.4052740302523503e-01 1.2589276529430915e-01 -4.5655859009628930e-02 2.6150841085892367e-02 3.9974950035559687e-01 -2.5370842824308966e+00 7.8887679244980973e+00 6.3604747891188862e-03 -3.2657033510884767e-02 1.0997777263673925e-01 -3.0190413835940649e-02 3.5656739680481886e-02 1.4041301417173283e-01 6.4071792746984824e-01 -3.8412096676149865e-02 1.9482267103573321e+00 6.7968670329526049e-01 1.4924877471443748e-02 -3.6330120750864045e-02 -1.0200997776287357e-03 -1.2100514861490885e-02 -3.4566498405013935e-01 -1.0740101790593144e+00 7.7829094132903265e-01 5.4471915006732985e-03 -1.0224076373794105e-02 -3.3009068369437955e-02 2.6327816623781253e-02 -7.0099524701700222e-02 -1.2238426315869556e-02 -1.4479542010863611e-01 3.8222977719897244e-02 2.0080422931927377e-01 -1.4834208392821466e+00 3.6618824689244434e-02 -6.5109370482417744e-02 1.6419209536122692e-02 4.8851434555885476e-03 -7.4981549744824805e-01 -2.5599674388985818e+00 8.1550332111510215e-01 1.6497365398454519e-03 7.4377937577949221e-03 1.3872325702617161e-01 6.0929971852279052e-03 1.7748846758374792e-01 1.1496769080300832e-02 -1.0097678200625637e-01 1.5190313936947475e-02 -1.4906320204322725e+00 1.0733314543849701e+00 2.5929925869171211e-01 -7.2734870818152331e-02 8.2759243452287759e-02 1.2350056764851325e-01 -8.5114563879452731e-01 2.6065447029594608e+00 4.4741265157585985e-01 1.1821061066572644e-02 1.7557455890223995e-02 -7.7918545373262660e-01 4.6239555705630632e-02 9.9331387471440657e-02 -2.3638735184434507e-02 2.4722821379867455e-01 -1.2099869439595867e-01 3.8532139796551155e+00 4.5468381131102689e+00 5.0543174328016097e-02 5.5343602935533642e-03 1.6101712241557570e-03 9.7281060949037101e-03 -2.3844459971885668e-01 1.0412070806588911e+00 1.5762173486491520e+00 7.7554003867929544e-03 -2.9843723647191699e-02 3.2119224576398153e-02 -1.5526579638990914e-02 -9.3800494962064773e-02 1.6751740909542831e-02 3.2875006598109380e-02 -2.4587407626179669e-02 3.3037651471240892e-01 1.5293048014940247e+00 7.7302173582797021e-05 1.8129259022371180e-01 -6.5638551402675271e-03 -5.1288247622241379e-02 -2.5308610544915444e-01 3.6641421219183439e+00 1.8007185526289504e+00 1.3872758342078198e-02 3.7863646471979213e-02 -3.2935951930994634e-02 3.9562338852299310e-02 1.5252448148793474e-01 3.3790694281609662e-02 7.5608220173160312e-01 2.3636271038697920e-02 1.1298257710353532e+00 -3.2976637724907221e-01 -6.5121017986179142e-03 1.9144757796515816e-01 2.4452937209706649e-02 6.7666525753091733e-03 -7.9436274337751911e-03 9.6183998345874500e-01 2.4995373019573890e+00 8.2493715793340860e-03 3.7421262130012595e-02 4.2026461055964148e-01 1.1674430849083178e-02 -3.5447296736635048e-02 -2.2206589644668064e-02 1.5462060801790045e-01 -2.3840408181090567e-02 5.1543355868508556e-02 -2.9790600931999691e+00 1.0082341193378511e-01 1.5312895232547907e-01 -9.7836079775765444e-02 -4.3908139594597717e-02 -9.6256293924416747e-01 1.1776818585860696e+00 -1.0202131493599609e+00 -5.2034894162112801e-02 -5.1143320288940981e-03 1.1044696051211425e+00 2.7585287175378708e-02 -2.1157619920965443e-01 -1.0598186635850360e-01 -1.1387741142467980e+00 -1.0766114831278845e-01 -1.0765994629795133e+00 -6.1197041336110525e+00 6.7958720168665471e-02 3.3294989652295748e-01 -1.2203142078672791e-03 -3.9615539496864471e-03 1.4577638891171318e-01 -1.1799528366636878e+00 -3.6380336685097063e+00 -1.5833766742507638e-03 5.2553278830820109e-03 1.2927020710242232e-01 -5.8545012465816282e-03 -9.3784897697931413e-02 6.1230905278544939e-03 -1.7217473447715292e-01 -1.8370054270339331e-02 -8.9555465117427957e-01 1.2947832548775295e-02 -4.4079309829833824e-02 -1.4819206212269909e-01 1.0918652805831748e-01 4.4851287083636615e-02 4.7942689701688379e-01 -3.8673317516149144e+00 -1.0338367244996505e-01 5.7218868976674081e-02 -8.3103820095981138e-03 -2.7561001940853203e-02 -1.2794282490258463e-02 3.2925223894889066e-01 1.3310601193625635e-01 -4.2828452816349727e-01 3.7702216826687535e-02 9.3131551857933772e+00 4.8817956557889044e+00 2.1944222829988447e-01 -4.9421227098710968e-01 2.4988444984575539e-05 -1.5025899841062251e-01 -1.1325801875648858e-01 -1.2068251104241202e+01 -6.7375131211621948e+00 -4.5392587712505920e-03 1.1743197290202772e-02 3.2636462123651864e+00 5.5203256425150667e-03 1.6962403461369029e-03 -1.1329932168381943e-02 -2.4575425308533565e+00 -3.8045936021514126e-02 -2.1348784576147263e+01 2.3457578615764376e+00 -4.3881360165494182e-02 -4.9949511665651342e-03 5.8857606140793950e-01 
      </Row>
      <Row Index="62">
        -1.5311316136286313e-01 6.9696332624935167e+00 -8.6461126756330486e-01 -3.6943400339354852e+01 -9.1250223551364616e+02 1.6654024183462401e-02 -2.3527060231044222e-01 -4.9812125506752636e+01 5.2045008966914330e-01 -1.2058111582933634e+01 -4.9589665579587638e-01 4.9320836322448486e+01 1.1382529897454528e+01 4.9266282879474090e+00 -3.6916919920142391e+01 1.5192937450437849e-01 -2.7409151837055106e+00 1.8201835837394356e+00 -2.4745467505227680e+01 -1.0908952034792058e+01 -2.9469683622708544e+01 7.5960007877647877e+02 -1.1874409488698818e+00 7.7205417297111811e-01 1.0585643779657980e+02 7.1050974245468734e-01 -6.4244631250985549e+00 -8.3727460089141914e-01 2.1043360904680497e+02 -1.2954450234268821e+01 4.0735419674624609e+00 7.8498949234267513e+01 1.0841280432426359e-01 4.1302398316449107e+00 5.4262632484096684e-01 -2.6215351370781718e+01 -1.9949146585298877e+01 -1.4186787340650335e+02 1.1724593980805948e+03 -1.0887163314796453e+00 -4.2193294940554799e-01 1.2698709988733754e+02 1.1341329917711889e+00 -5.1453919844425400e+00 -4.1552711692060029e-01 3.0133488997728273e+02 -1.5657353761256672e+01 -2.4787323853845010e+01 1.1918996990944174e+02 1.2792494933637499e-01 2.8097423601887783e-01 1.8678602699387270e+00 -1.5439715215388734e+01 3.2410516889212886e+00 1.5872910328616854e+01 1.7056548653580248e+03 2.4731376457981280e-01 -4.4092117511237694e-01 -7.2760145175736398e+01 8.5632190524796536e-02 -4.0356382718614228e+00 6.4071791443724557e-01 4.9500401803789407e+02 -8.3213753619673980e-01 8.9898299047636101e+00 9.9710603698622435e-01 -1.0668428655804406e-01 6.5505310478614689e+00 -4.3740653799465123e-02 -6.8966992486728032e+00 -1.4784493180463016e+00 2.0329946329875384e+01 1.2588276680186391e+03 -1.8290324653394940e-01 -1.1257793254646453e-01 9.9558178291190416e+00 -1.7590566184026102e-02 -9.8820200142291519e+00 1.2338507993210124e-02 5.5043713725055568e+01 -1.8117923135818273e+01 2.1168648979652041e+00 1.0203593176415140e+01 4.4234997889049454e-01 3.0596447745604261e+00 2.0214217464076580e+00 -1.8843293527606875e+00 -1.1167043339942753e+01 3.7302533970796503e+00 -6.6418090920522809e+02 2.3008165849838036e-01 8.9729892676642597e-01 -4.9407680258183973e+01 3.6667040131594053e-01 -1.6629224416177333e+01 1.4990569342628043e-01 9.9962508948316099e+01 8.6700138832241578e+00 -5.0566995972214499e+01 1.0031010072561912e+00 -1.0478501306368262e+00 3.1605064167888486e+00 -1.0530094345100511e+00 5.0877917099077024e+01 -3.1599570010402644e+01 5.6493378737391026e+01 -8.2399910219546655e+02 2.6101890851979528e+00 4.0351478006885655e-02 -1.7866998378506403e+02 -6.4044828213887550e-01 1.5700448989490551e+01 9.1912333815975100e-01 1.3588421132386060e+02 1.5344281172889811e+01 3.1872674087022716e+01 1.8019349317952862e+02 -5.2120151498625145e-02 -2.6425555098527154e+00 2.4336351494292150e+00 -4.7819511375310508e+00 1.4658818645371809e+01 2.0896753225129828e+01 6.9619309095905919e+00 -9.5604863268552442e-03 -4.9895396044849916e-01 -4.2541490830120665e+00 -8.0629010257246259e-01 -1.4561243245259778e+01 -3.5355276254269075e-01 -2.8968808189155965e+01 2.2270849819819503e+01 2.4927493911624452e+01 4.1508471136922481e+01 1.2395254311062398e+00 -1.5364391423854361e+01 1.8008712673896556e+00 -2.9116651777954537e+01 -2.0847405735235469e+00 -6.4763448661091331e+01 6.0523148888454307e+02 -5.6524665535619656e-01 2.2423542929986887e-01 2.6230548188614193e+02 1.1665920582197464e+00 1.0340489070725678e+01 5.2843760646677584e-01 1.5449885011515789e+02 -9.5116886647737431e-01 -4.7568163914893731e+00 9.5078855569440464e+00 -5.8964181258936454e-01 7.7623304067049235e+00 -3.9668440329770027e-01 1.2005605351654538e+01 -1.0109886364619427e+01 -2.1703946453569301e+01 3.0071843932013144e+02 5.7834735570237161e-01 4.4084314468732944e-01 -5.8109248731479425e+01 -5.7442738668586735e-02 1.7687223801544718e+01 7.5463551427859288e-01 -1.0377916109953770e+02 5.0039378417802460e+00 1.1435956663937390e+01 4.0013655460418818e+01 -1.7249000220268305e+00 7.7173731900973088e+00 -3.8011236955752263e+00 1.9785060103176832e+01 5.3228079438438414e+00 4.2157988169469391e+01 5.2860985897641831e+02 3.7950063024550590e-01 3.6300655328341752e-01 -3.8454880780977589e+01 -2.3379264396187334e+00 7.6477419249686793e+00 1.0710158468294040e-01 -2.0916764933353267e+02 -5.2638584495741991e+00 1.1289644769696960e+01 5.4731835197538828e+01 8.6650670171821487e-01 -9.9494381411172537e+00 1.0054920707170822e-01 1.6327041736949468e+00 -9.8379814573563635e+00 2.3795572417322546e+01 4.2804502693912218e+02 4.1210123082602579e-02 -9.6623610424171502e-02 -5.7177372753678355e+01 6.0819021727702260e-02 -1.7028877202052172e+01 -3.6105549339413456e-02 -1.3515372117748484e+02 1.0535926416650909e+01 -8.3718737587332726e-03 -2.8439733164617792e+01 7.3551058767918676e-02 2.6107150778645982e+00 3.2319816150339689e+00 7.3601052142913392e+00 -4.4831812042103735e+01 -3.5271149556068389e+02 6.2423695865986838e+02 1.5940415060553459e+00 -9.1826133447782121e-03 8.0564200277440250e+01 2.3409395856449224e+00 -2.3803329609699240e+01 2.6073498181441968e-01 1.3499184354028393e+03 1.9815963670211737e+01 -1.0240597040776004e+02 3.1609568853807679e+02 -1.3967885497128598e+00 1.2091015425726457e+01 -6.0695704892608782e-03 4.9710812369108126e+00 5.2441054638164220e-01 -6.5443429239031423e+02 8.5247430742252732e+01 2.5783110645437074e-01 2.3567879965449995e-01 2.7388037456325088e+02 3.7409647986976699e-02 1.0204864891919918e+00 -1.0631059550350383e-01 1.9055422916169096e+03 -5.7685918081211462e+01 1.3347123146276311e+02 -3.5969407359030890e+02 5.2144038556946548e-02 2.6347980378488423e-01 -5.0536276312488070e+02 
      </Row>
      <Row Index="63">
        -1.4123676454845491e-01 9.8825995187894478e-01 3.1122517971634807e+00 -3.4028748626369421e+00 7.8312050620152149e+01 -4.5035903873354804e-01 4.5392372401333758e-02 8.6840993452671682e+01 2.2779389281997908e-01 1.0548299052825314e+00 1.2199928038138935e-01 8.8278113811396679e+00 -1.3451909193370833e+01 1.5081679494784670e+01 -1.0869228970988843e+02 1.3293352251761875e-01 -1.3582706800659707e+00 -5.9415400008333563e-02 9.9522486275327537e-01 5.6466745657362996e+00 -5.2908328891207930e+00 -6.7719177057966590e+01 -4.1346655817689959e-01 6.1091182093265826e-02 -1.0348337730140682e+02 2.8960229194181772e-02 1.4766412274275353e-01 -1.6822218821303636e-02 4.4722614703293200e+00 -1.3159093873573223e+01 -7.4304868976828402e+00 -2.6054818222638806e+02 -9.4070451359610285e-02 4.3528844238912812e-01 -4.5878016123651832e-02 -3.0913327139614921e-02 -1.3920384977573121e+00 -8.2646537445834838e+00 -5.1347500736592337e+01 -3.6323436258976471e-01 -1.5049345339145176e-02 1.4058709287931561e+02 6.5982072878850800e-02 -1.1855368006495155e+00 -5.6849492334777096e-02 -9.6456675742774678e+00 5.6164512389932497e+00 -6.3338553368485009e+00 -2.6964398680554592e+02 2.0277405450610786e-01 -3.7852191707130167e-01 8.6841221751693176e-02 -3.5273119185628716e+00 -8.8146155479334993e+00 1.6571956410502025e+01 -1.3304802792426199e+02 -2.6079107636724852e-01 -1.3064574782872684e-01 2.0100007496582111e+02 -3.9438844542938778e-02 -3.8887562560175759e-01 -3.8412095235995286e-02 -8.3213685322612463e-01 6.2923972651361254e+01 -1.0669409194506443e+00 2.1503862846533593e+02 1.2074073364786850e-01 -1.0110315817063587e+00 -5.3762106253350561e-01 -3.4959911213912553e+00 -4.0652909082102520e+00 1.5237571387093340e+01 1.6006029692897573e+02 1.7905929818279853e-01 -2.3844309482188047e-02 1.3973587957900600e+02 2.1165652354557096e-01 -1.4384899739047858e+00 6.0776818644418931e-02 -9.0966405388535350e+00 2.4305231314979210e+01 -4.2427752313686895e+00 1.7472366728514726e+02 -5.6026324759917728e-02 -2.5060567783389960e+00 -4.3294387391386469e-02 1.7517429643730793e+00 -1.3796804563342471e+00 4.2396389419300249e+00 -1.1502704555215314e+02 2.3667464838273838e-03 3.1021978821634495e-02 -1.3378042525287128e+01 -3.0952098948021145e-02 7.0517392255526756e-01 -1.3318229350375310e-01 4.2782463354815263e+00 -1.3932498331851512e+01 1.0197022524651402e+01 -1.0646170846989116e+02 -2.9409539462374990e-01 -1.2797292670256866e-02 1.0723463397101540e+00 -1.9170162806656030e+00 6.1733323021645230e+00 -3.3402416391647044e+01 1.8531267836615598e+01 -1.1735720953889204e+00 1.1088898845148520e-01 3.3957246346201714e+01 -9.8795048558989740e-03 5.0592107867544645e-02 -3.0777354338844105e-02 -6.3654643914087927e-01 -1.9863726939313807e+01 -3.2579159628571055e+01 -1.6997096659154124e+02 -2.0652680700669979e-01 9.5900929163118054e-01 2.5753676175377826e-01 8.0309198907359391e+00 5.1785995163052405e+00 -1.6392620032143402e+01 4.1760501949375566e+01 -4.0592729859681431e-02 -2.2214904468138008e-03 -3.2634944091366015e+02 1.3079973042849549e-01 1.9657039003439509e+00 4.4668256166177034e-02 1.4787265490758054e+01 -2.6407827179832093e+01 -1.7636989077961367e+01 -2.4173748207171900e+02 3.5961589808581329e-02 5.8221064345023601e+00 -1.3867950786825967e-01 8.1947380825581462e-01 -6.5847311027039943e+00 -2.3086193022624439e+01 -9.3245406962205379e-01 5.2487110857641806e-01 -6.4248667469361809e-02 9.0103604545583948e-01 7.4706720020639050e-02 -1.9368986824048262e-01 -1.0229296785064118e-01 -5.8039078674118860e+00 8.5903761621549535e-01 3.5533015948171034e+00 -3.6870083335019785e+00 7.4303322483390971e-02 5.8056066217659286e-01 8.4016745617347599e-01 -1.0469842817729216e+00 1.7473159893318613e+01 -5.2628810860202293e+00 -5.5883622211663351e+00 -7.3724092973812672e-01 -9.8404249726498527e-02 1.8447049261692598e+01 -4.0715803227950431e-02 -1.7469957492021386e+00 1.8916828172679312e-02 -5.1277393538252625e+00 -2.0698362982323410e+01 1.2012250140395849e+01 -4.5048950915393766e+02 -1.0445806943883862e-01 -2.1746115971317459e+00 -1.0338699407153131e+00 -1.2091466424214046e+01 1.9948198134172252e+01 -1.9547059447325807e+00 5.3774774897718089e+01 -1.9279417324821186e+00 3.8721599490123554e-01 -1.2023153494259589e+00 -2.2611064180873663e-01 -3.1290328722361940e+00 9.3865494880702727e-03 -5.1704314999769707e+00 7.4099713160698656e+01 1.6824093451126700e+01 5.3338487752836691e+01 -6.5429129502218319e-01 2.0382368307149203e+00 2.9090684634934405e-01 1.0570229384693448e+00 4.0530202600530174e+00 -6.8530924266669899e+00 -9.2337345211939919e+01 1.7377702468219985e-02 3.9705465614552085e-02 -9.2277136470176629e+01 3.7168775737331294e-02 6.5794714349885908e-01 -6.9521415100046169e-03 2.8260366329923272e+00 -1.0437957498370224e+01 1.9136794036603533e+00 -3.2980060239259910e+02 8.1779229217261218e-02 3.3440132888215313e-01 1.5082221643482476e+00 1.0212337023576580e+01 -1.1948220845124473e+01 -4.9010651277664863e+00 6.0166415358421546e+01 -1.3285403650853134e-01 -2.2209723037349111e-01 5.2193452403887932e+01 1.1386978848168994e-01 4.6262705646866662e+00 -7.3944950616313176e-02 -4.8927427976650151e+00 -7.0881858619916315e+01 -3.3226415451992580e+01 -1.3398467385565374e+02 2.2977584264380868e-01 -3.7480850180993848e+00 -2.6164872281390283e-03 9.5931572507701208e+00 -2.2114731846187055e+00 3.9551087648483282e+01 -3.9850139851711077e+00 -1.3519656585701625e+00 -6.3905559310519777e-03 7.3882847973429222e+01 1.5912411904572106e-02 -1.8225418374013813e-03 5.3505456956980682e-02 -3.4975515556173534e+01 1.0800064238651321e+02 5.9082344604279918e+01 -3.9433426964544083e+01 8.9877600075279673e-02 -4.5325985552516324e-02 7.2624883913840279e+01 
      </Row>
      <Row Index="64">
        -2.8179841976150350e+00 5.9742187882238795e-01 -5.4257609540688463e+01 1.1794114237703327e+02 -1.1350000642240047e+02 -2.0581720928139862e+00 1.1381015941392192e-01 -3.8613191421822194e+01 1.8544295030547984e+00 2.9130596858153694e+00 -9.0741640399886403e-01 -8.5112959450008248e+00 1.2538938365341892e+00 -2.9190517492702833e+02 -2.7801732761910444e+01 9.6346903088301838e-01 5.9909225689106052e+00 -3.0361323590179268e-01 4.7560891830927972e+00 2.6357752569640553e+01 -7.9120480477806268e+01 -2.6441681550489739e+02 2.5450602132008133e+00 1.8703300353503538e-01 2.1736318015735776e+01 -1.2727739258847059e+00 -1.1781440335653315e-02 1.0663353465264080e+00 -3.2127776301950149e+01 3.0478938866836169e+00 3.0737149840363475e+02 1.6046041997114500e+01 -2.7083580809471672e+00 -3.6523117606557705e+00 -2.7636478935023376e+00 1.9225018812562666e-01 5.9931778369758831e+01 1.8017285193991847e+02 4.6847815860336414e+02 2.3778034083607622e+00 -4.4686709169794070e-01 1.9354438472044421e+01 -2.1649887228514588e+00 -9.4344450530593349e-01 6.7149965086866104e-02 -2.5711761707753794e+01 -2.0819300160105740e+00 4.8462844035112994e+01 7.8270406396561384e+01 1.5490110807529902e+00 2.7063648034796692e+00 -5.6917565279202815e+00 2.2994761285918472e+00 -2.6286856464121229e+00 -2.9139640000784129e+02 1.1941978042852134e+02 -1.9849489683165931e+00 5.6149136742005967e-01 -3.1049596297234530e+01 -9.5239773875226685e-01 -1.1640937729853114e+01 1.9482266330381817e+00 8.9898129050621662e+00 -1.0669403555637302e+00 7.3568488076607900e+02 -7.4188288962155639e+01 -6.7184043792372137e+00 -3.1777376753107625e+00 1.8580629830194546e+00 7.5095631686126652e-01 5.1316661096201273e+01 -1.3695137654485006e+02 1.1853421696880832e+02 1.3310539926923484e+00 3.7913758689035792e-01 8.4178859133862716e+00 2.2759857502124419e+00 -5.2912306403211993e+00 4.3656301537546571e-01 2.3748799417053306e+01 -3.4016225373820816e+00 3.1575371123244770e+02 -7.2063818772827997e+00 -1.5820014966585534e+00 3.1684024537736031e+00 4.8517818421086756e-01 9.3791919103296095e-02 -2.6282489264196990e+01 -1.1227017047799382e+02 4.4436023821320850e+02 -3.2510934290469384e-01 1.1052277754765971e-01 -1.8089516023750093e+01 1.1953987601691012e+00 3.5219934752542663e+00 1.7573826347603688e-01 -2.2996934017075546e+01 4.5832343145490384e+00 -2.1402071544199725e+02 -1.2157413121371064e+01 1.0885502044898612e+00 3.7586746616871096e+00 1.7456567035680122e+00 9.1509963543161739e+00 1.1388373533510509e+02 1.1678569168992559e+02 -4.7115622861576639e+02 1.3891736983112184e+00 1.2285884333003252e+00 -1.3927912006617476e+01 2.0873351626915726e+00 -6.7075336477290337e+00 3.2155823673593575e+00 1.4383565989520554e+02 2.0842850605670009e+01 8.1974482003888716e+02 1.3416949216418334e+02 -9.3028521934937398e+00 -2.5279944899625875e+00 5.4376886585895692e+00 3.7976172156418322e+00 5.4761864461095058e+01 -1.4460524693207191e+01 1.3353312988155540e+02 1.6133724080770566e+00 -1.6754218702553514e-01 1.9467748954631134e+01 -1.7112612919499233e+00 -1.6519792997253546e+00 7.4608708520939659e-01 1.2512909075870482e+01 7.9186112867971374e+00 2.4867727588706103e+02 1.8191385515335344e+02 -2.3490509560988904e-01 -1.2392634599725405e+01 -3.9467831512603784e+00 -6.9408394582742208e+00 -4.1446059282732314e+01 1.1017173864333898e+02 8.7964933684015705e+00 1.2283382281412220e-01 5.8983539214779335e-01 4.9614379672057112e+01 2.4992016611160635e+00 5.2361629964768319e-01 4.9851909400955829e-01 -8.1798757170416287e+00 7.3305555662500410e-01 1.9443152104671810e+01 -7.8234578388979912e+01 -5.7145876195376921e-03 2.7694662884440042e+00 -9.2322714089382152e-01 -4.5163267700349916e+00 -4.8963553778018166e+01 2.2531083612023207e+02 4.5904050514522169e+01 -3.2456695772207755e-01 5.4440732239244838e-02 -2.9957779699915861e+01 6.5634830132622834e-01 1.0418186302475156e+00 -8.9606410944353487e-01 9.2174676038228540e+00 6.1556185386088913e+00 -2.1009127178584478e+02 -2.4188478429556835e+02 9.2269176519920371e-01 1.5439881743919184e+01 -1.2531401139969166e+01 -2.1907713474048464e+01 -2.9560508864774647e+02 9.8011668376978136e+01 6.3139374353611493e+02 -8.3847973886624221e+00 -7.4062589575333360e-01 -2.1897105144430157e+01 2.7492563267468983e+00 7.8206770388501052e+00 -5.9823167835107425e+00 -2.1709191306412390e+02 -1.2784160726212384e+01 -4.0097960911395319e+02 -4.5886907106173459e+02 8.5621247082315879e+00 9.3186317301991739e+00 3.3029630049819048e-01 -2.0461713738213803e+00 -4.2786824153827183e+00 3.3661337174795335e+01 -2.5586424627331144e+02 2.6953867355214021e+00 -1.4348963301883466e-01 -2.5006588470942006e+01 -3.9657387178698289e-01 1.1027989934010520e+00 -4.9624789349718301e-01 -1.0790628876347910e+01 3.0468192454979430e+00 -4.3112540381017607e+02 6.8710950467066141e+01 1.8042380053138949e+00 5.8617114251804336e-01 5.9637098356540550e+00 3.0858240963170346e+01 3.4676378123939384e+02 -1.8421972911422026e+03 7.2699455708014352e+02 7.5513869533605638e+00 1.9127069970825756e+00 -1.5911065809122374e+02 -1.9179053347426089e+00 -1.4494382332851867e+01 8.7805264054366283e+00 -9.2797673179013998e+02 1.2414882339051005e+01 4.2958108104832545e+03 2.2869080330191696e+02 -1.7761676327453241e+01 -1.0234726409555700e+01 2.3575853240376982e-01 1.7985725836677666e+00 3.8808574584237725e+00 -3.9835576774344745e+03 -5.1559285364072184e+03 -2.8577929187544706e+00 1.0734107589215824e-01 -3.5482095019653843e+02 4.3428913217968679e-01 1.2784704235275868e-01 -2.5729199404461855e-01 -2.1139306832586549e+03 4.7648841077627964e+00 -1.0432064355927638e+04 4.4325637342044467e+02 6.6405777497339957e-01 6.5092798376402272e-01 2.7678453358738309e+01 
      </Row>
      <Row Index="65">
        -1.2454991617790110e+00 6.6919375470024534e+00 3.8716914023389108e+01 1.9880561545465429e+02 1.4519031604658812e+03 -1.0374937666327643e+01 -1.2206165341805715e+00 4.7448278833343647e+02 2.5420450914288928e+00 -1.0999161401559832e+01 1.1952711729212546e+00 6.6336001589043008e+01 -8.4955018360255053e+01 -2.8448631898441960e+01 -5.5014608578808839e+02 -1.5908290938956204e-01 -1.1495508712767332e+01 3.5998382965553901e+00 2.5037936713160889e+00 8.6808973273964909e+01 -1.4704955703369342e+02 -1.5455901561975479e+03 2.5050696728191646e+00 7.7334337043556278e-01 3.7610331500346138e+02 -2.3448594583862801e+00 4.1951695230382029e+00 -8.6710172712446365e-01 4.1311774184781825e+01 -1.4453719227728521e+02 1.1610998926893808e+02 -2.7316803414797387e+03 1.0941386726729765e+00 3.6062843428932361e+00 1.0700603209370456e+00 6.8192863775766455e-01 -4.5545420288806781e+01 4.2248280340991914e+02 -1.5979974196627736e+03 5.1883872754078766e+00 1.0770793682819080e-01 5.2153041461110115e+02 -1.3151005261296500e+00 4.4198068105470156e+00 -1.0085176653490180e+00 -3.6227424360695295e+01 -1.4973445303502376e+02 6.6025407266919501e+01 -7.0581585034071122e+02 -1.5266653472826874e+00 5.8891238910894543e+00 -3.8581532617928285e+00 -2.0908775950495315e+01 -4.1630650100298226e+01 -4.3552787879016250e+01 1.3991831927895546e+03 7.0116830772097263e+00 -2.0050547091768283e+00 6.3485667776316404e+01 1.9078554487393815e+00 -1.0015543972007407e+01 6.7968716727117895e-01 9.9709050103199104e-01 2.1503862675367657e+02 -7.4188090790761635e+01 6.5948050504024141e+03 -4.3288356891992885e-01 -3.3874617685956494e+01 5.2038596287017080e+00 -1.6776351519156947e+00 -1.7475658593291882e+01 -1.4294622950581834e+02 2.0079088497310877e+03 5.1922371851322842e+00 8.7377231470718786e-01 5.4887488979846239e+02 3.8211858213362575e+00 -1.3061924546667125e+00 -1.0822706001608229e+00 -2.9718195181107149e+01 1.0886225780902896e+02 -4.9387505311643480e+01 1.7101084416061508e+03 -1.3783841448425627e-01 -3.6116026067473079e+00 -2.4642490415213096e+00 9.9128875263559166e+00 -5.4543805706790636e+00 -2.9507317164144479e+02 -1.0966054795682430e+03 -2.2611373762856672e+00 1.3837268191967425e-01 1.3424373684998136e+02 7.9273252606046540e-01 -1.4882118253903194e+00 -6.0568382935828957e-01 2.6216285675764084e+01 -7.7913883477384388e+01 -1.2637549836956896e+02 -1.3681422096437309e+03 1.2129623527594999e+00 1.6753004154597875e+00 5.2416374265706311e+00 1.4260131256129114e+00 -1.8967706206156470e+02 -9.2191362383900810e+01 3.1943957825802499e+02 -1.2598633118388815e+01 1.6168337365914449e+00 -3.0222130459930690e+02 3.5241631564080556e+00 -3.6177430126376677e+00 1.9368402966739029e-01 -1.4181750637031627e+01 -1.3089883172189263e+02 2.8035846487341973e+02 -2.0193016593260493e+03 2.6495994754689751e+00 2.2100560799246509e+01 -2.4942654123660359e+00 -1.8575056567449352e+01 4.6523132056147368e+01 -4.1545270187687947e+01 3.2672943314430813e+02 3.9395549590464318e+00 -3.0738229191461093e+00 -6.7076624061080702e+02 -2.0628149079797209e-01 -4.8440564241652551e-01 8.4879562651533469e-01 6.9863859065711154e+01 -2.3334514980569054e+02 3.6399405958977184e+01 -2.9080205077177097e+03 8.1344666696916423e-01 2.1569380036629411e+01 -8.2099987016079936e+00 -6.1311508840885409e+00 5.1602973813957036e+01 8.8631665629696727e+02 4.1684473021000304e+02 5.3480107292988439e+00 5.5227089282178543e-01 -5.7463136162469164e+02 1.1743368298011005e+00 -5.5035599335576535e-01 9.6816562048619448e-01 1.0327844839862792e+01 9.3555168300807708e+01 4.7422847141713589e+01 -1.3302638519185393e+02 1.1159056496904212e+00 -2.3561919364150114e+01 1.5909869213862695e+01 -2.5110996083395520e+01 8.5228659588909068e+01 -1.3471843962661330e+02 -1.2462196567655192e+03 1.1865851216594425e-01 4.8977330062217987e+00 8.6420735690438642e+02 6.9618424560715919e-01 -2.4371499326048820e+00 -3.4881987143667912e+00 -3.8198291172755489e+01 -3.5972752007705867e+02 1.3043846687350509e+01 -2.4459570524137853e+03 7.6233540316777315e-02 2.6134827577982996e+01 6.6232244167728638e-01 -3.5724414894904648e+01 -2.7828031997698588e+01 1.3624176713864563e+02 4.3263362041978326e+02 -3.2280499917683557e+01 3.3276375517868284e+00 -1.2340485497191972e+02 6.7634835567636955e+00 -2.4705355403063379e+01 -3.1703328222778424e+00 -1.6430103734256431e+02 4.0656954956107091e+02 -3.4259368457958686e+02 5.6642943892879339e+02 -4.8499082033222169e+00 -8.7438977047194300e+00 -1.0583168171433499e-01 1.8503035795292817e+00 1.0883305614581332e+02 -1.8715519234538078e+02 -2.2874474036138272e+03 -6.1365766918237163e-01 2.7645541268807305e-01 4.5506881405494642e+02 -9.2540199145527513e-01 4.6280122280440992e+00 -7.1325464938943539e-02 -1.4342878759838641e+01 -1.4080202767455557e+02 1.3787990941107273e+02 -5.2138412498249672e+03 3.8875990033488961e-01 1.9269235667179885e-01 -3.6487888385521088e+00 3.8806578358405183e+01 -1.4283236821186446e+02 -2.2699393026720429e+02 3.3666726573948108e+02 -1.3594703160581956e+00 -3.4661416633885023e+00 -1.2535633288398385e+03 -3.7539961927615479e+00 1.0484789678927033e+01 4.2237040754466229e+00 8.9203633280899089e+02 -8.3367143449724370e+00 3.7111395738227884e+01 1.2102788130827960e+03 7.0740986787337370e+00 -1.4745195096193449e+01 1.4355084852236422e-01 1.8035147816560780e+01 -1.0853757461128339e+01 -1.9147963106906008e+02 5.6767004424579477e+02 -2.8280900351041158e+01 7.9075017267064140e-01 -1.5238319591777879e+03 3.3984739431604116e-01 3.2612970180895928e-02 1.9915068133942371e-01 1.2187557745856022e+03 1.3939819620474083e+02 7.8556385956841859e+02 -5.0964848552592866e+03 -4.0861888274947411e-01 -5.3002216730634633e-01 2.6587021353552796e+03 
      </Row>
      <Row Index="66">
        4.0598835646038695e-02 -3.8437962395818204e-02 -1.0186142902150550e+00 -4.0840389272944666e-01 1.1355666932504391e+00 2.0220336345461387e-02 3.4661534338564060e-02 3.8942538742776378e-01 -8.8988396652031551e-02 2.0585904590916471e-01 1.8719398414043900e-01 -6.1238410296245149e-01 -4.4010190988728937e-02 3.8130548623508358e+00 1.9200328061526761e+00 3.1476824864725561e-01 -5.0406906883182501e-03 -1.8820434850432832e-02 -3.9642668256753666e-02 -3.2622990871124680e+00 1.2694830278596783e+00 -8.9774339459836483e-01 -6.3536538896554473e-02 -3.1251055985273529e-02 -9.4160059795688511e-01 9.2044847174393929e-02 -4.5318266650792793e-01 5.3215611935428342e-02 -8.0138940042861506e-01 1.2865035511937517e-02 -7.0467882191903399e+00 -3.3423380370960984e+00 -3.2703448920919248e-01 3.7269519650216631e-02 -5.8522989120092461e-02 3.0333695091854906e-02 1.1324309960616574e+00 5.2675082261703210e-01 3.7114955326396739e+00 3.0547073015299020e-03 6.6758054406201500e-02 -2.1250361596685252e-02 -3.8973022711315412e-02 3.4945472663775945e-01 -8.5662566264441242e-02 -1.4831893899633997e-01 1.5303509662544457e-01 2.9343780394483474e+00 -5.4843124007678625e+00 9.4609361392232927e-01 2.0145363271550165e-01 8.0624480957050992e-02 2.5788590747760742e-02 -1.3891198776459532e+00 1.9568806012330242e-01 -9.0576550737023354e-01 2.6360704271758961e-03 -1.6694095093194014e-02 7.9256659072780167e-01 -2.7629546799200017e-02 3.3730225164588556e-01 1.4924877395207124e-02 -1.0668422751123807e-01 1.2074073291563892e-01 -6.7184045053888894e+00 -4.3288292591569189e-01 8.1368790429165916e-01 -8.6243131089272840e-02 2.0602191385468011e-02 -9.2349512107850362e-02 1.4393902950848769e+00 1.8695809534347063e-01 3.5362860842433292e+00 -8.8198314619877954e-03 -7.9760216814223142e-03 -3.5010272810268361e-01 -2.2211508851199824e-04 2.7361594138459733e-03 9.9930775838541597e-02 -6.0278862919403764e-02 1.9352409857282282e-01 -3.4099615026611225e+00 -3.1488536854316962e+00 -3.1480638832704499e-01 -2.8268345160901320e-02 9.7215770928724077e-02 1.5531655614040574e-03 2.8272553849571569e-01 -5.3177822534007646e-01 1.2746192963677458e+00 -3.1589018441633976e-03 -6.0038472347000153e-02 -1.0489326292685064e-01 4.4607231553736859e-03 -1.2992524767200619e-01 -1.5756171408855271e-01 9.5814819969291420e-02 -1.9070959096222406e-01 -8.5593468750732882e-01 1.6126738802267937e+00 -1.2649332200902197e+00 -8.8826409995476752e-02 -6.8810823026164314e-02 -1.4317122368698804e-01 3.1958214711578510e+00 6.2659457266398171e+00 1.0893285829786805e+00 1.8326387819082201e-02 -3.8360075299881391e-02 2.2990073279310259e+00 -1.3362081643139290e-03 1.6177946320967437e-01 1.1566140920232053e-01 -2.0549102109808590e+00 -4.3874056077790269e-01 -8.8661211430046922e+00 3.5177252907724395e+00 -3.7528939274972889e-01 -1.7008932211716354e-01 1.7722834126377505e-02 -3.4723680719277006e-02 -9.7422725101433461e-01 1.5328719377607216e+00 1.1041366599965841e+00 -2.9603145840680578e-02 2.7264706945886740e-02 -6.1366714030548053e-02 7.5610223507062146e-02 -1.7890028081680787e-01 -8.7606270532169003e-02 3.2496771190197915e-01 -2.3771852828255213e-01 -3.7284290842335501e+00 5.1340639845372991e+00 4.0342985696172465e-02 1.4848207195990160e-01 -1.5341483641443560e-01 1.2218068141053529e-01 -3.6487835601640217e-01 3.3973908437414799e+00 -6.3014990509914242e+00 -7.9361391501501233e-03 -5.8223964710262727e-02 -2.0154421917413856e-01 -1.8012331022061695e-01 2.8941416108651108e-01 -2.5045474061586936e-01 3.1319985115092663e-01 9.4613309017171243e-02 3.1279752895815882e-01 1.4303629849235406e+00 2.4396919130854744e-01 -4.3269227371413768e-02 -2.0030058808977458e-03 5.8747956817478908e-02 4.4328716420546677e-01 -9.5591650665238603e-01 4.4030639885977507e-01 -4.4244995084710054e-02 -3.3116658936189369e-02 -5.1603802488287442e-01 4.9761359708272633e-02 -2.4139684275103601e-02 3.6704520407119828e-02 -3.5623488511052059e-01 -9.7971480963829904e-03 2.8948175663286406e+00 -7.8399481170749752e+00 -6.1849397052424515e-01 -4.7920819235254575e-01 1.0211963347420565e-01 2.7030627956073439e-01 5.5029367936184377e+00 1.0131376915996100e+00 -3.6045691420637240e+00 1.2537490335807197e-01 -1.2827917169249553e-02 4.9562174408029591e-01 1.8759328112148607e-01 -4.6797482015636249e-01 4.3658069917970699e-01 1.4895157856483783e+00 -1.9841256591395193e-01 1.1360679572333904e+01 4.9936829144865769e-01 -8.7056315648609262e-01 7.5352953481377938e-06 -1.3873636851842974e-01 5.5401535481564679e-02 2.0510027944510512e-01 -3.1536569268864696e+00 2.0905377293329366e+00 -4.0262180868585240e-02 3.6853278203968845e-03 -4.2542781672614183e-01 -6.2722034715398334e-02 1.9808446375617450e-01 -2.3597073318159273e-02 3.4972230089078948e-01 -9.3078430859435457e-02 4.8629485082346946e+00 2.4221777140865015e+00 2.8355057386955140e-01 2.9192542504539998e-01 -1.8432823105872090e-02 -3.9336664257838549e-01 -3.2667884201863471e+00 9.7480874537251445e+00 -4.1750266139012524e+00 -9.4390323402439524e-02 -1.0254008629467501e-02 4.1478353014144886e+00 -1.6457151818868748e-01 6.9183007097449456e-01 -1.6056429781909731e-01 1.3670174356212903e+00 -5.4751041432242742e-03 -2.2384318900943953e+01 -2.8182189064002716e+00 -1.2024354456709258e-01 -1.9208902506782333e-01 5.2654126169448916e-03 -1.1693043503271627e-01 2.9445007503131948e-01 1.2233038728606628e+01 8.9976656237407688e+00 8.2888559231066486e-02 -1.8616496671578275e-02 5.8016559540706414e+00 -1.5145289814778317e-02 -3.7487893003210759e-03 8.7040434887640572e-02 7.4333586349492240e+00 3.0793514402167654e-01 2.8425240894414067e+01 -2.4298525598019327e-01 3.2707718198379243e-01 2.9722245731653163e-04 5.8120682000798274e+00 
      </Row>
      <Row Index="67">
        3.2905527593465655e-02 3.1267004411502057e+00 3.2925430855284503e+00 -6.4864326684421869e+01 4.1084621483052615e+01 1.3725657707376770e-02 -1.6230694743349136e-02 -5.5743775633352925e+01 -9.4648770457297360e-01 4.1826677208518959e-01 -1.5035371376124068e-02 3.3612593816934577e-01 2.0397902515169335e+00 -7.8271066811594743e+00 -3.1496188727173831e+01 2.9373907940071781e-01 -1.1558809336813738e+00 -1.5037806108430232e+00 1.5274132262521789e+00 -1.0819476928034941e+00 3.7860479099730583e+01 1.1647649304568768e+02 -1.5195660763067842e-01 4.9281486338286273e-02 3.2479020620275207e+01 3.4977424486387293e-01 -2.7014298812900961e-02 -1.3866777254335716e-02 3.2903385821928310e-01 9.7171358716985345e-01 5.2048822711382741e+00 -3.6680453262820727e+00 8.4395574597659562e-02 5.5836504542789305e+00 -4.5528761429852693e-01 -1.8351840860646007e-01 2.6486188564749682e+00 -2.4800454023131169e+02 2.6218478330411017e+01 8.0174952011759615e-02 2.3356552713877404e-02 -2.4638777759857476e+01 1.1835973757439271e+00 -8.8157433501919513e-01 -3.6203701018777679e-03 4.2239512145388289e+00 -7.0529328965949389e-01 -2.1628311559406939e+01 -1.3751244675008138e+01 1.7361421525225751e-01 -2.6620142547196984e+01 -9.9987143321110250e-02 -5.6270797300957005e+00 -1.0623518494467135e+00 1.3495922260348016e+02 -1.1882141374051571e+02 1.3418372453025867e-01 -3.1725350284877496e-02 -5.6613512240641285e+01 5.4640098343715482e-01 -5.2533567842035289e-01 -3.6330158991569994e-02 6.5505283623521109e+00 -1.0110312586949188e+00 -3.1777561095514102e+00 -3.3874603982912959e+01 -8.6243083505470150e-02 3.9094134811319982e+01 -1.2916621514266202e-03 -2.3497140424019456e+00 -2.2566364232025080e+00 6.3780423163443629e+01 -1.0809823274984956e+02 -1.5794166504702967e-01 9.8104453243937351e-02 -9.4605645215924596e+00 -1.2329774049850926e+00 -4.6781007329182822e-01 -6.1969372112378643e-02 3.1926849490628229e-01 -5.1188927478506230e+00 8.7112626205199106e-01 2.4036704532683743e+01 -4.2209561249979557e-02 1.3541525643364920e+01 1.1322826100720460e+00 -2.5108869018731639e-01 -2.4537965409697033e+00 1.6828268974302773e+02 6.5898226395947859e+01 6.9275907052957553e-02 1.4747822149292406e-01 -2.4674382349571715e+01 -8.4921023400828033e-01 1.4231520433480573e+00 -1.0586749797836931e-01 9.5823301486234413e-02 1.4357605020673176e+00 2.8277432572194812e+01 1.9999027058656793e-01 -5.4885106108826331e-01 2.3383679201107043e+01 -6.9260318395502563e-01 4.7137469458330123e+00 -9.7443803629434189e-01 -7.8124179388217001e+01 -1.7802925760519884e+01 7.2239473949884891e-02 -4.8340198431599907e-01 -5.8674740181679539e+01 -2.8088906834401177e+00 -2.6108449275195436e+00 2.1172171621462246e-02 -2.2322345101833029e+01 2.2677313761182525e+00 -3.2142116729879191e+01 2.5066766979433410e+01 -5.2644714086340449e-01 -1.3895380128805952e+01 3.2389649923316721e-03 2.5175260987879433e-01 -4.8784835227218082e-01 -5.4804163686673192e+01 -4.1723337533883750e+01 2.6787722812236026e-01 1.8127449059985895e-02 4.8957813948570305e+01 1.2229723592003616e-01 -4.1604329830065616e+00 5.8935901329946028e-02 1.0397371424816191e+00 7.7625512490642867e+00 -5.0948762585548901e-01 -3.2000930722746546e+01 -1.4982949204706600e-01 -2.6836941119320255e+01 -1.3918320231915318e+00 -2.2637201316458500e+00 -9.7968720226648376e-02 -2.1887534436884511e+02 -8.5451699822512637e+01 1.8775269159167207e-01 -1.0465642883876403e+00 3.3909842789347749e+01 -7.3985263937140822e-01 -2.1863206434045535e+00 3.0562126806797790e-01 1.1090582239930562e+00 4.7564431520635564e-01 -4.5892233566492528e+00 1.6751705898658571e+01 -8.4500192019312248e-02 -2.1918267849745774e+01 1.7637390068602228e+00 -4.8310137461183222e+00 5.0641224693617204e-03 -6.5991462531105583e+01 1.0864526724138614e+02 7.6894404838726005e-03 -1.8657590830549786e-01 -6.6071302152909482e+01 -2.8574884895662656e-01 6.8120315030957634e-01 -2.9269524795412255e-02 5.3511835235175340e+00 -8.4728265757336629e-01 -2.1507750199555161e+01 1.0573756941433483e+02 -4.7430863697873005e-01 5.5323112932661633e+00 -8.1310596949801117e-01 3.9220048143150401e+00 9.1694953231829723e-01 -9.5644496269774692e+01 1.0259019471323882e+01 -2.3280638581646376e-01 8.1145320080206210e-02 8.6667391902135904e+01 -9.1051546845600273e-01 -2.2130129587746969e+00 5.1698596991813162e-01 4.2759610316131216e+00 -1.5708742035691738e+00 -8.6730548050790759e+00 2.7709723097322279e+01 2.8546291950655500e-01 -2.1619227648776956e+01 -4.5869195233433402e-01 -1.3670120864699129e+00 -7.9121089507316356e-01 6.3808795529359486e+01 -8.3474611590970653e+00 -1.7455861825345398e-01 1.5359936179328937e-01 -1.6841978316635505e+01 -9.1566394659807537e-02 1.9225527624644201e-01 -7.4852175841738589e-02 -1.0160052411083598e-01 2.2921462209545780e+00 9.0430475931207184e+00 5.7137730766989989e+00 4.9153864958175575e-01 1.7492395162269830e+01 -1.5295653140061760e-02 4.6328998870056797e+00 -3.6363480344701635e+00 2.5961970299248503e+02 3.0560416265726417e+01 1.4385809690043316e-01 -6.2157023252782634e-02 -1.3574659802449605e+02 -1.2088682999564870e+00 4.1571646246650360e+00 -6.7566221005782912e-01 -8.1089865289541791e+01 -5.7756624402859380e-01 -6.7144098904212257e+01 -4.6238071143919290e+00 -7.6182806452562257e-01 4.1924216236819092e+01 7.6118964857896793e-02 1.6996121303908279e+01 3.0473803525254528e-02 5.7771149262046481e+02 -2.7603817022385266e+02 1.0903975855830961e-01 -1.2157506560312470e-01 -1.4037391401863255e+02 -2.2653395218966688e-01 6.6631682695258654e-02 1.6452694620400117e-03 -9.9480265296279356e+01 -7.1794331950504819e+00 2.2845008266045409e+02 -2.9681726995477874e+01 1.4768911252952427e-01 1.1336516339429554e+00 -6.1031518167217243e+01 
      </Row>
      <Row Index="68">
        -2.6402926867385407e-02 1.6131822584724631e-01 -6.9834109209296003e-02 -5.2265422960767083e-01 -9.9436663569576922e-01 -5.3799819836240284e-02 3.1949328321633830e-02 -5.2511264450577073e+00 1.4796892450396404e-01 -1.9168119197755118e-01 4.4110540281023347e-02 2.4580398324002317e-01 8.8960596141646420e-02 1.4135189046848851e-02 3.7556913396503546e+00 -4.8414434969828030e-03 3.9313161742974501e-02 8.9705352260294546e-01 4.1278414625097071e-02 -2.8268111108752922e+00 8.3765429756226695e-01 -8.0617578701931052e+00 2.5143448245655481e-02 3.1982240821936084e-02 3.0944614110623618e+00 9.1378783706551489e-02 -6.9537405417344189e-01 1.7941638640000424e-02 -4.2487702731265848e+00 5.6936200448975605e-01 3.2516244051770080e+00 -1.3761455894666170e+01 -1.3752528690760313e-01 8.1981947860786653e-01 -1.0613261299980437e-01 3.2336357919753311e-02 1.3139827130002573e+00 -1.2036335183274787e+00 4.3200647781050066e+00 -1.2724370087362047e-02 4.7125375484451074e-02 -5.5534907584260509e+00 -2.4514412336102281e-01 5.1283638931745656e-01 -2.1987896950929953e-02 -1.2216143618079514e+00 -4.2910068116233901e-01 -1.4697101886664541e+00 -5.6664012658600313e+00 1.4620931530428294e-01 1.0246422368068457e+00 6.8665180364641765e-01 -5.5086755122029885e-01 1.3765409070373380e-01 3.4346011801653731e-01 -4.0364144436171046e+00 4.5682326963919273e-02 -9.9898846772454863e-03 -6.3403961237545445e+00 -9.9342407505798397e-02 -7.6584230933809239e-01 -1.0200984853865908e-03 -4.3740749249577604e-02 -5.3762106120653153e-01 1.8580634292235914e+00 5.2038590890738305e+00 2.0602190226261474e-02 -1.2916853487554558e-03 2.5973984288315153e+00 -2.4386262102771283e-01 1.7571298099412047e+00 1.6079339228167555e+00 4.3967128776421305e+00 2.3541488572260127e-03 -1.4579269033394801e-01 -1.7984135914871331e+00 4.3601114230398252e-02 -2.1815419716416784e-01 -2.2481519590073450e-02 2.8057697025610651e-01 -3.5704863108250606e-01 1.8217668347933444e+00 -1.0396128580166929e+01 6.8295363664980208e-02 1.4355707861169398e-01 8.0444887324518266e-02 1.8985460186513592e-02 8.5192577984517570e-02 1.4890168666745467e+00 -6.6954532340459991e+00 -1.3480715614543864e-02 -6.7013605924198361e-02 -1.4818834017078473e+00 1.4311116825426778e-01 1.6277198425756795e-01 -4.8374153361324612e-02 -2.3518710734788328e-01 1.7752217817308447e-01 -3.0402788602771125e-02 4.7012032462357638e+00 -2.0009804356435634e-01 -1.0409267250565222e+00 7.8533670206557371e-01 2.8881040552505577e-01 -3.3753028953873443e+00 6.5123210864669545e-02 -1.6860607430753589e+00 1.6754953368411674e-01 -3.9123882923395317e-02 -1.5502837997303907e+00 2.7918286848256879e-01 -2.7531839206985897e-01 6.0145709397955494e-02 -1.4929830854956450e-01 -6.1662007136291841e-01 7.2906726027546203e+00 1.2106215963527575e+01 -1.2234400173814014e-01 3.1442941155651671e-01 -6.9467104654260514e-01 -1.6862536170999531e-02 2.5233638825811795e+00 1.5823206754978525e-01 8.8451677458797349e+00 -1.0062963359736976e-01 8.4912656702698541e-02 1.1861635934218107e+01 -2.1386231065399092e-01 -2.7469724392683537e-01 4.2921184278838440e-02 -4.5445136872842795e-02 5.8482143811187504e-01 -9.1883281808379458e-01 1.7851995180708485e+01 -5.2754981611048725e-02 1.1431557883713528e+00 4.4829876348535647e-01 -3.5746195708196488e-01 -3.9494743512059980e+00 -6.6908286646224653e+00 3.3274678120765202e+00 -2.2393751147743612e-02 9.0130871238476781e-03 -1.3417206235130834e+00 2.4407941024578012e-01 -3.3541389661602850e-01 -1.2002358381008209e-02 -1.8110394601889954e+00 3.3682208744062980e-01 3.7052782144773033e+00 3.6269435460970989e+00 1.2828275033374462e-01 1.3788828996084557e+00 -2.8518669600938684e-01 -9.6108614245651314e-03 1.1633835131938639e+00 1.6959759670979153e+00 -7.9838622478800971e+00 -1.5123421506784751e-02 -1.2605076118226050e-01 -4.8963930440749337e+00 -5.0044343863176688e-02 1.0879399335257740e+00 -2.2433927896205158e-02 6.2365385860600373e+00 -4.4002949653030710e-01 -9.7247475637586511e-01 -1.6883084941836032e+01 4.2718398266810481e-02 -1.3457204718146247e+00 7.9646310223552697e-01 4.8414960796488449e-01 2.9796420048726451e+00 -3.4840658628706258e+00 8.4560910851057969e+00 2.0460945008226778e-02 -3.5324496579061802e-02 6.0026061712560868e+00 2.0438914135555614e-01 -1.3306618767010459e+00 -1.3900318068679196e-02 -3.6295431426761837e-01 -1.2743463066910965e-01 -4.6130787295346636e+00 -1.5616067232961109e+01 -1.8949817305632013e-01 6.8400947474058849e-01 5.2233381495411280e-01 6.7874652477286190e-02 -4.4794737766866319e+00 5.2661371398062329e-01 -1.2798517496044042e+01 6.4821529205605355e-03 1.7050289724765820e-02 1.1431845212018743e+00 1.4042368950059936e-01 -7.2837995798069244e-01 2.3945865260594106e-02 -3.4590301852722405e-01 -2.5537762549390663e-02 1.6358561649849435e+00 8.6381067309093851e-01 1.8560290634083376e-02 5.4335358496301644e-01 6.9343083208308939e-02 -1.8828997344688148e-01 -7.8709207043945710e+00 1.1111137349859272e+00 3.0814055789253416e+00 1.9872205819306518e-01 5.5424546578901182e-02 -1.1530698049878083e+01 1.9294335220091496e-01 -1.0458667252617737e-01 6.3547854012602101e-02 -1.0139843155280696e+01 -3.9990944210302348e-01 1.3936123831596635e+01 4.4955557427508275e+00 -2.2629035780282467e-01 -9.1046930047268848e-01 -4.9275306726025897e-02 8.2590178028543926e-01 1.1480830760917476e-01 -3.3761085006574509e+00 -2.1651648760265161e+00 8.5391915898925738e-02 -2.0696856829441557e-02 -1.4374105114256276e+01 3.4168444358033609e-02 2.2627227615463832e-02 1.6261523272973723e-02 -1.6625051612795346e+01 -7.5818019060348063e-01 -1.3918288347879514e+01 -6.7193606370346046e+00 6.2098359385500831e-02 -3.6337642967104483e-02 2.3087617256577349e+00 
      </Row>
      <Row Index="69">
        3.6972484510364423e-01 -4.0837487640337713e+00 -1.0528852479583293e+00 7.6965844266365657e-03 -7.2318831639975542e+01 8.5542549913063426e-02 -1.1890051456395115e-02 4.9768600996012538e+00 -2.2228111317962804e-01 1.0753120269496321e+00 -7.9850535626503488e-02 3.6096280382232919e+00 1.0281463049700506e+00 -3.4273404279150910e+00 1.1473726826801339e+01 1.7625377561077119e-01 1.2930033607400446e+00 4.0611064195113045e-01 -6.2652498047773975e-01 2.2574425538521057e+00 -3.0580539995771687e+00 -7.1660239048767835e+01 2.2919469250672120e-02 -1.8012583319379272e-02 -1.2701357334237677e+00 3.4999252631200406e-02 -6.6169376284960890e-02 -2.0985127298374096e-03 -8.3728724540347201e+00 9.1698502230888890e-01 -3.7017726944103515e+00 -4.8706108550359923e+00 8.3897045471051368e-04 -1.2201032211449275e-01 1.4862346675192839e-01 2.7944521115208545e+00 -1.2683417587095391e-01 1.2841947862456436e+01 5.8481910673726816e+01 2.9305550720664542e-02 -2.2549640138365426e-02 4.1142046202294296e+00 2.5048491869829737e-01 -3.6575396147554784e-02 -4.2322444869915543e-02 -7.0412277387536051e+00 1.7430431212278563e-01 1.1009489114885582e+00 -4.4169416348613595e+00 -3.3446746087008705e-02 9.9055481559159497e-01 -1.6820007159847883e-01 7.2614959448583942e+00 1.7372595673496107e+00 -6.7425770286699844e+00 4.7141865468584001e+01 -7.5666677618234202e-02 3.7288627508950956e-03 6.0422436819644645e+00 1.1192954244389916e-01 -1.4007363971662246e-01 -1.2100510573620805e-02 -6.8966993217130366e+00 -3.4959911326169215e+00 7.5095821991362754e-01 -1.6776358886127127e+00 -9.2349517350475946e-02 -2.3497141002187543e+00 -2.4386261937510623e-01 7.3348175445700008e+00 5.3512295771997742e-01 -3.8034782462600560e+00 -3.6477685545361601e+02 1.5294219307004597e-01 -5.9993348426779176e-02 -3.2000528675489477e+00 -1.8071136993907544e-01 -2.9283272864578880e-01 7.7426075021189231e-03 1.6406186914973659e+00 -6.7486687648852239e-03 -1.3187505440166456e+00 -6.6167863230383759e+00 9.4288561825143988e-02 -7.6966239385517166e-01 -1.6158706797617517e-01 -1.4026600329457324e+00 -8.8379417407016891e-01 -9.9026497968588956e+00 -2.2993246577563696e+01 -3.6784938446646681e-02 5.6254707489968844e-02 6.6323003211894047e+00 -1.4065323881762470e-01 3.7761270124096358e-01 1.8561227134030850e-01 -3.0240287324977544e+00 -4.9523811187168576e-01 5.3343338777494864e-01 8.1397657952220470e+00 -6.2157899706685241e-02 -4.7903972562380659e-01 4.5982562530042337e-01 -7.2709248971535922e+00 1.1092633164005457e+00 -5.8434242176293267e+00 5.9489870065058312e+00 3.4655954286614762e-02 -9.5266371376917514e-03 -2.9589877098328110e+01 -1.2221563406680686e-01 3.9051332290389418e-01 -1.7357574872529306e-02 1.1579924411453650e+01 5.1431920075505646e+00 2.3343644237306691e+00 6.1432948209506577e+00 1.4435138662744515e-01 1.6522801189366305e+00 -6.4073884680155513e-01 1.5008314580723416e+00 7.5415486091560169e-01 6.5107929898016152e+00 -3.2642905545420945e+01 -1.2769140325090189e-01 2.1711736570985476e-02 4.7972784896652598e+00 -7.4581565003040556e-02 -7.1788558849219530e-02 -3.1115777994435424e-02 -7.4450704842681610e+00 -5.8394261364029534e+00 2.1001338752445182e+00 1.7961513260140066e+01 -6.2163873215710416e-02 -1.7490531766647295e+00 -2.1901557397519045e-01 4.7750493968632277e+00 1.7310021597964789e+00 1.5924284361932557e+01 4.6734436259425138e+01 -1.1590472476396550e-01 -5.0367413347307814e-02 -2.5738868087973970e+00 -9.5690912776390802e-03 -6.4490043760011373e-01 4.3401407019808505e-02 -8.6245312549448485e+00 -1.5883723443523792e+00 1.8181270710601529e+00 -1.6393442491134369e+00 -2.6488086855127779e-01 -1.1354083128500974e+00 -3.0918787682740428e-01 1.8749161756580248e+00 -1.1681390672993821e+00 4.9978481905170327e+00 -5.3921451980642814e+01 -3.6329631504762483e-02 4.8811252269061356e-02 9.2282683808447814e+00 1.1592178072460452e-01 -5.3457357880935152e-01 2.8381676078310450e-02 3.7207798475845308e+00 -1.8023654381362268e+00 4.5292138723693833e+00 -3.0917445688129590e+01 -5.2966545819067297e-02 -5.9602362734731051e-01 7.9726928807477360e-01 -1.2756077686440581e+00 -4.2458089295418091e+00 2.9876024897647264e+00 4.1325559313240774e+00 3.3711176315777092e-01 2.6437589902662206e-02 -2.7592652012618807e+01 -1.2076930398788119e-01 1.1188558740252192e+00 -5.2818117838668854e-02 2.4326110555432012e+00 6.5742206945162742e+00 -4.7517079500496857e+00 -1.4432136734511300e+01 3.1727640882494546e-01 3.2147737841003261e+00 1.6218962497072198e-01 -7.7990709188225082e-01 -2.1607925481657730e-01 -1.3330686809495091e+00 2.7302661654473923e+01 -6.2867032798521905e-02 -2.3485165431004981e-02 4.4782763406547019e+00 9.8697476702208631e-03 1.7822438560995124e-01 -1.0340620541341355e-02 5.7630907581915380e-01 -1.6677118488591987e+00 -2.6424633005808573e-01 1.3970935703815485e+01 -4.6586114567265469e-02 -1.2531461920169900e+00 4.8006446471692632e-01 -1.2365298336095911e+01 4.6868869988825583e+00 -2.0599447712561691e+01 -1.9958586735839617e+01 -1.9891437134312678e-01 -3.0475607676726364e-02 -2.3738190914016741e+01 -7.8700832274659405e-02 6.6343375583168585e-01 6.2262082728463092e-02 8.9284253425430506e+00 7.3224442123546014e+00 -1.8679718208831817e+00 1.5752545799931671e+01 -7.6225492923818111e-02 -8.5608972804757766e-02 -1.2318220417834683e-02 -2.1141916145981877e+01 -1.2137612923539665e-01 -2.1677726518193793e+01 3.4749170832015125e+01 6.1648097342754005e-02 1.4143452728934136e-02 -2.7079322510754480e+01 -3.8728311959396119e-02 -2.6814365120220618e-02 -3.6667672942114080e-02 -1.3453343803631633e+01 -7.4915275924237505e+00 3.8097254324700511e+00 -9.9611004274428527e+00 -2.8544205608458148e-02 -3.5909979470087006e-02 -2.6718777981223258e+01 
      </Row>
      <Row Index="70">
        1.2227759318672833e+00 -1.7570674647954547e+00 -1.7383666644119876e+02 2.8257048904051416e+01 -3.9597966081462801e+01 9.6329004923342731e-02 -1.9360894120557326e-01 -8.8925838051894971e+01 -1.4326664834003398e+00 -3.0413462519691166e+00 4.9543830758591428e-01 -1.8170717961700802e+01 7.0370563750893780e+00 -2.3057355382422310e+02 -1.4793231339124941e+02 7.2877222599892855e-01 -3.0914011125678371e+00 -2.9441329743463029e-01 -1.9855413998251379e+00 -1.7412558420539827e+02 -1.2568987017577456e+01 -5.4653022596798837e+02 -5.9306451793036219e+00 -8.6978717915593695e-02 1.4387910449085496e+02 -3.5075933710999840e-01 -2.8591821001155040e+00 -3.7778130202468674e-01 -2.6852205462718956e+01 -5.0808349400234238e+00 -7.8039315227220754e+01 -3.5609092270611524e+02 -1.8072991957850337e-02 -7.1756955219294563e+00 -8.5060244624173720e-01 1.0909779452335897e+00 2.5669263282167776e+02 8.7474558715184685e+01 4.0119197310344316e+02 -2.0986121845896832e+00 -2.9623351074451071e-01 -1.5195788746222388e+02 7.5140243397174289e-01 2.5597002042422901e+00 -1.1025862036938605e-01 1.4292661383946324e+01 -5.0345728484253414e+00 1.4031719397274173e+02 -1.4131692006849335e+00 9.4813013219197728e-01 2.9050773998313097e+00 6.0764307030226306e+00 -6.3903657327143302e+00 -5.6904948755145597e+00 -5.4773534158681286e+01 -4.1825280742719769e+01 3.0742377879765970e+00 -3.5018011122540993e-02 -7.5894777558336500e+01 -9.4932169491989793e-02 -2.2214147564229307e+00 -3.4566496483704384e-01 -1.4784533613192252e+00 -4.0652909489458047e+00 5.1316673183391686e+01 -1.7475673088803887e+01 1.4393902655245288e+00 -2.2566356068782092e+00 1.7571298236172788e+00 5.3512287726607610e-01 3.2438269974303330e+02 -2.5343133844740805e+01 4.2599007861223072e+01 -1.9528190798738150e+00 -1.7162097276140409e-01 -1.8486684351781150e+01 2.8334431255848358e-01 -2.4316629894236712e+00 9.8152844498909625e-02 -2.0646191361011006e+00 -1.3630754321249697e+01 9.2077209220219260e+01 3.1398940052220226e+01 -4.5903389090323143e-01 5.5604057768822468e-01 -1.1155723181009769e-01 1.2002592814460513e+00 1.9864793822854786e+01 -3.5330974713753676e+01 1.6883574943011627e+02 1.1043949588309487e+00 1.6330807014957760e-01 -8.3136274241423962e+01 -4.8626109083896141e-01 -2.3035146819313113e-01 -6.5884189581192443e-01 1.6795334145332163e+01 1.2264765772197023e+01 -7.0146780084714919e+01 9.3206761834597273e+01 -1.4196062952493875e+00 2.5361968746246930e+00 3.3023662086286336e+00 4.8435355795896093e+00 3.8394355796183379e+02 1.3275713324496945e+02 -2.3696953119468162e+01 7.2079040649765762e+00 -3.7663151590191402e-02 2.2735105756640451e+01 5.3148460149847154e-01 3.2917525451260863e+00 9.9699818555376774e-01 4.0428391353105894e+01 2.2216840614076048e+01 4.2982285046666885e+02 2.9295929368255372e+02 -5.8006635510875004e-01 5.4380946223968465e+00 -1.5804576665647607e+00 1.5223781663926772e+00 -2.2604868234906441e+01 1.2669386125101767e+01 -2.2114752204716206e+02 6.2723202413120616e-01 -4.7469553020760663e-01 1.5487249737729871e+02 -6.1791405998709414e-02 -4.0465785081044103e+00 -5.4006867292552674e-01 -1.3595510736584700e+01 1.6056879854728610e+01 7.4153350727409816e+01 4.6166520059563072e+02 2.5685646438443555e-01 -4.3207734432396734e+00 2.1346858872996299e+00 -1.3489006169200568e-01 -8.8957791118393743e+01 3.4718395623246096e+01 -2.0674080291613791e+02 -7.7338741439507608e-01 1.6565756094794248e-01 1.4263438813846733e+02 -2.7720149565290075e-01 1.5621094885088400e+00 -1.0962372496703727e+00 3.8913314134523009e+00 5.4566091574702114e+00 3.1268103111449363e+00 -3.3770874109536351e+01 2.2890249857108302e-01 2.2291117805702392e+00 -1.9909033005028842e+00 -1.4737309636342601e+00 -5.3424458430155283e+01 -3.2950209606037788e+00 -2.0831256449045759e+02 -3.3077515065163450e+00 1.1214771166196726e+00 -8.7454269855077200e+01 4.8898414963206238e-01 -5.4057024731129566e-01 -7.6996911664163115e-02 -1.1900340235005160e+01 -1.3270786818665954e+00 -1.4614137579107680e+02 -2.9116932576029308e+02 -1.5319581630417054e+00 3.6083382046833385e+00 1.2171039834468580e+01 -2.8134317978195753e+00 3.4617424396150369e+01 6.0277665129828620e+01 2.0111849260601957e+01 8.8518816126109687e+00 -3.6957147322146300e-01 -9.2210604004928314e+00 4.3513635857133182e-01 1.3486953223736222e+00 9.3994063956428775e-01 -3.5194361239297407e+01 -9.4042851622972883e+00 -2.3538172576117216e+01 3.7252189943866370e+00 -2.2542319936701549e+00 6.4291926649608477e+00 -2.1580123082483169e+00 1.1209663175905007e+00 -1.0739541914188885e+02 -3.3270693389815278e+01 3.2553871939540841e+01 -5.5524775264763093e+00 6.7436542737822305e-02 -4.3874862123277126e+01 -1.1217397264481921e-01 -1.8206281283987664e+00 -2.2920526239970318e-02 -3.2800955539569259e+00 5.4370041582451449e+00 -3.7014994241879322e+01 -5.8730079952860251e+01 6.9913513798624649e-02 -2.1376637070586746e-01 -4.6823987658474113e+00 -3.1520151888949028e+00 1.6628188348108071e+02 -6.3063206788892657e+01 -2.7331504765514183e+01 -3.5011651400059547e+00 1.1457831761035964e-01 -8.6592521054524696e+01 -1.3006419585800941e+00 -2.1245505481142910e+00 2.2770279002545957e-01 1.1234693650858816e+00 3.0237191351904002e+01 2.1204684924894624e+02 -2.1944202373041443e+02 1.5307286600475540e+00 -7.9194154746745724e+00 -9.5021262361576431e-02 -5.8125266841762624e+00 3.7398143881223334e+01 -3.1408516274919572e+02 -2.9819145387913011e+02 6.6196031265663233e+00 2.3352077973341068e-01 -4.1297093382417199e+02 -1.0233559866744601e-01 1.5213133830978443e-01 3.1104210523529990e-01 -7.3819878932381442e+01 -5.1481633738862186e+01 -6.1599122632833564e+02 -1.6295570169008229e+02 3.9480985908993815e-01 1.0017482637771202e-01 -1.0334384832267803e+02 
      </Row>
      <Row Index="71">
        3.9648398513988070e+00 -2.2060030169086531e-01 5.2374889289494604e+00 -9.2370049808932094e+02 -2.8479461894044653e+02 4.4096141328345251e-01 2.8751884606944089e-01 -1.0046764685120434e+02 -1.6838939401971960e+00 -6.5202404727097019e+00 4.7561812954548488e-01 -7.7789225961123520e+00 -1.3916439570079092e+01 -3.2629183812272402e+01 9.8765746834353195e+01 -3.9020044758068417e-01 -3.9911474723096035e+01 -2.7386272301764620e+00 5.3895073793419215e+00 5.9788185874721151e+01 -1.9514307632716373e+02 5.3588234880566597e+02 2.5228537767382431e-02 -5.3230163563860333e-01 7.9419607883777587e+01 2.0895342922191600e+00 -2.3263151978608221e+00 -5.6356826681064831e-01 6.4147203858303783e+00 7.8348200078903574e+00 -3.9676935745527771e+01 -2.6201225812317023e+02 -1.8796761466283922e+00 3.7516421828863244e+01 1.0114028214629798e+00 -3.9529980208881170e+00 -6.3511067280225689e+01 -1.6670462910255883e+03 6.5053566759452224e+00 4.7928515745661571e-01 1.8871566229941467e-01 8.8041611537337303e+00 2.5332330457058538e+00 6.4627476640816894e-01 1.2694527633823327e-01 2.8924744359668694e+01 -1.0173705231864005e-02 -1.1820702615774644e+02 -3.4318842991167912e+02 1.8945821618935952e+00 3.9078378988443454e+00 -4.7661461274088914e+00 -3.7053011230884216e+00 3.3264029453057447e+01 1.3810448853061534e+03 -7.4665906363725662e+02 -8.7430420745544524e-03 -4.8411413948352217e-01 -7.4441155824344605e+01 9.2928049456543693e-01 -7.4645915558294007e+00 -1.0740108406190290e+00 2.0329922733286367e+01 1.5237576530085349e+01 -1.3695170292061812e+02 -1.4294598746963311e+02 1.8695895225357409e-01 6.3780422283165208e+01 1.6079341367874793e+00 -3.8034773752660840e+00 -2.5343147886087536e+01 1.7797800100229797e+03 -3.7844675424322486e+02 -4.5885028637887793e-01 4.9814496937818076e-01 -3.4828461027005687e+01 -2.0544784197618355e+00 1.2935263547562812e+00 4.5792845684147210e-01 2.0464767704572296e+01 1.2010816063178936e+01 -1.2585368942516375e+02 -1.9617755009509213e+02 3.6048506063892816e-02 -4.7247964230504181e+01 3.0458843954725090e-02 4.5506433132686652e-02 6.3133408745594807e+01 1.4710451060543419e+03 2.8572645156644285e+02 -9.1369021717747201e-01 2.0835539786058010e-02 -7.8612187561200699e+01 -2.5841132795840775e+00 -2.7090376359410584e-02 -8.4044224727967010e-01 1.1471246622008039e+01 -3.7253491180870242e+00 2.3176580237744201e+02 -3.7209480138437357e+01 -1.9423170656271793e+00 -1.2864085126995633e+01 -1.0685980699473658e+00 1.4112140293971756e+00 1.0555203448867118e+02 -3.9130088163365622e+02 -1.5177541424972424e+02 -1.2337444898277594e+00 -1.7641280991754686e+00 -4.4541278725453049e+02 -1.2434871965862069e+00 -1.3019261113574636e+00 -7.1350047354124879e-01 -7.5460589623253327e+01 -2.0281567829993580e+01 -5.3335075741320770e+02 5.5997467995490501e+02 -1.5563467782231308e+00 -1.8100466507489777e+01 -1.6051748998728885e+00 7.7548444384511752e+00 -8.6133144380996853e+00 5.4385736153775071e+01 4.4204496501013637e+02 4.4727235836632717e-01 1.2758385235379781e+00 -6.1727117387946237e+01 2.1263180366705310e+00 -3.9094107235548048e+00 -3.6694529988340069e-01 6.1626651164458025e+01 -2.1698203058854524e+01 -8.8402901188257346e+01 3.1160284994473989e+02 -1.3822259555259447e-01 3.2121777804432178e+01 -3.3020984854981208e+00 -6.0050122659942389e+00 -7.1027405681248609e+01 -2.2100871751769355e+03 -1.3219703668349894e+02 3.9692434669047727e-01 -2.2770522775073734e+00 1.4564461429044604e+02 6.9128183760783735e-01 -7.8393519111063625e-02 9.1657739758962520e-02 2.0063995689824083e+01 -1.0434122910748670e+01 -5.8212458164238640e+01 1.5676842111287559e+02 -4.6568871487765229e-01 -1.4561760488045660e+01 6.9365522248347524e+00 -1.3566650353192756e+01 -5.7641467777477523e+01 -4.1643866152015994e+02 6.0606557527665063e+02 8.2710564651580798e-01 -6.7206419250720728e-01 -2.3613409040095439e+02 -3.8071487786186866e+00 -2.3374879217758036e+00 -1.7998926323424835e-01 -6.3499451179181960e+01 -1.6117038860122847e+01 -1.4535168946799388e+01 2.8930616232924376e+02 -1.3861607970858434e+00 -6.3035738186711718e+01 7.0162589626709799e+00 -9.6219864811392135e+00 2.6743520886719992e+01 -1.0244236191551954e+02 2.5292641805635503e+02 -1.7278948050749343e+00 1.0859094289224960e+00 4.1092142525307088e+02 -6.0737177449523667e+00 -1.3796853578808602e+01 2.9890990859258295e+00 -6.4778487053658750e+01 1.0774442674188016e+01 -8.9814735667073080e+01 -9.0288934386489814e+01 -1.2077074514460371e+00 -1.0187540287521094e+02 1.3858068264653411e-01 8.2954575260373531e-01 3.8010855808417546e+01 2.9311612125486135e+02 -3.3006759025700012e+02 -2.3945104027262687e-01 8.2107307508131222e-02 -1.0986570728098741e+02 -1.0236333490774046e+00 -4.9170089945910149e+00 2.9708381688287439e-01 -3.3733601107960567e+00 -2.5974836339355534e+00 1.2562943676440045e+02 -8.7050113574601710e+01 9.9772206090830196e-01 2.2148292912723533e+00 -9.8759703258068878e+00 1.2629003655026890e+01 1.7453925458073300e+02 2.7531592610141774e+03 3.9178949157294528e+02 5.0396890304392294e-01 -2.5811939021294368e+00 -2.5381649428763194e+02 3.8176899528572257e+00 2.2822121513207008e+00 -4.4743920374521302e+00 -8.5270829555311582e+02 -1.4894528820107597e+01 -1.5530446868304748e+03 -2.1713437915607074e+02 -2.5393708713388756e+00 1.4784278508663994e+02 1.0662880975249295e-01 2.2829772711522764e+00 -3.6955375832451640e+00 9.3308794164323917e+03 -4.3081636878186100e+03 5.9287772997602772e-01 -3.4155863957312249e-01 3.2031373105242778e+02 -2.1133072582161364e-01 3.7819863648433127e-01 2.3384019646187165e-01 -1.3824361210971697e+03 5.4675952770011179e+01 4.1399075429746526e+03 1.5844337599600482e+02 6.4191514658889659e-01 -1.1192701688247411e+00 6.0690798722463921e+02 
      </Row>
      <Row Index="72">
        -2.7306926051571260e+01 -7.7395815946743824e+01 -4.1730403259443119e+02 3.0267688236501999e+02 4.0410112890914083e+04 -2.2655008197220496e+00 1.5818099166607738e+01 -1.6851143318135291e+02 1.6981454273310877e+01 -1.4732084598764777e+02 -6.6248543177850312e+00 1.2624300486897846e+03 -3.0004408025229350e+02 -3.3258859300065416e+02 -1.7779057122585364e+03 -4.3489048306871751e+00 -8.3895599004870746e+01 -1.2189220679661958e+01 -1.4638537385621748e+02 -3.6587290329552343e+02 -2.3797972172033042e+02 -2.0959732948541641e+04 -1.7357523249363290e+01 5.5926218722386611e+00 4.3038210124020525e+03 -1.7685729150393694e+00 -2.4452454581391066e+01 -1.3271602247550618e+00 2.9651824802702777e+02 1.4217035738361778e+02 -2.6479069595065084e+01 -1.4739856793973177e+03 1.8974966880804942e+00 -6.7173781498700976e+01 8.9359250910056289e+00 -1.1996875260549132e+02 1.2948198552541435e+03 1.7213589060232043e+03 -1.3839179418951273e+04 -2.3501393448314047e+01 9.3717374840848038e+00 2.3518424581140280e+03 -2.6734048727459715e+01 -7.6300041229696944e+00 -1.8755085138727736e+00 5.7617979970946908e+02 2.3344263625179883e+02 -1.5259581252140924e+02 3.7788590761255473e+03 -9.8090175854158588e+00 -8.5059231371069586e+01 1.7291993691167718e+01 -2.1095373766641222e+02 2.2156757527496666e+01 -3.6698969112150371e+02 -9.6496345552206039e+03 1.7280621166825505e+01 1.2705828056752466e-01 1.2019502359926701e+03 -3.0394549066107480e+01 -1.0140053013141271e+02 7.7829124429110585e-01 1.2588277170995716e+03 1.6006030158761246e+02 1.1853411753196269e+02 2.0079088254049420e+03 3.5362863743104533e+00 -1.0809827224584944e+02 4.3967121246602083e+00 -3.6477685573667986e+02 4.2598983573261648e+01 -3.7844725513271987e+02 6.1690063926637173e+05 8.0484817938679711e+00 4.9634994536326094e-01 -9.9983060940708965e+03 7.2943753221770748e+00 3.2906146962405728e+01 6.1009975942410186e+00 3.2984806417189538e+03 3.0698665304016322e+02 2.9953228792440632e+02 5.7405617961898051e+03 7.3361775817262043e+00 -1.0462183921857292e+02 6.9853700574101651e-01 -4.6224341587629169e+01 3.9500344227395618e+02 -7.0885806670226157e+02 -4.2792825324118137e+04 7.4748606347593229e+00 -8.4293276876709378e-01 -4.1192070221621543e+02 9.5975806157454784e+00 -1.4015685922338162e+02 -1.0423369062048522e+00 1.3713054943606257e+03 -1.4544389033141306e+02 -6.5914056083047763e+02 -1.3253319887463003e+03 -1.3665268455387100e+01 8.5901123008225113e+00 -2.7464045665706884e+01 3.2408849502758358e+01 -2.9287293570419638e+02 3.8143741300194415e+02 2.6723566215269384e+03 -1.4547982028609479e+01 2.2745217003937057e+00 -7.6488034764610384e+03 1.7895582181613655e+01 -1.2794410943685477e+01 1.6505791888688850e+00 2.9571238355099831e+02 -1.0105701978795416e+03 2.5904479713124374e+03 -8.0942051774494794e+03 7.5073029992519231e+00 -2.4464959905842534e+02 5.6068466391379552e+01 -9.1354745055102512e+01 1.7733290427712228e+02 -8.5240823624310593e+01 4.6180154245972633e+04 2.9966548985184644e+00 7.3811474576984013e+00 -3.4293557300342964e+03 4.4143464259297431e+00 -1.4228183964766916e+02 1.8470818820113866e-01 -5.6239382881363281e+02 -3.2261656607032455e+02 2.2383169348084175e+02 -2.3006794450160878e+03 -3.2265214995138258e+00 2.6977587310179871e+01 -6.9976199687106977e-01 8.3329330680274438e+01 -5.5817513983564891e+02 -2.7651594799790951e+02 1.1510334685163340e+04 1.4463267003786989e+01 -5.0240418250379406e+00 1.1409114538393915e+03 1.3926528732554923e+01 6.6305098301424493e+01 -7.0240989268854026e-01 -2.0255482016359224e+03 -1.7792222072352513e+02 4.3366606977603442e+02 -1.2899774254897720e+03 4.5970271483733134e+00 1.6472926225674072e+01 -3.6631010984269309e+01 1.3063233418396408e+01 -9.5673376872001313e+01 2.0875733936558790e+03 7.7694374276642222e+04 -4.0022123370849513e+01 -1.9261290644174082e+01 4.4183764617617835e+03 -2.0520748314580349e+01 1.0220790290861669e+02 1.5730244392839410e+00 -1.2694377484998922e+03 -1.1657924491125391e+02 -7.4350656529198659e+01 -3.8510131752453435e+03 1.8795258619571101e+01 1.5935901200012495e+01 -8.4632600188031830e+01 1.1015433775560007e+02 -8.9950053880763107e+02 -1.3713887249982251e+03 -3.2631149360203883e+04 5.2208298457270971e+01 7.5482262107851543e+00 -1.8514295389039151e+04 1.4285240001630878e+01 -1.5623933421673871e+02 -1.0648334684178511e+01 -2.4882316070444967e+03 -1.8874144700218358e+02 -1.7169719381061486e+02 2.1725765440158411e+04 -4.0124491671701463e+00 -2.1705468758909825e+02 -9.4967343486932805e+00 8.5240352211520076e+01 -8.4001558131538332e+01 1.8517163111269474e+02 -2.9837307216639107e+04 -1.9662117003429557e+01 1.3787455958036481e+00 5.1161442058365792e+03 3.7223530925962365e+00 -1.7071835430676583e+02 4.4913249526823851e-02 -2.3456044587865472e+02 -2.2772588671921403e+02 -7.9757506966590881e+01 -2.7036145017817616e+03 2.6684145413855731e-01 -1.2790686912171395e+01 1.5977129465907360e+01 -2.8377995653886865e+02 4.9039177194978083e+02 5.3552315849236047e+03 -1.2428185175869643e+04 -4.4756898071437043e+01 1.0456679882660911e+01 1.7056192406183109e+04 -1.1747582030766353e+00 -1.6385968840872499e+02 3.1395405685751854e+00 -4.0541287417905437e+03 -1.5755560641197776e+03 1.4214277299737089e+03 -2.1056938571985109e+04 -2.9336067391076011e+00 -8.0008763910566131e+01 1.8608300197727523e-01 -2.3197129599556160e+02 1.3107293545829268e+02 7.5386937730135596e+03 -3.0545342036114671e+03 3.0095430060378298e+01 -5.3074641092925958e+00 7.0965614493729108e+03 4.1374415491608021e+00 1.2757528263172713e+01 -1.5273678775618833e+00 -1.3281601733479685e+04 2.7961554384430856e+03 -1.7348627500061855e+03 -3.9241036206211038e+03 -2.1610709902522274e-01 -6.3218322421178641e-02 1.5170099042975458e+04 
      </Row>
      <Row Index="73">
        -1.2032972781932660e-01 1.4852122981052673e-01 -4.2805778374236070e-01 5.7562970766275612e-01 1.7330345529171609e+01 -8.1481718494697361e-02 6.8014438598909977e-03 -2.1048250330914016e+00 -4.2396462646268895e-03 -9.5364961149016381e-02 1.5767165218788896e-02 3.3055340943661449e-01 -3.9011791977875987e-01 -1.5174168755526669e+00 1.1029303468231774e+01 -7.2130341168119963e-02 -2.3472213076637161e-02 -1.0235785721386392e-01 8.5913934099441036e-02 -1.3736002259294255e+00 4.1752253509775983e-01 1.9567521991557442e+00 1.1224878624288283e-01 -1.4396965942209005e-02 -9.4513890470261863e-01 3.1771681768169260e-02 1.9882800014093505e-01 -6.3801589183762886e-03 8.2487885188904986e-02 -4.8210711365206493e-02 3.6960086187206898e+00 -9.4594953819680292e+00 -1.7531157865969149e-02 1.1507459038717037e-01 4.4842147868646265e-02 9.8600401219165690e-02 -5.6852098906057336e-01 5.3433331493579317e-01 -6.6249268496903824e+00 2.0920801193911132e-01 1.9353641536071498e-03 -3.0837477240511362e+00 -1.0967923792808816e-02 1.2409446222281417e-01 1.6141810495477804e-02 7.6855157251202399e-02 1.5103281880260511e-01 1.9690596836210261e-01 -2.1564727952730209e+01 7.7148843671146494e-03 1.8139204357089736e-01 -2.2347877577677744e-01 -3.7135276220927604e-01 -3.1468833957893594e-01 -5.5733400522217380e-01 2.6369541793828830e+00 -1.7883982890497620e-02 -5.4293941648600255e-03 7.4857514988252660e-01 -7.1390262661787357e-02 -4.8479868075819915e-01 5.4471915145670822e-03 -1.8290329525513016e-01 1.7905929988949421e-01 1.3310539951316969e+00 5.1922370686124850e+00 -8.8198314225167041e-03 -1.5794165958786754e-01 2.3541488880649553e-03 1.5294219229505757e-01 -1.9528190905348310e+00 -4.5885015688281783e-01 8.0484822378930403e+00 4.2812701782346591e-01 -1.6005353754264443e-02 2.0736363879618693e+00 2.6468009789791580e-02 1.1562147863277761e-01 3.4279896291752225e-03 6.7930519328922401e-01 3.7786722386150018e-01 -9.1734009770629288e-01 -1.0820568734063293e+01 -4.7411981072608113e-02 3.6115636998514111e-02 2.0483221222426129e-02 4.3535314396194735e-02 4.3002101716038332e-01 -9.2391171676149497e-01 5.9977997425157810e+00 -7.3424200442323923e-02 -1.0089347092872333e-02 -2.4595335044066076e+00 1.2355233222470896e-02 -2.0324423664220603e-02 -3.6193547793843026e-02 3.5319274475455131e-02 -3.2999638585059410e-01 -2.2658210215018926e+00 1.3881984277541505e+01 8.3005508526717856e-02 -3.6383783887231402e-02 -7.4480929930034995e-02 1.5612838410181490e-01 -7.1994881103648467e-01 1.0189492600871812e+00 -1.2566934994169969e+00 1.1063233585094820e-01 6.4630632508787950e-04 -1.0923448338678199e-01 5.5030983062441738e-03 -3.5322826489275538e-02 5.2281087506250504e-03 6.1038102807434358e-01 -8.2086637625360481e-01 6.2298713618252197e+00 5.0555399377279144e+00 -3.9390391847778809e-02 1.2338868356818855e-02 1.5190164746641133e-01 -2.3970046923808419e-01 4.4738123682976316e-01 4.2747739709804045e-01 -7.1984184000757523e-01 -4.3986075729907051e-02 -1.8777896562523346e-02 2.9412885833250808e+00 -3.3732208810644884e-03 9.1025944575963691e-03 9.8049640121854482e-03 1.0852203241181524e-01 -1.0335503023919088e+00 1.6448079365619122e+00 2.9250760850497500e+01 3.2618448394995614e-02 2.3370535406109205e-01 -2.0995106250803608e-01 -2.3923317341545425e-01 -5.3383012301332977e-01 2.5434957407924932e+00 4.9573082774587220e+00 -1.1094310756586978e-01 2.1718149932237710e-02 -4.7490464984616665e+00 3.5601660145334439e-03 1.0940826997967634e-01 -8.9177257112685315e-04 -1.8066337693952605e-01 -1.7306609771721848e-01 1.8091475864195212e+00 1.1361625049745767e+01 5.4073084250090810e-02 -5.4131021675555835e-02 1.3539794390325877e-01 -1.4118707222335569e-01 3.2887944048059303e-01 -1.6702543380321728e+00 -2.0461676796389838e-01 8.0149937673225674e-02 1.4043612912019887e-02 -2.5654518234848354e+00 8.2147697550539411e-02 7.8236866962195895e-02 -2.2866432835548067e-02 4.3355802058405501e-01 -1.7766610454335297e-01 8.4536061748745261e-01 -3.7541705227308000e+01 3.9223114340613346e-02 -3.3549358623221170e-02 -2.7538002066157963e-01 -7.8190368651616715e-02 5.1662777420383561e+00 -1.4321733880455039e+00 -9.4567590426891002e-02 -1.2325218883024007e-01 3.8670612536168200e-02 -2.3614063424547407e+00 -3.9124025752654890e-02 -1.1326058250227522e-01 -4.9423465996874638e-02 -8.9640533882848228e-01 5.5681289297164926e-02 -1.1312377196262428e+01 -2.9354579541907121e+01 -9.3821716478835762e-02 -4.7608696959387986e-01 3.9276937435417381e-04 -1.7134260192676720e-02 -8.7568156395639107e-01 9.6257709434212302e-01 6.2534846825562340e+00 2.5413085811902214e-02 -1.2444739672398657e-03 -4.0179915280973546e+00 2.6712902147339110e-03 1.3476882032556148e-01 6.1568076398119363e-03 -6.8666024721096619e-02 -3.5194383343684521e-01 1.9127455724046740e+00 1.3362592697986656e+01 1.9965784267881759e-02 1.0890428507926270e-01 -8.8607167032973000e-02 2.9113466814076777e-01 -4.9379088439208454e+00 1.9730708170092637e+00 8.5456647369775851e-01 7.2024648541397535e-02 -3.8928453413358953e-02 2.8443078733491802e+00 -2.7927970275909764e-02 -3.7336442057476371e-01 4.4977489559971356e-02 -1.4745891475576771e+00 2.4197594524795185e-01 1.2641457695169048e+01 1.4987333192215901e-02 3.1196877975459864e-02 2.3536054112341565e-01 8.7387124044026598e-03 5.6938049670170132e-01 -2.2863668345952066e-02 -7.4800943269302045e-01 -7.5261301189616248e+00 -3.6316925543414758e-02 5.0490270960821260e-03 -3.4651626748618725e+00 3.7813645700066237e-03 4.4992462257408272e-03 8.7108182930620004e-03 -4.0969562685961911e+00 7.1537898061721927e-01 -6.9207800212569621e+00 -7.2196219335037171e-01 -2.4632080249138259e-03 -2.1414222419001289e-03 2.5621734325428225e+00 
      </Row>
      <Row Index="74">
        3.0150544654811609e-02 2.9106795124262952e-02 -1.4596702051412080e-01 5.3560393580021071e-01 4.3889544108287737e+00 6.5746634730998177e-04 8.5341183420678618e-02 -5.9588860208852168e-01 2.6136173220016695e-01 -3.6750770093192386e-02 -1.8488255162648036e-02 4.8358056496636825e-02 2.3473533550576775e-01 -1.0048685539540791e-01 -8.0418227546679333e-01 5.1635466347156163e-02 1.0480718104036235e-01 -3.8660517060916222e-02 3.9121162162358392e-02 -2.4557724583291751e-02 -3.5789300781485167e-01 2.4815497851595865e+00 1.0951758648000215e-02 3.0975649183408865e-02 3.3692141890081850e-01 5.1721869883526291e-02 2.0333826819724266e-01 1.0235902280818610e-02 7.0311723914276847e-01 -7.1738570047114703e-02 8.7903686177204610e-01 7.3409666638367099e-01 9.3951667836720404e-03 4.7696191226292151e-02 1.3650314106473660e-02 -4.4236151275356406e-04 -6.7140633317382736e-02 -6.2245799337813423e-01 7.2062680089084097e-01 1.3511938233726983e-02 1.3434661277711687e-02 -4.3205908018899208e-01 -1.6160700905812997e-01 3.4041554975779320e-02 -5.5430954146351574e-03 1.9530951826048337e-01 -1.9120983736325492e-01 2.6134634763954168e-01 -6.6648319194821681e-01 4.6870050016485365e-03 -3.1168987419634853e-01 -6.1834315159013109e-02 -4.6504005146480065e-02 5.4345906159980473e-02 2.8621976015436701e-01 -1.1691912521091581e+00 -2.6633981470605417e-03 -4.3510263204721115e-02 -4.0178714111345926e-01 -2.0151922685168389e-01 -7.8143250609550519e-02 -1.0224076290401531e-02 -1.1257799184920536e-01 -2.3844308668051095e-02 3.7913766765424128e-01 8.7377210917878756e-01 -7.9760218335067426e-03 9.8104468767821196e-02 -1.4579269029576089e-01 -5.9993349919655437e-02 -1.7162098046299690e-01 4.9814524428845175e-01 4.9635036316249170e-01 -1.6005353664848398e-02 2.1795736771827529e-01 1.6101564827306447e-01 1.7549910792591850e-01 5.2781472725026868e-02 -3.3946944055720220e-02 -3.4650343652471349e-01 -3.9210325967500381e-01 -9.8941812882886726e-03 -1.1211458501143401e+00 -7.1215277303494501e-03 -1.6377788960415351e-01 -1.4936477071312862e-02 -3.5369619014531395e-03 -1.2653610616624078e-01 6.4641899332812613e-02 3.3985808267370885e+00 -3.0385540699579203e-03 -1.3580373479195808e-02 -3.0601612905235243e-01 1.1138032100380220e-01 -4.4404018636790887e-02 4.1164792902444826e-02 -1.3084260262779424e-01 2.8458595824958660e-01 -6.5039792553911013e-01 7.7161109709450670e-01 -6.6518754019857088e-02 2.2743104360379895e-01 -8.5685067309551652e-02 5.5639820116608424e-02 -1.0387881004139832e-01 1.1659907049429101e+00 -1.4368246406219214e+00 -1.7766124369914704e-02 4.3829449027202240e-02 -1.5391773604850805e+00 2.0959581907533498e-01 8.6591663789988171e-02 -1.9853277458554225e-02 -7.4045042026085994e-01 4.1657940487604672e-01 3.2328821569298150e-01 1.6726907823237802e-01 -1.7081662650342118e-02 -1.2073528775966413e-01 6.9034574836653206e-02 2.1784175205676881e-03 -7.0121695400195261e-01 -4.0972916502116696e-01 3.0368107008889638e+00 1.5690680870411547e-02 6.6342889896476478e-02 1.8459326982412492e+00 8.3446838088639189e-02 -2.0924542839023674e-01 3.4269546554213853e-02 7.4823848158092687e-01 2.8741577645061422e-01 1.0197485924910168e+00 -4.9160509601955136e+00 -4.3748399428473403e-03 -1.8227847662950647e-01 -3.3424652900068297e-02 -9.4386968642050817e-02 6.1114042287895209e-01 1.2883941589420493e+00 -2.7731571386357246e-01 5.7928703946537874e-03 -6.3108234813862393e-02 -1.6916684723318554e-01 1.9666769728269595e-02 1.3232205160004229e-01 9.6277879176413297e-03 -4.2151907457028637e-01 4.3995390215185726e-02 -6.5517686608595227e-01 2.2622528948867959e+00 -2.9299977602193855e-02 -2.9737118966089282e-01 -8.5209020353012477e-02 -4.2893168131378445e-02 7.5368816641283765e-01 -2.0214319980397377e-01 1.5505394720086656e+00 -3.9798109014269473e-03 -1.9966012136536915e-01 -1.0633175417591882e+00 -3.8344163677115228e-01 1.3517828864963466e-01 -1.4820622353151642e-02 -1.4148342745590679e+00 2.7021479538179793e-01 -1.8227468191909093e+00 8.1921307509314296e+00 -2.1290149995318308e-02 3.4658629487788417e-02 -1.0519350055670014e-01 -8.3023255922303543e-02 -4.0361989224970829e-01 -9.0474492299432185e-01 1.3634340355795302e+00 -4.0110074584990787e-02 -1.1719969102155101e-02 9.2388513228471592e-01 -1.5710864571451683e-01 -9.3541541985939947e-02 -4.1564017941480402e-02 4.5414884257627897e-01 -2.3725994412783644e-01 3.3444834846509019e-01 6.2308223469616930e-01 4.6843567580503176e-02 -3.3969628494915005e-01 -1.0619339780858272e-02 -1.1252089498462681e-02 4.0163167706431580e-01 -4.4369534392740206e-01 1.7096106616172619e+00 4.3906306403943308e-03 7.1251888735442345e-03 2.8740088084088455e-01 4.6407671390115326e-02 -2.1287014899479839e-01 -1.3820880043872857e-03 2.8646326748230422e-02 1.5207685627946343e-01 -4.3024443851163596e-01 -9.4957607927918275e-01 -1.0835460158369337e-03 1.3686303321928134e-01 5.0009141547344531e-02 2.5138721255415725e-01 1.3103891248358757e-01 2.5018567395986557e-01 1.7544311307090652e+00 2.4826512539143347e-02 5.0673931446128383e-02 -4.6342947387273057e+00 4.2667744293580545e-01 -4.4768291834874518e-02 2.5549086789572954e-02 -1.6460081845890329e+00 9.9655376829423692e-01 3.8142274983297142e+00 1.4116287171809421e+00 -6.0077075872264601e-02 5.9392774417032723e-01 2.6337696846540637e-03 2.7603542247362445e-01 4.0731621570742824e-03 -2.7611716343050818e+00 -6.1406523547874770e+00 -8.9830206733330434e-03 -6.3339546623696091e-02 -4.5365155809351521e+00 4.9441871163696902e-02 8.8324041007587523e-03 -9.4023353840044215e-03 -1.7952188712700350e+00 -1.7163590347796369e+00 -1.0956619779685443e+01 -2.5857984788416495e+00 3.5389160619074306e-03 1.2049764149103859e-02 -1.9893427048122436e-01 
      </Row>
      <Row Index="75">
        2.1674373299002121e+00 -3.9791448386094999e+00 8.7065925723291002e+01 5.5822229687654180e+02 -2.0805711315013468e+02 4.5153149269411008e-01 7.3573739245109043e-02 6.2247306916117668e+02 1.4701062106382510e+00 -7.8204950787185226e+00 9.8036648271698268e-01 3.9352715226945293e+01 1.2086510682041990e+01 3.6077529360025380e+01 1.2569592334846966e+03 -6.0773474733361332e-01 2.2457304587267572e+01 -6.1108992024674080e-01 5.7156698350881925e+00 6.1791388615945976e+01 -1.9043642905796878e+02 2.3276716849803925e+03 1.7900329912475077e+00 -2.2104019577752737e-01 2.6807510661430263e+02 -1.2894734077596426e-01 5.1622998153616209e+00 -2.8147508737674798e-02 2.5433524337094781e+01 -1.1654191911700755e+01 4.7031846994250373e+00 -3.2757611879403703e+02 5.2562497765700300e-01 -7.7565488558815154e+00 -2.1288408927721321e+00 3.0571752965988708e+00 -6.2982048498874065e+01 3.7788875050283968e+02 4.1271717920899391e+02 3.3640060571524373e+00 -1.6350463159099543e-01 1.0167432099506259e+03 -1.1455378408412489e+00 2.3142067704466172e+00 -4.1471407414633177e-01 -8.1632193712808657e+01 3.8385404355038190e+01 -8.4247726264875382e+00 2.1092852225345559e+03 -4.9896416762567242e-01 3.7098403393713248e+01 -4.3801925978237044e-01 -1.0497534351715871e+01 -1.7315205771359615e+01 -1.7353423206903972e+02 -1.3084645217508078e+03 -1.4208350096216265e+00 -2.6515047605551256e-01 1.1685575048029423e+03 -2.6813375064007623e+00 -1.6017866726898269e+01 -3.3009023468226206e-02 9.9557881234504748e+00 1.3973588009107073e+02 8.4179097855230793e+00 5.4887487758183852e+02 -3.5010280076032152e-01 -9.4605647335584333e+00 -1.7984133614881088e+00 -3.2000526217598235e+00 -1.8486684505245648e+01 -3.4828455416485667e+01 -9.9983058379292488e+03 2.0736364294934901e+00 1.6101565851050254e-01 3.6478637349391356e+03 3.9164886200705951e+00 -8.8451787769352173e+00 -3.3683568555102894e-01 -6.7413814797764644e+00 5.8038052753865486e+01 -4.8224631402349722e+01 -2.6759079874079686e+02 -1.0155885640645457e+00 -4.9558165925681497e+00 -4.6593667617191414e-02 -4.1319345645024441e-01 -9.9540043360396844e+00 -2.0039855118677951e+02 -7.6417057093977928e+02 -7.0482918137086981e-01 -4.1741763142789767e-02 -2.5492510171141475e+02 1.2510475728537704e+00 -1.1146562033100054e+00 -7.9726477262498463e-01 1.8000252958154306e+01 -2.4331458933867452e+01 -2.9516168108675629e+00 3.8006606434239075e+02 3.7369237434585251e-01 -2.2446809244807810e+01 2.2026982804534723e+00 -2.1039786354223736e+01 -1.0408414477220737e+02 5.5174505183814961e+02 -4.0359359068585036e+01 -7.1418997666084234e+00 1.6852245252171603e+00 -1.3654792927410240e+03 5.2673328496028340e+00 -8.2221780171089094e+00 -6.6820072824569765e-01 -1.9479295821428147e+02 1.1667240092357076e+01 4.2719819444301038e+01 6.5036179818703113e+02 -9.7080784363047812e-01 -1.4150214311194382e+00 1.5757976692305800e+00 1.8467516023666427e+01 -3.2737937782385345e+01 -7.9513793995329479e+01 4.4503270733356476e+02 -1.8235256241423690e+00 -1.3265113998619364e+00 -2.2707032994437827e+03 -2.0687353516333387e+00 1.0282599322485613e+01 1.0733508892774635e+00 1.2163682438091853e+02 -7.8116528938129179e+01 3.4454176706184967e+00 -1.9889851741090717e+03 5.1433562379975328e-01 4.4105308850479673e+01 -1.9593693941387942e+00 9.2201404534822977e+00 1.8875364841999833e+01 2.2766503186358830e+02 7.4401552764150983e+02 -3.1159799296095128e+00 7.5115114901424063e-01 -2.1838448048019782e+03 -1.6510635921418082e-01 8.0857981736408497e+00 1.5917205857104255e-01 -5.3201459469414544e+01 -3.9987170423352666e+01 3.6580858411077969e+01 -9.1763665356698857e+02 5.1063023880126357e-01 1.4187686546445768e+01 3.1034892356511126e+00 -6.9255480087381187e+00 5.9403934096180322e+00 6.2919314447025022e+02 2.1630455830635910e+03 4.4226364680142831e+00 5.3914535120000906e-01 1.5380237655068745e+03 6.1749515928511300e-02 6.5413153687801628e+00 -4.9760573502943062e-01 -2.9380334235463465e+01 1.0079992953132631e+01 1.0435524659622786e+02 2.3319667705462248e+03 8.2769933735934609e-02 -7.3596818301733489e+00 -1.0600569190969804e+01 -3.1215533499769506e+01 1.9563512808222811e+01 -3.8239484428426937e+02 5.6918863352811604e+02 -1.3497335385535409e+01 1.4285029383155323e-01 -2.8495332528994950e+03 5.1002412216765141e+00 -4.7869771010008222e+01 1.4205422598480197e+00 -3.6025984643839598e+02 9.9188245584938670e+01 1.4373259241543818e+02 -3.2375018951257794e+03 4.3776224953644451e+00 -2.8022391655777071e+01 5.5597907987976214e-01 8.4986486763227731e-02 8.5707913832855411e+01 4.1940094571560621e+01 -1.8528438654861020e+03 2.8176451768202924e+00 -5.7045670518840921e-02 -2.5831309435225558e+02 3.2583881435103379e-01 -9.9955308677454013e-01 -5.7379150889899977e-02 -8.9663840280845761e+00 -1.3682527487653715e+00 -2.4759199259802699e+01 6.5429618204897270e+02 -3.8105530211146288e-01 -8.5666847387784486e+00 1.2156175854454753e+01 5.8751059609992922e+00 4.2566751195306551e+00 1.0266602401963887e+03 1.4154326107396337e+03 5.5393290981604029e+00 1.0655206975288118e+00 -7.3977552825980820e+02 -1.2196636317006289e+00 1.3567727698237952e+01 -1.9957672184557671e+00 -6.3618834730810840e+02 -1.5146043438371584e+02 -3.8252712596424055e+02 4.5836934664636356e+03 -4.9880783337212868e+00 -1.2792950003318708e+00 5.5783984338784856e-02 9.8771458010090214e+00 -1.9130851912164367e+01 2.0404588358533897e+02 -4.7180530864224943e+02 -5.5866756682365226e+00 6.8042408278188304e-02 -4.2571727520269651e+03 4.3015537046759095e-01 4.1882742328013478e-01 2.5408329574102340e-01 -1.4922303470219354e+03 4.0629723809141171e+02 6.9441993871386023e+02 4.2003544861815453e+02 -1.3509192641567624e-01 -1.3256499395524928e+00 -2.6315324069449366e+03 
      </Row>
      <Row Index="76">
        1.9695281769602718e-01 6.0811332468369983e-01 1.0614717354486629e+00 1.1753654220810290e+00 3.2575080565657117e+00 2.3835837781381042e-02 3.0680852126507763e-01 2.0236010173994146e+00 1.1193735210015245e+00 -1.0158347954546798e-01 1.5058513861522307e-02 6.0369192787358372e-01 4.9613648182048564e-01 -2.0882284692183939e+00 9.1556977586719768e-02 -2.0958044193198128e-01 5.0409822344133204e-01 3.4203507907083264e-02 6.3709071035944476e-03 1.2760656266585411e+00 1.4830406709202180e+00 6.0087658322299831e+00 1.7331073152331233e-02 7.6327555092125687e-02 1.1764637591501810e+00 5.2471240250430068e-02 -6.5092019528157152e-01 -9.8265733741076389e-04 -2.9025024396809762e-01 -1.9257187115600360e-01 -1.9062732695707787e+00 -1.4772403126444260e+00 9.2943686141897297e-02 -9.0867382853014961e-02 -1.6467814925135826e-01 -2.8467517633443151e-01 -3.6212539879454653e-01 3.3862679393478174e+00 -4.5976291773549747e+00 -4.0420354750111187e-02 -7.5445187859452478e-02 3.5518102164860466e-01 -1.2556164801540131e+00 -3.2295093618759552e-01 2.2801758504110481e-02 -8.9273362406925116e-01 -2.7161127314502664e-01 1.9452743956977656e+00 6.7148712976018032e+00 -5.5479093188651518e-02 2.6717995135551931e-01 -2.4374933756507872e-01 -2.2282564982797870e-01 2.1639827912463261e-01 -1.0335369412691762e+00 1.2166409117053263e+01 3.1352853649428643e-02 -2.3253513060517195e-01 1.2414103329392674e+00 -7.8698895467699925e-01 4.9986590545291243e-01 2.6327816201761743e-02 -1.7590590581306742e-02 2.1165652464299523e-01 2.2759856493019015e+00 3.8211855120898690e+00 -2.2211460100918234e-04 -1.2329773640461843e+00 4.3601113378458622e-02 -1.8071137347594401e-01 2.8334428880611995e-01 -2.0544777315913052e+00 7.2943754177540541e+00 2.6468009774217371e-02 1.7549910774322813e-01 3.9164886180792564e+00 2.0485056151334646e+00 -5.4942932577837666e-02 -3.0553743044362008e-02 -3.9713514994127763e-01 -5.2494521037704089e-01 -1.3319203905174541e+00 -2.5958564695267228e+00 -7.1804960602084175e-02 5.7995867274466795e-01 4.6776930745444534e-02 3.3129145244191704e-01 -4.8458643604521123e-01 -4.3421951321347478e+00 9.3297263199638110e+00 9.3031791062605368e-04 -1.4819397813236393e-03 1.0992097942959731e+00 8.1811156008125152e-01 2.5871456167431006e-01 3.0896311295868090e-03 5.7895751962678332e-01 3.3241695749778266e-01 -2.3927290239876129e+00 -2.9813440188249842e+00 2.7212414760042553e-01 -5.0377126854067455e-01 2.5032433187092573e-01 8.3169786916050681e-01 -1.4742777027280773e+00 -3.0657387434903889e+00 2.1053634583656731e+00 -1.9885537964005218e-02 1.8650401095871960e-01 -2.3371984560394417e+00 1.6012296641545738e+00 -7.3737112953415096e-01 -1.3048890266483060e-02 2.5051207859296092e+00 9.7715007267155074e-01 1.4873634768672854e+00 -1.2368212130436607e+01 -6.2929904617466392e-02 1.6635170825540695e+00 -4.3425944227647728e-02 -1.2535916897426356e+00 2.1577297818121544e-01 8.7226640143954093e-01 1.2111587675492046e+01 2.0120032706483354e-03 1.2557617080686784e-01 -4.4547863636702800e+00 -8.5278028911249151e-02 8.6735961153230612e-01 5.8323234670882164e-02 -1.0533140694470049e+00 8.7482560765406836e-02 -9.7277930442825855e-01 3.6527525220656063e+00 8.4248638644470228e-02 1.6745888865254746e+00 1.8868192971233044e-01 -3.7728386832729843e-01 4.8461317738938803e-02 2.6326923130410957e+00 1.2051622483806568e+01 -1.4185570101412359e-02 4.7004267994222020e-02 1.2920381897747575e+00 3.9519002744689147e-01 -8.9451510282917557e-01 -2.2910809363119206e-02 7.7718679774668509e-02 -8.9287870352220883e-02 -8.5838257314535227e-01 -4.6850570140589731e-01 -9.1384923852305538e-02 1.4063087891204726e+00 -2.7869010248488763e-01 -7.9251228087555359e-02 -2.3074059772713049e+00 -4.0343219970311566e+00 3.2012544722911116e+00 -6.6234993318406349e-02 -5.5820502672423988e-01 1.1925899228376338e+00 -9.0270287005741923e-01 7.0921579932038536e-01 -1.0005332407958117e-02 9.5156259235199769e-01 1.8126679347915253e-01 5.8183920574622086e+00 -2.9839969127018993e+00 1.2668017916746710e-01 -1.0662386363464669e+00 -2.4251190989305743e-01 1.8902778943286766e-01 -2.4577601376597173e+00 -3.7299478115077633e+00 -1.4300139649310495e+00 1.1623208167721895e-03 -8.6601487453839082e-02 -3.8226135840768478e+00 -3.4782284539319841e-01 1.2756126187391619e+00 -1.0403930405973649e-01 -3.0581270658763877e+00 -6.2164279153736635e-01 -4.1775532278780148e-01 -7.4892851561837901e+00 3.7236303910256896e-02 1.9619171787378109e-01 5.6234474478074503e-02 -4.8998505175120499e-02 7.7647267492443461e-01 -1.3678607028050465e+00 5.4654919107724709e-01 -4.2756116052393711e-02 2.9573029264733382e-02 5.1797573571275279e-01 2.0523730308345101e-01 7.5666674653223254e-01 2.1011924081993788e-02 1.1747659667435073e-01 1.8360176420507202e-01 -1.6437103983080306e+00 -9.3650341936245241e-01 -6.1551880653173630e-02 -4.4939424717845844e-01 4.6627482894124073e-01 1.5738185981288246e+00 2.5152900274028309e+00 1.9873686640689714e+00 1.6574746689840936e-01 2.6206441798251282e-02 3.6207315678242524e-01 2.9310559362493223e+00 1.5641892499670700e+00 -1.2545239274971878e+00 1.0231724804706827e-01 5.6406538716965855e+00 3.2321875657002299e+00 4.1180522847312577e+00 -5.0480080112969139e+00 1.0774449022799996e-01 -4.2453531732855909e-01 -1.1376097592699988e-05 1.4726560833992766e+00 -1.1036857828058949e-01 -5.7585895237075055e+00 -1.0940374168234577e+01 2.0820172766411044e-02 -1.5075175923725137e-01 2.8800814888375976e+00 2.3581298939923667e-01 -3.5260906777689976e-02 -8.9675162721662097e-03 4.9833172326129316e-01 -3.5001903217717363e+00 -2.0268045986578933e+01 -1.5704967713298223e-01 -5.8725540836887823e-02 -5.1772597201321290e-02 3.7626054230513009e+00 
      </Row>
      <Row Index="77">
        -2.7569467780750850e-01 6.1676224344637376e-02 2.1669742462254362e+00 1.3621401683785734e+00 7.9767580896965228e+01 -1.0809892828023282e-01 -1.3475771355974309e-01 6.7494988819817081e-02 1.4226371688513978e-01 1.5606103540082131e+01 -3.7620066506070332e-02 -1.5561266025557188e+01 -6.8276820625396795e-01 8.1464399858688097e-01 4.8514000390905494e+00 -2.5075039603465910e-01 1.6415426196017506e+00 3.2880232014349531e+00 -1.9049307245870750e-01 -2.2469855140333124e+00 2.3640400023978145e+00 -1.4654794977046549e+01 1.7920559905005751e-01 1.3726290055798823e-01 -3.4864455068427560e+00 9.1651112088564510e-02 -2.0823374749842515e+01 1.2378536524033734e-01 -9.8540307816868875e+00 -4.0005966419558003e-01 -6.2155984788756768e-01 1.2095329368130479e+01 5.2576634184417159e-02 -3.0001668933170063e+00 3.7481618420827090e-01 7.7216079972231455e-02 -5.8775337780261907e+00 9.7585810583841521e+00 -1.0012827356008347e+02 1.4174382676560526e-01 1.4261264738984059e-01 -1.3981585238274420e+01 -7.5583227806646569e-01 -1.6871645604659534e+01 1.5978955187744859e-01 -1.8149605562326542e+01 -4.2307128553284201e-01 2.7130845903529917e+00 -1.9809346826186811e+01 -8.6524738062280449e-02 4.5349343191337645e+00 4.7149418060098336e-01 4.3740984755647716e-01 2.1032913325234404e+00 8.9554830926863360e-01 -2.0161338027101010e+01 -8.9446329079283127e-02 -1.0973385659709012e-01 -2.7872464552347083e+00 -6.0442762592221611e-01 2.3698549643482369e+01 -7.0099521846544971e-02 -9.8820196739684434e+00 -1.4384899632652308e+00 -5.2912306958442059e+00 -1.3061920595355332e+00 2.7361591778579109e-03 -4.6781035786962116e-01 -2.1815419944380232e-01 -2.9283271867143412e-01 -2.4316630419198191e+00 1.2935223856620723e+00 3.2906146024819463e+01 1.1562147644885812e-01 5.2781471283624731e-02 -8.8451800036564237e+00 -5.4942932776327780e-02 3.8160719069981496e+01 -8.4341133113721156e-03 8.6053049807778734e+00 -7.6608810367542901e-01 -3.8517120918942314e+00 -2.4572216253843706e+01 -2.4931110380471133e-02 4.0988194064763839e-02 -1.4732749676215273e-01 1.8484761330910260e-02 5.5116715236922997e-01 -5.8283099507752922e+00 -7.1357786130858585e+01 -7.0517617400252697e-02 -1.3775704853436707e-01 7.4163517707306710e+00 2.6111855188693267e-01 1.3706199215123434e+01 -1.5832656720201829e-02 -1.5991493873440049e+01 -1.8352526510334854e-01 -6.3753463464418019e+00 1.6766214769108046e+01 2.1538562743527051e-01 -5.1878950646892008e+00 7.0036945187505173e-01 -7.1706786141204493e-01 1.3985477975475256e+00 1.3905922694824966e+01 6.4197382580599879e+01 -9.4977513442194128e-02 3.1853494931731152e-01 3.0320026049031981e+00 6.6895290449004219e-01 -7.2099824488741149e-01 -6.0611177793434848e-02 -3.4042554529684779e+00 9.2606417575247235e-02 -6.2104129518765347e+00 2.7294036132467454e+00 9.1207379610740102e-02 5.3470084370002802e-01 -2.7558953938327271e+00 8.3716534002563314e-01 -2.7435112533954964e-01 2.7344892184941214e+00 -3.2709409669041634e+01 -1.6315509044599630e-01 -1.9193028591310113e-01 8.6443734503367295e+00 -1.2954800510277159e-01 2.4571525079335622e+01 1.5838853275970954e-03 -8.6175710313594394e+00 1.4566077455097934e+00 -2.6195340109038323e+00 -9.8023651252735426e+00 1.0063111388689447e-01 1.0088070423688787e+01 2.8036356828429980e+00 -4.3045701326533958e-03 6.5519703686772957e-01 6.7160572889074857e+00 -5.6045355084620724e+01 -5.0144360521516829e-03 3.6672124215476254e-01 -7.1744871423943550e+00 3.2581209972668923e-01 -2.0606994289376921e+01 1.7383509514764084e-01 1.0769474223697443e+01 8.0897153925664433e-02 4.4691167227568087e+00 3.1769199061671706e+01 1.4856919641829994e-01 1.0967599516386359e+00 -2.4473629336020442e-01 -6.0216878853537015e-01 3.7021417572488318e+00 -1.9825907694561522e+00 3.6221010066761664e+01 1.5654033731971539e-01 4.6426021598301281e-02 -1.9649565361140304e+00 -5.1984424047637479e-03 -6.1166986568268449e+00 -6.1217137217429940e-02 1.1445610455065779e+01 1.6131787590569129e+00 -7.0348802767630403e-01 -5.6087464265608844e-02 1.5950815683328873e-01 -5.3065561189119617e+00 6.2583175291415483e-01 6.5027051467304986e-01 4.7942857155151790e+00 -3.6681824854745599e+00 -3.8659718395041580e+01 3.6441271295934677e-02 8.0189513519976358e-02 -4.4479784798992625e+00 2.0045600418885895e-02 3.7249252623258045e+01 -2.0825657591913072e-01 3.5830765179053159e+01 -2.5909777846277713e+00 -4.2235103401018996e+00 2.8288493177146734e+01 -9.2766689258047416e-02 1.3009144519386577e+00 1.1563795735825124e+00 3.9707014765463100e-01 1.9754070194358064e+00 -6.8762511336826719e+00 -1.3786555601904911e+02 -7.1921402158963588e-02 -1.1808969305983172e-01 8.2391118684645335e+00 1.9493329851806518e-02 2.3081384471219735e+01 -5.0381541567855348e-02 -4.9698304536141222e+00 -1.9569063129438291e-01 -1.4147849348664749e+00 2.8142903710831888e+00 -3.3939188777644347e-02 -8.3045817338467831e-02 2.2465504632606259e+00 -8.8344985001523657e-01 -3.6682573759057284e+00 3.1014321138831939e+01 -3.3037020153760864e+01 -9.5057347001741649e-02 -4.2190851813959984e-02 1.6652827488454932e+01 4.7997686958332830e-01 -3.7300518016668325e+00 1.0315384207288733e-01 -6.8965618439786795e+01 2.2999663512113777e-01 -2.8728420337612057e+01 -4.8970803038689880e+01 1.1532212358422779e-01 -5.1499945055575198e+00 -1.0080058424877907e-01 -5.6991552945073520e-02 -3.1328160543857198e-01 3.4476188343997237e+01 3.9781267737357439e+01 2.6094152864574643e-02 1.7748509392454537e-02 1.4660411110919679e+01 7.7536336066429609e-02 -1.4418147027309942e+00 -9.9228621134533415e-03 -6.1347206400062575e+01 -1.2070712800212426e+00 6.7646615112076574e+01 1.5784607392834147e+01 -5.7160837221001029e-02 -2.1169767690337049e-01 5.3173956381628713e+01 
      </Row>
      <Row Index="78">
        -9.8909505699430952e-03 1.8023333432992672e-03 -7.7670212735262112e-01 -4.1433501534615402e-01 4.0666647850757727e+00 5.1464528838852316e-03 4.5804869904492330e-03 -8.7385561220628460e-02 4.1714248083144279e-02 -1.3077912084204968e-01 1.0507382126334797e-01 -1.9966325433011001e-01 -2.3261746219141344e-01 3.3545224738667812e-01 -1.5718068243927235e+00 1.0740783932588541e-01 -1.2573108815218781e-01 6.5793098767604086e-02 1.9213221767063970e-02 -4.9632288365493515e-01 -4.0915430707070755e-01 4.3770311032712925e+00 -2.1202942243443990e-02 6.0714383173809811e-03 -1.1784684435073700e-01 8.3657896047850981e-04 7.5962255403396739e-03 1.7700148550099604e-02 1.4871583283144219e-01 -2.3127127581050622e-02 2.0447078002873198e-01 1.7097069767201560e+00 -1.3901379110791445e-01 -2.9728573838275318e-02 -2.9523813972844870e-02 6.6412081001914203e-03 3.4023903573995540e-02 4.2535668171285579e-01 4.7740685800999927e-01 -3.1927478217470551e-03 -3.3047321786845024e-03 -4.9908347591690472e-01 2.6574522326271444e-03 1.1579239605224956e-01 -4.4439953734901172e-02 3.3731912358891236e-01 1.5295688767833582e-01 6.0631675664950535e-02 1.6468782397782888e-01 2.7174348089153444e-01 2.8736645265017746e-01 3.0256673102526395e-02 2.8265909530849009e-02 -7.9709776497247731e-01 -2.3586731473653799e-01 3.7569109598262003e+00 2.5990308524804218e-03 -7.2294098154986140e-03 -8.7567564666642284e-02 7.5504717414229070e-03 5.1233691839970619e-02 -1.2238426409127388e-02 1.2338521724799989e-02 6.0776816939637657e-02 4.3656303569747479e-01 -1.0822707154329692e+00 9.9930775872328237e-02 -6.1969354180054559e-02 -2.2481519965682928e-02 7.7426062031804577e-03 9.8152843649799593e-02 4.5792872866252310e-01 6.1009973417931178e+00 3.4279896838528279e-03 -3.3946944011329729e-02 -3.3683564986847614e-01 -3.0553742915577331e-02 -8.4341149925748482e-03 1.9217915116143103e-01 8.2879021824513188e-01 2.2494500359849923e-01 -5.7368133130424370e-01 1.3779151554223577e+00 2.8485922095181082e-02 9.5282044362547724e-02 -5.8973308301616123e-03 1.6740216683487574e-02 6.8683357848282833e-01 -9.5727320155162943e-02 2.9264913521437848e+00 -3.9331489451250659e-03 -2.1802490579259811e-02 4.5713234212357179e-02 -4.2261290496589665e-04 1.8277776442749527e-01 -9.1317292116897861e-02 2.0133715875445546e-01 -1.5032928977356252e-01 -4.3209645339420888e-01 -1.7755888108457043e+00 -3.5337450372309059e-01 -1.2241986786449388e-02 3.0434474583797461e-02 -3.1289455966100943e-02 7.7392480252928131e-01 9.2246601911453041e-01 4.3948652823684142e-01 5.3718366420387673e-03 -5.7431371878258544e-04 4.3255904774100662e-01 4.0650866437650729e-02 -3.3205823054610006e-02 9.0564932375898299e-02 1.3626704621157049e-01 -3.4058056504740186e-01 6.2414548629682676e-01 -4.0547223358774200e+00 -1.2775101803345029e-01 -7.4390408841207734e-02 -1.2562607661175673e-03 -1.2023593523676435e-02 3.6724654696895076e-01 2.4625897411378883e-01 -6.9820085172977997e-01 2.1488734090142625e-03 8.3086565535728761e-04 1.2422696695862356e+00 -1.7175065440194370e-02 -1.7496914213609438e-02 -4.4820248373552869e-02 2.6525440187395422e-01 -2.2940587345408892e-01 -4.3243670685137836e-01 -6.1672987889871589e-01 5.4817120415873097e-03 3.3439909179287763e-01 5.7043632906908420e-02 4.2936349192927603e-02 -5.3754987925014763e-01 2.5061128373991437e-01 -1.5594194258172962e+00 2.5622403097518929e-03 -8.8672614451882278e-03 6.9466224219343076e-01 -2.0006483171152951e-02 2.3005946736818350e-01 -1.2198873655813761e-01 5.4855873363841390e-01 -4.9790403927787663e-02 2.1313433825840011e-01 -9.4073262547111591e-01 8.1134100669565945e-02 2.6793275892227303e-01 -4.2554093277931748e-02 2.5005099684014542e-03 -9.3956934220815747e-02 -1.1618300251473812e-01 -4.0549433529372436e-01 -1.7236005770986509e-02 2.8769244479130429e-03 -6.8170766065274790e-01 -3.7590095599524254e-03 4.9628193718976199e-02 1.6341859672249041e-02 -7.9306931373043454e-02 -9.6616693581424329e-02 1.2614069548224904e-01 8.6705968380325515e-01 -1.4746248289435512e-01 -1.8734815163216778e-01 3.5875808428129347e-02 -1.1883714085228481e-02 4.8885494214383418e-01 -1.8514845667054747e-01 -1.1274018429253374e+00 2.3384129607178086e-02 9.7612583606476178e-03 -7.6158078361016734e-01 6.9042351952551373e-02 -2.3308546988660706e-01 2.0672641810126163e-01 3.5321737001552655e-01 2.1868427670145357e-01 -3.2296836953274122e-01 1.7540807655506856e+00 -2.0429630434878207e-01 -1.3620983000127296e-01 2.9115969862340663e-02 -4.0947210165711567e-02 1.6114385263284703e-01 -6.2379550768400804e-01 1.9445533466849838e+00 -7.8612402796435082e-03 2.8041070230734452e-03 -3.1041542227353602e-01 3.0542105069560899e-03 -8.3294865907770799e-02 -8.8832727375868503e-03 -5.2755894695474126e-01 -8.5326052499689276e-02 -1.2368252254873369e-01 -3.0601785232124712e-01 7.2723264952290423e-02 -5.7836052103576785e-02 5.0544385376732344e-02 3.3417650944151583e-02 1.9350927630735582e-01 -2.2834132741600457e+00 -4.1211521719844768e-01 -2.9564034064466952e-02 1.2650310443025522e-02 1.7261253707408741e+00 1.9665043546905792e-02 3.5880492031521938e-02 -1.2415095473026615e-01 1.5244667621659602e-01 -7.1474799522524524e-01 3.2131069228689051e+00 -3.0963824446380479e+00 -2.9082764714752551e-01 -2.8510678279369450e-01 -4.0298056555560990e-03 7.8571473354547200e-02 1.1171304768596418e-01 -5.5010432866888950e+00 -2.1666088024530259e+00 -9.2136077214118733e-04 -1.3326658434177352e-03 2.2182844553285395e+00 1.1359681782329789e-04 1.2451730432802843e-03 3.8428289240568639e-02 2.1900701365573698e+00 1.0011454386994882e+00 -5.9653564721867776e+00 1.7033773681236892e+00 8.3484342772232586e-02 -5.3456144920718835e-03 -7.3083129241649225e-01 
      </Row>
      <Row Index="79">
        -2.0415043919475995e-01 7.5482427738825209e-01 -1.6746381911420031e+01 -2.5696904062264366e+01 5.2285317577794194e+02 2.0111437645900176e-02 -6.9498941242653989e-02 -7.4300160768441856e+01 -5.2452818387717948e-01 -3.5532004005508497e+00 2.8787238111895652e-01 6.2981344673071362e+00 5.9984139156003948e+00 -2.3398438461100000e+01 -6.9045901735080406e-02 -1.0822577085806451e-01 -2.8244165779324248e+00 -7.7763493554357410e-01 -2.4068453866248092e+00 1.1437000926518330e+01 -5.7267652563750744e+00 -1.7861931234598160e+02 -6.0050513695057561e-01 -3.1535827487152468e-01 1.9527991684767767e+02 -6.9586872251661558e-01 -2.3540068664442515e+00 4.3448435822688225e-01 -2.6525607879932608e+02 -1.6396453502914973e+01 3.8647940452019611e+00 -1.4701840026129503e+02 -3.6626445007416919e-01 -8.3864979385961504e+00 -2.2017895546105137e+00 -5.9360079081670847e-02 4.0409005780136795e+01 -3.3837838707026094e+01 -1.4826383149251342e+02 -1.0647126569374450e+00 2.2249190074493225e-01 5.0409480511676520e+01 -2.0768112611996221e+00 1.5756163216065033e+00 3.9467989367710743e-01 -1.2129942606712575e+02 -1.9764064688890358e+01 -2.7897307990118861e+01 -2.0505383607349358e+02 -1.0546558548412577e-02 -1.9426920588737673e+00 1.5452067644292820e+00 4.5481701475446634e-01 -2.6976649725693278e+00 1.3598248140886426e+01 -4.1886568454653025e+02 -1.3498023966062700e-02 8.0465879048674749e-02 -6.0349507253617048e+01 -7.4321727059489961e-01 -7.2048963850824457e+00 -1.4479532777444593e-01 5.5043717361746531e+01 -9.0966400647334638e+00 2.3748807308729738e+01 -2.9718238536035642e+01 -6.0278865347966892e-02 3.1926384507535133e-01 2.8057680876736413e-01 1.6406185458217806e+00 -2.0646235487656668e+00 2.0464720792719163e+01 3.2984806566759944e+03 6.7930513026271910e-01 -3.4650349689331172e-01 -6.7414264914114028e+00 -3.9713511766149168e-01 8.6053050602931762e+00 8.2879026960711311e-01 4.0053735714772483e+02 -1.0727492853504373e+01 1.8305457586162248e+00 4.5263497555353034e+00 -2.3631275696342180e-01 -2.0471329185423315e+00 1.8335005938092408e-01 1.2689662426419090e-01 1.6998344680244507e+01 1.4308394855819643e+01 5.2653696502745152e+02 -1.9122534253420298e-01 -4.8668996322780167e-01 -2.0313400599057786e+01 -4.8387377844377044e-01 -4.2088339875190286e+00 -1.8434925162744764e-01 -3.5711539662792347e+01 4.2244230705567816e+00 -4.7210267805203330e+01 -1.1251140152337030e+01 -7.3693177110360986e-01 -5.9773653244119487e+00 1.0641557841684346e-01 5.4870990770260342e+00 -1.4769532786363015e-01 5.1005863799178286e+01 1.9796304745280213e+02 3.3114116308394181e-01 -4.2976069748449419e-02 -3.1695743888096627e+02 1.3935158454587397e+00 2.2967187475567563e-01 1.7989387159884251e-01 7.5493046035926056e+01 2.6146204635264873e+01 1.0717520753919555e+02 2.2252459615949533e+01 1.0208105460531569e-01 2.1631063383594658e+00 -1.1608797672115045e-01 2.1519565929844688e+00 1.6086099206872584e+00 1.5153599858440685e+01 -5.2038155645132065e+01 -4.8049115914623020e-01 -2.0822102873133339e-01 5.8693365686596735e+01 1.1921964511103300e+00 -4.6979101433369728e+00 1.7717521246941392e-01 -5.6628089506281484e+01 2.2940057713724666e+01 4.0569622617508585e+01 4.2288298952680236e+01 -5.1453630707828213e-01 6.5722631576596182e+00 -8.0746995247862152e-01 -1.7956312803689727e+00 -8.5994728822171922e+00 -1.8233777521870302e+01 -4.7372745548684907e+02 -3.1135208462896458e-01 -3.9500242919701245e-01 7.8352023500250652e+01 6.2681511715770988e-01 1.0865517011001842e+00 2.3494251565216168e-01 -3.2907962463441180e+01 -5.3894233625721455e+00 3.3010721092037301e+00 -9.7261369863419247e+01 7.9167878979343564e-01 1.0085836906763745e-01 3.4482160285756258e-01 2.2142869268856344e+00 -1.4296689381235026e+01 4.0309514581078929e+00 6.7212103456586192e+02 4.3169038780162361e-01 -7.3473956237439797e-02 -6.7608350440009900e+01 1.0920318230159465e-01 8.6813172060168853e+00 -2.0043664888045942e-01 2.5568916270643592e+02 8.9110509169196348e+00 -4.5907847412295268e+00 1.3683076443128340e+02 1.1674185796492171e+00 1.2678796051328263e+00 2.4312615379930449e+00 5.4509924718668703e+00 -5.7854356016333568e+01 -1.2862438490631314e+02 -5.9703510500041011e+02 1.7176271797081410e-01 -5.8412205344953494e-01 -3.2971024021824996e+02 1.0781537462518263e+00 1.1591957355543737e+01 1.0706126174631834e+00 4.9549626129807496e+02 -9.2383157032127379e+00 -7.5814767125599715e+01 -2.2818073551030523e+01 6.8737531164405785e-01 4.2367294965136466e+00 5.2982800579411560e-01 -9.6326964859326836e-01 2.3602656839648262e+00 8.9165477640926838e+00 2.1723894057143480e+02 4.9710533272950386e-01 2.0906496130617941e-01 -8.7567352113546804e-01 1.2445027201659120e-01 -6.0120398130311514e+00 -1.3765641806376494e-01 -3.2049251323333010e+01 8.5029261389809108e+00 -8.9168020519427955e+00 2.5046151303453371e+01 -1.2981349934045738e-01 2.7952804398482840e+00 -1.0670324703954746e+00 -3.8577923261842244e+00 6.3353455118769539e+01 1.8456702960764238e+02 -3.6422296385474328e+02 1.8474157436762215e-02 7.6439914183441182e-01 7.0062696433160454e+00 -1.7920788366761569e+00 -2.4725274157888272e+01 -1.3348669733546636e+00 -2.0361427509209736e+03 9.7699396012006599e+00 1.8620658279845273e+02 -4.0438432877415028e+02 -1.8366203377245525e+00 -9.8868968504711514e+00 -9.6100697225875123e-02 -3.7539589602808121e-02 2.8568893276866651e+00 1.3273981591150482e+02 4.6974818150897823e+02 -2.4416050915905699e-01 1.1627644644306656e-02 -3.3431090437995897e+02 3.4608524223405102e-02 5.0667523202419673e-01 6.9871621375456300e-02 -2.6807895342710212e+03 -2.7369902177109410e+01 -3.1480951078506433e+02 5.7181831347342711e+02 1.1850703712795119e-01 -9.0339332207917289e-02 8.8831146602495187e+02 
      </Row>
      <Row Index="80">
        2.5726399758261675e-01 1.3576000068778740e+00 4.5575001494289609e+00 -4.3016381874058425e+00 8.1863343412987888e+00 1.4666145741311837e-02 3.1835107633091558e-01 4.2898694832940237e+01 4.2799487613610865e-01 2.1410004197277885e+00 -1.1146367768730778e-02 -5.9875189348394997e+00 -4.9841322768945247e+01 7.4424850629606389e+00 4.9288744337314711e+01 -1.4345124419723421e-01 4.8187514134451703e+00 -3.1410883755279428e-01 1.1829400867362665e+00 1.1614500428470759e+01 -1.3012183716331492e+01 -4.3247547495923936e+02 2.2365363474280231e-01 9.1466074650774290e-02 -1.3756940816593305e+02 4.4061061211433744e-02 -2.9250850296193676e-01 -7.0685624890103327e-02 -9.6198603131639864e+00 5.2385560112270273e+00 -1.8626598129282797e+01 -9.8077508809714345e+01 -1.0196010146847811e-01 1.9298224420224070e+00 -3.4670345660515522e-01 -8.8210683184570371e-02 -9.5197252278339874e+00 9.4593010364915244e+00 -4.3087236816063523e-01 7.8473374036207133e-02 2.2172836500694443e-01 6.0389549268817063e+01 2.9258310574700858e-01 1.3218478441285697e-01 -4.7016237759848423e-02 -1.2366331383283978e+01 2.5682786535107880e+01 -3.7436113559051591e+00 -1.8737189752332051e+02 -5.3418432947637484e-02 2.9697310446886869e+00 -8.3720616063832320e-01 -1.5047001128365305e+00 -6.1696488054330985e+00 1.4606403829428018e+01 1.3245997099019587e+02 3.3015514298760773e-01 -2.1683610978949841e-01 8.9848316928255372e+01 1.2811724180587347e-02 -2.1766614087233727e-01 3.8222985821744423e-02 -1.8117921200157980e+01 2.4305231285916960e+01 -3.4016213082395552e+00 1.0886225979204755e+02 1.9352409410310040e-01 -5.1188934909103230e+00 -3.5704863679836762e-01 -6.7486546045074647e-03 -1.3630754058238381e+01 1.2010803874596604e+01 3.0698663577437401e+02 3.7786722163431818e-01 -3.9210325945292002e-01 5.8038052344869357e+01 -5.2494520820141588e-01 -7.6608816922453116e-01 2.2494501037325515e-01 -1.0727494573307922e+01 8.6518525344703448e+01 1.1600231104336498e+01 -1.2640152330489838e+02 3.1256251213873193e-01 -1.1180326975191946e+01 1.2619519882257840e-01 -1.1591367770961369e-01 -4.1450421806461897e+00 -4.7712436918372987e+00 -3.6261810232838616e+02 -3.5063239067726748e-01 -3.4825241968805473e-02 -3.4581891497109609e+00 -5.7469350516445070e-02 7.3794248311423871e-01 -2.3731330734893696e-01 -5.9329047619467019e+00 -4.5553608157140076e+01 1.0202803447926271e+01 5.4731409202999203e+01 -2.3609091128443987e-01 1.2365433656123059e-01 2.3360578531207202e-01 8.2247579055447517e-01 1.6219974484787304e+01 -5.5177850851720557e+01 -1.4360361139252745e+01 -1.0625396770207101e+00 1.2910151212814608e-01 -3.2680742087707251e+00 4.1284107016555177e-01 8.7639810717197397e-01 -3.1772387601292346e-01 -2.7838584494654839e-01 -5.8751182726540002e+01 -3.8086353353263505e+01 -7.3298420476084345e+01 -1.9052256052931302e-01 6.2830733609739076e+00 -4.1811016902738540e-01 -7.6012449059985894e+00 1.9414198785809454e+01 -1.9502076839018162e+01 4.1177774234674871e+01 -1.1121949496523031e+00 8.5088027495639063e-01 -6.8959350296950390e+01 2.0269226359142598e-01 2.2804564731979324e+00 -2.4711968057065270e-01 1.8020234204391549e+01 -8.4146369311100230e+01 -3.4230914841738638e+01 -2.0160884697291920e+01 -6.2881957883684780e-01 1.7424426836884166e+01 -1.0150347071140282e+00 7.3058814780938430e-01 3.6974557119085256e+00 -1.2114740319751995e+01 6.0446662643291177e+01 -3.8506001726365291e-01 -1.6526380929370649e-01 -7.9101692782074679e+01 -2.6218224998787187e-01 -1.0673720239444200e+00 8.5623096506844382e-02 -7.9005160945185366e+00 -1.8285787137326281e+01 -1.4354212857883084e+00 5.9476930650082046e+01 4.5284999307013596e-01 3.1352282139199978e+00 1.1318302652857253e+00 -4.9062950189266985e+00 -5.4273945674810591e+00 -5.3070799684093686e+00 -6.6957652179760862e+02 4.1589957054829352e-01 -3.0425417834938806e-01 -3.3296937526181637e+01 -1.2590000949780342e-01 -8.2606678221085161e-01 -1.6301265192769671e-01 -8.8269864816283956e+00 -2.8662357712455890e+01 2.5098743089233025e+01 -1.7224866697502790e+02 1.8996784667285771e-01 -3.0726370706285620e+00 -2.0716605445763712e+00 8.0812231025310517e+00 -3.8210199219107608e+00 -3.4750230013536353e+01 1.4639479608837792e+02 1.4332921675816672e+00 -2.5327096887975398e-01 5.7681195829225658e+01 -4.1473246557551191e-01 -4.2053239098901845e+00 5.4234239917103322e-01 -2.2225288474123658e+01 7.1866741350784622e+01 1.0733947815008946e+01 -2.2131592487159097e+02 -2.6969724957001401e-01 -1.6565279974154665e+00 3.5967968809450213e-01 -1.1139631353016739e+00 1.2863605984930473e+01 -1.7775476378621534e+01 -2.3191763633580376e+02 -8.3730265470047804e-01 1.2596711601589594e-01 -8.2639249018393457e+00 8.3425299904776484e-02 1.5660863032676389e+00 -8.2058613158729074e-02 9.3539685802534223e+00 -3.0859982185912259e+01 -1.6749248425476253e+00 -4.9202885084087029e+01 8.1780440474659599e-02 1.4965115962427262e+00 2.2343817541153821e+00 -7.5106043992106297e-01 1.6242258897899724e+01 2.1097109849859301e+01 2.7368018381053503e+01 -1.9838685768421063e+00 1.3472891768282980e-01 -7.7290642961481353e+01 1.1287570053212654e+00 6.6058153435665572e+00 -7.3983635991392638e-01 -3.8820230939146384e+01 -2.0929212572668314e+02 -7.0704707726743905e+01 1.5052390039014367e+02 1.9416802986634951e-02 1.5334557192425438e+00 3.7121149617333593e-02 6.5302917306188917e+00 -2.1688469976909897e+00 5.2777981573358488e+01 1.9728580090776319e+02 9.8215888569643944e-02 -1.1119835970182379e-01 7.7453310917882277e+01 -1.9357707501884029e-02 -5.9786127034380687e-02 4.8660444061246089e-02 -1.0833578189843894e+02 3.8339212021078839e+02 1.4080159286117055e+02 -1.5989197210787063e+02 7.0037348897377741e-02 -2.1611307873423041e-01 -1.4243903504348296e+02 
      </Row>
      <Row Index="81">
        -2.7835646558641614e-01 -3.2035115996641252e+00 -1.5374884522687353e+02 2.7524624699217384e+01 2.1430142165371217e+02 -2.2324706814384920e+00 -6.6362319168915795e-01 -1.1412527453326038e+02 1.2658082455075510e+00 3.3436655896693992e+00 -2.8896724904755722e-01 -3.0441156953567770e+01 -1.1698902756008465e+01 -3.1809959609476164e+02 -9.5559213926364464e+01 1.5656213059489414e+00 8.7410326760218595e+00 8.2239313515447066e-01 6.1822773760513883e-01 2.9598030652943876e+01 -2.5843902069027536e+00 -7.1413891581818461e+02 2.3436987943335343e+00 6.4709430127935508e-01 1.6323894934132113e+01 -2.5624591187748140e+00 -2.2290259958754177e+00 4.2951251344214825e-01 -3.3904001365664385e+01 -1.0977295989482343e+00 1.2319132833240496e+02 1.8045206015149597e+02 -1.5989502815111649e+00 -3.2514620772130698e+00 -1.2198027297949920e+00 1.1086219631451968e+00 1.7573534965019280e+02 7.7382798933074810e+01 1.2285642840340734e+02 2.4659347620952303e+00 3.1688877969711149e-02 -6.4813185405218974e+00 1.8328204768964673e-01 7.9805410959124856e-01 -3.9016830105026656e-02 3.2850768560019787e+00 7.9513681629177881e+00 1.7905322137154872e+02 1.4502472881847643e+02 8.4652007302656784e-01 -2.2999004996685386e+00 -8.6474365062697700e-01 -9.7029491740666778e+00 1.0262869727293582e+02 -1.4033032659385935e+02 6.3564442431554198e+01 -3.9774108694933830e-01 1.3262990165565851e+00 -8.0302288369741291e+01 -2.7199735188255465e+00 -5.2947282386114836e+00 2.0080422258331893e-01 2.1168563600658672e+00 -4.2427750725833349e+00 3.1575372185515153e+02 -4.9387588132987730e+01 -3.4099614837197825e+00 8.7113313413048843e-01 1.8217666805905992e+00 -1.3187512772019545e+00 9.2077204931752931e+01 -1.2585356690027402e+02 2.9953233673051000e+02 -9.1734009209204714e-01 -9.8942049321636416e-03 -4.8224640799162444e+01 -1.3319203340288368e+00 -3.8517120555625297e+00 -5.7368133420133383e-01 1.8305458360700868e+00 1.1600230467614892e+01 7.2738462030902224e+02 -2.5781478670315664e+01 1.0698188075210737e+00 1.3598689667790325e+00 -3.6770002792255330e-01 9.2917389426656882e-01 -6.9787753296762375e+01 1.1489440153847681e+01 7.8987374344840646e+01 -5.8584067709406140e-01 -2.1681580899088826e-01 -4.8805413256042812e+01 1.7158071102733530e-01 1.1057926745597797e+00 -1.0802249914673157e-02 -1.1656074118785909e+01 -5.2696033021285587e+00 -1.7167233012647921e+02 -1.1060224726665183e+02 -4.1511084417297561e-01 5.5096277948523493e+00 -2.2952022051294145e+00 1.4150018434539055e+01 3.2684075956925159e+02 1.4582026052179913e+00 -1.8722415072292279e+02 7.5835760717015255e-02 2.0444427633142990e+00 2.0480019669744377e+02 -4.7805103368830428e+00 -6.0936349244804120e+00 5.9195071455638493e-01 3.5691789972114925e+01 2.6730395465111698e+00 9.2758431050179740e+02 4.5369198400354378e+01 -4.1120833350781831e+00 1.3421700745689034e+00 2.9142650050646379e+00 6.1663124802146072e+00 1.0917126037855786e+02 -2.5828725058255046e+01 1.1467676879838109e+01 3.3301174956779538e+00 5.9855710954526553e-01 1.4426114857584230e+02 -2.0716206125410421e+00 -1.5677972820406225e+00 1.8851405904562246e-01 1.2404301104241227e+01 1.3080104609053578e+00 1.4938719535744735e+02 8.0728774980256389e+01 -9.6605627416536510e-01 -1.0047335738235432e+01 -1.7160766079709924e+00 -1.1711000124958488e+01 -2.4615808870445356e+01 -1.4222749463685886e+01 -5.0498809299453569e+01 8.6346888606133554e-01 2.6568963996298933e-02 1.1210200292704394e+02 3.6929579357403020e-01 -2.0222008842496564e-01 4.5928749604233488e-02 2.9310733946692835e+00 -2.8888501090244398e+00 -2.7632382947301309e+01 -3.0147244830257591e+01 -8.5327037965301500e-02 -9.7070455705456737e-01 6.5938242763998045e-01 -5.0901209913580061e+00 -1.1302413604638778e+02 1.1899097260649705e+02 -3.5214831784805574e+02 -8.0179441580870936e-01 -4.3247641314373553e-01 -7.1677788024637266e+01 2.2542370269332892e+00 -7.1299887959216335e-01 -2.8725182433415819e-01 2.0173269219348526e+01 3.1182051570145575e+00 -2.2766981496702931e+02 -5.3202713875406914e+01 2.7945627295452757e-01 8.5726888744210044e+00 -6.1069779092195571e+00 -1.8789612896067496e+01 -5.1749434307642764e+02 -1.8788225373534735e+02 2.9980130883782113e+02 -1.1331902146165397e+01 -1.8250417598950273e+00 -1.8102969435494344e+01 7.1823393596898439e+00 4.2268866327391681e+00 -3.7475463596197551e+00 -2.0871408339799669e+02 -6.9493424962230410e+00 1.5911794948372037e+02 -1.4221715560136067e+02 4.9872763181468853e+00 1.1072924563717127e+01 4.7537790178466821e-02 2.5371259727762663e+00 -4.3177202173552359e+01 4.7072958112461492e+01 -2.1871023001076537e+02 2.6752719838886989e+00 -2.6838783767294627e-01 -3.9326941656516283e+01 4.5384312576601848e-01 3.1549983215727480e+00 -1.7508928722510020e-01 4.2643778584315442e+00 -2.7200152704608627e-01 -2.0286001140647568e+02 2.1878214452182874e+01 1.0867677654649981e+00 2.9379623853628800e+00 1.6730126909189780e+00 1.7195847646845142e+01 6.3678321444721269e+02 -5.5962206099530374e+02 2.3587175991817730e+02 9.5685416177221647e+00 3.6198624765943457e+00 -9.9577695243613562e+01 -1.1565032673050993e+01 -6.5144688643476663e+00 4.2878541459452233e+00 -3.5283434739840663e+02 -4.6358053014775408e+01 1.2449607574811016e+03 2.7757549188388521e+02 -9.3741289256455289e+00 -2.6485260498535723e+00 1.0481616330561110e-01 -7.0708159105127084e+00 1.6688275757141291e+01 -1.6617451033787570e+03 -1.8796828185827421e+03 -2.3694722892365103e+00 8.5402440445378147e-02 -5.1394288322061175e+02 -8.2910889687996897e-02 1.1627149119341595e-02 -8.4537729772101375e-02 -9.2827789638273634e+02 8.1685410431795802e+01 -4.0813173047221517e+03 5.6013328374383519e+01 5.9691978936583590e-01 4.8232142215235352e-01 -2.5087354088733497e+02 
      </Row>
      <Row Index="82">
        1.8736634346281278e+00 1.4950641473420546e+01 -7.6307455896749161e+01 5.3097622216271702e+01 -1.2864342669658363e+03 -1.1160885096402540e+01 2.9149393644908494e+00 1.2104006455112249e+03 -4.4995243537155813e+00 -8.9068885582964867e+00 -6.8581941826425137e+00 -4.1325676233431295e+01 3.2008380546525586e+01 -5.7315563535597732e+01 -3.0266251013316796e+03 5.0432848363782057e+00 -4.5023708388835075e+00 -8.5622704057823285e-01 -5.9545065088022966e+00 2.6964472345999589e+01 -5.1638063041958958e+01 -2.2232629818916321e+03 -6.2910709298793535e+00 -6.2948210413188388e-01 -3.8658895822853083e+01 9.7325780529681749e-01 -2.3730454970500432e+00 2.4789259932294954e+00 -4.0227462583795841e+00 -1.2487771504876775e+02 8.2556423081176035e+01 4.5790655405786820e+03 4.0234244865854407e+00 -2.3044691977077225e+01 -2.0008455264542135e+00 -5.7770741185668157e+00 9.5166828359710053e+01 -8.7702272012829781e+01 -3.0641486699879169e+02 -1.2953737658062892e+00 1.2894196294801423e+00 1.7949078114088625e+03 4.1355045851076051e+00 -4.6793568526918534e+00 1.7765883046376985e-01 4.0641400979016908e+01 -1.1208949531719554e+02 7.4508731239882763e+01 6.2206377404252999e+03 -7.3312872132883058e+00 -5.1602470833413079e+01 3.3386306485275652e+00 -2.7886618058842544e+01 -2.8887246269092429e+01 -6.9756305201910436e+01 4.0560579508543015e+01 -3.1536190942252674e+01 1.9694233485447841e+00 7.1208866867423058e+02 4.5795196107379184e+00 -8.3303331857414378e+00 -1.4834214314931704e+00 1.0203624382527778e+01 1.7472366920286589e+02 -7.2066405864898115e+00 1.7101084447996691e+03 -3.1488528480928393e+00 2.4036721024819201e+01 -1.0396129356362508e+01 -6.6167872519290540e+00 3.1398921664862428e+01 -1.9617725806916133e+02 5.7405616670548916e+03 -1.0820568903857293e+01 -1.1211461185366642e+00 -2.6759081718325615e+02 -2.5958568642927276e+00 -2.4572216194355860e+01 1.3779150277873513e+00 4.5262787548126653e+00 -1.2640152105430025e+02 -2.5781586670527759e+01 1.3083057298200452e+04 4.5044891744510096e+00 -1.7881690630416870e+01 5.8194205924602374e+00 1.1185057397175115e+01 5.2926063818386382e+01 -7.1016099082771689e+00 -2.0620532813221216e+03 2.2409590868667145e+01 -7.2833469793435568e-01 2.6552574360993458e+02 1.2740153766745781e+00 6.8306037240399746e+00 5.6308139125577910e+00 3.3895425547845662e+01 4.6328304347708581e+01 -1.7773839790880447e+02 -5.4105987663643900e+03 -4.5627449511073372e+00 1.9830484669684665e+01 -1.0390018528961580e+01 3.1630532739604746e+01 -2.2817959462405440e+02 -4.0947739677738127e+01 -1.4235624020737305e+02 -3.3681449365750026e+01 -3.6254693268098070e+00 6.1052460812214304e+02 -5.6416771412691009e+00 -2.8771809303658458e+01 -3.4111612167029293e-01 -4.7251943699601838e+01 5.7495697195954449e+01 3.4493313787426263e+02 -1.4936689012364914e+03 7.7320035065463699e+00 -1.6652569466078134e+01 1.7601521157651352e+01 1.1241807964786377e+00 1.7086144602289724e+02 8.4114735467970604e+01 -5.5598880612850189e+02 4.4321884351483639e+01 4.7635430561539431e+00 -1.8258402618650780e+03 3.5169932501907657e+00 2.0285130767033831e+01 -1.4380475758648514e+00 6.8922960810494374e+01 2.3872187690701736e+01 -3.0010641505224726e+01 -1.2432310050772259e+04 -6.5193098601613215e+00 -8.7131704628166062e+00 1.6088668644868051e+01 -1.3602880149435151e+01 1.2083366732761414e+02 5.0512410888750355e+02 -8.9729276783023670e+02 3.4061639209214576e+01 -1.9318594646716152e+00 -4.9789892734820023e+02 2.2481885557651449e+00 2.3975075586404166e+01 -7.1074701793199668e-01 -9.9704890849572621e+01 7.5337459367707481e+01 -3.0259452918123338e+02 -3.9845343260764621e+03 -1.0772520193470664e+01 6.8048234853100084e+01 -1.9873012087418150e+01 1.4673449085338106e+01 1.9283191308875701e+01 -1.2181254654204224e+02 -1.2321173583880300e+03 -2.5871601683372166e+01 -7.8639356275425030e+00 2.0634182290112049e+03 -5.1189288188288273e+00 -1.3834173929176814e+01 5.5768921366404811e+00 -1.9903777666732594e+01 -1.6936978702147320e+02 5.8475494607071994e+00 6.2308990893616519e+03 9.3385699319233630e+00 -7.0084568637178151e+01 -1.8447670916929155e+00 -2.9279796509265573e+01 -3.2776046658088870e+02 5.1659170857037225e+01 1.0049094931287109e+03 -1.1562645952335410e+02 -4.1996473852411604e+00 -9.0500960749448018e+02 -1.1447974949046881e+01 -1.3192623016236664e+02 2.2014855413093812e+00 -3.5600002024702644e+02 1.7367493371598493e+02 4.1368487307439784e+02 8.3021165663020765e+03 2.2437891394852155e+01 -4.0103760555160676e+01 6.0331876204472792e+00 8.8385520817246288e-01 2.4201155571034178e+01 1.3875879685208201e+02 -9.7879450866283332e+02 5.0775683454536818e+01 2.2885444442644087e-01 5.4149354477238376e+02 1.5484054794719615e+00 1.0019810021214653e+01 -2.8341868404800241e-02 6.1406064927577972e+00 8.9985501803676016e+00 -6.8104967817664146e+01 -5.9967306818291545e+03 -2.2330186418241738e+00 -1.6579046875667700e+00 -4.7080916064689244e+00 4.9108443697042752e+01 -2.7342320013394897e+01 8.9530709383382145e+00 2.8058107275793918e+02 4.3895953948636773e+01 3.8695088027435709e+00 1.8342853413526900e+03 6.1626966971531942e+00 8.8210152539912954e+01 -5.5780274223946167e+00 -4.5341924930846312e+02 2.4070592633925389e+02 -5.4232728486333102e+00 8.5860757023354381e+02 -9.6061964673861233e+00 4.7564517144644128e+01 -3.4791464164444030e-01 5.1826130170175830e+01 1.0559448711258398e+01 2.1165245393180987e+02 3.3572966414555623e+02 -7.5307136740190955e+01 -1.5789764445337369e+00 2.9268196836071597e+03 -3.8517297461362143e-01 3.1502959134715525e-01 -2.1768503726992514e+00 -1.2199020021127135e+03 -4.0461065137326966e+02 -4.3492284484497850e+02 6.7396930415405586e+03 -1.7518328081766215e+00 7.8512901518277545e-01 -3.0325139887543619e+03 
      </Row>
      <Row Index="83">
        -1.9920287348516780e-02 1.1205085604608200e-02 2.4485154943027965e-01 4.0043120900620011e-01 -5.9533133723743958e-01 1.5772404254244740e-03 -2.9652280673253054e-02 8.7468570474663920e-01 1.0757676040413425e-01 -5.4938940713867623e-02 -2.0421765580697168e-01 7.8392338285514995e-01 -3.1581417826691904e-01 1.4226370922903904e+00 -3.1456526838362038e+00 -1.6849513320242560e-01 7.8703186667510749e-02 -2.0663323602991390e-01 -9.7422429119802700e-02 1.1659890463266720e+00 -1.1577825985091295e-01 -6.2548128478811122e+00 1.1331699064893119e-02 2.7660660051419386e-02 3.2472937035808513e-01 -1.4181430392756239e-01 -1.2139381839114094e-01 -5.3555784126249506e-02 1.5284724154307696e+00 4.7749539902934179e-02 -2.2282008023684217e+00 5.1829471141581962e+00 4.0993280234053925e-01 -9.4429982183478728e-02 4.7730995627848216e-02 1.8468226752169414e-02 -6.4562224723516692e-01 1.1601110353994954e+00 -5.2617387838654395e+00 -3.3403822316044440e-02 -7.6072605744798585e-02 -2.2331864054249309e+00 1.2248694941746961e-01 1.9081795634332366e-01 4.9066782720856628e-02 1.6624221869711846e+00 3.2412713121863135e-01 1.1502905767576976e+00 7.7269208244202900e+00 -8.9850438076030059e-01 -3.1298836698819898e-01 -4.1570954603499237e-02 -4.6218277567705024e-02 1.0422049693584654e+00 -9.9226877519095069e-01 -1.0620158305289806e+01 -7.7260341248619469e-03 -2.2097187142408558e-02 4.7413103135659185e-01 3.4524299896791927e-02 -2.5547971324347940e-02 3.6618824018608151e-02 4.4235010886254145e-01 -5.6026325176060876e-02 -1.5820017960134578e+00 -1.3783834009700513e-01 -3.1480638737623873e-01 -4.2209547414075899e-02 6.8295362302130513e-02 9.4288560447949976e-02 -4.5903390231904950e-01 3.6048708223461290e-02 7.3361765517765889e+00 -4.7411981323202568e-02 -7.1215279637508976e-03 -1.0155885539959399e+00 -7.1804960966069586e-02 -2.4931114616123295e-02 2.8485922106042977e-02 -2.3631297150029695e-01 3.1256251117008560e-01 1.0698186867957453e+00 4.5044890653081211e+00 7.4604506326560127e-01 -6.9278111863577685e-02 2.6416861568437200e-02 -1.0903538223436726e-01 3.8633397398248159e-01 -8.7837530384194906e-01 -8.9024035736947553e+00 2.5289732589791121e-02 8.2440121731244598e-02 2.0945887262308531e+00 -4.3431400118203657e-02 -1.5328783906548438e-01 2.2534883358438998e-01 -1.5248644383439114e-01 -2.8948725781884099e-01 -6.1857170723459376e-01 -4.1255925190882863e+00 1.0318226330496001e+00 3.3885406848654043e-01 -5.2557060534435936e-02 4.1591142447699070e-02 -1.0581480904055240e+00 1.7384226257819186e+00 -3.4736878126506099e-01 -2.0803926207994483e-02 -6.0676079122422982e-05 -1.8734599343944902e-01 -5.8593392130102881e-03 -1.6618305802404876e-01 -9.4460401187022189e-02 6.8434344957007553e-01 -4.1096044557178768e-01 -5.5256160627332651e-01 -4.0238603592774442e+00 6.5665036251468689e-01 -2.1949822126390783e-01 1.2372284197484659e-01 -1.9584390064168566e-02 8.7532606663015144e-01 1.0677341998273988e+00 -1.9187746063107625e+00 4.2493347865957959e-02 1.0046851129570553e-02 3.6499908972549022e-01 -4.6875096163754279e-02 -7.2356459119906624e-03 6.8832403310458409e-02 -2.6530369597614190e-01 -3.1603366905354635e-01 -2.0295334840388586e+00 -6.3207587246776455e+00 -5.0816996261693864e-02 -7.2218551193302916e-01 -4.3398769308256646e-02 -9.5275838493353859e-03 2.5345436772951402e-01 9.5807020370556728e-01 6.3068195087884078e+00 9.2085099658761049e-03 1.5195225497827841e-04 -1.5446892521347309e+00 1.4760029855079648e-01 -1.0849491603280836e-01 2.7171996588991926e-01 2.6545953995132265e-01 -1.1211366581765803e-01 1.2638200026992807e+00 -1.4855759527437566e+00 -2.6376730225102796e-01 -1.3595074063013379e-01 7.2036326233309633e-02 5.3275930223437129e-02 -7.1030583292369254e-01 4.7670015066840676e-01 -1.2804351409123683e+01 -1.9856592334668535e-02 2.7453097391190659e-02 2.2158968085598474e+00 -9.6069107426031627e-02 -2.3568903191526047e-02 -1.0715865036446379e-02 1.5577565270917759e-01 -2.3859202787531864e-01 6.0121753664920874e-01 9.4062239214374586e+00 4.2991346025057842e-01 6.1425353645448144e-01 -2.9318052035385489e-01 1.9768973187251099e-01 -2.0445125189912821e+00 2.0524322109589557e+00 6.0623985651841394e+00 -1.6758046405639888e-02 4.1881533572470236e-02 5.8271672068492464e+00 -3.5513869948932941e-01 1.4663412479456184e-01 -3.6943674800827986e-01 -1.8964996387123025e+00 7.4590212573749404e-01 1.3504328790354643e+00 2.9700875375745759e+00 8.0485444987760957e-01 -2.7471647798934518e-02 -1.1821252692245032e-01 -5.1724295106225782e-03 -3.9195852335706149e-01 -9.5663782156407251e-02 -4.5196839631107650e+00 2.0501542038790704e-02 -1.9003549385780930e-02 1.1495026574511940e+00 7.5703313010766521e-02 8.6660455607450615e-02 9.0766083993232653e-03 -3.9481333818821440e-01 -1.0166470537732053e-01 1.7278349221442113e+00 -2.8507103489173460e+00 -2.3904135984170027e-01 -2.4466818456225781e-02 -6.1968426003134403e-02 -1.8222153485921411e-01 1.2132442698105796e+00 -9.6464511009794096e-01 3.3317688977596731e+00 1.0077646306016794e-02 -5.7225117170932968e-02 1.6745100917139553e+00 3.2789946932808672e-01 -3.7693416018496839e-01 1.0354356659068314e-01 3.6736424646830721e+00 -1.8466046045597140e+00 -8.4316822685257797e-01 1.5101900263254331e-01 4.4624002472311197e-01 8.7700781622384927e-02 9.7429043788585731e-03 1.0893675636738992e-01 -7.8787634541650636e-02 -7.5720151439532069e-01 3.4885751987328808e+00 -2.8480752485620927e-02 6.0743044039380800e-03 1.5406602378109207e+01 1.1335840081859838e-02 -3.2309942309699524e-04 -9.2348098945907606e-02 3.7702359935783347e+00 2.1903673118738634e+00 -7.6932285190831362e-01 3.9855050004165724e+00 -3.1389896347941010e-01 1.4236239466117219e-02 1.7962736200944676e+00 
      </Row>
      <Row Index="84">
        8.0517528712712616e-02 2.3885411164360448e+00 -2.0632788917318976e+00 1.4232657463206124e+01 -7.4291022600373253e+00 -8.0749129878324666e-02 2.0473679519551347e-01 2.6978783515936811e+01 2.5478214336389704e-01 -4.2760789374733577e-01 -1.5542759559137398e-01 -2.1597458943990659e+00 8.0440397800848586e+00 -2.0103656644569270e+00 -1.4962362990845577e+01 -3.2003787841132436e-01 3.9632706071438406e+00 -7.3600956707900878e-01 -2.3658802019349423e-01 -3.5796549309594177e+00 1.5804571950546233e+01 1.0502002516202629e+02 6.0544083632038337e-02 1.0421398254859074e-01 -1.2179616714902295e+01 2.0794682236641798e-02 -1.8510875451866013e+00 -9.3951719996738348e-02 -4.5491706465606399e+00 -1.3117978125913972e+00 4.3997878376012522e-01 1.0972044899113826e+01 3.7302153763246082e-01 1.7765240677137217e+00 -2.0075677127147173e-01 5.6080536850595308e-01 4.6930936099488463e+00 1.8457316132844426e+00 -1.0265950625762343e+00 -1.1081098768613629e-01 2.1328521664337563e-01 -1.4161602343665436e+00 -1.0446173811269044e+00 -2.1550771548172634e+00 1.7038105774400947e-01 -5.5071889798855409e+00 -6.6893260576762259e-02 -2.3691424362950784e+00 2.9290213965388830e+01 -5.8132216663921099e-01 -2.9222325338080786e+01 -5.2498653018620356e-01 -1.5274244707905629e+00 -3.0890496927459026e+00 -1.7090629138867371e+01 -3.2643526325933635e+01 1.4422809656601587e-01 -3.4327627394732718e-02 2.7447482040617615e+01 -2.0226326364579550e-02 2.3513831860573138e+00 -6.5109368818433766e-02 3.0596459031112317e+00 -2.5060568213971788e+00 3.1684029222087702e+00 -3.6116041844652500e+00 -2.8268345416047169e-02 1.3541525664430083e+01 1.4355706626577103e-01 -7.6966240806314090e-01 5.5604055017465726e-01 -4.7247963799323770e+01 -1.0462184981349856e+02 3.6115635204907903e-02 -1.6377788974592289e-01 -4.9558171893877443e+00 5.7995867590648231e-01 4.0988137177919270e-02 9.5282046971817635e-02 -2.0471347184284241e+00 -1.1180327066056634e+01 1.3598690466160406e+00 -1.7881688596367894e+01 -6.9278107704917602e-02 3.7926561144777182e+01 6.0241515808974366e-01 -1.3392792310696677e-02 2.6445219758474741e+00 -2.7499688863463234e-01 5.9824474079534411e+01 2.6816363297156004e-02 -1.2753869353723218e-01 1.6511403488837459e+01 8.8263867223759784e-01 1.8734814030558482e+00 -3.3108162110631056e-03 1.4624181580948061e+00 3.0604793268235113e+00 3.3633381768049730e+00 -1.9011253018834395e+01 8.0040070672436159e-01 2.4402783831836132e+01 -4.7751063625082107e-01 4.1995431552048288e+00 -4.3607376166528056e+00 -3.3138172005778401e+01 -3.2059213060234924e+01 1.1060031052859420e-01 -3.8278163848895735e-01 5.3366098429236573e+00 -2.7851282159474333e-01 -3.2161022650410978e+00 5.5697363989899107e-02 -4.4256998956786973e+00 1.3903072118916597e+01 9.5838764186390861e+00 -1.3446110019407854e+01 3.2859798450985478e-01 -2.9070661753821367e+00 7.3520301132132182e-01 -2.8061288902888908e+00 -1.0558369419054614e+00 -2.4322623997290425e+01 -2.7132507670670748e+01 1.1040643651628057e-01 5.7279264270451533e-02 -2.7578070350857445e+01 -5.4729176385825440e-01 -1.8369848895585061e+00 2.1200947338102266e-01 -1.2595500733178966e+01 1.4027948322452204e+01 1.3130749819462686e+00 6.0540074184238293e+01 -1.3858155118871063e-01 -3.3731285325283700e+01 -5.9515880124293852e-01 -1.6957909180517277e+00 -3.4100530938939855e-01 -5.2420111018413138e+00 -4.0389861733601265e+01 -1.7435634611016204e-01 -3.9111031513657724e-01 -1.2322639318008441e+00 -8.4524152970551458e-01 -2.9067397221157316e+00 4.2149496252502783e-01 -4.6911376080583693e+00 4.6674054176894515e+00 -1.8644542496406302e+00 2.5364098154259480e+01 8.6149593005069858e-02 -2.0749429149709009e+01 -7.3045380249747272e-02 -5.0857850061148469e-01 1.1577647385682468e+00 1.4752235675918655e+01 1.4060104957218027e+02 -3.2686401302869383e-01 -7.2419945186321222e-01 5.5132046879249543e+00 2.4391066627692748e-02 2.7906594390236923e+00 2.3486184686644818e-02 2.0035321716901535e+01 1.7042487825640578e+00 4.0136522813920550e+00 -5.4888515305398187e+01 5.5954329796085389e-01 1.0049785472314401e+01 -9.2231375616784539e-01 4.0235371310221888e+00 2.7818621165197186e+00 5.3055998491574092e+00 -1.2300559994775540e+01 1.7613937023782035e-02 -3.2941474722360919e-01 -6.2675267198992174e+01 -2.7281361431011697e-01 2.4565594065996805e+00 -3.1644825125698972e-01 -1.7661268022478609e+00 -5.6739696892827975e+00 -9.3200234207925092e+00 4.5168683009752435e+01 3.2989881678402089e-01 -2.1595658833117231e+00 -6.7755702306794774e-01 -1.2318970701689977e+00 2.9068628204840934e+00 1.9939976719440892e+01 1.0280658866260273e+02 -4.0172260583931418e-02 4.7943481522633696e-02 3.1588465219829232e+00 4.1536241607001423e-01 3.2926543203552683e+00 -9.6553073318828314e-02 1.8171259191294666e+00 2.2001198180878418e+00 3.0807484902325086e+00 -1.7610586048744153e+01 1.0538312606043121e-01 1.3680990910167566e+01 -2.6673076329099038e-01 3.3909836116725112e+00 -6.8076534686897787e+00 -1.9819736835311364e+01 2.9477743391283809e+01 2.7285252750829425e-01 4.4784743591925535e-01 1.2794757041247794e+02 1.2524849749956388e+00 8.9435628850139692e-01 -1.6792312943864957e-01 1.8155715283559097e+01 1.7951785362813041e+01 3.1233158588042340e+01 -1.2116301236783595e+02 7.0433043856180222e-01 1.3897070454518762e+01 7.6443754277602055e-02 9.8984545099067223e+00 6.1552577432605049e-01 -8.0369697467698515e+01 9.0797000072783689e+00 8.4506101806840539e-02 -2.0539460164329171e-01 1.4013883853524612e+02 5.9289079714623799e-02 -8.4890378335715777e-02 -6.1397788160554675e-02 2.5746496698905858e+01 -3.4063377265170210e+01 -4.3402415895866646e+01 5.1680936206307990e+01 -1.6255179493692146e-01 1.3323612035413535e+00 1.3369489061719520e+02 
      </Row>
      <Row Index="85">
        5.2675177791436933e-02 4.1257951440623231e-01 -3.9586269615938363e-02 1.6710701714636116e+00 1.8524156316503650e+01 -3.9598909787087855e-02 -8.7615128132168853e-03 -1.3204306723382615e+00 3.7898599556056796e-02 2.6033100666097653e-02 -4.1411418725781100e-02 1.2918093123028882e+00 -3.9133962578489445e-02 4.7900259096569231e-01 -2.5457044658952555e+00 7.4078640870501589e-03 2.6625997521031763e-01 -3.3283204010772494e-01 2.7442352527346259e-01 -2.4561098654363551e+00 5.4449674627949207e-01 1.5894694078247994e+01 -1.0829738347257589e-02 -6.0448225069576950e-02 -4.9562045754043993e-01 -1.3930485475769888e-02 -7.0596768285156486e-01 2.3038813915015055e-02 3.2311350372918781e+00 -2.8759713535512343e-01 -1.4936442435487862e-01 1.1526089480520113e+01 1.2069944021324308e-01 1.1770671287194445e+00 -3.5023598661082644e-01 -6.3204304199075523e-02 9.1082918022482318e-01 1.2574486211451585e-01 1.0261402685588109e+01 -8.8800496360867953e-03 9.2142495262043655e-03 -6.8153865123895230e-01 -4.5767858386227461e-02 -1.9189485165952647e-02 4.4457977136076465e-03 4.1391791527327086e+00 1.8912015438831986e-01 -8.1939866598133904e-01 2.5534603209071065e+00 2.0203955643189886e-02 -4.7158724925027640e-01 -3.1485681098571611e-01 -2.9287759006438963e-01 -3.6450769254724946e-01 -1.7708387927723379e+00 4.4960902974416967e+00 -2.9459316205524000e-02 -4.3290132817933369e-02 -4.2473428072116803e-01 -5.8273031292728872e-02 -3.0173886369892755e-01 1.6419208404901076e-02 2.0214217316409417e+00 -4.3294387496487792e-02 4.8517785332478525e-01 -2.4642486334751084e+00 9.7215771728073969e-02 1.1322826401455088e+00 8.0444888107621182e-02 -1.6158706659182087e-01 -1.1155721852185252e-01 3.0459174614406948e-02 6.9853703328408301e-01 2.0483221449680400e-02 -1.4936476961126991e-02 -4.6593399987614248e-02 4.6776929999225558e-02 -1.4732749520271682e-01 -5.8973313217673962e-03 1.8335005265907967e-01 1.2619519387391165e-01 -3.6770013696497728e-01 5.8194199889057927e+00 2.6416860165653588e-02 6.0241514656532846e-01 1.0524678171799025e+00 -4.7458035149247735e-02 6.7611176906363291e-01 7.6880803550784549e-01 -3.4837325761327520e+00 7.4711610005034484e-02 -3.6932891346708054e-02 -1.3775946113243549e+00 8.9370374586315027e-03 -4.2695799753383312e-01 2.6532624059295851e-02 1.1662512809484724e+00 -1.5403909356230372e-02 -8.0294561843743395e-02 -1.5499902542169366e+00 -4.3483733676112302e-02 2.7181536446039445e-01 -2.0651714340866650e-01 5.9196050052718563e-01 2.3120450726180142e+00 4.4815862266741888e+00 -6.9152288993871025e+00 2.0994185830825796e-02 -4.2477341991611600e-02 -2.9969079074079410e+00 1.0493926030857428e-02 2.0754648443823331e-01 3.8522191837040122e-02 2.4978345552913028e-01 -2.2904473425290606e-01 -2.9146376686193447e+00 2.2678661131247608e+00 -3.4812890413923811e-02 -1.9538984109919788e-01 1.0375298608838382e-01 -5.2149810950281561e-01 -5.3269596108279482e-01 2.0343997299139582e-01 -1.0390837457176531e+01 1.2802398918246638e-02 2.1139866075401689e-02 2.4461784516264000e+00 -4.0648121088852074e-02 -6.6239519840789973e-01 4.5517061012439464e-02 4.5046642122878744e-01 -1.3111727677770357e-01 3.3288166406993103e-01 -1.0427069223012452e+01 -5.8081826246601881e-02 -9.5008954055574779e-01 -6.6620242780673244e-01 -1.9487693173205584e-01 2.9148101042888941e-01 6.1494847375666950e-01 -7.4297309039989159e+00 1.0477868305088067e-02 -3.2938634383612719e-04 3.8281776477742824e-01 7.7314212944041255e-02 -1.9296613641562210e-02 5.4190293884632368e-02 1.1874672690793009e+00 -3.0659537516747681e-01 -9.9344552333297287e-01 1.8282319680542045e+00 1.1454483759789161e-01 6.9040939869490114e-02 2.1721795873997857e-01 -4.1883820190875154e-01 -9.4145492692514399e-01 -5.1188542429383976e-01 2.0736707808678148e+00 2.8504056829282975e-04 3.5756204515581924e-02 -9.9689080012363007e-01 3.6268240806113169e-02 6.3474281828236379e-01 -4.3994655361148507e-02 -1.3010393678429573e+00 6.8499458021982873e-02 1.3341582496980848e+00 2.7653042411910427e+00 -5.5316047590390396e-02 -6.1148861279612676e-01 -4.0579309225370375e-01 9.5117943257049431e-01 3.2706626236625436e+00 4.4675504797047658e+00 4.5316340036360998e+00 -6.9865704272528958e-02 -6.2429043259017922e-02 -3.0478061288484710e+00 -1.4872133704918050e-01 -2.9681964940273597e-01 2.7657840204143636e-02 -1.7951329820535271e+00 -5.6809663626844009e-01 -9.8748642796279285e-01 1.4122969868973311e+01 1.0505707166640887e-01 5.0121870558519477e-01 -2.3169587050181661e-01 5.1566651779921813e-02 -8.0190569055389460e-01 1.7422266710927943e+00 2.0279785809117129e+01 1.2536069426742569e-02 -1.7317934320275619e-02 -9.7147372157542122e-01 -2.5916039631703136e-02 -1.1541799719216783e-01 -2.1713975338250577e-02 3.9884598432217899e-01 1.6939995595322443e-02 -8.0921754404698731e-01 -1.0281313930090619e+00 1.4637485855788768e-01 1.2341837227732242e+00 4.2541181583152404e-01 4.0975015628795336e-01 -1.0693606268304823e+00 2.4443979368710425e+00 7.7094251553054960e+00 7.2436368656621564e-02 -6.2885448194903548e-02 2.3937883936387152e+00 9.3875501089568658e-02 5.0712761112547522e-02 -8.8346334020751593e-03 8.6048897476220993e+00 -2.6464213682129423e-02 -3.6734185864366280e+00 2.8202165197345437e+00 -8.6992963546503557e-02 6.1008927537158941e-01 2.8178452048680035e-02 1.3687736398418919e+00 1.5665640380225104e-01 3.8955196426605894e+00 -4.5072100556479278e+00 -1.2853591569336395e-03 -3.2580702954310148e-03 3.3430983177798499e+00 1.0429953129421410e-02 1.9152277698462380e-02 -1.4007820149977132e-02 1.5309420694122320e+01 6.7720937645291290e-01 6.1293753023373441e+00 4.7810368714811435e-01 1.1827917987026123e-02 3.8030344468609284e-02 -4.8594059349817789e+00 
      </Row>
      <Row Index="86">
        -3.2053405491153208e-02 4.4029368624588443e+00 -1.2422198399947888e+00 -3.6465059017800456e+00 8.6307623846896604e+00 -8.7627190487492373e-02 7.1069123550043287e-02 2.2425413294465670e+00 -1.8058097368162537e-01 1.2890163988949013e+00 1.0023818493490011e-01 2.2337809437366118e-01 -6.1557189116351196e-01 -1.1493959234472584e+00 -6.9754085409030893e+00 -2.8290526346929051e-02 2.0435954948992574e-01 -9.9273728360202540e-02 7.6152678833432041e-01 6.7103972423665503e-01 2.1198031410261819e+00 3.0039710868179100e+01 -4.8923142383089709e-02 8.4087587498638053e-03 4.9267461412810576e-01 -7.9961702232223861e-02 -1.7378077031870021e-01 1.4710150551163981e-02 -1.2632108184788038e+00 -6.4783620875202486e-01 2.6117775037949542e+00 -5.1629246134564255e-01 -3.3253875903477004e-02 -1.0305459480729118e-01 1.4538070693298266e-02 -1.5541315313418949e+00 6.7909175216260564e-01 -1.0181463962653652e+00 6.3035448191389150e+01 -6.4834397549480727e-02 1.1900414027712587e-02 7.0419755572729628e+00 -1.0771185065913930e-01 -6.7399889216648745e-01 3.0586950434721039e-02 -3.2578503646617776e+00 8.7954661065538176e-02 2.5945921764813704e+00 -5.2018139652855098e+00 1.2837997508361099e-01 1.1111026670286783e-01 7.3737070721465292e-02 -3.5598012339565646e+00 1.0333293458144226e+00 2.0354863559377918e+00 3.0679175293722074e+02 1.3475088083789327e-01 -2.6020935331554126e-02 1.5487669041922345e+00 1.1210704227952561e-01 -6.1368795736535731e-01 4.8851417653918566e-03 -1.8843296001413705e+00 1.7517429769619755e+00 9.3791216776310193e-02 9.9128877924940753e+00 1.5531672687843501e-03 -2.5108866527321627e-01 1.8985461885067778e-02 -1.4026600320826255e+00 1.2002592445047355e+00 4.5506822997367635e-02 -4.6224339424639766e+01 4.3535314447149531e-02 -3.5369624969670554e-03 -4.1319327547694229e-01 3.3129145073850097e-01 1.8484777482612458e-02 1.6740215732683250e-02 1.2689698671727001e-01 -1.1591365262759723e-01 9.2917363540597542e-01 1.1185057087602388e+01 -1.0903538307977367e-01 -1.3392795802585011e-02 -4.7458036976247175e-02 4.0063744200226097e+00 1.7249196501919339e-01 1.3149945169110424e+00 -1.4742912566216546e+01 -7.1445302177894215e-03 -2.5233392686602116e-02 3.4424602060368272e+00 -1.4964872139624941e-02 3.5958802395861511e-01 -1.7135428857412310e-01 9.6066916112567924e-01 -3.9178691813147704e-01 -1.5777052876446191e+00 -7.3736440063144073e+00 -1.9002173934141359e-02 -2.9549694386190595e-03 -3.0884802263017658e-01 2.5559613497571085e+00 -5.5278471753010372e-01 5.0548081964457481e-02 2.4200685553108315e+01 -8.9384194187879129e-02 1.0023560251122127e-01 -5.4212893101878663e+00 -3.5302408721908934e-01 1.9040960884418521e+00 1.4187122618744177e-02 4.2305765454380353e+00 -3.1392695837230824e+00 1.1002935578067763e+01 -7.2275471075740469e+00 -6.8073271261457291e-02 -6.5996326254196624e-01 3.2586375655359434e-01 -4.0098731808019945e+00 1.9374952467305597e+00 1.0475393560946777e-01 4.6815733898634790e+01 1.6774801488191127e-01 -6.6840858025793426e-02 -1.1686229716738012e+01 3.7284426054736031e-01 -3.9339625333974659e-01 2.5304647104344158e-03 -3.1214467858037178e+00 1.3220431483859221e+00 -2.2036924606178054e+00 -5.2376917915852772e-01 -7.9754560897935256e-03 6.2499167988540139e-01 1.1734460405040492e-01 -3.6119572592208322e+00 2.2627314640817842e+00 -6.8171059750570606e-01 3.6366071676120555e+00 1.2837969722786974e-01 -5.6818505643051131e-02 1.2268197021005108e+01 2.6423444768696441e-01 -1.7640769927182745e+00 -4.2390320586124741e-02 3.3037405380508940e+00 3.8319400559211303e-01 -6.5792476457053102e+00 4.0744400959248850e+00 1.5292422371993331e-01 -8.7298973825649995e-02 7.7860297265670342e-02 -1.6950022414066552e+00 2.3601378369950865e-01 -5.4371755246391729e+00 1.6615961253542253e+01 -5.6553575901729936e-06 -9.5125510168459826e-02 9.6986620059651614e+00 1.2135671286037647e-01 -9.1650892862870670e-01 1.0772918408155474e-02 -2.4353379902319432e+00 -3.6924492876223525e-01 -3.0563789836597453e+00 -5.5820689053384172e+00 -3.8994364162307060e-02 -4.6981906052288691e-01 -1.5568968672597469e-01 -4.3212323966882380e+00 -4.7822114059652936e+00 -5.4658991956169061e+00 -6.3908109338464783e+01 -2.0627227864550340e-01 1.1651925774773345e-01 -1.2099828476273677e+01 -5.4902454164001857e-01 3.0260939413015064e+00 7.9069962578525832e-02 7.4677777212200667e+00 -1.7320915886557380e+00 4.7393745401230092e+00 2.4367282864054388e+01 -1.9047709977170604e-01 -3.2608653318327363e-01 -9.2619362002464456e-02 4.1596729089059181e-01 -4.8953092991780522e-01 8.5401112038198335e-01 3.7596818843623623e+01 -4.5206260859379260e-02 3.8981252539406208e-03 -3.9967612210653556e+00 5.1660419458107287e-02 8.5247647579178221e-01 -6.4939844670706126e-03 1.2689241608013617e+00 2.5803432151743344e-01 2.5211987797501934e-01 -1.1639227771301648e+01 4.2839794512950724e-02 -2.0818834241454098e-01 -4.0429992051941183e-01 1.2438749652200801e+01 2.0447918392047963e+00 1.5229235856906961e+01 -4.6938370817393661e+01 -9.0969895599645245e-02 9.4652666494931217e-02 -5.9562207121648498e+00 -3.1427571137715660e-01 1.0931497694655536e+00 -8.1139965605378478e-02 -8.7614527946951859e-01 -7.3567126589348097e-01 9.3227714120103560e+00 -1.7852524192345111e+01 4.0902293597046196e-02 -4.6557092761475527e-01 6.5221320790462322e-03 1.1888735266742499e+01 6.5701177077315265e-02 2.3806601045139352e+01 -2.3670828651207032e+01 -2.9760666307413697e-02 -1.3782592027843821e-02 -1.6617705025757783e+01 2.3769596167426466e-02 -3.4534896832370765e-02 3.8813374277480779e-02 1.8265952589637702e+00 -2.8799641433484624e-01 -1.2192537498164421e+01 -1.7142273542200677e+01 4.1384525827687674e-02 -2.0949820971783328e-02 -1.3809964470868226e+00 
      </Row>
      <Row Index="87">
        9.9746069190493003e-02 2.4229327712710074e+00 -7.9079505373723805e+01 -5.2064205685524939e+01 6.1793653607484885e+02 3.7007073898517240e-01 5.0460510354792376e-02 -7.1713803910039132e+01 -3.7884630272891084e-01 -4.1760568287663773e+00 -2.6670809272557544e-01 -2.2294079079828407e+01 3.7688671249125036e+00 1.1209217446361622e+02 1.0158439758791428e+02 5.1799955032220957e-02 -2.9006713335447785e+00 -1.0186172083745078e+00 -2.4291427505431784e-02 -2.9776014104361889e+02 -7.0865271286369534e+01 2.9892744904756546e+02 -5.1563797550093078e+00 4.7677808959590839e-02 1.2352395704760238e+02 -1.7645337795952731e-02 -2.1143356000065978e+00 -6.5289308872701213e-01 -4.7659266157023694e+00 2.0105951989989990e-01 4.3873390636782233e+01 7.2427595471596578e+02 -9.1091950679457057e-01 -4.1678624942608522e+00 5.3073411603395471e-01 -1.4381818597757956e-01 1.1714985373686795e+02 6.3994403010699898e+01 1.8268624905729666e+02 -1.1636768971188758e+00 -3.0613943516305459e-01 -6.9027235064306296e+01 8.2502878370800573e-02 2.9354092713128921e+00 5.2838918386544265e-01 6.1321713154215104e+01 -5.4047352318229969e-01 -9.1207053942060156e+01 -8.3193131628941046e+00 4.0285625159140181e-01 1.4593092578621434e+00 2.9168746138380817e+00 -8.9404027139416087e-02 -1.0650525086384732e+02 1.1318690651431098e+01 -4.0644260754622519e+02 2.5064045854904293e+00 1.3581316152367801e-01 7.0861861431039870e+00 1.2719130689764890e-01 -2.7999595113855662e+00 -7.4981551286258918e-01 -1.1167040669062771e+01 -1.3796804261948807e+00 -2.6282497267959116e+01 -5.4543767123250291e+00 2.8272556181068564e-01 -2.4537964990181074e+00 8.5192552843864178e-02 -8.8379418781551067e-01 1.9864793502820248e+01 6.3133409312606091e+01 3.9500342428497970e+02 4.3002100994351622e-01 -1.2653611304698298e-01 -9.9540049391798675e+00 -4.8458644761058167e-01 5.5116709351568716e-01 6.8683357801882039e-01 1.6998340723963338e+01 -4.1450420622495585e+00 -6.9787756443889066e+01 5.2926059026955045e+01 3.8633397475155107e-01 2.6445219263349884e+00 6.7611179283533351e-01 1.7249197066121269e-01 2.7846959368063557e+02 2.9075485558991204e+01 1.2165914411842823e+02 1.3771564854442864e-01 -5.5886514118640568e-02 -9.4951021770306397e+01 4.5233323343020326e-02 -1.3039697979347693e+00 -5.3969441571867782e-01 2.4831311071509845e+01 2.6034810583345802e-01 -5.3145679707413365e+01 -2.0223467355869070e+02 -6.4274672529794019e-01 2.2652422208393546e+00 4.9356274652393362e+00 4.6656069415476225e+00 2.0651120925664878e+02 1.4420300563462837e+02 2.7909318825511218e+02 4.6998492198090105e+00 -2.3711448313569505e-01 -4.8513210193952375e+02 -4.1446444557409001e-01 5.7583191951280792e+00 9.8114012088888625e-01 6.9157602222339733e+01 1.1785481979493024e+01 -1.4936274476438138e+02 -4.2284421345509418e+02 1.8904168586269450e+00 4.7056337886237465e+00 -4.0522110994298466e-01 -3.3582802065154853e+00 2.4652596082882308e+01 6.6449439799179189e-01 -5.4201520274393260e+01 -6.4242767887523389e-01 -3.5909397026743262e-01 5.1893453535241406e+01 1.2709627311705529e-01 -2.2703777912428071e+00 -3.6201050302300619e-01 9.4446807298729141e+00 -5.3036788022669024e-01 -7.0354734429785523e+01 -2.8929644656506980e+02 2.8928554594047340e-01 -2.8254980368163238e+00 2.1305826005533035e+00 -1.3327576590157193e+00 -3.3669136055223760e+01 -7.1394600622688245e+00 -4.9527018532249531e+02 -1.2765603115638742e+00 1.3694205229350509e-01 -1.0558006083630607e+02 -3.0647933571205271e-01 2.3127092804496883e+00 -4.6627538939844038e-01 4.8907314257464236e+00 -1.6217606892370071e+00 1.0589935497615954e+01 1.3088951276234241e+02 -4.9107081853116574e-01 -1.7512442123206498e+00 -2.7342089055589058e+00 9.7238902403536542e-01 -3.4721903743004475e+01 -1.6928734400070880e+01 4.2655659827809359e+02 -2.9696513808354839e+00 9.3227485713243397e-01 8.3995477530168500e+01 4.8860100202392753e-01 7.5534719018266117e-01 -2.4751966230037353e-01 4.3911321144328213e+00 3.7682983452640819e+00 4.1701353222328777e+01 3.3442111814892098e+02 -5.6810463538224942e-01 -1.2359594576195221e+00 6.3044588164654387e+00 1.3560819758849232e+00 2.0011450514197790e+02 1.0862633958119288e+02 -2.2006763992856395e+02 9.9098893739800342e+00 -2.3723865371843261e-01 1.3842333150808906e+02 4.5761041392660573e-02 -2.6132603920244866e+00 9.5203812735070770e-01 6.4943497115040643e+00 -1.8987953101565076e+01 -2.3368626891124421e+01 2.8496962970821153e+02 -5.7422974147569494e-01 1.6978559795501500e+00 -1.1929973887072265e+00 -2.9198966870535514e-01 -2.8997285892997752e+01 -1.9012306553311646e+01 4.8366226855665445e+01 -5.0149523277322814e+00 7.7845276445626110e-04 -4.4771698835385905e+01 1.0442177239416028e-01 -9.2099959442839463e-01 1.1153584587809817e-01 -9.4874158047605306e+00 1.3565634086992304e+00 2.0438161681755446e+01 6.9674215254199225e+01 -1.3638380554036189e-01 5.1019942205834923e-01 -1.9252393669009335e-01 6.0713150544799381e+00 -3.1065846304341996e+01 -2.7353909393495453e+01 -2.6370280758723493e+02 -5.9442111696771915e+00 7.9351241135410366e-02 -1.4943727513542399e+02 -3.7331482738965605e-01 -7.3046827049171015e-01 -1.4179654740925147e+00 1.5011707140765736e+01 5.4216687484114445e+01 5.5969825868834704e+01 4.2144716904999790e+01 1.0425914684558300e+00 -1.4488811936422845e+00 -5.8111208828453179e-02 5.3885044744819410e+00 3.5175115978924389e+01 9.9226951760284237e+01 7.0162042192494638e+01 6.1026317902921114e+00 1.4058827985726907e-01 3.5560826998617790e+02 -5.2295928586730156e-02 8.8254383542309967e-02 1.2155261146418535e-01 9.4420457847533271e+01 -5.1555453158446525e+01 4.8137643447963121e+01 4.6960361517842173e+01 5.2053676371928280e-02 7.7624897251254765e-02 1.7892843637603059e+02 
      </Row>
      <Row Index="88">
        3.6315152394408314e+00 1.1023917426589833e+01 2.9883654978460982e+01 -1.9516782833095858e+03 -4.3629745762329549e+02 1.4192201640191229e+00 2.4628947985567051e-01 -3.0085700899129733e+02 -4.4619532454718183e+00 -2.7821476601602626e+00 8.9236754072359403e-01 3.2877461176203724e+00 -7.9496786260860972e+00 -1.4557767597211134e+02 -5.8078290946534253e+01 2.3664167205432882e+00 -5.4878960651707530e+01 1.9128871740258546e+00 1.3092905604944008e+01 6.4895580457257722e+01 4.5142648659250699e+02 1.0114160748794675e+03 -1.5068784165595002e+00 -3.2391891843714826e-01 2.1298682781988464e+02 2.0247699700764339e+00 -8.1879473516310100e+00 -5.0627593242847979e-01 -2.6692378051129253e+01 1.2763556692283601e+01 -7.0420675957260755e+01 -1.8039201202121330e+02 -5.5221446264105225e+00 4.7916071933072985e+01 -1.2635467198379047e-02 -2.4165428937103570e+00 -4.0244307025481248e+01 -4.5721970824887976e+03 4.1942215691320598e+01 -2.5857278807598050e-01 4.9472599928637173e-01 1.9404466657433659e+01 5.2992275054615989e+00 -8.6624485046922928e-01 1.8086294038863571e-01 1.1529721391911153e+01 3.2950344184791902e+00 -3.9406100500686443e+02 -5.2935795012937160e+02 4.1554494590718605e+00 -3.5853447395724629e+00 -4.0917568294125024e+00 -1.7565120111843946e+01 1.9966983465972589e+01 2.5167943321158527e+03 -1.1223326120227575e+03 1.0118748281889118e+00 4.9754684345595890e-01 -4.0651175644760951e+02 1.9457355931842932e+00 -2.3756253514741303e+01 -2.5599685697747572e+00 3.7302052469312912e+00 4.2396478303744232e+00 -1.1227072229339683e+02 -2.9507277460198384e+02 -5.3177677157832337e-01 1.6828268997371646e+02 1.4890172584896391e+00 -9.9026484074020118e+00 -3.5330999305791920e+01 1.4710451356559643e+03 -7.0885715421289206e+02 -9.2391192425850477e-01 6.4641430995416638e-02 -2.0039855880080722e+02 -4.3421962992451881e+00 -5.8283029282974894e+00 -9.5727796133246557e-02 1.4308483827364398e+01 -4.7712229721873882e+00 1.1489232537686803e+01 -7.1020879451825749e+00 -8.7837564276060220e-01 -2.7499767992736679e-01 7.6880744098642406e-01 1.3149939028517110e+00 2.9075485033441510e+01 3.4968963619087008e+03 1.1047761600278318e+03 -4.8542570695169862e-01 -1.5191049860165640e-01 -1.6578089409716631e+02 -4.3991094330997855e+00 4.8540839732595487e-01 -1.9010439187858572e+00 1.1239874265389517e+01 -1.2010864724354633e+00 7.2400252494093729e+02 5.2121056525036693e+01 -5.8040555638006781e+00 -1.7301338920260605e+01 1.3914368769166714e+00 5.0131655076000357e+00 6.3197465250060475e+01 -1.8761077728847449e+03 -1.9918979969796851e+02 -4.6143391727963747e+00 -3.8470890321091988e+00 -6.2712902814434028e+02 -7.0805331012193635e+00 -3.6070268362825118e+01 -5.0372641651660777e-01 -1.5689261216353123e+02 -2.6323651813262448e+01 -8.4843879115260631e+02 2.2125228684326248e+02 -6.8452778290725815e+00 -4.0685077177275652e+01 -7.4065503721443777e+00 9.1161641165599168e+00 1.4348441596814723e+01 -7.0377105704155611e+02 5.3184833379089832e+02 1.6706581471381687e+00 2.1234968507735115e+00 9.4235827740026252e+01 3.6698379757510033e+00 -3.8270863008148899e+00 -5.7421923317169155e-01 6.3233037938462132e+01 2.9275994783630026e+01 -2.0977966314719669e+02 2.5146863029644237e+01 -1.1357129517595044e+00 5.8679983783633531e+01 8.4232241136449915e-01 -1.5061553329082692e+01 -5.7749335359563844e+01 -4.0954402825706438e+03 -3.6167444066490407e+02 -5.8022314252804286e-01 -3.7143855724881343e+00 3.5619988612516318e+02 -1.4236518168309220e+00 -6.1959292720840544e+00 9.0302174111026812e-01 8.3239171560348382e+00 -1.2095888586039010e+01 -2.3267634806770008e+02 4.8928407846374171e+01 -4.7393390564087312e-02 -3.1315320591272965e+01 7.7136885227808705e+00 -3.5375511818788397e+01 -5.5711765831674114e+01 -1.2156739553390039e+03 9.7608317852342589e+02 -2.4269410834652261e-01 -1.5244063007263975e+00 -5.6494429725113196e+02 -5.8460756137815633e+00 -5.5053255297111496e+00 8.3741167062335187e-01 -4.6259175924255487e+01 -2.7889971127983870e+01 -1.5620705504416492e+02 9.0314520908909572e+02 -4.0990160344796784e+00 -1.2114236520387271e+02 1.6649053616221330e+01 -1.0602567878287033e+01 -1.5242713045694285e+02 -2.6190270705160719e+03 3.5872234256983211e+02 -2.2559164913827066e+00 2.3172381815565384e+00 8.2962128514571191e+02 -7.9599596028946262e+00 -3.3465189163233475e+00 5.5553239743072709e+00 4.7464624339665420e+01 -7.7185014302303223e+00 1.0628281504465161e+02 -2.5514269150749038e+02 6.2079867170020608e-01 -1.6663318102987421e+02 2.6024702194335987e+00 -2.5986828903987771e+00 1.3047279614373110e+01 1.0059755414435640e+03 -4.1330936495959759e+02 -1.1138778736703685e+00 1.8515810821623668e-01 -1.7835165513248648e+02 -3.1175965165358743e-01 7.0037907592177362e+00 3.4940526733375943e-01 3.1294763645739295e+01 5.5162719942154581e+00 2.5662324914522469e+02 8.0190089113311842e+01 3.3479784797925163e+00 1.6109365817173966e+01 -1.1220362217773800e+01 3.5537484992708102e+01 2.7467664319794233e+02 7.0932740531245754e+03 6.3530828259677219e+02 -9.7250895593277686e-01 -4.5318142081592807e+00 -8.3716507919796277e+02 1.1349693202739957e+00 -3.1469541608874565e+01 -8.2752085636876949e+00 -1.6880589626926239e+03 -5.3785548007614594e+01 -2.2433344227336661e+03 -1.4437430406432253e+02 -1.0877850173717540e+01 2.4589107885086153e+02 -1.4166845175624634e-01 5.0671842088100789e+01 -5.4331008500634770e+00 1.5701123038119127e+04 -7.8919709771770467e+03 1.8783980391989754e+00 -5.9123657514876982e-01 -2.8473027775210221e+02 -6.5497828286621029e-01 3.7403926558665290e-01 4.1745675569666851e-01 -2.5510147355739041e+03 6.3180636219754490e+01 6.2803375121288318e+03 1.7617818314522856e+02 2.2606746577004428e+00 -6.6483215783581784e-01 5.4466646503814763e+02 
      </Row>
      <Row Index="89">
        1.4158172396628119e+01 9.2577294662893109e+01 -9.0231092375353910e+01 -6.4395984372749808e+02 9.2097055437494069e+04 -4.1379513043263927e-02 -3.0607894613546485e+00 -3.2661682583329966e+03 9.0380439781838824e+00 -1.2561403067102947e+02 6.7807988647500217e+00 -7.3275679974820014e+02 2.6321834467267036e+02 8.6987202646377455e+01 -9.8682374472144875e+02 -1.2369469755186584e+01 -4.9429221051323111e+01 -2.7907811774064612e+01 1.0883449682978608e+01 -1.2820618290451537e+03 1.1013911326410016e+03 -2.1847363814413548e+03 -1.3980533077534822e+01 -2.3875453701683087e+00 5.3542597091917560e+03 1.6778077463262400e+00 2.5647808888170402e+00 2.4232302932432503e+00 1.0896746203320454e+03 -6.6998236523286323e+01 3.9860286806653494e+02 -8.4867687704064883e+02 -1.1796339930540398e+00 -7.9769542908344533e+01 -2.8252539115619584e+00 1.5267128043717094e+02 9.0855221882759361e+02 -1.4253659742483869e+03 -3.6263283906180412e+04 -3.0539012035798805e+01 -1.3642228419147231e+00 -2.3158822738425806e+03 -1.3024354922657672e+01 -6.6646653084651916e+01 8.6681162282434343e-01 -6.5903434242703952e+02 -1.2859929182236374e+02 5.9398969681153540e+02 -4.5175729464265751e+03 -4.2595629016941530e+00 -7.1632037969205555e+01 -1.4656809942115832e+01 4.2396435606734667e+02 -1.6898333051090594e+02 1.1333763260239502e+03 -2.6272042220100760e+04 -1.4660764879344939e+00 1.9496380175458388e+00 -1.6731428236318752e+03 -1.1766331472767202e+01 -2.3459852955830911e+02 8.1549980557691448e-01 -6.6418106190198159e+02 -1.1502702789358699e+02 4.4435889724071603e+02 -1.0966049942784011e+03 1.2746232136059747e+00 6.5898325429640664e+01 -6.6954533115167578e+00 -2.2993249214407115e+01 1.6883567685831804e+02 2.8572803728980944e+02 -4.2792823287725449e+04 5.9977995878780348e+00 3.3985798435235566e+00 -7.6417040928476490e+02 9.3297238261002349e+00 -7.1357772130169906e+01 2.9264898922197062e+00 5.2653707240417134e+02 -3.6261807514849352e+02 7.8986847144185958e+01 -2.0620539181885542e+03 -8.9024045981032032e+00 5.9824458426016008e+01 -3.4837324144668642e+00 -1.4742909100634279e+01 1.2165914728325879e+02 1.1047787898974493e+03 6.5208667592514306e+05 4.6425641554438180e+00 -2.0136130286434253e+00 -6.0472729953235248e+03 2.5775446565359363e+00 -1.8261289928741462e+01 -1.0750361880721282e+01 1.8417038351764204e+03 1.6393761602838003e+02 4.6503549771982944e+02 6.4194110402837396e+01 -1.5606231477180131e+01 1.2685168716401677e+01 7.7697469089808422e+00 -3.1600318236174735e+02 1.6562958009217514e+03 -1.9312296656668177e+03 8.4222879059749277e+04 1.8877820677668510e+01 1.7354541525399070e+00 -1.5802387415704845e+04 1.6309920752211024e+01 1.0208756001038267e+02 1.6918679077070999e+00 -1.7439796820398954e+03 4.6383004808981644e+02 9.2174548031994618e+01 2.5657028290348417e+03 -1.3699781251656102e+01 -1.2336031610816671e+02 1.3646448298292775e+01 1.0516556147742543e+02 -1.0380334751252263e+02 -1.3452535804838953e+02 -1.1411283157131076e+05 7.1832398210336699e+00 -6.6378380365190015e+00 4.0898537120103711e+03 -1.3211313597258588e+01 -3.2082747160722164e+01 1.8173840980881559e+00 1.7062887958865890e+03 1.6514404567238472e+02 -1.5110024685020073e+02 4.2367046928264954e+03 1.6001024292458887e+01 -2.3462439246582857e+01 -1.5726990775981161e+01 -2.5012188507873162e+02 -1.1959758499551697e+01 -1.5241357242694176e+03 -3.4813153558614620e+04 -1.6602586239911927e+00 3.4765976845047213e+00 3.3601472741807811e+03 -8.8616077994105069e-01 1.3649771221379640e+02 -2.1352131317349397e+00 1.5372001489850290e+03 1.8453372289351015e+02 -3.6829486878203943e+02 1.6626997163491069e+02 1.5111279146667137e+01 -8.1067053701001242e+01 -1.1983886445709484e+01 2.2326457045107162e+01 3.2642608325173865e+02 -2.5511506750847984e+03 -9.9156300257202354e+04 1.2436521252289293e+01 6.9443935651329696e+00 -1.1709747449476752e+04 4.2963039451506759e+00 1.6931322395734855e+02 -2.5036361207250879e+00 4.1325360534929496e+02 5.7905138609453616e+01 -7.5500106694140823e+02 3.1266702567640486e+03 -3.1723389437573388e+00 4.3245131516027463e+01 9.6857186791077723e+00 -1.1763227579620252e+03 1.9153074812845061e+03 -7.3088235988385327e+02 -1.3125697507990076e+05 -2.0025930862414857e+01 1.4153907262951797e+01 3.4554808837761811e+02 -4.1058045316430274e+01 7.5701874433597425e+01 2.7288487782132052e+00 -1.7795946101688849e+03 -4.5965799672015567e+02 -3.1361382549200994e+02 -1.2543760792303996e+04 7.5161167874335355e+00 -6.0303751220988568e+02 -7.9990850685280748e+00 -1.1384331484764698e+02 6.3208693506661803e+01 2.0940630977414548e+02 1.1429610941872001e+04 -2.6689348668252251e+00 1.4462378041412816e-01 -3.6137484936357359e+03 -2.9356478028339090e+00 -7.2057587858929764e+01 8.7983658410065146e-01 7.2487036794796586e+02 2.0536138566089721e+02 -3.9111802234500647e+02 -5.6715194001933560e+02 3.2486508460985988e+00 -3.1247653323356644e+01 -1.7223938206903089e+01 1.1265222022252040e+03 -1.1367235634738431e+03 8.1674662437904644e+03 -1.4360167797119101e+05 2.7318882535648257e+01 -1.4451931961113306e+01 5.8211450512893498e+02 5.5679355044820312e+01 -3.4132967814865953e+02 -3.0161681696013494e+00 5.0737153657235183e+02 2.0196824873096957e+03 8.3376695970853343e+03 4.5061249197310171e+03 -3.9899397466345853e+01 4.8673944943247955e+02 6.3147621493456407e-01 -1.8264551234812336e+02 1.2472372897650611e+02 1.7097995191910421e+04 -3.9861128923931385e+04 1.9005649355147511e+01 1.7941096028616812e+00 5.2880162304784244e+03 1.8181029542658962e+00 9.2163235427005361e+00 2.7450912895449777e+00 5.2770466263640483e+03 -2.9192155976215854e+03 -1.8004585243430014e+04 5.9081230685750488e+03 3.2091847140614065e+00 1.1201274651928088e+00 1.7123100376011689e+03 
      </Row>
      <Row Index="90">
        1.2833074469383587e-03 -3.3097440279945545e-02 -1.1997137320003048e+00 -1.8516481745564306e-02 -2.3764005053530127e+01 6.4243007185736459e-03 8.8804288413422625e-04 -1.3454277082205408e+00 -3.3894093690572283e-03 -9.6597353672564168e-02 -2.2622479960538549e-02 -3.3880436536093583e-01 1.6558146053142764e-01 1.2016599520762266e+00 -8.0066543941759392e+00 1.5517964045323053e-02 9.2690733698646000e-03 -4.8773872205046587e-02 -1.1186619036471868e-01 -3.3655068950078597e+00 8.4787041476283775e-01 -3.4120789945591241e+00 -1.1871166308020263e-01 -2.0009952412455832e-03 1.1608850269936966e-01 2.0030139330272992e-02 6.6625874300370924e-02 -6.3188679503056733e-05 1.5211485371250504e+00 -6.6463673526001799e-02 -2.0755975598002756e+00 1.0893130965459477e+01 2.7600643865079544e-02 -8.2252673257647624e-02 -2.9314709931014704e-02 -9.0135534986828247e-02 1.4803127631535062e+00 2.6145765124965692e-01 1.9492578947319998e+00 -7.4678396775986755e-02 -2.4970801401010354e-03 1.2297173003935313e-01 1.5658808211801593e-02 5.7273433310882638e-02 -7.7791598598762057e-03 1.1568052486394436e+00 -1.4020961653386621e-02 -6.4354149519249404e-01 1.3032652551164119e+01 -3.0038453805012466e-02 6.4977342324596066e-02 6.7098527389122573e-02 1.7901521157671851e-01 -4.4256092718853779e-01 -8.7544428619548853e-01 2.8203751194523647e+00 -7.2565372788747015e-02 -3.0810071172475218e-03 -1.7714532331192459e+00 -4.4143826565751221e-03 -1.1476574354136326e-01 1.6497359241478306e-03 2.3008164570302370e-01 2.3667486439196972e-03 -3.2510956234830246e-01 -2.2611372663059228e+00 -3.1589012120104981e-03 6.9275924712897952e-02 -1.3480715611560612e-02 -3.6784938705849868e-02 1.1043949516417797e+00 -9.1368995685797927e-01 7.4748608129157219e+00 -7.3424200435280085e-02 -3.0385541844678314e-03 -7.0482911880162646e-01 9.3031749020155985e-04 -7.0517615852281779e-02 -3.9331491823402231e-03 -1.9122534482517040e-01 -3.5063238798511520e-01 -5.8584076054077627e-01 2.2409590711386272e+01 2.5289732269474285e-02 2.6816359392658473e-02 7.4711610127576600e-02 -7.1445294840373208e-03 1.3771564540448367e-01 -4.8542526718392764e-01 4.6425642744579818e+00 2.0011356247936241e-01 -1.3506328816055525e-03 -1.1361600143534361e+00 4.7430181027123689e-03 -1.4816346588617080e-02 2.9534062383145723e-02 3.4885483052221389e-01 1.3732806767507855e-01 3.8067929367252873e-01 -7.3666011033924406e+00 -2.4124680081455241e-02 4.2370445288582914e-02 5.0888962049460459e-02 1.3946419924648951e-01 2.6672412608448655e+00 2.1323348887018212e-01 -1.9470907164781011e+00 2.6317131098984620e-02 -4.4740434172988522e-03 6.0365457855245452e-01 -4.4124536874808273e-02 -1.7594899006616729e-01 1.7535969645222863e-02 -1.3210225653476924e+00 6.0551645753070815e-02 -3.6105309711973153e+00 4.3407043836259156e+00 2.3212967611047661e-02 1.7259138830926918e-02 -5.2192508694916304e-02 6.4864112519319950e-02 -4.5428412399229789e-01 9.1573402989168939e-01 1.0456148079538252e+00 5.6216334241839278e-02 9.4225676275680667e-03 1.0174313286732222e+00 2.1570001948192231e-02 5.4984394507809176e-02 -2.4838092777734440e-03 6.5190022887129473e-01 5.9948394545238459e-01 -1.1353713140426955e+00 -2.9312307355527864e+01 -2.2163771845932469e-02 -9.0679220508808167e-02 4.5430557346741451e-02 1.9752365762086965e-01 -4.9878258909675122e-01 3.2391220791376618e-01 -4.6533923426644606e+00 5.2227320262199332e-02 -5.5260214030591892e-04 2.0355063754368530e+00 1.6480738274713268e-02 6.9993747866421818e-02 4.5194001452836296e-03 3.0022073164824459e-01 9.2860981262712361e-02 -8.0959302537474376e-01 -1.0560579886664634e+01 -3.7246888463978153e-02 2.7064304512632786e-01 -6.7863449740867388e-02 6.9714053366245143e-02 -1.4324787357750157e-01 8.3222439757914735e-01 1.1378529927084458e+01 -7.1714512416410497e-02 2.5151310962206463e-03 2.0398982101037220e+00 -2.4776560498945277e-03 1.0663867318262230e-01 -7.3624333327352662e-03 -8.2591166587162412e-01 3.4768591547696293e-02 1.0097298796531318e-01 2.5656749886430909e+01 2.6173171253637259e-02 3.1358298957960606e-02 1.6328466946880074e-01 1.6309285982947919e-01 4.5780041963338984e+00 8.9177964887014483e-01 2.8211008701946128e+00 -8.2668641758555705e-02 -2.3364456203785536e-02 5.5108410427142553e+00 -1.1774970127893737e-01 -2.8295744749295348e-01 4.6404972801008360e-02 -6.1236905840303280e-02 -4.4992190754517053e-01 4.8212251845336427e+00 2.7181394079728250e+01 8.5232789174831833e-02 -1.9347951154233961e-01 -2.6853232516756975e-02 -6.1545278132484782e-02 -1.9408331615456973e+00 1.3630477417646034e+00 -2.6082103510270827e+00 6.6870422567421484e-02 1.2696270217191627e-03 8.2672520717255793e-01 1.3261774408938002e-02 8.9971030795879869e-02 -5.8615209682740749e-03 1.3725469105611410e-01 3.0639812050004878e-01 -1.3517416447721189e+00 -1.4256031925487150e+01 1.1767514877658591e-03 1.2352574774032377e-01 -1.6432011137698731e-02 -4.3849859097287058e-02 -2.9394443353652555e+00 7.1690386463663236e-01 2.7876647536912031e+00 7.7331372492794065e-02 1.3344610749895553e-02 -5.4046700304616024e+00 6.0662045021239785e-02 -5.1383460213028080e-02 -2.5241350964985480e-02 -1.1081477610269452e-02 -2.3639798149547292e-01 -4.0760170897993477e+00 9.8901643037973646e+00 -4.0348306472974285e-02 6.6713001783361342e-02 -1.6083397076115942e-03 -5.5948521541169763e-02 2.6577564085864597e-01 2.8843359917082712e+00 -2.3528006828797778e+00 -6.4329819277100825e-02 -6.4289610917112050e-04 4.3058682976964890e-01 2.8595616754656383e-04 1.8836338588580359e-03 -9.7028533308034914e-03 2.9128936096288629e+00 -4.3291046773552902e-02 -5.8312250862297643e-01 7.6073286368171678e-01 -6.5923204440807709e-03 1.3483188495188314e-03 -4.0392024661967332e+00 
      </Row>
      <Row Index="91">
        -2.7502176027921849e-02 -1.1688205971297094e-01 -9.4388935139249952e-02 4.8809523642006525e-02 6.5431056225497741e-01 -2.2753549665304601e-03 -6.8675465904702374e-02 1.5326844299647746e-01 2.3786538621917666e-02 -3.3611755662406040e-02 -3.9976100923136602e-02 1.1587402308440495e+00 3.9593263359762432e-02 -8.3557705454766484e-02 2.5625803649711543e-01 5.7624999445411038e-02 -1.2020005453899785e-01 -1.3967663145984588e-01 -6.7574023120995363e-02 9.1690579306968667e-02 1.8362474533682871e-01 2.8736755757126957e+00 -1.5281377514575610e-02 -9.6807238427805420e-03 -2.8398067888161904e-01 -4.1037193986332543e-02 3.1222445702508139e-01 -3.5064019085993436e-02 1.7011391930455437e+00 5.6209903627944868e-02 -2.0239890454504561e-01 -1.4388836598116086e+00 1.0917997391760426e-01 -2.9374065926949688e-01 -2.7221233339485451e-02 -9.3204623687128674e-03 1.9128270769715527e-01 -7.3117702263516549e-02 3.1171129472095345e+00 7.1055029115800750e-03 -1.5178856988587544e-01 1.3764934058508516e-01 -6.6862831001798809e-02 1.7622739055931902e-01 -4.0763754832086496e-02 1.4757172049386895e+00 3.4465530804283162e-02 -3.5408381498433528e-01 1.1574469263705396e+00 4.1349715966390477e-02 -5.4773560514743735e-01 1.3358688403792326e-02 1.0859146536210318e-01 -2.3985284154866804e-01 9.8616058502102533e-02 4.2663477420719573e+00 -7.7789232260086494e-03 6.9630860430833774e-03 -3.6162433083518408e-02 -2.3380807271033456e-04 -1.6910819676103617e-01 7.4377933661740024e-03 8.9729893084808054e-01 3.1021977469705198e-02 1.1052269680664040e-01 1.3837297370992019e-01 -6.0038472256735406e-02 1.4747822856351014e-01 -6.7013605190451742e-02 5.6254708942468312e-02 1.6330808982553435e-01 2.0835539357904054e-02 -8.4293289251218084e-01 -1.0089346903715768e-02 -1.3580373267093923e-02 -4.1741596147403470e-02 -1.4819400348642375e-03 -1.3775704878042916e-01 -2.1802490772462324e-02 -4.8668997045899687e-01 -3.4825245625540902e-02 -2.1681582353027018e-01 -7.2833512676152168e-01 8.2440120808833228e-02 -1.2753869988673916e-01 -3.6932891476735757e-02 -2.5233391723560317e-02 -5.5886532162936930e-02 -1.5191046889435711e-01 -2.0136134772910737e+00 -1.3506330108227355e-03 1.9925935908904716e-01 9.2128467959298632e-02 -3.1894486223491454e-03 -9.4139206532375397e-02 6.4078616769316782e-02 2.3222017847126608e-01 -5.4710113840816810e-04 7.4044453844578584e-02 -1.2037721395734025e+00 -2.1219455276358309e-03 3.1107934526973224e-01 1.2910747336321088e-01 -1.1707605835041657e-01 -6.8468321785348529e-01 -1.7389989269515613e+00 -1.2154315617512594e+00 2.4388535263361155e-02 4.8404887390722962e-02 2.1557166696638284e+00 9.4166908829965354e-02 -1.0251870840952142e-01 3.3985929518979531e-02 1.8639340538884142e+00 -4.7061867713401706e-02 1.3785549248457496e-01 -1.1377264564884602e+00 -4.5709736125527339e-02 3.4816645879658542e-01 -9.4934025185653206e-02 2.0151375733719137e-01 6.3073840781032797e-01 3.5659053730310863e-01 -5.4893048740486847e+00 -4.9141228542889555e-03 -1.0883024313366929e-01 -1.9566980353815349e+00 -9.3624005465846122e-02 -3.2835275970337169e-02 -6.3797311027426098e-02 -1.9842038456918147e+00 2.8454570348696584e-02 -3.3734791116203550e-01 3.1562530047757775e+00 1.3875809986584225e-01 -1.0544992346369511e+00 1.5394626670556824e-01 1.2671570985305358e-01 -3.8432959426111341e-01 -7.1541521425192922e-01 2.5904608966902174e+00 -2.8368460103399828e-03 8.0487631147480337e-02 1.5497804838100819e+00 1.2175121279849484e-01 -1.0846339673510402e-01 7.1452544479860963e-02 8.6067971583722613e-01 -3.0246354756954918e-02 9.1770386574874419e-01 -1.9102869749021014e+00 -1.6799990919020996e-01 4.3906150228217411e-01 2.6457520688373004e-01 1.0203915547993320e-01 -1.1529883482009229e+00 2.5329426317444614e-01 -2.6391617887668417e+00 2.3870506918744979e-02 2.1151186298232574e-01 1.2967431207494400e+00 1.1425746880609715e-01 -5.7529334990042202e-01 7.0375743937149599e-02 -5.8691622583790171e-01 -9.6897473034091297e-02 9.4976752623027427e-01 -2.8399334003310841e+00 -3.1697577402083549e-01 1.1886206214525927e+00 -1.1624256768739083e-01 -1.7761466048533137e-01 1.3299971677670752e-01 1.0990003886276205e+00 1.4075717239094843e+00 1.9798661401599617e-02 5.5189214768772137e-02 -1.7632976735005634e-02 -1.0477383269383322e-01 -7.9347723277145593e-02 -4.0381396596629315e-03 -1.2177051294526517e+00 2.3002870930584060e-01 -5.8183236205056721e-01 3.7205921633289041e-01 1.0581212340983723e-01 -1.6868081948089073e-01 -2.5214242881833826e-02 -3.3012800038221712e-02 5.5702576918179147e-02 1.0014234531990951e-01 3.8959682972053997e+00 2.9094937997459214e-03 -2.2962707605341786e-03 -3.7537290153034064e-01 8.7016181221460792e-03 -2.1687443793127414e-01 -2.8730714335395077e-03 -4.4564158355433392e-01 6.6121092986566765e-02 -7.2565486943858559e-03 -1.5549248097158852e-02 -2.5759287818831300e-02 9.2044614090340815e-03 4.2706775283298234e-02 -1.6622101040555132e-01 -4.8331922047407527e-01 -8.9421747464284040e-01 1.0730944548286914e+00 -1.6773387380088971e-02 -3.7184530293542642e-02 3.4047872046960492e+00 1.4038113917203499e-01 2.0674223601907488e-02 4.5513618183572496e-02 9.1463227903517623e+00 -3.4261840379666392e-01 -2.2363143633855329e+00 -2.6312721457406596e-01 -1.1826202483630435e-02 2.9916162656001655e-01 2.1953395542655329e-03 -3.5560496667322700e-01 2.0253862778420999e-02 2.7527075625295594e+00 2.9648759558043736e-01 -6.9849288850691148e-03 5.8474397923238830e-02 3.2145729657064530e+00 6.3854305629570396e-03 1.0943663590913089e-02 -1.4731335403442470e-02 1.0696247380448916e+01 2.0886449743133961e-01 6.4627451042011810e+00 -2.5874877434365633e+00 -2.2338319938227123e-02 8.1436180224995960e-03 -2.0244700258090949e+00 
      </Row>
      <Row Index="92">
        -8.5350333026581104e-01 2.9856383888109121e+00 -1.0298504594713449e+01 6.1201843911083415e+01 -2.7203171363659203e+03 -3.4303549220218199e-01 3.7594193486816563e-01 1.6742982516828924e+03 -1.2702626712785436e-01 5.3965823515318334e+00 -1.3085114755858451e-01 -3.9798444847889186e+01 6.4736783580156043e+00 1.0743441309384070e+02 4.0460407779505476e+02 -1.0766701055168943e+00 -1.3690512155735632e+01 3.4358051561939646e+00 -5.8777202441160625e+00 2.7030565918322611e+02 -8.0817445926368237e-01 -5.6325678026676178e+02 5.5587970301318457e-02 -5.9264008059013207e-01 -3.3202622310462175e+02 1.2503313774868730e-01 -1.5886894249124452e+00 -2.1868559751328576e-01 6.2151938630192397e+01 2.0814459524990525e-01 -8.7647595459940931e+01 1.9490068443305790e+02 -2.1449362348334944e-01 8.0566538646423513e+00 -1.3197182719741249e+00 -4.2674501237343065e-01 -2.8495693449070677e+02 2.8452134581468999e+02 -2.7676238799840212e+02 -6.7972521018418774e+00 1.2790631747449388e-01 9.2397750297375023e+02 -1.2496097583711923e+00 -1.9734345125849359e+01 8.3913748983559344e-01 -8.1459675849415362e+01 6.0205057199345902e-01 3.6399409760721028e+01 1.1195977939916775e+03 -6.3407478880253620e-01 -2.9315788488078397e+01 4.2670548098366012e-02 2.5414350515340629e+01 -9.0087654620874673e+00 -7.8581463739741594e+01 -3.4635042286813259e+03 -1.7524385289115951e-01 7.9014736420761622e-02 8.9182695609703660e+02 4.7614289284873301e-01 1.1055964578844712e+01 1.3872273190858375e-01 -4.9407597823010292e+01 -1.3378042016537428e+01 -1.8089762060553767e+01 1.3424379016924649e+02 -1.0489248949976671e-01 -2.4674372354431984e+01 -1.4818843816356093e+00 6.6322993409121409e+00 -8.3136287110392004e+01 -7.8612024080473930e+01 -4.1192128464579582e+02 -2.4595337185282915e+00 -3.0601635045262754e-01 -2.5492512000165880e+02 1.0992094783432549e+00 7.4163495762040839e+00 4.5713207759945362e-02 -2.0313538125948980e+01 -3.4581881171325222e+00 -4.8805513940074889e+01 2.6552567533659749e+02 2.0945888081296289e+00 1.6511401194563859e+01 -1.3775936913045301e+00 3.4424606771790422e+00 -9.4951019771950087e+01 -1.6578062779409811e+02 -6.0472724129259586e+03 -1.1361598116736880e+00 9.2129101347696432e-02 2.0427373110877234e+03 3.5340089884756887e-01 1.4517200081609190e+00 8.4775588295622517e-01 -4.2365311208879575e+01 -1.0650129506044323e+01 3.4567147245630622e+01 -1.9045893834950402e+02 7.3501249960224069e+00 9.7511618325952441e+00 -2.1462403780922523e+00 -8.1759074217655350e+00 -4.0375031931337605e+02 -2.1198302787268403e+02 7.3081298805417464e+02 -3.7707193902856240e-01 3.8393206320069018e-01 3.0151346539910492e+02 9.9595936002231156e-02 -6.8928524481897906e+00 7.3205419326212384e-01 4.4716937048578586e+01 1.5646538801814785e+01 -1.5255243872102221e+02 5.6744259532961826e+02 3.4131262371275888e+00 -1.7429140521345506e+01 -3.0028511180151374e+00 -7.1626023204962692e+00 -1.7671710905613509e+01 2.7305029432976525e+01 -5.9072008007764816e+02 3.3342725776233390e-01 -2.6211519156154395e-01 -2.1353826129596805e+03 3.9829219703839669e-01 5.9881902907899729e+00 -2.3905323457861274e-01 1.4242955493000977e+00 2.1072878990296154e+01 -3.5836302583015645e+01 -9.2842782996302253e+02 -1.1851705746676622e+00 -1.3957799345327924e+01 1.6999490763098990e+00 3.4477804896727040e+00 1.1993068156944233e+02 2.2915914429130919e+02 6.8715878793149022e+02 6.6879007963742110e-01 6.0891095877399382e-01 -1.0754727818872780e+03 -1.4550504733591541e-01 -1.0570414395347669e+01 1.4307602947001063e-01 1.8434389292827220e+01 6.5222012757195706e+00 -3.4571561185575192e+01 -4.1201160687958770e+02 -1.1217855600602560e+00 -8.1306207429794277e+00 -5.4140027921079337e-01 3.0460846957094319e+00 -7.4107285045429805e+01 5.5791679474439206e+00 -4.6263865633045061e+03 -4.2797202311966585e+00 -1.7545007327056084e-01 1.6283200688466188e+03 7.8989608216587825e-01 -2.5433551234560856e+01 7.0625983348777788e-01 -1.8733714587571257e+02 -3.0823073637846363e+00 1.3981771847487991e+02 9.4316187379036035e+02 4.3261565530941040e+00 -2.2199393829936938e+00 -2.6276414882846293e+00 -1.3249008857289962e+01 -3.3249935575417140e+01 5.1646198705815004e+02 -6.4446422657619041e+02 1.0072705160525910e+01 -2.3798595469564723e+00 1.1360391942692731e+03 2.8225129279121766e+00 3.2791686254534021e+01 -2.0787922415771618e+00 1.0174430278727402e+02 2.7680574079252928e+01 1.3803240478683742e+02 -1.2169634060343651e+03 -5.1654024555638749e+00 5.7740718304054830e+01 9.7274608704174170e-01 -2.3537187408655882e+00 -1.0885846371529624e+01 -8.7694440372288227e+01 -5.4395717519521713e+03 -2.2469156924948379e+00 1.8022776130717011e-02 1.0060398840489797e+03 3.7724306008000419e-01 1.2328481638905942e+01 1.8152466446687754e-01 -4.8988021221011877e+00 -4.4683727618903504e+00 2.6441369779407978e+01 -5.0568130262196064e+01 -1.0194495897667366e-01 -5.2287603292134008e+00 3.8143050047294116e+00 1.8056273984623125e+01 -1.7045522991036714e+02 -6.0132616233288047e+02 -5.6761156682028013e+02 -6.5259741217389244e+00 2.6001962399239038e+00 4.2402607937604189e+03 -2.7798421714691628e+00 -2.3910232226878207e+00 2.5294667566256313e+00 9.7177617476022715e+02 -9.7022733218344399e+00 2.8713546581134500e+02 -3.9320433230525043e+02 1.0679672126805919e+01 -8.2517332714096952e+01 -3.6784779238790297e-02 -1.5385709833559943e+01 -2.9544035579784158e+01 -7.2256024989693913e+01 -3.1332819845457561e+02 3.5523775250207077e+00 8.3196238753316720e-02 1.1174605109043916e+04 9.5352982851409251e-02 -8.1327315588640658e-01 -1.2072414264671856e-01 1.6083571831014688e+03 -3.9812750816213850e+01 -1.0529780433035505e+03 4.3474305399089135e+03 -1.1644024036453162e+00 -4.9537164650553578e-02 4.5410430671602026e+03 
      </Row>
      <Row Index="93">
        1.5039119976204138e-01 1.8529551158255586e-01 -2.1507999155602420e-01 3.6631598697653089e-02 1.0809441735173095e+00 -7.1940398581595705e-03 1.0899947979116777e-01 -1.7657101772209671e-01 5.6293144185612576e-01 -1.5315326314102151e-01 -6.6003556394831048e-02 7.4712621323045258e-01 -1.8155571445575447e-02 -1.5032706466422496e-01 -1.3695864515917151e+00 -1.8651111552668836e-01 7.3669713226711764e-01 -4.5245521218186369e-02 -1.5382839671721271e-02 -1.0058598906960814e-01 4.8666094701036400e-01 2.9656701155472547e+00 2.3418351780741024e-02 8.2952298539553156e-03 8.7885385234471869e-02 6.2443218741502493e-02 -2.8927136125027175e-01 -4.0763459894697096e-03 1.5574529144021394e+00 -7.5615489339437403e-02 2.0299209428808496e-01 1.9578294580659303e+00 1.2290416131389037e-01 -1.6240955618866876e-01 -1.3827456003728678e-01 -5.6054178706045121e-02 2.6016665901269675e-01 4.2603656013116051e+00 1.9618607623269781e+00 1.2743563193475360e-02 -6.2028840423836523e-02 -2.3935910421164408e+00 -8.7392675393471009e-01 -2.0790339599492569e-01 2.7311376532495046e-03 1.5263397441969460e+00 8.1047751834191217e-03 6.4941629402460421e-01 1.9411115948800557e+00 -4.3744364264781233e-02 -6.2816773905903744e-01 -1.8556702212712547e-01 -1.3550556807845737e-01 2.4474647264074179e-01 -1.2595590583611056e+00 1.6062667342994246e+00 -1.3713381445690231e-03 -7.6095661461078296e-02 -6.6258281187401735e-01 -4.8410624178258843e-01 2.0887715803509654e-01 6.0929969733385311e-03 3.6667042493142787e-01 -3.0952103232985362e-02 1.1953988280059491e+00 7.9273233309777424e-01 4.4607230971537848e-03 -8.4921019435138756e-01 1.4311116775272037e-01 -1.4065324126734069e-01 -4.8626108507704657e-01 -2.5841127155968024e+00 9.5975800494416035e+00 1.2355233417238098e-02 1.1138032119833505e-01 1.2510477017707444e+00 8.1811156036469157e-01 2.6111854810943669e-01 -4.2261293604295425e-04 -4.8387387982387509e-01 -5.7469365385472315e-02 1.7158073233987015e-01 1.2740155645896039e+00 -4.3431400381475971e-02 8.8263866483753906e-01 8.9370384139758063e-03 -1.4964869744957809e-02 4.5233319027381924e-02 -4.3991084319136462e+00 2.5775476671842625e+00 4.7430185799317813e-03 -3.1894482763570459e-03 3.5340078341533854e-01 7.9360686033343797e-01 1.3627275189200816e-01 9.2217862923868313e-02 3.0089895977249626e-01 3.6387558944289466e-02 -1.0176118990800234e+00 -1.5705643319195133e+00 1.4020041734663266e-01 3.3117358568828337e-01 2.9803304633363970e-01 4.1822301137842399e-01 -1.8730929136238190e+00 -4.1181131485148654e+00 -4.6056059527493289e+00 -1.9294788340428526e-02 1.2324547151839581e-01 9.8180986344058141e-02 8.5138527732659131e-01 -3.9254492523188644e-01 -1.0142944638440451e-02 1.1291267485218555e+00 4.3077805802886893e-03 2.6548013681505687e+00 -6.5947281484009466e+00 -7.2315896785144912e-02 1.7656101902225467e+00 -1.8385734268611176e-02 -5.1164156136969918e-01 3.4488946662365039e-01 4.6905893984285774e-01 1.5272611410691752e+00 2.3776376786950160e-02 -3.1926509158576172e-03 2.3676020180896620e+00 -1.7210679860613856e-01 4.2562535812915891e-01 5.4588935690916218e-02 -6.6261720497063337e-01 -9.4740330202910950e-03 -3.2698841907863674e-01 -3.2761861214655568e+00 5.1021828845300536e-02 5.0295883749807391e-01 2.8499088290735497e-01 -2.4778573687464611e-01 -4.3378938771552233e-01 4.4094392621202161e-01 2.7988132949505342e+00 -1.2744266782758973e-02 8.7120615036060833e-02 -4.5845862587361808e-01 2.6048848309475325e-01 -4.7151212893135636e-01 6.0658644096353333e-02 -4.3473406175675411e-01 -1.1233411708660479e-01 7.0688076025093149e-01 -6.0875549891002212e-01 -1.6782332619741230e-01 1.4256044762304867e+00 -1.6789817242954996e-01 5.3651263495130191e-02 -6.2976884814965217e-02 -1.0270946551954268e+00 -7.6712157424253746e-01 -4.0384414737165655e-02 -1.3266277855866440e-01 -4.0203540789025283e-01 -3.1351510749299566e-01 4.6412155303751823e-01 -1.9023206437364486e-02 -9.3928485829668062e-02 3.8248292334118084e-02 1.2738183829762111e+00 1.4790466547187364e+00 1.8096566978743606e-01 -4.6015932180354180e-01 -2.7537904578778960e-01 2.0106245681666446e-01 -8.3841805781537593e-01 -1.6010717503304259e+00 4.7335432411498459e+00 -6.7454314362508344e-02 -4.7238521500330685e-02 -4.4154736555645968e-01 -1.5538559137418084e-01 5.3157637130263402e-01 -1.7155976739594780e-01 -2.1352767470327869e+00 -2.1888589050727256e-01 -1.1428710803013002e+00 -1.8735019694799959e-01 2.0360894382087064e-01 -5.5973604042656333e-02 1.0518579545479412e-02 2.6265388055520589e-02 4.5861642317504447e-02 -5.4977368939216831e-01 -5.8672873098112177e-01 1.6679501175465905e-02 5.6990082796964311e-03 7.9965163795145600e-01 1.3954492930694418e-01 2.5149334246907529e-01 8.5312802488089409e-03 -4.1496274545261258e-01 -1.9295465449250315e-02 -2.9821780685006161e-01 -1.2072508737082899e+00 -9.9185197909875789e-02 -1.3221763985052881e-01 3.6481602741047642e-01 5.0210372759822697e-01 -7.4204695877534821e-01 -4.1139183600393450e+00 5.1042105301358731e+00 6.1503163541520814e-02 1.5027282392525831e-01 2.7692147196462429e+00 1.0023267408372376e+00 -7.4883793537015442e-01 1.1545969881857741e-01 7.8320075562581799e+00 3.1347895190500819e-01 5.6746664880839912e+00 -7.3084384940350056e-01 -9.0821521032438013e-02 2.6893131894035938e-01 1.2159307815744376e-03 5.0296199531202024e-01 1.1296292296936711e-02 -1.0516273279966960e+01 -3.9603613375831337e+00 -2.3825946379315226e-02 -3.9404422790718541e-02 5.7189591313378862e+00 1.2427540806294524e-01 -1.4050819026069722e-02 -3.4920977631820560e-02 9.0275335214532486e+00 -2.2281815267769001e-01 -1.2868211933290421e+01 -8.1391625792436528e-02 -6.7280112984326720e-02 -3.0168638920169886e-02 -8.9330635958773719e-01 
      </Row>
      <Row Index="94">
        -6.5374150811807530e-02 1.1567893841246359e+00 8.2580896179456431e-01 3.5420357932588331e+00 -9.6803808178516192e+01 -7.3940000840491016e-02 7.1966024876918555e-03 2.9911309356339189e-01 1.8489000439408457e-01 8.1909799324676555e+00 2.0554821958598191e-01 -2.0313818991315927e+01 -4.4385766627107159e-01 -9.4188846080533040e-01 -2.2305395064208824e+00 -2.9895674254391919e-01 1.2930771099032086e+00 1.0807712537596572e+00 -1.7749760433080297e-01 1.5205484618830969e+00 2.1267119620661106e+00 -4.0091372119379230e+01 1.0173620685337750e-01 1.1653120432965310e-01 -5.8499926289924247e+00 2.1075627475089220e-01 -6.3187262578308605e+00 -6.6721608208711203e-02 -2.2927692735649238e+01 -1.2618629027861061e-01 1.9576008658460040e+00 4.7283214281669643e+00 3.5112158799874837e-02 -1.7786020169486321e+00 -6.1045338726160026e-03 -2.2999056736904322e-01 -2.0242579349358039e+00 6.8159724166871456e+00 -9.5406659285799833e+01 3.5967855949095906e-02 1.0754029620223188e-01 -3.2976375060788996e+00 -5.7453656378445850e-01 -8.0037895954439477e+00 2.8304587976021978e-02 -2.3868429858432819e+01 7.4053942570799336e-02 -8.9932970189806838e-01 3.3494379490757638e+00 3.5712307184638803e-03 8.7904119657093815e-01 3.5575860463832432e-01 -5.6355659841187844e-02 4.5575120281569070e-01 -3.0467784424536148e-01 -7.4589347015891690e+01 -1.4449498132170419e-01 -1.3230936070499730e-01 2.5654937119725219e+00 -5.4316150387661932e-01 9.8595582377034248e+00 1.7748846886926137e-01 -1.6629224489496409e+01 7.0517395327735066e-01 3.5219930100294050e+00 -1.4882131572503567e+00 -1.2992524565381247e-01 1.4231519337974863e+00 1.6277197936445731e-01 3.7761269495516103e-01 -2.3035166750605640e-01 -2.7091147975625063e-02 -1.4015685670275707e+02 -2.0324425829741699e-02 -4.4404021390666695e-02 -1.1146576337705483e+00 2.5871456119298131e-01 1.3706199230966206e+01 1.8277776528365131e-01 -4.2088337488360139e+00 7.3794256916568202e-01 1.1057923859750716e+00 6.8306059753012960e+00 -1.5328783217460895e-01 1.8734814588515993e+00 -4.2695799815882157e-01 3.5958801253156025e-01 -1.3039696576772428e+00 4.8540671682030734e-01 -1.8261294764786726e+01 -1.4816346832028593e-02 -9.4139206688852298e-02 1.4517245166581461e+00 1.3627275317666587e-01 1.4805257306269112e+01 -8.0015864571688022e-02 -1.3503541142066524e+01 -4.9049326985986319e-01 -3.5120879588921525e+00 1.8281513466354227e-01 3.5600691184178024e-01 -8.2698297449968550e-01 3.3369587981851578e-01 8.7585568689928195e-01 -2.1693685643439986e+00 9.9346133361729461e-01 5.9229189890460475e+01 -1.6871425287725761e-01 1.5677903258912912e-01 1.0267347286473651e+01 6.6518761969761064e-01 -7.4622963636463324e-01 -4.2674413028706920e-02 -3.6407363555876593e+00 -3.6537101895614210e-01 9.2136873184575858e+00 -1.1514031027216689e+01 -2.4665230633620691e-01 -1.7523090018851173e-01 -8.8142998422651797e-01 2.1168091933986677e-01 3.1357788125053077e-01 -2.3588651112722729e+00 2.6632622480683494e+00 -4.3513332688590950e-02 -1.2248928591048387e-01 -5.5934140345311221e+00 -3.3217338062136115e-01 9.0408948636224480e+00 1.4374335521040060e-01 -1.3638435457780957e+01 -9.5527475014802521e-01 3.1235237115760128e-01 -2.0575735557652024e+01 -1.2869425753054831e-02 5.9176208505153376e+00 8.8081375868300449e-01 -2.1054982577725436e+00 -1.5671319309384835e-01 3.9229242834625140e+00 8.5128653668953120e+00 1.0265040396051894e-01 1.3384498478540041e-01 -6.2684817515037139e-01 4.2777637763148557e-01 -8.3720459114368406e+00 -2.1514573652096591e-01 7.0673713019782749e+00 -1.7722633016006739e-02 1.4538132516515603e+00 5.8604027239846346e-01 5.3132859867769167e-02 -1.5462441629758570e+00 -2.6560857576782038e-01 -9.5448650594683926e-01 8.0270461155022943e-01 -9.3699921601842107e-01 1.7232944308045262e+01 7.6472497810286644e-02 -1.8239549337973171e-01 6.7777878077486804e+00 -5.3695409849106202e-02 -3.5649517400360331e+00 -4.2440889273936577e-02 2.7273333487872904e+01 3.4103597079357861e-01 -2.2595907898730268e+00 -2.7378786034087454e-01 1.9676249697426776e-01 -3.1647290543852886e+00 5.9704679468150623e-01 1.6779020071811079e-01 8.9952878958409810e-01 -3.6253640892713648e+00 -2.0097792218411996e+01 -3.5899188276815236e-01 -4.1754622414732892e-02 8.4426840162497108e+00 8.5589239718440596e-02 8.0719456392106785e+00 -2.9867744923079975e-02 -3.0933585284815734e-01 7.1857020015365902e-01 1.4938069899075472e+00 -1.1098802838812016e+00 -2.6262981766957944e-01 1.4282446742486354e-01 5.4881469535450833e-01 2.8575825640052699e-01 9.9421751138925174e-01 -5.4163881864878931e+00 -1.7331947263795882e+02 8.7386963542392948e-02 -2.0535328131557704e-02 -7.5799206681654141e-01 -6.8586478431999831e-02 1.0348161296485245e+01 1.1111366063463524e-01 -7.0186481059281505e+00 -1.2076087755160358e-01 -3.6150552051694831e+00 -2.7530478840399155e+00 -1.6870765788054554e-01 1.3364134698911201e+00 5.5741406824709472e-01 1.7554362062144555e+00 -2.5400660408822873e+00 1.9903293523068243e+01 -2.4288264903719210e+01 1.3689371314598262e-01 1.6507227176816480e-01 -1.9855012446154888e+01 4.1504293968283457e-01 1.3424473388670512e+01 4.5049526795863992e-02 -5.6293107238884467e+01 -1.8906472589180887e+00 8.8795851459054251e+00 4.3430390547989361e-03 1.6659788469764081e-01 -2.3108616934817077e+00 -5.0667399672426040e-02 1.9165124590249454e+00 -2.3799746174105529e-01 2.2335279746257228e+01 3.4946756437408837e+00 -1.6776530675134302e-01 -4.2702102292577759e-02 -2.9771843130161891e+01 7.6042918554736882e-02 -6.6441233457843485e-01 3.9578638731542881e-02 -9.7446533531076241e+01 3.7147389171382472e+00 -2.1877369473145002e+01 1.2246052480936406e+01 -3.1911615112987977e-02 -3.7379736804453223e-02 5.2045699542612702e+00 
      </Row>
      <Row Index="95">
        -6.6936128262610778e-02 -1.2463091321531294e-01 4.6844846603539736e-01 1.7069237245030990e+00 2.1474802435295715e+00 -7.3534848185338453e-03 -1.2004601105598402e-02 2.7101462683958744e-01 -2.7980377830223210e-02 -6.6526545430576789e-02 -3.8779128861143197e-01 9.1440502021904280e-01 -5.5628540438306118e-03 -4.0976565530945663e-01 -4.2593277431139995e+00 1.8087674730904077e-01 3.5116761036690036e-02 -4.1653683671206920e-02 -3.5441906912861754e-02 1.3271102546489288e-01 2.4703992614740855e-01 -1.5121102889592294e+01 1.2136339957431963e-02 5.9863793002150757e-02 5.0998528591327386e-01 -1.6828953940488667e-03 4.1415310086563295e-03 3.4641997178397332e-05 1.2918949016131265e+00 -4.4756654014705077e-02 2.2130222509384367e-01 4.0520047844847795e+00 1.7410803311671774e-01 -9.6815998841162113e-02 1.0653550521494992e-01 -6.0507608730077322e-02 -4.0506728336629294e-01 1.2707659775660431e+00 5.8417404582723975e-01 -2.5208766721540599e-03 3.1150648295494375e-02 -3.1667819131034776e+00 5.6515426030504717e-02 1.5823188597238413e-02 -1.8271735259326238e-02 7.5732343107233646e-01 3.1953379269111792e-03 1.8290625424208429e-01 7.6340226807960789e+00 -3.0088339284544219e-01 -1.1778976709615563e-01 -2.9627579890232153e-02 5.9099886966315296e-02 8.1267838440112428e-01 -5.9271279772019625e-01 -9.3984046316181775e+00 -1.8919834177648365e-02 -3.6636214607253137e-02 -3.5634080457384698e-01 9.3845508588605298e-03 2.8943228468879534e-02 1.1496768992645665e-02 1.4990578376333019e-01 -1.3318229135588577e-01 1.7573809221073589e-01 -6.0568400467764150e-01 -1.5756171342891057e-01 -1.0586750354700514e-01 -4.8374155004420771e-02 1.8561226952670040e-01 -6.5884192577175327e-01 -8.4044222153897863e-01 -1.0423374187084846e+00 -3.6193548231770123e-02 4.1164792466147487e-02 -7.9726496628700261e-01 3.0896310241104175e-03 -1.5832658834710855e-02 -9.1317291919249755e-02 -1.8434938591281025e-01 -2.3731329994092221e-01 -1.0802335178937028e-02 5.6308141955519204e+00 2.2534883456999921e-01 -3.3108115821192108e-03 2.6532625029108636e-02 -1.7135428943072384e-01 -5.3969439711778477e-01 -1.9010439197700180e+00 -1.0750361397236702e+01 2.9534062645677435e-02 6.4078617404618843e-02 8.4775647182613056e-01 9.2217863461709015e-02 -8.0015869698371489e-02 6.3844250626647936e-01 -1.3536594442796286e+00 2.0934258367724379e-01 -2.1688664844771210e-01 -3.7913057058672166e+00 1.8129217414932447e-01 1.3028967776239142e-01 -9.0096846029237176e-02 -1.3763597707268016e-01 -1.1391991581713787e+00 -6.6241784459902675e-01 -3.2259214167397658e+00 -2.8250754536162603e-02 -4.5848230809894641e-02 7.3622788494503411e-01 -8.3614967782986924e-02 -1.1821655395422970e-01 -1.5830173142396056e-01 -6.7618585840135392e-01 1.7786048407423827e-01 -3.1972346574471899e-01 -1.8812158218218578e+00 2.9129296647653535e-01 -4.7158009588828653e-02 1.4156988424938396e-01 1.4569595281582692e-01 -2.7587814612459383e-01 4.2008934346139792e-01 -1.4020920664188452e-01 3.6602151726808793e-02 1.1631014089984149e-01 2.0983799241295387e+00 1.0047178776985044e-01 -9.1449852252338815e-03 1.6677998527373825e-01 5.9560578045543622e-01 3.3624632515715136e-01 8.9056255073776569e-01 -7.3456420684825998e+00 -1.4541262028166246e-01 -2.3156766192162337e-01 1.2006013412229283e-01 9.1956400840900954e-02 9.3431518253580315e-01 5.8192320707003553e-01 3.2834608253272108e+00 4.1259001600605839e-02 -7.7695229947374780e-02 -3.0034183739553555e-01 1.3707231083560728e-01 -2.7935838435134031e-02 3.3113466218830068e-01 -5.8457425747277370e-01 3.3962119055718887e-02 8.5061662725726350e-02 7.2628795445318417e-02 -3.5898072085652105e-01 3.1007741413785134e-01 -1.3241198270720084e-01 2.2145258047845839e-01 -2.0260259980795059e-01 5.5284700037402956e-01 -1.2908608287511470e+01 -1.0465872806404181e-02 -1.7380683079898968e-01 7.8554319386243066e-01 -1.5753731405954674e-01 1.8016795011941511e-01 2.3343407889086898e-02 -1.2511282941256141e+00 -2.4895846833309143e-02 8.8217730264961602e-02 7.3254600865866912e+00 1.3809408659737302e-01 1.6870968938583397e-01 -2.9098004589359244e-01 1.7602533853826458e-01 -1.1730917776099365e+00 3.2042823760264558e+00 7.0846562598998162e+00 -1.1481009361634867e-01 -3.7466107500485395e-02 2.8138425934379931e+00 -4.0374813979619362e-01 1.0623613256782607e-01 -5.5190939882981183e-01 2.8674980035954079e-01 3.3438084104186777e-02 -9.2022633383848174e-01 1.5409316878603514e+00 7.0865025500006817e-01 -2.1712203454495560e-01 1.1508064513996885e-02 3.1170693338424371e-02 -1.1487342993677885e-01 2.7307695533818332e-01 1.6505794899421744e+00 4.4775067232658672e-02 -1.0716724097178314e-02 1.1959783314632659e+00 3.5677450239249175e-02 3.9916347002019847e-02 -1.8550963148108467e-02 1.7223836992343422e-01 5.7877903783179363e-02 -3.4617841213184875e-01 -3.1641852833608937e+00 -1.0591681373451323e-01 -1.1900768764677139e-01 4.3958593913242014e-02 -4.5203128472330856e-01 -1.6636324171008532e-01 -2.2472183774717829e+00 5.3419480394654784e+00 8.4095751057474522e-02 1.3826329329992122e-02 1.4210324773803222e+00 2.4952357115306628e-01 -3.0061518837973344e-01 3.3349014534069032e-01 -5.3708495536750691e+00 2.4385895977365346e-02 9.0772562948588986e-01 9.0483050377505525e-01 -1.1076552969692163e-02 8.2276645435697460e-02 7.6923573702256283e-04 -2.5442959874572380e-01 -6.8961975604118875e-02 -4.6460956331948211e-01 3.7917790439998758e+00 -4.0429129634746479e-02 -4.7333749529621993e-02 7.7743007933662023e+00 1.0650801744130245e-02 -2.2359239344586397e-03 -1.3907843119154650e-01 -9.2532310753564886e+00 -6.8858980721787111e-01 -3.3709518185592326e+00 6.1513005424343721e+00 -1.2380149927968366e-01 -1.5417123528870917e-03 4.5626480122979016e+00 
      </Row>
      <Row Index="96">
        1.5048171689830490e+00 2.0224928108436870e+00 -1.3623517196567263e+01 -8.0633101887215162e+00 -1.5284518497632816e+03 2.3973498375590907e-01 1.0382582886303426e-01 3.1602222404093482e+01 8.7090022582720150e-01 -2.0761199561500689e+01 9.3612903957267801e-01 9.8916236133623897e+01 3.3208387019985821e+00 3.0226347339339554e+00 3.7231708468752913e+00 -6.1506318475846800e-01 -3.6362674708907434e+00 -2.6367615180770372e+00 -2.9303115908514883e+00 1.5424964507163423e+00 -3.3053753501037136e+01 1.4264798986613750e+03 -6.5584607339656120e-01 4.0876669635461954e-01 2.8260147593988222e+01 7.5115418737414075e-01 -5.6530004827800440e+00 -7.1971693509226498e-01 1.7242487279522965e+02 -8.8119844476750586e-03 -6.5334605624102551e+00 4.6735309969750233e+01 -2.6911350783279886e-01 -4.5814636314552022e+00 2.6106003248060006e-01 -4.1754784384174854e+00 7.3528596722986549e+01 -6.9412026243284345e+01 1.3213661298826337e+03 -3.9011360564745701e-01 -4.1071176800776477e-01 1.9370837529189885e+01 1.9158328851881379e-01 -1.3329721110254468e+01 1.0447570986661958e-01 1.8752729721725336e+02 1.5668298150558257e+00 1.9812050588341663e+01 5.6819575189263560e+01 1.2413684907369316e-01 -7.8921907051844755e+00 -5.2905711076830098e-01 -6.6323305557671119e+00 -5.7757274731993675e+00 -1.0174481186433695e+01 -1.5560719897821546e+03 1.7960654455073488e-01 -1.0930440369796390e-01 3.2721611572429538e+01 -5.4437355579981794e-01 -2.5568124149497134e+01 -1.0097692128550392e-01 9.9962502136761032e+01 4.2782452240137001e+00 -2.2996933702088427e+01 2.6216356070712209e+01 9.5814784881342652e-02 9.5831831569675119e-02 -2.3518680900633626e-01 -3.0240284754290769e+00 1.6795342828379944e+01 1.1471332660759799e+01 1.3713054580166936e+03 3.5319396677095938e-02 -1.3084247860832887e-01 1.8000334698706865e+01 5.7895749108502059e-01 -1.5991494133064407e+01 2.0133707340869478e-01 -3.5711539837997407e+01 -5.9329085891804425e+00 -1.1656068488326127e+01 3.3895306539430749e+01 -1.5248682993933471e-01 1.4624149196827148e+00 1.1662512693772165e+00 9.6066983255150262e-01 2.4831303894025041e+01 1.1240038538933732e+01 1.8417040914371610e+03 3.4885483381980548e-01 2.3222015900668494e-01 -4.2365555653901538e+01 3.0089879254683183e-01 -1.3503540683224855e+01 -1.3536596808766548e+00 3.3483928504644427e+02 3.8789447523347462e+00 3.1681353311840212e+01 -4.5031769243068993e+00 -2.1604532507674346e-01 1.4323732799966820e+00 -1.6044526974144824e+00 7.3576425570801955e+00 1.3123827230795698e+01 4.7300311068776921e+01 -6.0953568842186723e+02 9.6510359917294819e-01 -3.7967016361471373e-02 -2.6180427397548911e+01 2.8593646348812318e-01 2.2779782730848723e+01 1.4731161989858323e+00 2.0439450161509691e+02 -1.1538832730525215e+00 -5.7178327706462071e+01 3.0677007197993433e+01 -1.1996149424405000e-01 -2.5092432089780594e+00 4.8863402242770526e+00 -3.5232941058772091e+00 5.0998345021381652e+00 1.0335466242369741e+01 2.3188836768269539e+01 6.1006968170056819e-01 -9.1504593831469783e-01 1.4019536619327027e+01 -1.4624368766159777e+00 -1.4461984690860810e+01 -8.5512050595201294e-01 -8.6202129170878010e+01 2.3146375554537224e+00 -3.3594922254882299e+01 6.2100265305381583e+00 1.1868852870574322e+00 -5.9394513252786254e+00 -2.1858892655944326e+00 -2.7673548468646203e-01 -1.1591095696946248e+00 -2.4188510385506106e+01 1.4172616741651982e+03 -1.3805329660950183e-01 8.2709021262362614e-01 2.8414718536194414e+01 1.0029115927267342e+00 1.6166306015401460e+01 -1.1248901919041767e+00 -3.0794791209171834e+01 3.3783994851970398e+00 -7.9503135372013602e+00 -3.4249889970100327e+00 -3.0277520395821134e-01 -3.9217016978384471e+00 -1.2299078519857223e+00 1.4639015596436344e+00 -2.5071164364863584e+01 -1.1455445670733866e-01 4.9261200538865523e+01 -4.1207615645678586e-01 8.2581079786976019e-01 -6.2182634506939394e-02 8.7893308106866541e-01 2.3808234896853939e+01 4.5307432799976977e-01 -3.6953364903796853e+01 -7.1324688071059938e-01 -9.5807388563556017e+00 3.1271824108726548e+01 -9.3268802975909360e-01 3.1749833976993393e+00 -2.3641396241249879e-01 8.0540043308334575e+00 -2.3544094416174996e+01 9.0487281599353850e+01 3.5928202110466646e+02 1.0299819579690803e+00 1.0790388024312669e+00 -2.1160077437189301e+01 -1.8075033829952090e+00 9.8601554978788233e+00 5.2512201086057164e-01 -1.8140482472650086e+02 -4.5611322406358372e+00 2.3595447073117612e+01 5.5111585765978731e+01 -5.3140178656941428e-01 -3.6608131473917922e+00 -1.3333590011989145e+00 7.6207838552363683e-01 -6.4905165314557962e+00 1.8061510674655437e+01 1.1286373855024576e+03 -5.3566956471425442e-01 -2.6210914303144950e-01 -4.0393760572304018e+01 -3.0777979709847680e-01 -1.5919930563770322e+01 7.4743594704052008e-02 -2.1587176749482751e+01 1.7399023009747907e+00 7.7114808093756437e+00 -2.1497193119721487e+01 1.6456498480567916e-01 2.6880669064485119e-01 -3.4961611067945562e+00 -2.2819853191912376e+00 4.0816117507018333e+01 -4.5212106537391315e+02 3.2171624553056245e+02 -5.6127972433244955e-01 -8.2370416268570712e-01 3.3116152285039425e+02 2.3778819585582269e+00 -3.9519269500814616e+01 5.1182042352821033e-01 3.1528501253441400e+03 2.5180255489679560e+01 -1.7749023037756507e+02 5.4464304339636772e+02 5.0553269759285868e-03 1.9006057072519624e+00 1.7569965889030451e-01 8.9254521620954783e+00 4.5107246246018873e+00 -7.6514153510361973e+02 -1.0875866931823455e+03 5.0022679271485615e-01 2.7276587420709575e-01 6.2695877238639241e+02 1.2787205363582643e-01 1.3668194522654957e+00 3.0482191465068809e-01 4.9728190030736168e+03 -4.1243418205019736e+01 4.4022851096612544e+02 -8.2435394745420876e+02 9.7980708826329616e-02 2.3208211511996035e-01 -1.1731371316684576e+03 
      </Row>
      <Row Index="97">
        -1.5609113131558683e-01 -7.1027569753982789e-01 -3.1311530213279184e+00 -4.7432297855348224e+00 -2.6292023698682897e+01 -7.0353652933448529e-02 -2.2562009102956099e-01 -1.7383282669143227e+01 -2.7490541264413226e-01 -1.5127116745270541e+00 -6.5674069874641652e-02 3.8355581617299777e+00 2.8325207142725048e+01 -9.2145532312788418e+00 -2.0254944243648424e+01 8.4884091694981123e-02 -1.5336182788307724e+00 4.1842794357012281e-01 -3.9771633899766812e-01 -9.1568311992112239e+00 4.4340426010749070e+00 2.9291706980578601e+02 -9.5915708080559103e-02 -5.9530469969798133e-02 7.6558008066856019e+01 -4.3616236510857220e-03 2.6254323500961618e-01 8.3618831402247906e-02 6.8287161968431516e+00 -2.6461087614404732e+00 1.4273724135993348e+01 6.0764819235562754e+01 9.2973758143344298e-03 -5.2220821635109782e-01 2.3869378553138176e-01 2.0438838456811936e-01 7.0613667178531614e+00 -4.9995219889096916e+00 -1.6508118398836814e+01 2.7432540872723621e-02 -9.2485774802074983e-02 -2.4687781045009615e+01 -1.8311573492269417e-01 6.2452783450225979e-02 1.3529561920343269e-02 5.9578886547697039e+00 -1.4740277786371735e+01 5.3300209410062962e+00 1.2632870108840871e+02 -1.1344874909923419e-02 -7.3729825662576332e-01 3.9198320539670028e-01 4.4297877770600280e-01 9.6061633808913029e+00 -4.8158544844118296e+00 -4.9277202051598579e+01 -3.7114393129235757e-01 1.6977758286680095e-01 -3.5272551251575351e+01 3.4619278638171824e-02 -5.3065276788495996e-01 1.5190309053278610e-02 8.6700130296658244e+00 -1.3932498322959184e+01 4.5832335583090753e+00 -7.7913885866539204e+01 -1.9070958733608723e-01 1.4357610139905113e+00 1.7752217568238393e-01 -4.9523813040423192e-01 1.2264765555544727e+01 -3.7253405577139347e+00 -1.4544388302648440e+02 -3.2999638519621044e-01 2.8458595751041732e-01 -2.4331458931657835e+01 3.3241695704464291e-01 -1.8352524255715252e-01 -1.5032929308061682e-01 4.2244234970166872e+00 -4.5553608184109180e+01 -5.2696037596359702e+00 4.6328307252333616e+01 -2.8948725601895831e-01 3.0604792711578241e+00 -1.5403907455418420e-02 -3.9178690119388193e-01 2.6034821980556444e-01 -1.2010719331956352e+00 1.6393764156987891e+02 1.3732807123885460e-01 -5.4710093100721752e-04 -1.0650127276219791e+01 3.6387551964139675e-02 -4.9049323558665492e-01 2.0934258714692097e-01 3.8789435120197595e+00 3.3655488061701668e+01 -3.9825586947299598e+00 -5.3716973551578121e+01 2.8640666180405705e-01 4.9197231146627018e-01 -7.6005519738781169e-02 -9.1205253123790264e-01 -1.1087889598078743e+01 1.5695426937636370e+01 -1.9092582255842217e+01 5.8974516518978937e-01 -1.3571643688605739e-01 -2.9926222987849012e+01 -7.5994019430939502e-02 -1.3470011020894970e+00 8.4319609819843641e-02 -7.1686773449792085e+00 3.7793315559120856e+01 4.2441756365523304e+01 6.5267607806445923e+01 1.1569489068897215e-01 -1.4428280187835316e+00 4.8443501512049542e-01 4.8279228774769072e+00 -1.7522159088446433e+01 7.8345971908812251e+00 -6.9995994382072240e+01 7.7369321842855143e-01 -5.0871298126535669e-01 3.1858909163525965e+01 -2.9005018548604938e-01 -9.9197006783775477e-01 1.6556133520456598e-01 -1.7385251754952069e+00 4.6034908070347456e+01 2.8060682398932745e+01 1.1803428290031967e+01 4.1061435859642054e-01 -4.9129561572089724e+00 7.6387777297400983e-01 -4.2731089803223377e-01 -1.3216383344126132e+00 -1.6781210354482923e+00 -5.4983701246028204e+01 2.1098602760269403e-01 1.7564430157571889e-01 4.3553817464315216e+01 6.0562325400635802e-02 8.4600541120948947e-01 -5.4332643371226445e-02 1.2915969729196579e+00 8.6460440422834335e+00 -1.8991923741975762e+00 -4.3293302198750382e+01 -3.1390556585051865e-01 -3.2144927914614230e-01 -8.0357611011711105e-01 2.1002418596150978e+00 -1.5709820200758635e+00 4.5907511556510991e+00 3.6206527004295390e+02 -1.7952852238397221e-01 1.4948982120180498e-01 2.1358877024917462e+01 8.8562225335816397e-02 8.5710143947676798e-01 7.7380009074670825e-02 3.4422555705158331e+00 1.6751034021203420e+01 -1.2317414100374553e+01 1.3958102075096744e+02 -1.2519097129242263e-02 8.2903075732014875e-01 9.6306459504417685e-01 -3.6263465927088445e+00 2.9448999211739277e+00 8.5033829552866891e-01 -3.9133681175648690e+01 -1.0034134417806304e+00 6.6601499535449790e-02 -3.0643220978763779e+01 5.0331926344820865e-01 1.0872705807697813e+00 -4.1210599835688155e-01 6.8318122737411784e+00 -4.9844757522187095e+01 -1.5945581343625722e+01 1.0518960932868248e+02 2.3295599613527124e-01 -1.4038148919897036e+00 -4.3579302485341032e-02 5.9404640244883922e-01 -1.2588718839102512e+01 6.0358331419993192e+00 1.8085415280796587e+02 7.2575194546580235e-01 -7.7236169401164706e-02 -7.1936513103355537e+00 -5.4282460272129740e-02 -5.2492349016938533e-01 6.1712145265298418e-02 -3.2711878553527640e+00 1.8792741158528884e+01 1.1769442306249402e+00 4.9025002778464113e+01 -4.8985835434820046e-02 -5.4780252339537583e-01 -1.0962931143001762e+00 -1.3283618618474557e-01 -9.0601476103021827e+00 -2.6259782226059347e+01 4.1888174240486933e+01 1.2038972273115072e+00 -9.1082877603834433e-02 2.2746500977220421e+01 -6.2139638369538808e-01 -3.8357134712275842e+00 5.0547652958853817e-01 1.6682735289210004e+01 1.3501549085147869e+02 6.5907603081099680e+01 -5.6066714459510536e+01 -3.5918671954799086e-02 1.1869196554154540e+00 -3.4443487774816220e-02 -1.9062011417487572e+00 1.3297121308747279e+00 -6.5190797373920006e+01 -9.4883621228247819e+01 -1.8884495498102058e-01 6.1169896758968889e-02 -2.9965138254175443e+01 1.0031008726947732e-02 5.2078829515167180e-02 -4.7152199575613452e-02 5.3095932322746201e+01 -2.2689833366525292e+02 -1.1173335362562759e+02 1.2267132104204453e+02 -5.7551825923959715e-02 4.9109603976685651e-02 6.9041368468063709e+01 
      </Row>
      <Row Index="98">
        1.2009313927012251e+00 -3.2187862764048987e+00 7.3672174835031910e+01 -3.0867811699076628e+02 -3.8483808648562990e+02 2.7951495490111142e+00 -2.4653098413076009e-02 5.8665229544421891e+01 -2.0114476169210942e+00 2.6675935920611664e+00 1.9212566225940653e-01 6.5888327399916079e+01 -4.4089105500715959e+00 1.4645334654382896e+02 6.4301766600594419e+01 2.1413613525162960e+00 -3.0496063063933434e+00 1.2828880080382987e+00 2.1593757163464034e-01 1.1441970795619056e+01 5.6206283768449794e+01 4.4995708067342639e+02 -4.2944179792260782e+00 -5.7898412549364542e-01 -8.3775414621324671e+01 1.0428426244950799e+00 -5.7397530728230777e+00 -2.1718752153191190e-01 -4.2910175766547816e+01 4.5440705875180356e+00 -1.8548133400742950e+02 -4.2563881263340591e+02 -2.7843471350773186e+00 1.1938565133148643e+01 2.6761112393410258e-01 1.1628738821445950e+00 -1.0444487162332371e+02 -9.3746492773864884e+02 5.2506929059047252e+01 -4.5933677752141193e+00 3.7850213600693960e-01 7.4431141942332033e+01 3.8050433336920833e+00 -3.0346095319519009e+00 -1.9085129242326104e-01 -5.4396854945713130e+01 3.5943220141271013e+00 -1.8390936747404703e+02 -3.0697687859807047e+02 1.2479919149841407e+00 -2.1326002689518646e+01 4.2365551879327059e+00 1.0129301187851524e+01 -3.0614511868479894e+01 4.2756977701187134e+02 -7.3810331324860454e+02 -8.6086633560719861e-01 -1.5398492577994256e+00 4.2406721455161460e+01 2.0474248769149037e+00 -8.6942128560793321e+00 -1.4906320227349590e+00 -5.0566994294945289e+01 1.0197022533196701e+01 -2.1402072956160555e+02 -1.2637537996267201e+02 -8.5593471999569903e-01 2.8277423901479594e+01 -3.0402483525222124e-02 5.3343444639403970e-01 -7.0146774026939966e+01 2.3176564525626600e+02 -6.5914054254163057e+02 -2.2658210097552001e+00 -6.5039788700324475e-01 -2.9515981027798261e+00 -2.3927291143443199e+00 -6.3753459689214651e+00 -4.3209647182692379e-01 -4.7210253579578421e+01 1.0202804577591451e+01 -1.7167232947038883e+02 -1.7773855293450470e+02 -6.1857190480134250e-01 3.3633382053387209e+00 -8.0294793586415558e-02 -1.5777056229271693e+00 -5.3145684303975031e+01 7.2400225900573423e+02 4.6503472121618688e+02 3.8067915764429472e-01 7.4044382786432467e-02 3.4566995011613471e+01 -1.0176119318745123e+00 -3.5120878628813443e+00 -2.1688672433356193e-01 3.1681334678898565e+01 -3.9825594979117511e+00 8.1174898794897672e+02 8.7938920819899067e+01 7.4533834173108549e-02 6.3177737342102773e+00 2.4498682345869662e+00 -2.2787919860762738e+01 -1.0084031977239977e+02 -8.3529544464792923e+02 2.7597124857143353e+02 -1.7346149924232224e+00 -2.3885292615809757e+00 1.5360043096106011e+02 -5.0863214438153266e+00 -1.8916494154853041e+01 -9.8039112908516157e-01 -1.4302109133661872e+02 -3.2496298083154883e+01 -9.0788052248086308e+02 1.2800730529360959e+02 -3.1616682141297745e+00 4.7225075093313595e+00 -4.1664586887122299e+00 2.3111685530196304e+00 -4.4305686924060893e+01 -2.3657167739807113e+02 -1.5715039863716811e+02 -3.6944500411915113e+00 3.7558381674890023e-01 -7.2462980623697348e+01 1.2702362069096493e+00 -7.4983027750958930e+00 -8.3330834174951629e-02 -7.1421553029089296e+01 -8.4163124151331949e+00 -1.9420855584035098e+02 -1.1404017021519707e+01 -5.5377634889989813e-01 -4.5541558671666582e-01 1.5450723652939296e+00 1.7605281946831070e+01 1.0332677877872499e+01 -1.0791360695277876e+03 2.1626826592300131e+02 -6.9533213767822888e-01 -7.6470195435713073e-01 7.1612087132816669e+00 -2.6069848860672926e+00 -3.5767772750637050e-01 8.2605593705564440e-01 -4.6689530546114099e+01 -4.6401771520749548e+00 -1.0566746452092951e+02 1.6799967116747666e+01 -1.1924582953903529e-02 -6.7985163776011674e+00 1.2850565876788791e+00 -6.3553597916892812e-01 3.1056011635388160e+01 -2.1078881893746927e+02 -6.2683354998203754e+01 1.1925480553032912e+00 1.7774235665912386e-01 -7.8022030286244444e+01 -1.6332267611598206e+00 3.4138098406326804e+00 2.1464268134594500e-01 2.3822298929497492e+01 -8.7839326899016896e+00 1.8961196228709602e+02 2.9373351034151142e+01 -8.6113853733672929e-01 -1.8889096477649431e+01 1.1921324067677203e+01 1.1472701635419671e+01 1.7403078807277308e+02 -2.0603625951282743e+02 -3.2454202998933215e+02 1.3607912314076945e+01 1.3020667817941856e+00 -1.3436536408756228e+02 -3.7831118202264169e+00 1.6182955163416423e+01 3.1543984488346517e+00 2.9396076917750634e+02 3.7453815311905721e+01 2.1706228218770065e+02 1.2454379519839500e+02 2.8526167697600968e-02 -2.2581141361846843e+01 7.6654422137926304e-01 -2.3965418690495426e+00 -1.6333135258173570e+00 3.3861004974180833e+02 4.5971925365924835e+02 -2.4080749670323520e+00 2.9596803451714737e-01 1.0395971703881514e+01 7.4549087166324735e-01 1.7469592152347104e+00 6.4409217428854859e-02 2.7505533634743188e+01 -3.9627699674372252e+00 1.4842170424852520e+02 -4.4420129890204407e+00 1.0096113059028795e+00 3.2542980334806089e+00 -3.2492956153163171e+00 -2.4418542525138172e+01 -2.0524230382789813e+02 6.1979139093969798e+02 -3.7998178150566594e+02 -1.2228225375568567e+01 -3.9535537977312281e+00 5.0239206743921386e+01 1.5980110183788128e+00 -3.0987072419276316e+01 -4.6691977931940070e+00 4.3019119724484995e+02 -5.8725087895884371e+01 -1.9654129142021757e+03 -1.1004143676088282e+02 -2.4981361525549706e+00 5.7129675435085986e+01 -1.5708088995611624e-01 -4.9020657479343228e+00 -1.4395820248941252e+01 2.5365844650250447e+03 1.9307849265342202e+03 3.6232379188045440e+00 -1.3575110267903767e-01 -2.5639097853249132e+02 -4.4344414477886573e-01 7.9421789591481939e-02 -1.4786112265284146e-02 1.2267501485959908e+03 4.1853802581499572e+01 5.4457190746578435e+03 -3.9068092819456206e+02 8.2131703371219134e-01 1.7029905064343431e-01 -1.7840563280382739e+02 
      </Row>
      <Row Index="99">
        -7.5461349670294453e-01 -1.1110872657314758e+01 1.0030899142537965e+02 1.1301828889576427e+02 2.9987476113904268e+02 1.0346295880912749e+01 -1.6033004722248219e+00 1.6228582374961115e+02 -4.1290439903311493e-01 3.1159603287233040e+00 3.2936710538234939e+00 -1.6711483265997231e+01 -1.7509973386084312e+01 1.4966633230214939e+00 2.3330860156550189e+03 -7.0162723998695604e+00 6.1476640836990555e+00 -4.1148379659171042e-01 3.4978179800691578e+00 2.9941035887053414e+02 -6.0091768285492435e+00 5.9676303476095200e+01 3.3493136735565265e+00 7.5362559992871558e-01 1.4099084747498273e+02 7.3261115682271338e-02 2.3592368036188418e+00 -1.0572506495732341e+00 -8.2938306150419407e+01 7.6116149140518246e+01 -2.2510043296550248e+02 -2.7582373499841196e+03 -2.7527546757870596e+00 -5.1337416284811184e+00 -2.3479551265827467e+00 4.1085139062743110e+00 -5.5557199086004402e+01 -7.0901899233926088e+01 4.2655494737625122e+02 -3.1771991772320689e+00 1.2030985211173224e+00 2.7057792377797887e+02 1.3440629470205749e+00 6.8195684140664525e-01 6.6463388538329582e-01 -1.0926582097727805e+02 7.9729785600342439e+01 -6.6156659949687310e+01 -2.2999541355932597e+03 3.0357820791887207e+00 5.8706346015969757e+00 1.8668235574724044e+00 1.2564850715105422e+01 8.4122129187104292e+01 -2.6009598849457689e+01 1.0873012381792068e+02 2.2459842970428799e+01 -8.8072810393046286e-01 9.5520016524940729e+01 -1.8755136515277657e+00 5.4131795130652449e-01 1.0733317998906813e+00 1.0030797809231444e+00 -1.0646170927129404e+02 -1.2157268093869789e+01 -1.3681422231018078e+03 1.6126734153190814e+00 1.9998040453785038e-01 4.7012036714422720e+00 8.1397662879826385e+00 9.3206770796241472e+01 -3.7209646395989694e+01 -1.3253318727910519e+03 1.3881984363250012e+01 7.7161123034775692e-01 3.8006606562505476e+02 -2.9813437998545851e+00 1.6766214960269281e+01 -1.7755887369496577e+00 -1.1251094118342735e+01 5.4731408639825531e+01 -1.1060218742246434e+02 -5.4105987476874143e+03 -4.1255925342284172e+00 -1.9011251474701680e+01 -1.5499906224850477e+00 -7.3736442678055027e+00 -2.0223467523800355e+02 5.2120781659381464e+01 6.4193713612854481e+01 -7.3666011977720700e+00 -1.2037723984769881e+00 -1.9045894422495621e+02 -1.5705642317298043e+00 1.8281655375903938e-01 -3.7913054927592342e+00 -4.5032552623888478e+00 -5.3716972199028874e+01 8.7938831156265223e+01 6.2317112906717230e+03 7.3222042385519179e+00 -4.5851895849627908e+00 6.0660036024199595e+00 -2.1178444141203201e+01 2.6670994525424959e+01 -1.8232827900418641e+02 -3.7582873481105344e+02 2.2986989449164870e+01 7.6907116168036638e-02 1.9870171368474666e+02 5.6267246150938410e-01 7.5838848247374564e+00 -1.9074916184123403e-01 5.4126871748218832e+01 1.1683326171268760e+01 -2.4513592280411399e+02 1.9575377328728900e+03 -3.8774052443690374e+00 -4.5860163082361360e+00 -8.7583206764403165e+00 1.0353960809583782e+00 -2.2179675123134646e+02 -8.4070948318145369e+01 1.0418411895632744e+01 -3.2154963547903904e+01 -2.4512595771241479e+00 -2.2724407712767970e+01 8.2326768531304684e-01 -7.2000692631268777e+00 7.1893810145441139e-01 -2.2439486142667299e+01 -8.9139794822044109e+00 7.0213297303679212e+01 5.1595387293691128e+03 4.3998078989863370e+00 2.1399354600875647e+01 -7.4076559093484384e+00 4.6770825167253065e+00 -2.5738171860607378e+02 2.3902919130136922e+02 1.0952430967657710e+02 -2.2548771276161169e+01 -2.8805978980249924e-01 -7.1767095720511861e+02 -1.9872309588329111e+00 -9.9410953427804998e+00 1.1532238303420970e+00 1.3940942475175270e+01 -6.0349310646687513e+01 2.8995451173856543e+02 1.3577605057665105e+03 1.0681797830282100e+01 -4.8609088196508523e+00 4.6949186423703786e+00 1.7554087879844360e-02 1.9794251997724396e+02 5.8184872888031578e+01 7.2997762270481326e+02 1.8936447671377419e+01 5.3722517226035222e+00 2.0083809023410981e+02 3.5495907698858691e+00 1.0196425779661489e+01 -4.6204068306443737e+00 -1.3921434237496180e+02 1.0275417587007860e+02 -1.6697029726075471e+02 -3.8308333227565845e+02 -3.6190151148149710e+00 -1.2487773458108560e+00 4.5850452226928926e+00 3.0154152692738542e+01 2.6844542186398627e+02 -1.9942474934994141e+02 -8.8715882945587509e+01 8.3458279137246237e+01 4.2160146406001742e+00 -1.2589807345317161e+02 -6.0550768940641087e-01 5.5334289220017197e+01 -2.9515230734434397e+00 -1.2169644046267535e+02 -1.4686796527322304e+02 -2.4756966115661902e+02 -5.6361278618059705e+03 -2.1109710054863619e+01 -7.5872265841421083e+00 -3.6179739183735364e+00 -4.1141257598646916e+00 -7.2116273601131979e+01 1.0625109098851681e+01 5.8295875683426857e+01 -3.5851100887311731e+01 -1.4358622854927061e-01 6.7123308254405856e+01 -8.0167847686103144e-01 1.2542387637222419e+00 2.4655429100418758e-01 1.0414736381266266e+01 2.4202903150362545e+00 4.6724487538449466e+01 4.3785846635501366e+03 2.0313124310686135e+00 -2.4386187857089681e-01 4.0938356468620292e+00 -5.0947179608306513e+01 -3.6282484142112651e+01 1.4315430694836454e+02 2.4422607596801765e+02 -2.8903028068151730e+01 -5.9234385923149375e+00 -1.1170994131600019e+03 -8.3379105710562840e-01 -4.0499304736758944e+01 5.2977323217863574e+00 2.0504503487638556e+02 -8.4227938658256832e+01 3.2957691920381933e+00 1.3035658565272656e+03 1.3516380446144217e+01 9.4173703887295801e+00 1.1415982540338376e-01 -3.1032733540995110e+01 -3.5426226812088970e+01 8.4636004007282708e+01 -4.2592841183407089e+01 5.5854600934659523e+01 6.6387592495595982e-01 -2.3742325865776947e+03 -3.4458358791522414e-01 -1.3573487201670531e-01 1.2249030269553032e+00 -1.4495919098754950e+02 2.6557260625245038e+02 1.4380419038876568e+02 -3.7014817263272125e+03 8.0518531171021390e-01 2.1627703545632926e-02 1.1854947865728113e+03 
      </Row>
      <Row Index="100">
        1.0928334248257859e-01 7.9547766308587597e-01 6.8813886573025229e-01 5.8619155337687516e+00 -2.1438112693416770e+01 -4.5444346425043136e-03 -6.2783437275197349e-02 6.7596847926615737e+00 2.4627440705379169e-01 -6.9892025119315804e-03 -3.6660241193008403e-01 8.7435914220574773e-01 1.6926930919680672e-01 7.9832018447086739e-01 6.1918843461144206e+00 -2.3544714869407741e+00 6.9747342743198715e-02 -5.6057724626154481e-01 -3.2556043890451747e-01 4.4452143223683516e-01 -1.0318472996405035e+00 -2.0630735744722188e+01 7.1285231338821253e-02 -1.4658204075796560e-01 -2.4404111104120148e+00 -1.8757801903226046e-01 2.3797599454087504e-01 -2.7597809108532445e-01 -5.8753510935703446e-01 1.3887725327049338e-01 -1.3940537426690298e+00 2.1922121297611739e+00 1.6566607292628204e+00 1.7323608924405470e-01 -5.4592417663343440e-02 3.0234016485138682e-01 1.4783435802078202e+00 6.8600843642416294e+00 2.0161869845644105e+01 -9.9845089100696782e-02 -6.9578585212587210e-03 -1.3310120269161416e+00 -3.9698757965255993e-01 -2.0643161200462146e-01 5.9592897071524575e-01 1.7365486367530139e+00 -4.1559001002065088e-01 1.8358384176535765e+00 -6.9472073866036226e+00 -4.0878317569885780e+00 -2.1038744795002913e+00 -3.7396807941157117e-01 -2.6386309923907447e-01 5.5654241674938021e-01 -4.0119013632174756e+00 -2.0538150522857904e+01 2.1373630108191155e-02 4.2975434390411488e-02 6.6880130168283358e+00 -2.0682508574986058e-01 -1.7980185079338140e-01 2.5929925625961120e-01 -1.0478498463978667e+00 -2.9409538154742165e-01 1.0885489012434846e+00 1.2129620070663805e+00 -1.2649332157135382e+00 -5.4885100568513145e-01 -2.0009804952127297e-01 -6.2157908857955135e-02 -1.4196064238744839e+00 -1.9423158876361413e+00 -1.3665269917459227e+01 8.3005507094430442e-02 -6.6518755854204595e-02 3.7369194622078794e-01 2.7212414601564205e-01 2.1538562373507375e-01 -3.5337450382078828e-01 -7.3693228993033699e-01 -2.3609088224498009e-01 -4.1511141345759484e-01 -4.5627443732364554e+00 1.0318226353870301e+00 8.0040070768983718e-01 -4.3483729419396155e-02 -1.9002173050012061e-02 -6.4274667104166383e-01 -5.8040537096057960e+00 -1.5606228210846893e+01 -2.4124678966330748e-02 -2.1219427414745301e-03 7.3501263723628654e+00 1.4020041768807801e-01 3.5600689430043531e-01 1.8129217309828982e-01 -2.1604444143031287e-01 2.8640664085076395e-01 7.4534563245379104e-02 7.3222037469458883e+00 7.0784182756048608e+00 1.7412852044685678e+00 2.6473094430224281e-01 7.6765349917396319e-01 -2.6343870914477208e+00 9.0365373776574387e-01 4.0205328657359587e+00 7.8313721987779361e-02 -2.7741533816057609e-02 -1.6948861128806172e+00 4.0556125320300074e-01 -2.6014024791016832e-01 -5.1485622814325516e-01 4.0593637899406012e+00 9.5023195869074506e-01 4.7962399281887746e+00 -2.1918922020624620e-01 1.8495104551078647e+00 3.6994261944578710e-01 3.8241855946547798e-01 -1.0417848215979482e+00 -6.6961276509824330e-01 8.4432745803377340e-01 -4.1940673069329932e+00 3.1122960250113962e-03 -1.2061364116971414e-01 -6.1948100174154490e+00 -3.9946659649414834e-01 1.9802890000413004e-01 2.6777510590806003e-01 6.6299929837597915e-01 2.6818133842662828e-01 -1.3894176074144138e+00 6.4838370737154349e-01 -4.1368013780626323e-03 -1.2683920506661721e+00 -2.7124196640225362e-01 -7.6052827654198074e-01 3.3889740202836016e-01 6.5772064721719090e+00 1.1245058469862101e-01 -5.4649592282648263e-02 3.2324216822972890e-01 -9.6676380673634412e+00 3.7792670508414850e-01 -8.3747643486512402e-01 6.2711985221206412e-01 -4.9919554517240528e-01 -5.1312544304980889e-02 3.1729621653833782e+00 -4.9829186253218971e-01 -2.4539065508664118e-01 -1.5506986296633376e+00 2.2577598756266470e-01 -3.8129085521563333e-01 -5.7364850788344413e-01 8.0930113879688292e-01 -2.1097601092187688e+00 3.4370515341291041e-02 1.3060565012538802e-01 1.3301180901901148e+01 1.7469188821211204e-01 -6.6628266123591207e-01 -3.6168173365324607e-01 -1.5914659217913112e+00 9.3060829602185535e-02 6.8891109047260279e-01 -3.9949428912693463e+00 3.0773444633624840e+00 1.9458936348865916e+00 -2.7996477331569913e-01 2.8296550521631314e-01 -3.9448541255923564e-01 9.3897684260883452e+00 -1.6273746255349124e+00 2.3246940642786953e-01 -2.1691570276819883e-01 6.2601229933839733e+00 -3.8771212302130353e-01 5.9518169385049413e-01 -1.4368663252015093e+00 -7.2914310953019781e+00 -8.9759270753123599e-01 -8.8306468562936118e+00 -1.1225858665421384e+01 1.4241286923888001e+00 2.0625024440749353e+00 -3.0237365299180397e-01 6.5354989077832215e-02 1.3898108197827241e+00 1.4696699022606481e+00 6.0755234458483756e+00 -8.4099813879093155e-02 2.5586582976248818e-02 3.6996560400584713e+00 8.7217416491605984e-02 6.1241236418254630e-03 1.6227449142475736e-01 -1.7727477486914722e-01 -5.8136345374236953e-02 1.0671775172668276e+00 1.1643237923344714e+00 -1.1146237351397872e+00 -8.4161723468153582e-01 -2.5039407266000135e-01 1.4182771237858969e+00 -9.4919236444565458e-01 -2.1261861264365791e+00 1.0232271142400293e+00 -1.4868860043438725e-01 1.2753821844315602e-02 7.7067482890033716e+00 5.3294811616880033e-01 -1.9988693282795289e-03 7.5545838895894468e-01 -1.0704150935603005e+00 2.6454406242718624e+00 2.2521863916575512e+01 -1.1690555147208581e+00 4.4373849080392551e+00 -1.3442583066855063e+00 3.4637827343036685e-02 1.7341254638446792e+00 -1.1590201235897407e-01 4.0798400574456597e+00 -9.6577059006457233e+00 3.9820684987141336e-02 8.1767845640557724e-02 4.0231013261736763e+01 5.9368233115648650e-02 -4.4762002112738175e-03 -1.9692131864932705e-01 -1.6949411244582571e+01 -2.3715335599134555e+00 -3.0484104675984895e+01 1.6196740787821703e+01 -1.4341295229572979e+00 2.9975372571057701e-02 1.8841454522358912e+01 
      </Row>
      <Row Index="101">
        -1.9812886820542563e-01 1.4693911541207854e+00 -3.0760185925646510e+00 4.8428715141624707e+01 -8.5149588654516265e+01 -1.4834395605083728e-01 1.3631744134541937e-01 1.8701779426206485e+01 -4.3195642869486445e-01 -2.4128517718545481e+00 -7.8102058752626657e-02 -1.0758991956265049e+00 4.7980237108640722e-01 1.8249069619196234e-01 -1.5815305076017466e+01 -3.9325466638457790e-01 8.6812119757373694e+00 -2.6797600839534539e+00 -3.4800316964043532e-01 -5.3997087716940673e+00 -2.1741797463979310e+01 1.6172283132560551e+01 -5.1872412405824020e-02 -1.0001728324911605e-01 -8.2237730804918101e+00 6.1556926305925685e-03 4.8745498987182145e+00 -3.4054433258788208e-02 8.2702496429403425e+00 -4.5604953607653442e-01 -3.1359296037999229e-01 6.6984424871116062e+00 8.6052021288223557e-01 4.8731539607462384e+00 -1.6036226121059372e-01 2.5837543004627150e-02 5.9002917101934145e+00 3.2465980323671829e+01 6.1299863887252286e+01 3.2813146387411507e-03 -2.1957200589634854e-01 -5.3125825050810818e+00 1.9948378657772992e-02 3.8165355582291340e+00 -4.2866660028209935e-02 1.1917772984321346e+01 -4.2605115540800398e-01 -2.3443526969167578e+00 2.0707631276520260e+01 -1.2936081042423666e+00 -6.2030647890406726e+01 -1.2716175828194807e+00 -1.3648129564257943e+00 -2.6403361552511342e+00 -3.6212896328492207e+01 -6.8878508897032589e+01 9.0429613853378665e-02 4.2990137055682098e-01 2.6321405508264434e+01 1.0574417927996826e+00 -8.3327577514808793e-01 -7.2734862286219337e-02 3.1605080436747812e+00 -1.2797419556047629e-02 3.7586793639511598e+00 1.6752963601902593e+00 -8.8826421545542100e-02 2.3383679340993595e+01 -1.0409267389474053e+00 -4.7903975277381505e-01 2.5361971486436232e+00 -1.2864083696993475e+01 8.5900919423438609e+00 -3.6383782652571028e-02 2.2743104850651125e-01 -2.2446808640939707e+01 -5.0377125650976495e-01 -5.1878951898697778e+00 -1.2241981055353790e-02 -5.9773681623228185e+00 1.2365403880630765e-01 5.5096295340691768e+00 1.9830489232877881e+01 3.3885407069772100e-01 2.4402783792617193e+01 2.7181538299542218e-01 -2.9549508053605678e-03 2.2652421801733453e+00 -1.7301335780372028e+01 1.2685210771858692e+01 4.2370453373223427e-02 3.1107935278298465e-01 9.7511631754960035e+00 3.3117359986243855e-01 -8.2698304802124767e-01 1.3028966871155173e-01 1.4323784345906461e+00 4.9197249362648421e-01 6.3177719704563060e+00 -4.5851925234383089e+00 1.7412852045237066e+00 6.0910227148172453e+01 1.0473212376046770e-01 2.5147868816262946e+00 -7.4278982979051023e-01 -2.0614186940106887e+01 -4.1080713495774035e+01 1.1536890487331064e-01 -3.2482651857473677e-01 2.5728219256072812e+01 -2.6176852925820508e+00 -4.8415848640930434e+00 -9.2615641627211476e-02 -2.1274617052129145e+01 2.5681217443549027e+00 1.0962503733585809e+01 -3.1364263002937065e+01 6.9401233590284994e-01 -9.7574223498782100e+00 2.5429833543389804e+00 -1.5135219967303435e+00 -1.5322740406601341e+00 -2.3970141154673346e+01 -3.7866730396635830e+01 2.4590549159596586e-01 -4.8039365197974060e-01 1.3282512297192056e+01 -8.0667980691669072e-01 -8.4423966343053394e+00 -1.5479124174932202e-01 -1.3078063750938043e+00 -1.2108629868183751e+00 -4.5051879455265835e+00 -6.2022445736231617e+00 -1.9211629799838770e-01 -6.8178650474730830e+01 1.7253843873135644e-01 -6.3394401794146482e-01 -4.7581849998450485e+00 1.5132857293373320e+01 -4.3315312605821561e+01 7.8140455249984253e-03 -1.1100492233182877e+00 -8.5312682596995728e+00 -1.5542170899731484e+00 -2.1084126229895332e+00 3.0989587419218501e-01 -9.2850135073704649e+00 -3.0137870472604078e-01 -2.0893956947310386e+00 5.0806669880606776e+00 -3.6015247571956954e-01 -3.7310934789287195e+01 1.4615653921238403e+00 7.3283061430601038e-02 4.0936904351310943e-01 4.9455872185437329e+01 1.3649135269690305e+01 -9.0809763699704948e-02 2.0171334285636311e-01 1.6488421827190365e+01 4.9162930021784590e-01 -8.3726110924691000e-01 -2.4136488026735348e-01 -6.8063134660650348e-01 -7.9977528844931811e-01 8.5364763061346594e-01 8.4224488982044932e-02 7.9712303626664083e-01 3.2319202628974907e+01 -2.1432340602330098e+00 1.1464555828334553e+00 -7.2275472152871245e-01 1.0076760271805172e+02 5.7494998931069858e+00 5.7956807427578638e-01 -2.8924618448416417e-01 3.6454193719545039e+01 -6.0021774285852703e-01 -8.3299504640215147e+00 -2.1585792842919305e-01 -2.4675054168349291e+01 2.2930046419259238e+00 -1.2617241536332838e+01 5.7505337550753765e+01 5.7556984204030837e-01 -1.3846978931679214e+01 -1.7797413507489637e+00 -1.4099230651618200e+00 4.9822756978137477e+00 2.1663657863216940e+01 1.1927274671522900e+02 -1.0958960684448815e-01 3.5736367166701105e-01 -4.1056423084701237e+00 3.3338967879858572e-01 -2.2905764125459882e+00 -6.5395571817559173e-02 -5.8970687358669238e+00 4.4345735143679121e-01 6.7867182031914126e+00 -1.3226237759154174e+01 1.9928299530902649e-01 2.5371576260693814e+01 -2.3190759323334911e+00 3.1130244666121358e+00 9.0150510748149060e-01 -1.7283902051817068e+02 2.4124853390634144e+01 -6.4254220055328048e-01 1.0060355300920361e+00 4.0984469130598882e+01 1.4083740242438170e-01 6.8428164253630364e+00 1.7362098278181715e-01 6.7034163991355598e+01 4.2565694751367324e+00 6.4099749642577706e+01 -8.2094521117185081e+01 1.7501786628126099e+00 4.9505900889778701e+01 1.5447845992067788e-01 7.5524756159752169e+00 8.2460321940906423e-01 -2.0889101270511648e+02 9.6047107751019070e+01 -1.5161286080779934e-02 -2.5498619646519671e-02 1.5607702591905752e+02 -1.6662189354740065e-01 2.1306147842523515e-01 -5.7376855310096175e-02 1.0527223720365996e+02 -5.4116984268051196e+00 -9.9512607181572704e+01 1.5295357699119737e+01 -3.7149702560689279e-01 2.5646189033215077e+00 6.0291319253627471e+01 
      </Row>
      <Row Index="102">
        -8.3741024239012640e-02 -5.4536432264904988e-01 -4.5795447903160493e+00 -2.2089871937346288e+00 -6.9958318128046812e+00 1.7102571090618213e-01 -9.0653766087633980e-02 -2.7319614437055861e+00 1.9091098066670042e-01 2.8873549412060129e-01 7.1488899517010096e-02 -2.1561365955538321e+00 1.1964365128051213e-01 2.9336782471245897e+00 1.6706126186668371e+00 -1.3188870924812401e-01 2.9631803537455426e-01 2.1761344095513522e+00 7.1638760358197828e-02 -1.4424182900041096e+01 1.7375885079400177e-01 2.7968014110578224e+01 -4.8061102871040084e-01 1.8205272332206313e-02 2.1718924283883325e+00 5.9525376097019134e-02 1.5624107955522959e-01 1.9051735655001067e-02 -6.2199269265151145e+00 -6.1605820441417336e-01 2.7202521303641589e+00 -1.6495864842119772e+01 1.3617441570366307e-01 -6.1204034722738321e-01 -4.6123052435980583e-01 4.4480442119379404e-01 6.6624075159318181e+00 2.7469749587180559e-01 8.2856857868027873e+00 -3.1037891433659581e-01 -2.6156562521962418e-01 -1.4899826462205965e+00 -4.2405172261607049e-01 1.8395372496115669e-02 -3.3820165058097373e-02 -4.1112179355632179e+00 -8.9722445850611621e-02 -5.9755999366138894e+00 -1.0454160919121023e+01 -7.3726385139721629e-02 -1.1244210596373705e-01 1.7793740814348453e+00 1.5456091061775794e+00 -6.2229209371498655e+00 -6.1818808357011221e+00 3.8887172139366157e+01 5.8726093978583882e-01 9.4172317221820512e-02 -1.2064329281565733e-01 3.3019413841224754e-02 6.5258004066479813e-01 8.2759245481901389e-02 -1.0530093356630914e+00 1.0723463157454702e+00 1.7456579782924564e+00 5.2416367615878698e+00 -6.8810826386797586e-02 -6.9260314271555323e-01 7.8533670196098626e-01 4.5982562269853133e-01 3.3023662947380217e+00 -1.0685976338190812e+00 -2.7464047859422863e+01 -7.4480928994088202e-02 -8.5685065772368174e-02 2.2026985696484189e+00 2.5032433449558766e-01 7.0036943375384908e-01 3.0434475358450896e-02 1.0641533237594558e-01 2.3360572313868033e-01 -2.2952017106246529e+00 -1.0390017865596292e+01 -5.2557061087718182e-02 -4.7751064757681227e-01 -2.0651714180224356e-01 -3.0884801846241317e-01 4.9356274431267479e+00 1.3914377995915856e+00 7.7697548418655060e+00 5.0888963212869953e-02 1.2910747355107688e-01 -2.1462405889626552e+00 2.9803304805590614e-01 3.3369587661889000e-01 -9.0096847025563642e-02 -1.6044522527708978e+00 -7.6005482350121056e-02 2.4498677066476375e+00 6.0660032465711993e+00 2.6473094552647092e-01 1.0473210921600185e-01 5.4838699136592098e+01 9.0816069669726218e-02 7.5166801758886990e+01 8.5294323252183062e+01 -2.2551146781741409e+01 -2.3797105612323435e+00 -4.1694803191762313e+00 -6.3667656895988785e+00 -3.6140533011650593e+00 3.1058960686418686e+00 -1.1471623570908411e+00 -2.1552190954198224e+01 2.4499896514655006e+00 1.4896655774030542e+01 5.2223763601440851e+01 3.6179041930150255e+00 4.6094983665577161e+00 -2.5000229706727737e+00 1.0158493758310794e+00 3.4731400513447817e+00 2.6031149783824539e+00 -2.1783199422876351e+01 -3.6451686470151756e-01 -1.1409582695507248e-01 4.6388960790984015e+00 -5.4356616511269884e-01 2.8423240359757802e+00 -8.1685768065184350e-02 -1.6930355580599468e+00 -1.2980131297618289e+00 -9.0724505765251031e+00 8.5699510772998622e+00 5.2859265219454638e-02 -5.4773290869466384e-01 2.2305709561108813e+00 2.1331248642717071e-01 -1.0099354871356006e+01 -5.1719137643718085e+00 -2.1423332472795664e+00 -1.1001363195013159e-01 3.6857177271382380e-01 4.4062178803615097e+00 2.9968046753861000e-01 -2.2021836895753637e+00 6.3001026119849091e-03 -3.5758431981603138e+00 -3.2613397605498307e-01 1.0945451180471800e+01 -1.0820074134415165e+00 9.3218257355530021e-02 2.3463074239912878e+00 -1.7470784327216027e-01 -3.9778638682061995e-02 -4.6303500699227129e-01 8.2643992035918927e+00 5.7372597987996414e+00 -3.4677514034687229e-01 3.5140770428434154e-01 2.8691278450642130e+00 1.9041332938107658e-01 -1.9007458814124725e+00 -4.6557777367506659e-02 6.7268104179584469e+00 -2.6750305986368694e-01 -1.4136202448419795e+00 -1.8445082742201762e+01 -9.8446337041901977e-03 1.3443021719115258e+00 -7.5520170739261374e+00 -4.1838581762701530e+00 1.8629144114708396e+01 -2.3008631948891662e+01 -1.0510260750272209e+01 1.4749401176826460e+00 7.3793418323685467e-01 -1.9298161778883696e+00 1.6815683922373079e+00 2.8501682651389615e-01 3.3642577365510107e-01 -1.4675609804099395e+01 1.9151380634216242e+00 -1.0142949450289848e+01 -8.8891813823314862e+00 -8.8210572463011694e-01 6.0730187585203197e+00 1.2740174255844749e+00 -1.6860298633127968e-01 -6.0330134225969232e+00 -3.2554372017330024e+00 3.6553356268093921e+01 -7.8088259013000261e-01 1.0499755457138171e-01 -3.6166198288105988e+00 1.7309316693251375e-01 3.5536199580150196e-01 4.1485184795512442e-02 4.8542274395003915e-02 -2.0820875666308325e-01 4.9006265903590247e+00 -5.3973603565027588e+00 -1.2277777716561111e-01 -3.0638311512687721e-01 4.9804204606347298e+01 3.3950302535187795e+00 3.5649706343018920e+01 6.2091934753228230e+01 -8.4635086756177316e+00 -2.7538802395489625e+00 -3.8201537725285224e+00 -5.1331302877115377e+00 -3.8815536750707249e+00 3.0016971155294243e+00 -1.0427107018859161e+00 1.3789275892682440e+01 3.1805259418599059e+00 3.2885191724602400e+01 2.1653217794177294e+01 3.7474654481566869e+00 -3.4086334408908670e+00 -1.3497013747991021e-01 -2.7248062903796888e+00 1.3472210094899366e+00 -4.2571694963734501e+01 2.0317365031326489e+01 8.1841584852765437e-01 1.4234813484384556e-01 1.5222452914705835e+00 4.2405458027499954e-02 -4.6355480340705246e-02 2.3674955161789413e-02 2.3507060426973187e+01 -2.1741609172385941e+00 -7.1213833668603135e+00 5.7550748924372570e+00 -2.6364866736818877e-02 -5.9445629404654199e-02 -1.2643159360521187e+01 
      </Row>
      <Row Index="103">
        -3.1007414247736970e-01 1.6905701626901418e+01 -9.8748729867656948e+00 3.6515047224011141e+00 3.1957743695401587e+02 -2.4640527312280369e-01 1.7247322952398503e-02 -2.1822811120662664e+01 7.5417943180762725e-02 9.9059125871008291e-01 -5.8433004763409790e-02 -2.3798266832885361e+01 -1.0633203853749364e+00 -5.7925787054300599e+00 -1.7022277410354945e+01 -5.4423159558446199e-01 -3.8138753670689312e+00 -2.9090133442798560e-01 -1.3621500636471580e+01 -6.0238257050277753e+00 -7.7913150894164573e-01 -1.1964392917882651e+02 -1.7311135002844225e-01 -1.5806692806541317e-02 6.6253745627554963e+00 -1.1867176583244543e-01 7.7428504815634369e-01 -3.3530420476424183e-02 4.4567386329242311e+01 1.8821731473803993e-01 1.4236927355718194e+01 4.4242021143727470e+01 2.2246699733182851e-01 -2.3412393225065831e-02 -5.7079329150712965e-01 -7.5767075884016322e+00 5.3394700628541614e+00 -1.2425842868484324e+01 6.4513218515785411e+01 2.1250719015034747e-01 9.0732200089662263e-02 -2.4258653781260364e+01 -5.4196602337498234e-01 -1.3240792323867936e+00 1.8473176802822877e-01 5.7870031910033504e+01 -2.8496056709182085e+00 4.2682335047029483e+00 -6.9102013397496194e+00 -4.5135077899146836e-01 -3.7742040371622352e+00 4.4612833791484041e-01 -2.1264503948914012e+01 6.5387549083134218e+00 1.5144343094798387e+00 -4.8944642236968502e+02 1.4381785028822658e-01 7.0763739146719074e-02 -4.1088380925357342e+00 -2.2913172838272100e-01 -1.8772990441416688e+00 1.2350056318313135e-01 5.0877917251776580e+01 -1.9170163135634830e+00 9.1509953720687918e+00 1.4260110596660525e+00 -1.4317121997477988e-01 4.7137472731095418e+00 2.8881039854036317e-01 -7.2709249126671693e+00 4.8435355157271260e+00 1.4112189219886204e+00 3.2408844185527414e+01 1.5612838447269439e-01 5.5639819596488775e-02 -2.1039785133179976e+01 8.3169786801136070e-01 -7.1706787776838610e-01 -3.1289456894938894e-02 5.4870983370637987e+00 8.2247566222758905e-01 1.4150017997093300e+01 3.1630535030657484e+01 4.1591140681646266e-02 4.1995430984919082e+00 5.9196050854862481e-01 2.5559613612795147e+00 4.6656069137929990e+00 5.0131740216384060e+00 -3.1600316113163717e+02 1.3946420285918748e-01 -1.1707605511847419e-01 -8.1759079740158995e+00 4.1822300931846712e-01 8.7585567474525305e-01 -1.3763598088509282e-01 7.3576438037562184e+00 -9.1205247026292113e-01 -2.2787918842073850e+01 -2.1178445395271410e+01 7.6765349382070636e-01 2.5147867585064887e+00 9.0816057354463187e-02 1.6725766497778326e+02 -1.3393135314223482e+01 -8.8558096524866585e+01 -4.0483180634915152e+02 5.3987423540113078e+00 -3.4052241140146666e-01 -1.6105978121904059e+01 1.6498793064738699e+00 -1.4774314597425029e+01 6.7645980423894247e-01 7.5548960565019769e+01 -4.2717117438425404e+01 -5.0704371061985064e+01 2.3784583643083886e+02 4.7994195970564757e-01 2.1012190014055140e+01 1.1909296723025053e+00 -2.7492887124643989e+01 8.6931827787059355e+00 -1.5916955756967777e+01 -2.5981547907087952e+02 1.4689976509299485e-02 1.7627708751628418e-02 4.9245491167214247e+01 -1.4261817938119364e-01 -9.7111506226007205e-01 1.7520979685960728e-01 3.6676462733264756e+01 -4.6990608062671413e-01 3.8616292854410759e+00 -4.1507052225574597e+01 -9.6019358526822543e-02 3.4549945672511733e+00 5.2593994758038676e-01 -2.3634204496275672e+01 8.4228872133100410e+00 -2.1532761613130305e+01 -2.2726855012351325e+02 2.5129176889452975e-01 8.1137113019696949e-02 3.1009206045418978e+01 7.5543692373115612e-01 -2.0507932057323615e+00 7.6506020763044524e-02 4.8036883441653188e+01 -2.4988133172951956e+00 -2.1287646146477726e+01 2.0913206558786968e+01 1.5064433234126484e-01 5.8038713639693302e+00 -2.2453123775543860e-01 1.6264583697824257e+01 -2.7947673598083185e+00 -8.2737675495300209e+00 -1.3441845616698265e+02 4.7570085925240846e-01 9.1217231590739800e-02 -3.7362493288793246e+01 2.8471737895023885e-02 -6.1074776659678420e-01 -1.7771357347793754e-01 -4.9035726414591068e+00 -5.9999240482874523e+00 -3.5969945182430166e+01 3.7548531730546358e+01 6.8741405722373239e-01 5.1111309404657117e+00 -4.1461239624139763e+00 4.4854426400868093e+01 -4.1166953897628787e+01 -3.8882360019855810e+01 1.2891523961739222e+02 4.8273959604699801e-01 7.7787450358031340e-01 -2.6920154064226239e+01 -1.4764738246478526e+00 -4.5165372933536041e-01 -1.8619507581172456e-01 -2.1358945038816451e+01 -2.4324924593133797e+01 -2.8945839848734622e+01 8.0545871886055934e+01 1.6736361717232590e-01 4.2547142211596469e+00 -2.3815602969125393e-01 -1.1082214156649570e+00 -4.9405626570405730e+00 2.5898995430907235e+00 8.3408521676436067e+01 6.6662290351672482e-02 6.3602086861017010e-02 -7.6399401254711847e+00 3.4883068639836701e-02 1.0782294901218847e-01 1.6251036798013985e-02 -1.2681053069158224e+01 -5.9116428276979605e-02 -8.7631077946862206e+00 -2.5440007689234335e+01 -8.9817282528322551e-02 3.3262325214421935e+00 3.3839699008347495e+00 9.6334281089131309e+01 1.8658731965129832e+01 -4.2644599577871830e+01 2.1230074174594483e+02 2.9368280307695782e+00 -1.0333765896366909e+00 2.2259755871564266e+00 2.1545872331277707e+00 -7.8954590720442974e+00 5.0747679569079218e-01 3.8810673761776549e+01 1.4588326368871218e+00 -3.0527712507040761e+00 1.1113588417971235e+02 6.3811930300688480e-01 3.8757647897831760e+00 3.2218765356466908e-02 6.1397663017495077e+01 1.4682676097731548e+00 -6.6487505029426856e+01 2.8945446860342624e+01 -2.9335797967625332e-01 -8.2770277729409258e-03 -1.4634764067104252e+01 1.0747209176401995e-01 4.1809173200659799e-02 -3.7689866145420581e-02 6.0877724653546281e+01 -1.0145125889612300e+01 -6.6002005182421058e+01 4.1429986606029303e+01 -1.4612378650297991e-01 2.2194183838596437e-01 -7.2453901606748104e+01 
      </Row>
      <Row Index="104">
        6.2875891608779186e+00 -2.5927354629639012e+00 -3.4728444805997424e+02 -3.7500155719477334e+01 5.8751213786797598e+02 3.5354828425465712e+00 -1.1951007292813840e+00 -1.6283873103500810e+02 -1.5004254535820327e+00 2.9043827671557665e-03 1.7413952738267457e+00 -1.3911547026703374e+01 -1.2554311606058036e+01 -3.9800655988496146e+02 -4.7473752792939194e+01 2.8536898121623673e+00 1.3447916775221529e+00 -3.7671625304083136e+00 6.9855621168790094e+00 -7.7696915790792264e+02 -1.2852987362543354e+02 -1.5824814607650042e+03 -1.6216620598743134e+01 -2.5658602962999422e-01 -1.7216728508408414e+02 -5.4182616491340241e-01 -4.7716119191391044e+00 -6.7230967775094541e-01 -4.4091900020433400e+01 5.0596541967643134e+00 -1.6785493158530153e+02 4.3936690828052815e+02 -1.6111099946618594e+00 5.5628964494801192e-01 -5.2626200334125315e+00 -2.8960918485790899e-01 5.1777994051236601e+02 3.0251858363393694e+01 7.4617300484143198e+02 -7.0067706364397964e+00 5.9297193771590173e-01 -2.9076157556334510e+02 2.3985542744267150e+00 7.1099792776549293e+00 -4.5533805047534770e-01 -4.1152554800501093e+01 4.9506948856142117e+00 3.0366657450138882e+02 5.6916465915681329e+01 1.0820167265892451e+00 6.8927389986201888e+00 5.9425774342055959e+00 -1.6318584049658966e+00 -4.3957714251504513e+01 2.9262697754893452e+00 -1.5025544645637274e+02 1.3676447399187637e+01 2.7117986434152641e-02 -6.6969221680425107e+01 1.0080991833604713e+00 3.0588403533014628e+00 -8.5114556537009767e-01 -3.1599585192918312e+01 6.1733319360645851e+00 1.1388377977274649e+02 -1.8967706255440135e+02 3.1958213317140522e+00 -9.7443832494045068e-01 -3.3753026904337275e+00 1.1092635427394271e+00 3.8394356142292963e+02 1.0555202328157611e+02 -2.9287283872440457e+02 -7.1994875548671189e-01 -1.0387875158148963e-01 -1.0408413141965866e+02 -1.4742776461334870e+00 1.3985481280324166e+00 7.7392479423224358e-01 -1.4767205348471180e-01 1.6219973168794240e+01 3.2684077816520585e+02 -2.2817959820679971e+02 -1.0581481593644639e+00 -4.3607376388903276e+00 2.3120449140119703e+00 -5.5278471625206294e-01 2.0651120800229546e+02 6.3197450727922842e+01 1.6562957712896168e+03 2.6672412286884537e+00 -6.8468332751729122e-01 -4.0375035009253043e+02 -1.8730929564912913e+00 -2.1693677404327900e+00 -1.1391990885268031e+00 1.3123785978852538e+01 -1.1087888705836576e+01 -1.0084034398876247e+02 2.6671003462513909e+01 -2.6343869618974765e+00 -7.4279039822431514e-01 7.5166801650749747e+01 -1.3393135745758720e+01 5.8863907554936450e+03 5.0586499367341889e+02 -6.7914813311623584e+02 -5.8377515492347229e+01 -4.1497604005824584e-01 2.7250536723319947e+03 2.1624649226231174e+00 -3.2251243134183838e+01 -9.0388886780630919e+00 -6.7508124439937228e+02 9.5069661539081608e+01 -1.3081771028738397e+03 1.9033699683258419e+02 1.1100611401607509e+01 -3.8122040877568452e+01 -3.4510125038864934e+00 -6.3108800121261872e+00 3.6720801170715220e+01 2.3883423468545516e+01 -3.7675620879977942e+01 -4.4917235853594839e+00 9.5227713754858723e-01 6.5413888879928663e+02 6.8716659919414447e-02 -2.0877452691176117e+00 -1.2401452214443967e+00 -1.4453291039051692e+01 -4.1270902064665211e+00 1.7804316508701007e+01 2.1426519228729660e+02 -3.6072179715859365e-01 -2.7055576954818363e+00 4.6943810044748346e-01 1.3331444841169713e+01 -3.5329327612051017e+01 9.0843589129689107e+01 -7.7570995426591617e+02 -5.4556281917842249e+00 -5.2358160737925941e-01 1.0748814795177896e+02 -1.6672705112570840e+00 6.3255699223032025e+00 -1.9259011293496271e+00 -1.1811127554901901e+00 -9.2134163014747230e+00 -8.6521045457966693e+01 5.2104226680921988e+02 1.6766537168138480e+00 -1.0458627818004302e+00 -2.9782934586954011e+00 -1.1843434596792562e+01 5.4975312715919301e+01 5.9407219547429122e+00 2.8725729518383741e+02 -1.4686411824307356e+01 1.1436539596637232e+00 -9.2964885191966459e+01 1.2307376125823168e+00 -5.0570543745382679e+00 -1.2082753168214322e+00 -7.0916532132381775e+01 1.1465951542736406e+01 -3.5377778380050734e+02 -3.5962731688475088e+02 -2.0138616000668730e+00 -1.2124070559844588e+01 2.6494689341057260e+01 -3.2393376156234581e+01 9.7110134150095837e+02 1.5046964272532205e+02 6.7150244787632573e+01 3.3394682482367266e+01 1.7577813550687402e+00 -4.4894254584460214e-01 -9.5195523696151287e+00 9.5255471873449817e+00 5.2236238203668108e+00 -1.5323891491165955e+02 1.4240082309972095e+01 -5.0578529895899072e+02 -3.5323531647138952e+02 2.6305609802469583e+00 -2.5058444936060738e+01 -6.4600856373581337e+00 2.8963402986264555e+00 -1.7012174433135078e+02 -2.7470600880682468e+01 9.1953313543647528e+02 -2.3293909741495753e+01 -2.1614202413200889e-01 -3.0098198155872524e+01 -2.1535022748805724e-01 -4.0409200378417154e-01 -3.8468088127099520e-01 -7.0758038803469390e+00 -6.1910741874517043e+00 -1.7967571732401848e+02 3.5138653701345902e+02 8.2376643136836947e-01 1.5875695964832630e+00 4.2689233735028139e+01 2.0873079004631492e+01 3.1480060292612079e+03 -2.1686851467605521e+02 -1.0292471093807762e+02 -6.1776007794658717e+01 -3.8052463490062154e+00 8.1506359772215365e+02 1.0021063955003697e+01 -3.5304236276094862e+01 -1.0212238828260501e+01 -1.1168216976510035e+02 1.3389166615489103e+01 -1.2311159392585839e+03 3.8870902139000418e+02 4.5824807592189245e+00 7.9773454371571120e+00 5.2236844726884099e-02 -1.1817704089068570e+01 9.0817173267737729e+01 -5.6060952619089448e+02 -4.2152964534983101e+02 3.3048117828931090e+01 3.8088327450225279e-02 -1.8811545123743663e+03 -3.0826716727136727e-01 -1.2033517409122396e-03 6.2913824346276215e-01 3.6472016392876225e+02 9.2436601878356470e+01 4.7478431968468556e+02 -1.7723507059335844e+02 6.4404185505002243e-01 2.2983340998098534e-01 -6.5833279228218578e+02 
      </Row>
      <Row Index="105">
        1.4716294993778334e+00 2.0219935744928080e+01 -1.8188308811967727e+02 2.3682730736137601e+03 5.4106160375736654e+03 -4.2794938536189875e-01 -1.1938453040960759e+00 -6.3803275004425086e+02 1.0124572360303912e+00 -1.4482321964256698e+01 -5.3884790891294387e-02 -6.1267912206523761e+01 3.0536796602769755e+01 2.6180913151777349e+02 2.2394369028537767e+02 -2.1248566315060735e+00 1.0120183612594701e+02 -7.4088826068073104e+00 -8.3496738854410069e+00 -3.2804032216413179e+02 -3.4464629778568633e+02 -2.6408579944372177e+03 -4.8464503018006617e+00 1.6254144352513773e+00 -3.1482000631140545e+02 -1.4528105936938118e+00 -3.2601671578595415e-01 2.7444470997761528e-01 2.5649124027643552e+02 -2.2144067640081630e+01 1.9018893420274253e+01 8.5359714585775509e+02 6.0157829664257179e+00 -1.0905244314480191e+02 -2.2226858331014228e+00 -3.1762066615192452e+00 3.9978291508217808e+01 3.6753294239956886e+03 -3.9372618701308966e+02 2.6062531929419492e+00 1.0663968031312834e+00 -1.5135467847194523e+03 4.7309839201443538e+00 -4.9241320331930183e-01 -8.2021929899951829e-01 1.5105176771490369e+02 -1.3431932027742732e+00 5.1342720946436748e+02 5.0095214418251999e+02 -4.7056491536022804e+00 8.7890951600915287e+01 2.2720688028088460e+00 -6.8672858168014500e+01 1.5371588960464578e+01 -4.5046174113687593e+03 -1.0593007141351700e+02 2.3137101822675517e+00 5.8769282878898466e-01 1.0340880481339991e+02 -1.0449260007331169e+00 5.9785647846140932e+00 2.6065455841241985e+00 5.6493390729796374e+01 -3.3402422294053679e+01 1.1678611565707251e+02 -9.2191709834150970e+01 6.2659446285768450e+00 -7.8124178552637517e+01 6.5122963147587143e-02 -5.8434253472223645e+00 1.3275714774994412e+02 -3.9130086555890739e+02 3.8143694961071014e+02 1.0189494190112782e+00 1.1659910196968579e+00 5.5174503935640678e+02 -3.0657378667710873e+00 1.3905918491858756e+01 9.2246635680385225e-01 5.1005830630776472e+01 -5.5177865330100758e+01 1.4583597892960825e+00 -4.0947309211478569e+01 1.7384229868930561e+00 -3.3138170462016660e+01 4.4815865165341364e+00 5.0548340717796236e-02 1.4420300900122675e+02 -1.8761077138513792e+03 -1.9312276894897223e+03 2.1323380011745030e-01 -1.7389990133615356e+00 -2.1198273380612954e+02 -4.1181124876711692e+00 9.9346113747742493e-01 -6.6241762961833750e-01 4.7300371261546388e+01 1.5695437561083963e+01 -8.3529565566271776e+02 -1.8232852084608749e+02 9.0365578629439902e-01 -2.0614184855628991e+01 8.5294323625273933e+01 -8.8558090918362140e+01 5.0586495899190436e+02 4.5244492207598989e+04 -5.6663943745322467e+02 -3.7145503965845663e+01 2.4203846412352839e+01 4.2262243247012539e+03 -4.6025797342307087e+01 9.2730550853825989e+01 9.7293323105277381e+00 -2.8892530923813587e+02 -4.2175726112421114e+02 -2.0825898140112231e+03 5.6294411331132287e+03 1.0678811175382144e+01 -1.2878987641858155e+03 7.4823334261711807e+00 -4.7945273895520543e+01 -2.0077394014891613e+01 2.3401793138636285e+03 -5.1219707101583481e+01 -9.4537566062841805e-01 6.7518255318916109e-01 9.6948412464681496e+02 -8.7613007163217471e-01 -7.7535273126785569e+00 1.2000619359597209e+00 1.1843636750984027e+02 1.8197332537592686e+01 7.5528916230663128e+01 4.7795730622669225e+01 1.2326366496362717e-01 -2.0897354229485853e+02 -1.0151995667093132e+01 -2.9528471252246618e+01 -1.1836711956653744e+01 3.6767906012937951e+03 1.5491244707037549e+02 3.5019907102566634e+00 -2.1360750289831465e-01 -1.2464527561808936e+03 2.9060004113282316e+00 1.2523263702612894e+01 -1.8840104218302931e+00 8.3679488966442477e+01 2.0129060304421103e+01 1.9507233766033067e+00 8.8067538056418061e+02 1.2068507571779294e+00 1.3740114992539958e+01 -7.0057606321473287e-01 2.0914081490478850e+01 5.9836383121748412e+01 2.2543475531267468e+03 1.2829294705986977e+03 1.2508905894135509e+00 -1.3788312955383404e+00 1.1072533370054161e+03 4.8286410752774600e-01 1.5647080592138641e+01 -1.6242041256248543e+00 6.8821909975860763e+01 4.6472924328896681e+01 -2.6697564685433292e+02 1.4391358354405929e+02 2.1063583757942084e-01 2.3622334619895059e+02 -3.0986554904965544e+01 -1.8111330410277105e+01 5.3158254913191843e+02 2.3626725996181049e+03 2.4958527079774649e+02 4.6495703657816776e+00 2.1324962015138564e+00 1.5282777660444599e+03 7.2366910381072103e-01 -3.1988219499138495e+00 3.1200069887970017e-01 -7.7829629076478705e+02 6.3916452471170260e-01 -3.5319666734554426e+02 -2.1052664518974751e+01 -4.4500647833459297e+00 3.3425579713131867e+02 -7.0964808114695188e+00 9.1402337147155777e+00 -3.1561164369573817e+01 -4.6419098871201277e+02 -1.2054248890876770e+03 -5.5856823371728410e+00 -4.2496517515546772e-01 3.9871797083260026e+02 -3.1871495236383893e+00 -1.5509329923341284e+01 -1.1898182795135881e-01 -6.5905899105593562e+01 1.9427727926340594e+01 -2.5761846372112632e+02 -1.3301359738642350e+02 -2.7125583272697895e+00 2.8582112880179920e+01 9.0614056000055712e+01 -4.0983095216028431e+01 -1.8382462420472393e+02 2.5804679837499461e+04 -3.2333503829673282e+02 -3.8232831748168714e+01 1.4922898705066240e+01 -6.2380325605580583e+02 -3.8926362356212763e+01 4.9997132421906080e+01 8.1641561817358905e+00 -4.2106703571569142e+01 -3.0026912819344739e+02 1.8350224803615174e+02 3.7464699170147751e+03 1.7502551944414265e+01 -1.2690869683532212e+03 4.0185006004316481e-01 8.6038599067211806e+01 3.1056083357780256e+01 -1.1771419005110216e+04 5.9548584724373804e+03 1.8994275192825310e+00 -2.4028468539609094e-01 -3.7620599886826931e+03 -2.1310311899060252e-01 3.4523236862107698e-01 2.4240128529845606e-01 -4.9164636484406765e+02 -1.6558482023708035e+02 -5.1652294655779888e+03 7.7182074397498627e+02 -1.4971573187598102e+00 5.9312698585497259e+00 -3.1166768779200775e+03 
      </Row>
      <Row Index="106">
        -3.4656530199222058e-01 4.1703840165864676e+00 9.0589730261592194e+01 -1.1841454173758393e+02 4.4666645081188530e+04 4.6391226485957304e-01 4.5031544593012640e-01 -3.5469244262063876e+02 -2.6576195020895570e+00 5.8099034869694151e+01 3.7505250084019668e+00 -6.7532232869069048e+02 3.7108488870377187e+01 1.2715146048599854e+02 2.0296659439877840e+02 -1.4235766086154626e+00 5.7466722850855149e+01 -2.8103239487973042e+00 1.2107887393478450e+01 -9.9854332922666799e+01 -6.7408319062576629e+02 -3.0462130137681961e+04 -5.8037759233460875e+00 -4.0764342501896245e+00 5.4232776623923564e+03 -2.9529778299474856e+00 -2.6937992816732731e+01 1.5492008331930265e+00 -1.2972059546990031e+03 1.0606121682998491e+01 -9.8355094626298524e+01 -1.2409969694444444e+03 1.1070807174758102e-01 3.5196396080903753e+01 -6.4578784475306747e+00 2.2585575875549694e+01 1.9422515879449202e+02 4.1792680185660720e+02 6.6839524354167283e+04 -5.5297527793300105e-01 -2.7373360484689329e+00 1.4154307474289089e+03 -4.5336416523241496e+00 4.5058755409845617e+00 3.5308509950634743e+00 -2.6040369244443718e+02 3.1748288386937929e+01 -4.0870281233079731e+02 -4.1769907557312399e+02 8.3342035644091084e-01 1.3915382621216122e+02 -6.2694026116151118e+00 2.2722305479182978e+02 -7.3827553109033033e+01 -8.0667430193023756e+02 -2.5031771724790335e+04 2.6086270650772221e+00 -1.2151664308180266e+00 2.3608848423883319e+02 -4.3139059216841247e+00 4.3461428560283281e+01 4.4741665155367194e-01 -8.2399878036013979e+02 1.8531245208872534e+01 -4.7115478196949698e+02 3.1943889954965562e+02 1.0893245087709484e+00 -1.7803040815170178e+01 -1.6860623934262549e+00 5.9489887443342013e+00 -2.3696883241354953e+01 -1.5177720682043582e+02 2.6723531227409840e+03 -1.2566936786197402e+00 -1.4368237277241835e+00 -4.0359660750254989e+01 2.1053663921120460e+00 6.4197360671125352e+01 4.3948847316642059e-01 1.9796269859606400e+02 -1.4360395705705741e+01 -1.8722359528936795e+02 -1.4235533613956068e+02 -3.4736697379958059e-01 -3.2059194207328346e+01 -6.9152276738140870e+00 2.4200681324990001e+01 2.7909319394467457e+02 -1.9919278472987935e+02 8.4222880371525884e+04 -1.9470901696258807e+00 -1.2154311872423023e+00 7.3081399186336785e+02 -4.6056016963975708e+00 5.9229176720342366e+01 -3.2259214351732712e+00 -6.0953498736920301e+02 -1.9092551082703721e+01 2.7597042278078152e+02 -3.7582934846635908e+02 4.0205362364749817e+00 -4.1080658606515499e+01 -2.2551136049493806e+01 -4.0483177766702750e+02 -6.7914816989954375e+02 -5.6663737304200549e+02 8.4009732048606873e+05 2.8381131135335210e+01 -8.0463857086999613e-01 -2.7212212417564591e+04 -1.3854480976838699e+01 2.2763391899557598e+02 7.4747472215769868e+00 4.2594507417751156e+03 8.4866835730368649e+01 -1.4452998815739002e+03 5.1559620012636387e+03 1.1199958499954334e+00 -1.0062551899981597e+02 -2.2058477470052001e+01 -3.3480802878331076e+01 -2.8506117027470896e+02 2.4101234674215334e+01 5.5942435319438577e+04 5.1771299733662701e+00 -1.1592133863463117e+00 -6.8207313239538844e+03 4.1122004351792603e+00 8.1989022446471949e+01 -3.4150405484603130e-02 7.6974508034395876e+02 -3.3761466755776041e+01 -3.1445300129762359e+02 1.1909439952327443e+03 1.5958486936976390e-01 4.4894009027398738e+00 -9.1224439049608357e+00 -6.5368693880455623e+01 -2.5112781073580845e+02 3.8790120809221725e+02 1.5156630585083039e+03 4.1144953612726685e+00 -1.8335417878621705e+00 -1.5479814316220582e+03 7.0952495452953457e-01 -8.9952732376696076e-01 7.0168859723425703e-01 1.1258931858090316e+03 3.8877524686384518e+01 1.3224077214865247e+02 -1.0021238267221452e+02 6.3171530061659364e+00 1.2184063676829094e+01 -5.2011686190338331e+00 -9.7901676231101931e+00 -2.1584605966403387e+02 5.8261781478975900e+02 5.1642920008927584e+04 1.4809085347281314e+00 2.0408578890012450e+00 -1.7091843612626690e+03 -4.6836332559014693e-01 -1.1197226543259525e+01 1.3026380861285372e+00 2.5736536240976902e+03 1.6587282459345687e+00 2.3913011611610182e+02 1.4048040308897330e+03 7.3306390787001341e-01 -2.2519926589476306e+01 1.3660686091152893e+01 -7.1173792925070063e+02 -3.2044497057034175e+02 1.8599076422311164e+03 1.8318896338235971e+05 1.1392907998812504e+01 2.3887523564534372e+00 -2.4544025540024923e+03 7.0015325613719135e+00 1.4185934205679791e+02 -4.8950722161105205e+00 -6.1440216227914584e+02 -1.1462575441286364e+02 1.7487019374506392e+03 -2.1460671231733968e+03 -4.4981559851403503e+00 -2.0090600888925451e+02 -1.5762067592222593e+00 -1.5650714840856381e+01 5.1295360279502347e+01 -2.5255709746479988e+02 -5.0775264219135046e+04 -7.7041798130224493e+00 1.4360361553388046e-02 -2.1759623090655077e+02 7.5861875836405801e-02 5.8092412329628132e+01 5.9051241649842723e-01 2.4668592111021280e+02 1.9995663202491414e+01 2.6000841577909887e+02 -3.3036371758440509e+02 1.1061661486883168e-01 -3.2302699799191032e+01 -1.3549779456887306e+01 4.9052321576795111e+02 2.2516550946372931e+02 -1.4545947391864911e+04 1.9833977397072397e+05 3.5482115665971685e+00 -4.1320713853998710e+00 -5.6255763882547617e+03 -2.5380066433914976e+01 9.7120158495468672e+01 9.6413221474704116e+00 -3.0621981767092793e+03 4.4178891294147320e+02 -1.1213864786725682e+04 1.6735868429818040e+03 3.5814162536448633e+00 1.7992442461411068e+02 -4.2696552934071264e-02 -2.4862716222508857e+02 3.3634992093166645e+01 -2.4739890218922668e+04 5.5439431218009180e+04 8.9312358473992219e+00 3.3313256413384806e-01 6.6284341172675959e+03 1.4519624412332632e-01 -4.2914434457931065e+00 1.3360275838108464e+00 -7.5887814240073822e+03 -4.2404131190888279e+02 2.3015055045639670e+04 3.6973066733987325e+03 -9.6664033319591169e-02 -1.2912639013283638e+00 3.0305367175074880e+03 
      </Row>
      <Row Index="107">
        -3.3737868732259479e-02 -2.3094370535795861e-01 -7.9364574412520597e+00 1.7445993396559061e+00 -5.8949686735169962e+01 2.8774924547010983e-01 -1.0018089508802508e-02 -4.5048693046373955e+00 6.6054974575914180e-02 -3.9737821448397881e-01 2.6190137910835267e-02 1.1691248999568415e-01 2.7329329104122735e-01 -1.4104262468354136e+00 1.5485889709687399e+01 -2.1910236246141981e-02 -3.3421241885480413e-01 2.4595513377278166e-02 -4.8758450877477344e-01 -1.9714148389411093e+01 -1.7905488725955365e-01 9.5448982715606689e-01 -7.8455698186935940e-01 1.9086129383829205e-02 2.3889238798228689e+00 7.3149513349761719e-02 1.9089700232780160e-01 -4.1091793177884028e-02 -2.4157251837612854e+00 6.0274899617479605e-01 2.7465773390588311e+00 -2.1222066346628708e+01 1.3565394619986293e-02 -1.8020648207065892e-01 -1.2619023520460360e-01 1.2782535605879275e-01 8.5906911774645778e+00 4.5179171688796487e+00 6.4176543509005569e+01 -4.1968593540127586e-01 -6.5256536781078012e-02 -4.3560873720853124e+00 -3.4423245884340758e-02 4.7150878266756990e-01 6.6629052325595239e-03 9.4115130104728451e-01 -1.4019078881119640e-02 1.1957054504036932e+00 -1.9189162339102040e+01 -2.0940144001031058e-02 9.6235292105120607e-02 7.0126966174271632e-01 3.5064376284412901e-01 -1.2158605996846745e+00 -2.3610950492002303e-01 3.2327483971603215e+00 7.6199989406791546e-01 3.5309952025647462e-02 -7.9449055486475118e+00 -3.7508159164088450e-02 -5.1003172676085262e-01 1.1821054055626029e-02 2.6101896459595082e+00 -1.1735720809971166e+00 1.3891706739523215e+00 -1.2598633076544502e+01 1.8326397826760044e-02 7.2239676500869932e-02 1.6754952296275860e-01 3.4655943733014283e-02 7.2079038638839847e+00 -1.2337409555548220e+00 -1.4547985324170440e+01 1.1063233374859038e-01 -1.7766127391193591e-02 -7.1418999406014336e+00 -1.9885542396139044e-02 -9.4977522440785833e-02 5.3718354260894330e-03 3.3114001607464161e-01 -1.0625396734230890e+00 7.5834493039280915e-02 -3.3681449434061506e+01 -2.0803925082788055e-02 1.1060028161326585e-01 2.0994194683657375e-02 -8.9384190374403261e-02 4.6998492685527253e+00 -4.6143333513246034e+00 1.8877830762648955e+01 2.6317133477846255e-02 2.4388541410765185e-02 -3.7707127114117611e-01 -1.9294789654111355e-02 -1.6871428936110533e-01 -2.8250759246928908e-02 9.6510557964211330e-01 5.8974514208518514e-01 -1.7346131102067375e+00 2.2986989203942358e+01 7.8313712496537846e-02 1.1536885042232825e-01 -2.3797105669076952e+00 5.3987423264408525e+00 -5.8377515327860017e+01 -3.7145509272948402e+01 2.8381116584281244e+01 8.8744449159152765e+00 -5.3224441782087761e-01 2.1843106153323220e+00 1.6324430941775045e-01 3.6981297645893942e+00 2.2336487767349586e-01 1.4047910988690779e+01 -1.1494222078140879e+01 -4.1420908051113756e+01 4.4541426163140574e+02 -7.9180335036583127e-01 4.2638485174952656e+00 -3.9056841856345248e-01 2.1408611958476886e-01 -3.9939202028254090e+00 -3.7807823984840150e-01 -2.7439612372778356e+01 -4.3348100950646318e-01 -6.6470292203688067e-02 1.0411682482794859e+01 -2.7541781181518107e-02 -4.0132662172487921e-01 4.6706494941658183e-03 -6.6398992179663274e-01 1.0350502088326219e+00 5.3650001262498428e+00 5.9670853700280034e+01 7.2989308433003164e-02 -5.7025928976017215e-01 2.9452195529090508e-01 3.2620596280640068e-01 -5.9045053032659780e+00 5.1332548431008433e+00 -6.1134814330174549e+00 -1.4779832040824448e-01 2.0501549440630540e-02 5.3983476313369465e+00 6.8980678991330410e-02 2.1320660159011595e-01 -2.9997329854642624e-02 2.5429898223505587e-01 -4.2089886698015544e-01 1.7763173848595386e+00 3.8958567040823908e+01 1.2835121737298921e-02 3.2360875265120015e-01 -4.2546589809898150e-01 4.8477348026569178e-01 -8.6878803716056652e+00 1.3631332617223961e+00 4.2071174937300384e+00 5.8538270280659166e-03 6.8882775709442512e-02 -7.2556843109122582e-02 1.1851217169798667e-01 4.3940212893718722e-01 -3.7729376203598702e-02 -2.0312196382004544e-01 3.5582965241700126e-01 -2.1692983833479822e+00 -4.7905239684425567e+00 -5.5058837238410985e-02 8.4375556265172924e-01 1.5876523612327382e+00 2.2281638970518247e+00 3.1510822152226957e+01 8.9416150324158359e+00 -1.6409190175928643e+01 9.0901822296645385e-01 6.5370375139040676e-02 -9.6804492848073096e+00 -1.6941021001041312e-01 -1.9220472681075762e-01 2.8451647132219815e-02 7.2792723219285733e+00 -1.6693766670341086e+00 -1.9903453978087654e+01 -4.4566569088927452e+01 -5.1821992758985413e-02 4.7664529823214474e-01 -9.0472059249407266e-02 -1.2042795087472769e-01 -1.2956793125078548e+01 -2.7190498023410328e+00 1.6407810504082590e+01 -9.8573353739142267e-01 5.3371823638269644e-03 -1.3952240836697456e+00 8.5993202791100898e-03 -9.1484785895090681e-02 -5.2630645232758511e-03 -1.7100249064969830e+00 3.6328294671363892e-01 -5.0723989511607215e-01 3.4696951786434511e+01 -2.7189341664822564e-02 -3.2463341061543360e-02 -2.6437579724569078e+00 1.0527123726794665e+00 -7.0290197257728252e+01 -3.9086631437627091e+01 -5.6969770128193886e-01 5.9686094510057117e+00 -3.8270320291438908e-01 3.3048319127345167e+01 2.7700244953893155e-01 2.0415514615561507e+00 1.5059055689857581e-01 -2.3333716305817589e+00 -6.0090077652832168e+00 -2.5323795096196054e+01 2.1406347632950531e+02 -4.7913350136667343e-01 2.3134911390623252e+00 -2.0976351090490016e-02 -8.2579730434239984e-01 1.9910393230332288e+00 -1.1249517906842728e+01 3.3319360937091545e+01 1.4404700380691302e+00 2.2521804738392603e-02 3.9057872229094585e+01 2.1102609890846225e-03 1.8686295030251265e-02 1.1610510617103387e-02 -9.7968241789535000e+00 -4.7221741192289866e+00 1.7486776819607034e+01 1.0496682289176027e+02 -3.6871929805820081e-03 6.4632135498354434e-03 -5.6234411347638719e+01 
      </Row>
      <Row Index="108">
        -2.3692472020427902e-02 -5.6091704687673882e-02 -1.0090770926090897e+00 1.2264177609259974e+00 1.4910432609367035e+01 2.4251862496891485e-02 1.7802942611828299e-02 -1.1103347303208579e+00 1.7497665868514875e-01 1.7962816782497981e-01 3.7519527253851437e-02 -1.5958041270423795e+00 -1.6335569577577758e-02 6.6839790603768279e-01 2.0451922751952765e+00 1.5444532551615167e-02 -1.6284009679100819e-01 1.5122486779640898e-01 -2.1458937697227487e-01 -5.8925622011861378e-01 -1.4041838233760018e-01 -5.6228109901130665e+00 1.2468186068832265e-02 -1.8313132330935747e-02 8.5071174432241747e-01 1.4683995664641958e-02 -1.0757558936845157e-01 3.8652473738229887e-03 -1.1883459830432272e+00 1.0670986492730350e-01 1.6743300076036354e+00 -2.9247879044066849e-01 5.2206831727878961e-02 -2.9273234821413008e-01 -5.1828313119295366e-02 -1.1986797689145945e-01 8.7951246265316740e-01 4.3778523913979370e+00 -6.6058387811717694e+00 -1.0005041627947797e-02 -1.3489473009930331e-01 1.4364662163234243e-01 -1.7318635089929346e-01 -1.4802221421906125e-02 -1.6702736466609414e-02 -7.6046586971196461e-01 -1.8971563414609705e-02 8.6003291296529483e-01 2.8745909396167804e+00 -2.4953294871306930e-02 6.6319585492676936e-01 1.1885144796671110e-01 -9.2982212798800035e-02 1.0883333279431895e-01 -2.8796269169224047e+00 -2.2510983824977302e+00 3.3022812455660688e-02 8.1931028133079842e-03 7.2664173170778668e-02 -1.6730581908136433e-01 1.2795052818160002e-01 1.7557456456208438e-02 4.0351457966586679e-02 1.1088898297724370e-01 1.2285888195439298e+00 1.6168333808159332e+00 -3.8360076260619394e-02 -4.8340195940246211e-01 -3.9123882976205948e-02 -9.5266395358653000e-03 -3.7663136685353038e-02 -1.7641277414670640e+00 2.2745214280039363e+00 6.4630664059361909e-04 4.3829449414894493e-02 1.6852245947411575e+00 1.8650401180348464e-01 3.1853494571020491e-01 -5.7431355068970902e-04 -4.2976090138779455e-02 1.2910149571970209e-01 2.0444429062243215e+00 -3.6254689138301330e+00 -6.0676018114325103e-05 -3.8278164129348635e-01 -4.2477341580454020e-02 1.0023560432458112e-01 -2.3711448273951063e-01 -3.8470883753920475e+00 1.7354570971710928e+00 -4.4740430021081856e-03 4.8404887289851040e-02 3.8393219925752220e-01 1.2324547181987500e-01 1.5677903389964953e-01 -4.5848230730803685e-02 -3.7966992082999695e-02 -1.3571642649172244e-01 -2.3885294230657053e+00 7.6906902186124171e-02 -2.7741531998451530e-02 -3.2482652653765598e-01 -4.1694803205444453e+00 -3.4052240643817200e-01 -4.1497605921720293e-01 2.4203846034021240e+01 -8.0464219823625172e-01 -5.3224441362167685e-01 3.3750909695142606e+00 -2.4180308010711940e+01 -3.7445306822301707e+00 6.2674171923776170e+00 -7.8002316400913452e-01 -1.2363524064333545e+01 1.9437186074687389e+00 -8.9784900411596844e+00 -4.4359226976585830e-01 -5.1258244406992759e-01 -1.3165850514435009e+01 -1.0555174909178444e-01 3.8742896162922591e-02 7.6011475115974214e-01 1.3265532282669099e+00 -2.1723136198961583e+00 -3.9751388445343316e-02 -1.5330158714968367e-01 -2.4385678416205110e+00 2.0889919512303456e-02 1.4662038589694326e-01 -4.3740075280807172e-02 -2.2398022269875284e-01 -1.2905637158289318e-01 1.6368498655871715e+00 -4.0858703955030506e-01 7.8874406971849081e-02 1.0513960120570829e+00 3.7828605250510883e-01 -3.0752925435791667e-02 3.5192225967699642e-01 5.0751728171273385e+00 1.8790877570108933e+00 -1.0815139322681404e-02 8.0915253938537379e-02 -7.1600012300586968e-01 1.3176028078816349e-01 -2.1955276433100535e-01 -4.8564654550492858e-02 2.0341562810502012e+00 -9.6007992875943415e-02 -8.7632981962415180e-01 1.9347794636232543e+00 -1.2799061795993866e-01 1.1453978908935234e+00 8.7375865624908844e-02 2.5201533222660188e-01 9.6938196570794233e-01 1.1870163258257094e+00 -8.2782316228222044e+00 -9.4115203791644841e-04 1.1004332977941787e-01 8.8131464054255559e-01 -1.3515608102608612e-01 -1.0107156235403281e-01 5.1776972350187328e-02 3.2192130046224747e+00 2.9019417240085943e-02 -4.9925245392934627e+00 -1.0327366555300870e+00 -3.2740366607390659e-02 2.6355008170495786e-01 7.1821985714718162e-01 9.1581942648970749e-01 -2.7051389262757652e-01 4.9495033197416660e-02 -6.4519631846615084e+00 1.1083767790162125e-01 -3.2989838067877042e-01 -1.1283430876464422e+00 6.3462003655996924e-01 -4.7876115725424029e-01 1.9668819295680662e-01 -3.5718583177329037e+00 -1.5970326991770012e-01 -3.5638407073292910e-01 3.6449725867627381e+00 2.2765132581577463e-01 1.1459215832930809e+00 1.3187316320459797e-01 -2.3115124880064286e-03 4.4322376145217390e-01 -1.8275610802702431e+00 -1.1484311971136776e+01 -3.3966456350355737e-02 4.0625567991275091e-03 -3.4567118599454716e-02 2.5558413510178846e-02 1.2133258121190593e-01 8.3414032256412390e-03 8.0366696739247345e-02 -2.9934546660862260e-02 -2.4259104381967518e+00 2.1058503235249191e+00 -3.9096150161203769e-02 -3.2663251955991512e-01 -3.7043991200062525e+00 -1.5613371631099078e+00 -1.7486601317655186e+00 1.2511976366587589e+01 -6.9900308162004876e+00 -4.6531364455374713e-01 2.8304148399665880e+00 -1.5308147649754801e+01 -3.3478277394753739e+00 5.3788174931770207e+00 -7.3987500657880112e-01 -5.1528733510297942e+00 1.5703111007230230e+00 -1.5078299779117863e+00 -2.3846135909210950e+00 -5.5750846519369435e-01 -1.2059710916970459e+01 -1.1746874926119644e-02 -4.1135340495579242e-01 1.1481969398973735e-01 -1.3321643860743844e+01 -6.5666602225696522e+00 1.2162542829507180e-02 2.7129451175944785e-02 -5.0615041113592518e-01 3.7410739136264692e-02 -8.9081226713293438e-03 7.7217299974651765e-03 4.6154222456730398e+00 5.1847946261299116e-01 -1.7184597051499768e+01 -3.9069886554434978e+00 -1.3334392863656059e-02 -3.2789409510347436e-02 6.6589161299036426e-01 
      </Row>
      <Row Index="109">
        -3.1533676149043766e+00 -4.7228351491095964e+01 -6.3824502923060209e+01 8.0184439183375798e+02 -4.4423595623672009e+03 -7.1760317346888769e+00 2.7417595380617144e-01 2.2171013447856531e+03 1.1189916814219139e+00 -2.0527345407404937e+01 -9.3773239479634984e-01 -4.6770858042129839e+02 -1.5021735124988481e+01 -2.3147206433117390e+01 -3.4194418340828270e+02 2.4413421235672379e+00 -3.3575160095118918e+01 -1.7307700861420017e-01 -1.1104404374869773e+01 -1.3799729014653713e+02 -3.8485139719955623e+02 -8.0356736516952515e+02 2.3181770421568171e+00 1.2843289526856903e+00 -5.9834007254824974e+03 -1.4877956710406579e+00 1.6224693310679868e+01 -1.0467633805092191e-02 7.7473208595237111e+02 -1.4169239062466659e+01 -9.6216931108487188e+01 8.3632984095253050e+01 -5.2450856341556573e-01 -1.0770824718372936e+00 -6.4196720987965818e+00 -1.7206432038103230e+01 -3.0208294423017651e+02 1.4157092821598053e+02 -3.6113780053555965e+03 5.8383395364362514e+00 1.8568812291050563e-01 -6.5303481939807534e+02 1.8014884744261508e+00 1.3236848817090504e+01 -8.8234515597287100e-01 3.0849754086183384e+02 -2.7824013723409735e+01 4.2227035212866031e+02 2.2615639655906707e+03 1.5166030607506400e+00 -7.2634926306782290e+01 -1.6023951167799879e+00 -1.1204661490776925e+02 2.9803966783685610e+01 -6.3973124831728637e+02 1.2052350360274315e+04 -3.8080058785836002e-01 9.9625087267164503e-01 8.7225868429988623e+02 2.6045679464119473e+00 3.9631715281284499e+01 -7.7918491573223081e-01 -1.7866995027032681e+02 3.3957243701312734e+01 -1.3927744965068996e+01 -3.0222132918611169e+02 2.2990068370964831e+00 -5.8674761740977615e+01 -1.5502838736283593e+00 -2.9589876292564441e+01 2.2735112764639780e+01 -4.4541310751065612e+02 -7.6488037365078926e+03 -1.0923454427756951e-01 -1.5391772644132005e+00 -1.3654793756101280e+03 -2.3371981089585461e+00 3.0320008350536227e+00 4.3255926947676926e-01 -3.1695745951589197e+02 -3.2680790356826037e+00 2.0480025972465228e+02 6.1052465969184414e+02 -1.8734572503308300e-01 5.3366141537117073e+00 -2.9969079825516260e+00 -5.4212902721483260e+00 -4.8513209938537329e+02 -6.2712957500480115e+02 -1.5802387806117535e+04 6.0365453730628360e-01 2.1557166501352185e+00 3.0151362746208906e+02 9.8181503904925194e-02 1.0267345948494039e+01 7.3622801973615637e-01 -2.6180378798395395e+01 -2.9926218573178630e+01 1.5360032116761431e+02 1.9870166954863816e+02 -1.6948855300652212e+00 2.5728228879394010e+01 -6.3667641440085987e+00 -1.6105975631633598e+01 2.7250536495253527e+03 4.2262246792493388e+03 -2.7212211595535278e+04 2.1843116467487960e+00 -2.4180307511068527e+01 5.1678408906545374e+04 -1.1143661201830650e+01 1.1525994891231414e+02 1.8941475290214512e+01 1.1250125699955070e+03 -6.9555765830449241e+02 -1.6986152244511866e+03 -2.0395511722793617e+04 -2.3302271764715243e+00 2.2858702161525403e+02 1.2972297527060638e+01 4.8227688950494354e+01 3.0764496979617411e+02 2.2994579737283019e+02 -5.6654127505421638e+03 -3.2573288323049212e+00 -2.3278088677077617e+00 1.3026333799945223e+03 -2.4588593885621659e+00 3.5406040521915926e+01 -5.9116335695277034e-01 2.4365958634585968e+02 1.0860319831931076e+02 -1.1427220456980740e+02 -6.7293734824738340e+02 1.2354260345043131e+00 -5.5990227726543495e+01 9.9978522943353934e+00 8.2330269620289727e+00 3.3538941456971224e+02 9.3289814773734190e+02 -2.3333954914661372e+03 -3.0163028836545758e+00 1.8849309036434150e+00 -2.5537057388946414e+02 -1.0355811617802937e+00 3.9591178414484602e+00 -1.5421215977074461e+00 8.9646539132390330e+00 4.0177752358538214e+01 -2.0445791490423869e+02 -1.3377717657672856e+03 2.6778574573636149e-01 1.5005729862009673e+01 3.6679427437917163e+00 -1.0977545892344352e+01 -5.5178525424649251e+01 1.7085228296862915e+03 5.4792485383749008e+03 7.1458278357902572e-01 1.3452835192276495e+00 4.9781576082331385e+03 -1.1051054285641726e-01 -3.1230104321619763e+01 2.2871520747995069e+00 -9.3003395885935061e+02 5.8351210442616889e+01 8.9944825262420522e+01 -9.6310036839449413e+02 -2.0155020960993708e+00 4.3171556858606806e+01 -1.3432639528422269e+01 -1.4115686211503404e+02 9.0639377942609462e+02 1.6422160061320860e+03 9.2132175882443553e+03 -4.4260762851239726e+01 6.2027847629775890e+00 8.9112637825243219e+03 2.3538340798287649e+00 -8.9415669835636876e+01 -4.9222269917636368e+00 -6.3339071877238075e+02 -4.9211026722790621e+00 2.9847369524090209e+02 -6.8321798574273380e+03 -1.8177297258964344e+00 -9.5859709148767024e+01 7.5418174821825232e+00 1.8605901644565165e+01 -4.9055430684238672e+01 3.2190467424690723e+02 8.6185806816816330e+03 1.2078388191850991e+00 -2.4171396394102462e-01 1.4275900572543032e+03 -8.9518737981437102e-01 5.2614097102195956e+00 8.7697341264174611e-03 -1.6797943333163857e+02 3.3622134537014063e+01 -9.3229254357516766e+01 5.2435155261121690e+02 1.6161407253639481e-01 -3.1898135096707847e-01 -7.7936970696982169e+00 -9.7909891250174610e+00 7.3556398793987364e+02 -4.3485865457677301e+02 1.2951592635222718e+04 4.7179720264928562e+01 -2.0523687052276689e+01 2.4535802666520700e+04 -5.6248412417746039e+00 1.7662034066593412e+02 1.8475270035217179e+01 -2.6573251453924786e+02 -8.3818328426268545e+02 -3.1473030077684380e+03 -9.7580248303144381e+03 -3.7016006677932367e-01 2.4983167395720272e+02 -7.3971651184592702e-02 -6.9012220931114712e+01 -3.6278609530651863e+01 -3.9933902790117991e+03 -1.7050231895460568e+03 5.4025986819836991e+00 8.1464934678388090e-01 3.7316614140400679e+03 -3.4490538603222376e-01 -1.3488104063450237e+00 2.3699272705380281e-01 -2.5577686013633456e+03 3.8099268271831778e+02 3.8839719480270214e+03 3.7954374227387107e+03 4.0300496553852172e-01 3.9531789833874349e+00 1.1579478046537737e+04 
      </Row>
      <Row Index="110">
        2.4356968574792948e-01 -1.8427520870980985e-01 1.9742390888512773e+00 2.0011276786585768e+00 6.5075084395102749e+00 4.7246907920585723e-02 2.2014166736820293e-01 4.1134935043688756e+00 1.2268172525411372e+00 -3.4656328343999121e-01 1.1913624506123255e-01 1.0014194132294314e+00 -1.9784748270502917e-01 -5.2431648748049611e+00 5.6084768974987753e+00 -3.2717433749539815e-01 -3.6274674089942494e-01 1.6332641386598112e-01 -9.5755435818024814e-02 4.0854464256434539e+00 -3.9033775965890527e-01 -2.6358653529459843e+00 7.6215055187812464e-02 2.1125892625542472e-02 -8.3768219440202074e-02 4.3305217698844101e-02 -3.9715130125095754e-01 -6.8677060073069285e-02 -7.7221095917211313e-01 8.6234460391189316e-02 -3.2962255725674279e+00 -2.9573073367371308e+00 1.1843382152927179e-01 -1.7097906799240925e-01 -3.3792577168696702e-01 2.9572369029687451e-01 -1.3670890747268061e+00 7.3223775775691138e+00 -1.2316424551156160e+01 1.9878073886836489e-04 -1.4904380971689335e-01 4.0741032389378233e+00 -1.5558107043235490e+00 -3.6768462719368955e-01 -1.5932071810040194e-02 -9.7107141060487834e-01 -7.8023042658799113e-02 2.9512639498971112e+00 6.4248772191524495e-01 7.2372333305514402e-02 2.5225962971636307e+00 -2.3987247469372885e-01 4.6238038599934583e-01 2.7951108951288006e-01 -5.6800447213652205e-01 -1.2832053684782295e+01 4.2909157678586413e-02 -2.2225575838379807e-01 2.5268396161818600e+00 -8.7575761042422862e-01 1.7498268480181878e-01 4.6239551828757081e-02 -6.4044841662715157e-01 -9.8795028896390136e-03 2.0873342418932168e+00 3.5241628128869706e+00 -1.3362048418779082e-03 -2.8088904420241469e+00 2.7918286687270566e-01 -1.2221564549463793e-01 5.3148454686979107e-01 -1.2434835181791186e+00 1.7895582844801538e+01 5.5030989577631306e-03 2.0959581886536177e-01 5.2673333895356791e+00 1.6012296630220160e+00 6.6895290703543253e-01 4.0650864876016213e-02 1.3935156833110796e+00 4.1284103652880333e-01 -4.7805107292848810e+00 -5.6416769094760753e+00 -5.8593409001774788e-03 -2.7851285942961490e-01 1.0493929093934540e-02 -3.5302407574165784e-01 -4.1446444918047831e-01 -7.0805267719000540e+00 1.6309932026153547e+01 -4.4124535335012816e-02 9.4166910156971095e-02 9.9595251838621834e-02 8.5138527425202337e-01 6.6518762284565014e-01 -8.3614969533489458e-02 2.8593663620097232e-01 -7.5994014394438869e-02 -5.0863206577350013e+00 5.6267239905980659e-01 4.0556125103817831e-01 -2.6176853847693025e+00 -3.6140533160702919e+00 1.6498792897461421e+00 2.1624650276397688e+00 -4.6025801789169236e+01 -1.3854497563028417e+01 1.6324430605181811e-01 -3.7445306863531855e+00 -1.1143662502121742e+01 1.6612210391912924e+01 -1.2252247198889375e+01 -1.0441942237227773e+00 -2.4356839794359693e+01 -3.9158569239310737e-01 4.1267405356709567e+01 2.3506205465315588e+01 -8.2302243906707362e-01 2.8816346548306875e+00 -3.1793109788445451e-01 -4.3025193946078133e-01 2.6211032234079568e-01 7.4682789962556306e-01 4.1091517094027949e+00 -2.1339400935375785e-02 9.9929687733883964e-03 -4.9129361103666724e+00 -3.7635879108740999e-01 1.8217655722225139e+00 -4.0864645987255033e-02 -6.1687899143679203e-01 -3.6799681879697066e-01 -8.4965836805165906e-01 5.7060239663585861e+00 2.1056477078437896e-01 4.6485249707781673e+00 3.2897689798738305e-01 2.5653361387385054e-01 -1.4353012875074000e-01 5.6386481067261940e+00 2.1805882401738927e+01 -5.5737092072910555e-02 2.7448128694646368e-01 -1.9924292617170067e+00 5.0077787070306523e-01 -3.0582108562259602e-01 -7.2078001415593118e-02 6.5763887548426680e-01 -2.2966699155820436e-01 1.0348161164890826e+00 -1.2552087677280142e+00 -7.8039204428453496e-02 3.7289926887906617e+00 -2.3887675767273553e-01 -8.6643546333220911e-02 -3.8602893852324769e+00 -4.9779482279288914e+00 1.2846371844352689e+01 -5.8579561870839014e-02 -2.4768282415275877e-01 -2.0517229144015801e+00 -6.7831219770882245e-01 -3.1474661336925891e-02 1.9083729389701043e-02 -1.8996670593568297e+00 -2.8227713866343151e-02 1.2608337244549261e+01 -6.9443764398755548e-01 -1.8266182585666169e-01 -2.0479984357632670e+00 1.2754501237446689e+00 -4.7830341636549534e-01 -7.6344618700825890e+00 -1.7391811954035177e+00 5.5173144791574487e+00 -5.2879049651708865e-02 6.3161525948151898e-01 -7.2123945127898423e+00 -2.8072119271679625e+00 1.4307879676590147e+00 5.2306489949341284e-02 3.2722398699679616e+00 -1.2432193041522188e+00 2.0899687247634802e+00 -2.3866828957386048e+01 7.4039029667389400e-02 7.1486095066059363e-01 1.2173148860630612e-01 -7.8257947278956408e-02 1.8113015352784032e+00 -3.6992401485204027e+00 -2.4301876962417737e+01 -1.3705859330151671e-02 -6.3390046500364505e-03 7.1686698054878661e-01 2.0765144528781132e-01 3.9776756691958326e-01 5.1501151016012964e-02 -1.2826765090335357e+00 -1.7456071365091219e-01 -6.6714454638258758e-01 2.8659118790437788e+00 -1.0668901767395900e-01 -1.6673510822779729e+00 -3.6457868963312041e+00 1.9830537878491086e+00 1.1629041264287366e+01 -4.2931764613941837e+01 5.2077227257104823e+00 2.7053215717863061e-01 -3.3951116205388199e+00 7.1155346687720566e+00 1.5176136084993022e+01 -1.0685055854981957e+01 -7.4835119828936059e-01 -4.6368352848051018e+00 3.4986687641319136e-01 4.1273956640164570e+01 2.4189792507617454e+01 -4.6884623007105863e-01 -2.3130750315147850e+00 -9.4251233139994173e-03 -1.6183375951445567e-01 -2.5131666173730516e-01 -2.9684017932057671e+01 -6.2226062401720334e+01 -1.1034793821988395e-02 -5.8086496565650236e-02 1.6588295000707205e+01 2.4752890556221163e-01 -2.7752753543210718e-02 2.8285329106859658e-02 2.7261175243770275e+01 1.8184477143240745e+00 -6.2036168097213732e+01 1.5833843202195187e+01 -6.8642668833140574e-02 -1.4311130224206814e-01 1.1529136872556802e+00 
      </Row>
      <Row Index="111">
        6.8657908988697702e-01 1.6213411390444890e+00 3.7689037589516374e+00 1.8807358464458957e+01 -1.7904072536271997e+02 -1.6920216195273952e-01 1.7363845069318681e-01 9.2396673589246348e-01 -6.0164115294558085e-01 1.0758612157897005e+00 -4.6887567418721687e-02 2.3879124481925828e+01 -4.5727154451742535e-01 2.5842047208570875e+00 8.4500250787605182e+00 -8.9916416617642936e-02 -8.4521093840066897e-01 -2.4430462172986154e+00 5.0973718878560703e-01 -7.5174660843767924e+00 -7.5639494891802315e+00 5.9081196954473853e+01 4.0217948849701757e-02 -2.9514963574237651e-01 -9.8897199503207958e+00 7.9669899643342035e-01 -3.3347171636032726e+00 -7.9783736663472382e-02 1.6739573651156547e+01 3.3261344372158419e-01 1.1935765184163301e+01 1.7412969960743794e+01 6.7930114058048474e-01 -9.1635569725781352e-01 6.3866420236763588e-02 1.1081692890320483e-01 -1.1357893099302601e+00 4.8431933639454655e+01 1.2026989401993342e+02 2.7590315283373457e-01 2.0540954066916584e-01 -1.5726693282485940e+00 7.8519147351437368e-01 -8.7837074820254202e-01 -4.5695343814955436e-02 1.8813898908305418e+01 3.2397804986430856e-01 9.5112428710344830e+00 -3.1678354294272140e+00 -3.4553194151612843e-01 5.4004365643068013e+00 -3.4203593624151996e-01 -2.4149460221906338e-02 1.2764633546757977e+00 -1.6103420130981249e+01 2.2442047734465450e+02 -7.7292998317592509e-02 -8.3756011813878040e-02 -2.8013190572382882e+00 -5.9481884795173245e-01 -3.1708513795817339e+00 9.9331397127328080e-02 1.5700450701026057e+01 5.0592170067076836e-02 -6.7075339280781918e+00 -3.6177477691962849e+00 1.6177946620243011e-01 -2.6108455978337233e+00 -2.7531842094867898e-01 3.9051329988205907e-01 3.2917520346200035e+00 -1.3019338866724866e+00 -1.2794420723803341e+01 -3.5322836211292952e-02 8.6591655053835953e-02 -8.2221830842026975e+00 -7.3737112770709246e-01 -7.2099828419959522e-01 -3.3205814537950573e-02 2.2967012208391679e-01 8.7639841558484477e-01 -6.0936353408210380e+00 -2.8771801468443300e+01 -1.6618303141444812e-01 -3.2161020698285512e+00 2.0754649532235980e-01 1.9040960443253425e+00 5.7583196175128251e+00 -3.6070282655506162e+01 1.0208754530921578e+02 -1.7594898799654857e-01 -1.0251870133994601e-01 -6.8928370469420770e+00 -3.9254490730695579e-01 -7.4622972545057564e-01 -1.1821654593614728e-01 2.2779786029168463e+01 -1.3470012164954142e+00 -1.8916495104102069e+01 7.5838793014117982e+00 -2.6014020717735775e-01 -4.8415844631472282e+00 3.1058961193933712e+00 -1.4774314448251317e+01 -3.2251245094279710e+01 9.2730557042828877e+01 2.2763395904563367e+02 3.6981299054331593e+00 6.2674171990969283e+00 1.1525994964468487e+02 -1.2252247158869082e+01 3.1937076693840470e+02 3.7322758981380266e+00 5.0855927926877462e+02 2.4985285597487348e+00 -3.4754522164986724e+01 2.4082751899876962e+02 3.7565864827000821e+00 -6.5500687753858855e+01 3.0310277908167840e+00 -9.9851025640511182e-02 8.2926714884752499e+00 1.3630596657763494e+01 9.8006533886305988e+01 -5.3485409591187860e-01 5.6261109320625446e-02 2.9671537618443836e+01 3.8269133488006574e-01 -2.0725195004958881e+01 -1.2410335187610640e-01 -1.8767273841529402e+01 -7.8921206858327153e-01 -2.8628926735688127e+00 -1.3989128171314917e+01 -2.2514052112992533e-01 5.4995546277303475e+00 -4.0345903939556891e+00 -3.8553012474627577e+00 -2.7086119518153282e+00 4.6308781761495140e+01 -3.4271697872682125e+00 4.1953847483932449e-01 -2.4992984382524952e-01 1.2182209291757317e+01 8.7078752221662281e-01 7.9937730559382771e+00 -1.2619540208110125e-01 -3.3701668237002025e+00 5.4954805567381726e-01 8.4104534780126414e+00 4.7039202854351373e+01 2.6461998494613459e-01 5.5305079100606314e-01 -3.8569999742267491e-01 -4.4788810429476733e-01 -4.2187206523260485e+00 2.5701434388174675e+00 1.4831146017648280e+01 5.6023697036492770e-01 9.1006672255174448e-02 1.0130270565237765e+01 -3.3219327302512691e-01 1.1224183979699880e+01 2.1420829833441024e-01 -4.0778295922896177e+00 3.1049149736200832e-01 -1.5301183300783226e+01 -3.7267132344845777e-01 3.3776373740980636e-01 -2.6531001746162062e+00 -1.6143157337281555e+00 -2.5653267410875831e+00 1.4061586659648356e+01 3.2669898500877565e+01 1.9924108928997157e+01 -3.1309974517199346e-01 -1.1899325738313320e+00 -1.6317172414094614e+01 9.0464327692369650e-01 -5.2366525521487432e+01 -4.2804988877698236e-01 -4.4645654822107645e+01 3.6169727590048275e+00 -1.7268898547131926e+01 2.5203016066243379e+01 -8.2243662537940665e-01 1.3831327345948161e+01 -1.3156570054002259e+00 8.6370441643884988e-01 7.6653782378052711e+00 -1.5463344111572951e+01 1.7764553937502205e+02 -2.9496312519790280e-01 -1.1319299585366605e-01 3.1146901374158915e+00 -6.2514366499697083e-01 -6.8653970742734600e+00 4.4549877313562192e-02 -1.1147019272902980e-01 -3.6737215677226231e-01 -9.5534316657576710e+00 1.6682597531151259e+01 -1.4348808816970404e-01 -2.5029689703662825e+00 2.6546476300917758e+00 -7.1702348545222421e+00 -3.4701266444733278e+01 1.0359916640174843e+02 1.1242910773054973e+01 2.8085771979168750e+00 5.5049576332848611e+00 7.1873592241681763e+01 -1.0379328936872060e+01 2.8107258714734667e+02 3.0997169500952522e+00 2.4930630830526098e+02 -8.7184307497911817e-01 -2.2981956650823673e+01 1.6018443651963193e+02 3.8175188593080782e+00 -6.3365932825024927e+01 1.4992995884274762e-01 -5.8414465900446899e-01 1.4609435468458787e-01 1.1573406151950330e+02 3.7096150300092603e+02 2.2667238935592043e-01 -5.9537612069554768e-02 -9.2412233162907569e+00 -3.5619639681627291e-02 3.3670128842652858e-01 -2.8939415510365052e-04 -2.9762117164720962e+02 1.7568105241315024e-01 2.7259486110316413e+01 -2.9204711971527303e+01 -6.1297458442539532e-02 -1.3789639860779723e-01 -1.4230496973337148e+02 
      </Row>
      <Row Index="112">
        -1.1762995056827985e-02 -2.8637106727842365e-03 -9.4306274956846892e-01 -1.5546467744105996e-01 -5.0417038415889692e-01 -2.2222177679282584e-02 -2.3079913935716470e-02 -8.5184389024891516e-01 2.9691581132530634e-02 -9.0660280831968976e-02 1.5072000957449905e-01 1.0303043123047324e+00 2.4396762152292695e-01 1.2148256549654093e+00 -1.4212822384318713e+00 1.5478567225046930e-01 -4.8596309056129883e-02 6.7909869928051592e-02 1.9503876013263621e-01 -1.4737016392491853e+00 3.0841995520006549e-01 3.6698664968716912e+00 -6.4972281475726312e-02 9.5934887099993760e-04 1.1667328239636419e+00 -4.4320195532394968e-02 -1.3532497944392219e-01 -2.7508826796451835e-03 8.5611063698932810e-01 -1.3062562696626046e-01 -2.5480617674649153e-02 -6.1863397235117645e-01 -2.2245672946399903e-01 -8.5889679206534453e-02 -1.4991920765685762e-01 2.6655249716075247e-02 1.6972970470854420e-01 8.1463581378739036e-01 4.4033305358771031e+00 -4.4161978255772283e-03 -4.6070297626330969e-02 -5.3877803789282552e-01 -4.7173552344948355e-02 -1.2718048370665258e-02 -1.1210640093017665e-01 5.3925186420258342e-01 -1.2769983031087406e-01 4.4910820273608465e-01 -2.2150930875038739e+00 4.4049702195373719e-01 1.5370973635695862e-01 2.5695720935624777e-02 4.3092879644840210e-02 -1.0934339713039094e+00 -1.6642048058885166e+00 -1.9938292128063040e-01 1.4565871237614797e-02 1.4408296354336603e-02 -7.6208106182093616e-01 1.2534583419699485e-02 -4.7062843167321233e-02 -2.3638733405902515e-02 9.1912332240694639e-01 -3.0777357727185262e-02 3.2155830403181369e+00 1.9368335272815784e-01 1.1566140738902314e-01 2.1172143623525486e-02 6.0145708979321810e-02 -1.7357577729995910e-02 9.9699818845454047e-01 -7.1350082240144275e-01 1.6505789429065771e+00 5.2281087588919029e-03 -1.9853277265861821e-02 -6.6820092128182296e-01 -1.3048888875600184e-02 -6.0611181269436543e-02 9.0564933070512055e-02 1.7989391450754511e-01 -3.1772387655020395e-01 5.9195095936074971e-01 -3.4111519188178363e-01 -9.4460399735397438e-02 5.5697375182163888e-02 3.8522191766923175e-02 1.4187121730273589e-02 9.8114014181330589e-01 -5.0372700404261650e-01 1.6918690441416402e+00 1.7535969917651606e-02 3.3985929040378227e-02 7.3205516360070533e-01 -1.0142943393172565e-02 -4.2674411326011352e-02 -1.5830173019662741e-01 1.4731161196221478e+00 8.4319616971166522e-02 -9.8039153558210046e-01 -1.9074968772793000e-01 -5.1485622249253193e-01 -9.2615623822482007e-02 -1.1471623557060844e+00 6.7645982008901484e-01 -9.0388888461626564e+00 9.7293327353498853e+00 7.4747473973839078e+00 2.2336489056066700e-01 -7.8002316342706324e-01 1.8941474944886522e+01 -1.0441942184075248e+00 3.7322759125220548e+00 3.3482120635174137e+00 3.2333993020367416e+01 -1.5748864308389443e+00 -1.3759062604989705e+01 -5.2016755350885660e+01 2.7085286951756768e+00 6.6984572809363527e+00 -8.9577528155574848e-02 1.8836068599400368e-01 -2.4098223212584458e-01 1.1063734373340033e+00 1.6576962392064161e+00 6.9243852537287376e-03 -6.4478430829793681e-02 1.9900355563592598e+00 -6.7225531703740293e-02 -1.0809227705193730e-01 -1.5445031232658252e-01 -1.9665333354862611e+00 2.8357411630083540e-01 -7.1784534058123128e-02 -7.6597185407576518e-01 7.8566738835306571e-02 -2.1045386349003614e-01 -1.5149994619509055e-02 -3.7252283174167289e-03 -1.2229797357126415e+00 7.1165405280545713e-01 -1.4039355351410450e+00 -2.5095166138666469e-02 3.5165777438808887e-02 1.8775543368924446e+00 2.7121885660585821e-02 -5.4093231298891098e-02 -1.3630092972546887e-01 -2.7490513108834591e-01 1.0363766188394408e-01 1.2907046681635279e+00 -4.2558172461386334e+00 9.5248039390127492e-02 1.7859841529160381e-01 -2.7821961207730617e-02 -4.7767014275152064e-02 -9.8214377495685667e-01 1.1530324482731658e+00 -2.7957940431733732e+00 -1.4401101389269977e-02 1.5621967365670064e-01 3.3696458075633018e-01 8.4973234523566976e-02 2.1466268392323329e-01 1.0103575057218821e-01 1.7695819157546566e-01 6.4577700583271280e-02 -7.7575500989809143e-02 -2.9399787861606796e-01 -3.3882728312095867e-01 -1.4970007377063688e-01 3.5972022452216867e-01 -6.3652012035328553e-02 4.5727076305523582e+00 1.6324016395298742e+00 4.5988359867410509e+00 5.7041709534235041e-02 1.6391427171321671e-01 4.4103852048022389e+00 2.2623141475937913e-01 -5.4159500258053406e-01 -4.5112451629239447e-01 6.8502186955646494e-01 5.9165349980524617e-01 -1.2766559749390751e+00 -1.1227973228982080e+00 -1.1829873548671648e+00 -1.2535300465688373e+00 2.6527590916877841e-02 1.6561476347362714e-02 -1.0364427965074015e+00 -1.0927336859458592e-01 6.7836718373291660e-01 -3.4029777245206339e-02 -7.1239985232459946e-03 2.2924114712782284e-01 4.3914875101249695e-03 2.8838016309475023e-02 -1.4832055766931071e-02 -4.3105596205259644e-01 1.7121492918760772e-01 -2.0885750673187431e+00 -9.7091811716086340e-01 1.2406077039574825e-01 1.8216066179010681e-01 -1.0294010810833989e+00 7.0104841325525058e-01 -9.7965487090870340e+00 2.6353972759356452e+00 4.4368511159568698e+00 8.8765435651364910e-02 -7.6619953796503470e-01 5.0809210143719383e+00 -9.7168337895035806e-01 3.1253570356918128e+00 2.9552091297006329e+00 1.8092446528578659e+01 -1.6172085530694185e+00 -2.9957048860502091e+00 -2.3176279125637553e+01 2.5541916236537308e+00 5.9852074282318304e+00 -2.8391837593854941e-03 2.1844082155380473e-01 1.5134330991554418e-01 -6.4340983288136062e+00 7.6565988830766365e+00 5.4198871026069628e-02 3.2479742614512530e-02 -6.4258542490296149e+00 -1.1479244527756172e-03 3.1138587675635376e-03 6.3322303281095782e-02 -1.0044146500109415e+01 -8.9746258282523972e-01 -1.9928615604478825e+01 -1.7335205189991854e+01 1.2349989120302499e-01 1.8739585099447273e-03 1.0952641370538787e+00 
      </Row>
      <Row Index="113">
        3.4022360968829819e+00 -1.8063891940775648e+01 -3.0173728305409895e+01 7.2419733348651789e+00 -4.9306750043332577e+03 3.3942382878649369e-02 -1.6412622431052604e+00 -3.0677111953264102e+01 2.1339482510201204e+00 -1.0936130148445955e+01 4.7265560430344067e-01 5.5985037526040651e+02 3.2422319579491159e+00 -5.1247344205621630e+00 6.2142089800225222e+01 -1.3304079005961285e+00 -4.1897725707312929e+00 -9.9424892515526153e-01 4.5038492159614179e+01 5.5767097179865232e+01 9.8957599878543988e+01 -2.1595170580446720e+03 -8.7279064523741798e+00 2.0305460591667517e+00 1.1107873922355793e+02 -2.2175240184920995e+00 -1.7430111301175202e+01 -1.7342569565673784e+00 -1.0345779325797989e+03 -1.0325563900169072e+01 -1.4930890495004860e+01 1.3912514753453434e+02 1.1031476682504717e+00 -3.4395222486336934e+01 -4.5377219730653451e-01 6.5089272546538268e+01 1.3689021430275170e+02 3.6896317764930427e+02 2.4222887524366379e+03 -9.4076473746345073e+00 -2.7185281843685516e-02 2.7051907370192930e+02 -5.0938403019727048e+00 -1.7854442817515519e+01 -3.7551917392102041e-01 -4.7126364176443894e+02 -1.3861973664708785e+01 -2.3560199288127478e+01 -2.7616487644228619e+02 -1.7108940660382359e+00 -8.4349297141161514e+00 -1.1053649362337907e+00 4.6029040740837445e+01 -1.3453314263664652e+01 -4.8876138791907579e+01 2.3962991804108024e+03 -6.8637071033228025e-02 1.1153617926640225e-01 -1.5985413833707571e+02 -2.5719319020230151e+00 -8.9367931464455381e+00 2.4722846879347887e-01 1.3588424634834519e+02 -6.3654361890434075e-01 1.4383562933793291e+02 -1.4181925913551822e+01 -2.0549100363116253e+00 -2.2322363036057276e+01 -1.4929920678878261e-01 1.1579923385012080e+01 4.0428370083594928e+01 -7.5460766944219358e+01 2.9571227882057428e+02 6.1038071424832196e-01 -7.4045074152742607e-01 -1.9479313734604511e+02 2.5051208161203249e+00 -3.4042556749045616e+00 1.3626726937695821e-01 7.5493014291801956e+01 -2.7837512202677317e-01 3.5691765601981388e+01 -4.7251655662781559e+01 6.8434436870575155e-01 -4.4256931963068382e+00 2.4978371509709696e-01 4.2305751958338078e+00 6.9157618507124425e+01 -1.5689295390981715e+02 -1.7439801104180515e+03 -1.3210225092416295e+00 1.8639342221329116e+00 4.4717494991258718e+01 1.1291272026464867e+00 -3.6407383595214924e+00 -6.7618545319474421e-01 2.0439455887378426e+02 -7.1686814736702900e+00 -1.4302111312391935e+02 5.4126677855732851e+01 4.0593655478855908e+00 -2.1274605288272141e+01 -2.1552189813505827e+01 7.5548964732265233e+01 -6.7508132829403689e+02 -2.8892520350037375e+02 4.2594520778730512e+03 1.4047915860845059e+01 -1.2363524006347848e+01 1.1250126181623345e+03 -2.4356838989051798e+01 5.0855928323331761e+02 3.2333992587161575e+01 1.1147555068425545e+04 1.0986186245014859e+02 -2.0202779873255099e+02 4.3126685887835879e+02 9.9074649265906451e+00 -1.4347110408619383e+01 1.0744059540778963e+00 4.3635383505688594e+00 -8.9212634705356209e+00 4.2916004436357753e+01 1.0705707986876369e+03 6.7294765717471705e-01 -1.3129210286494395e+00 1.4491318276907623e+02 -1.1319270639600352e+00 -2.5402317231675330e+01 -1.6274111563586615e+00 -1.4251014842348991e+03 -1.1652764653720652e+01 9.3247516499155807e+01 -9.0124181063548008e+01 1.7499940595470753e+00 9.2452309052792856e+00 -5.3379822717128489e+00 6.6250895963498436e+01 3.6749857332761167e+00 2.2871960283311120e+02 -4.4586803393889568e+02 -3.0619744869675856e+00 4.5859972511611842e+00 4.0557593084801920e+02 2.2999774526912860e+00 1.7571744080974895e+01 -1.3175043266019903e+00 -4.7141360565339778e+02 3.1205000779760894e-01 3.2981520778150298e+01 1.2635458984528498e+01 -2.1394807755304086e+00 1.9797118655423802e+01 -1.3112028325109257e+00 -7.7375224467832311e+00 -1.1745262556990258e+02 -7.2348364091012627e+01 -9.2986065161973238e+02 2.6447752301911791e+00 2.9366910724818727e+00 1.4406795733118997e+01 3.9013198422467359e+00 4.5620594841792609e+01 6.0177425796249207e-01 6.2473484932800898e+02 6.7870956916108938e+00 -2.5099147589732638e+01 -4.0498838304919514e+02 -2.3301220230943089e+00 1.2495407341695689e+01 -1.8397447071587877e+01 -2.9041513778242564e+01 -9.6938227355586633e+01 -4.3210697205076679e+02 2.2046960691494560e+03 1.4057530926939748e+01 -5.0502417785197569e+00 2.8586680811400220e+02 1.1583217904746578e+01 -2.7623818622251264e+01 -7.3955829599128720e-01 9.0851189966841503e+02 2.6832089074202628e+01 -1.4980259003198171e+01 3.3391489100264153e+02 -4.5243862001308415e+00 1.1465477206404319e+02 -2.3525905764618074e+00 -1.0448856997783878e+01 -2.6172487615491264e+01 -9.6652146471664310e+01 2.1913503833711147e+03 -1.2695320734739397e+00 -6.6410872883136340e-01 4.1002106009866111e+01 -1.9878497981091847e-01 -1.7317644597169419e+00 5.0522719141937955e-01 3.5496025671251118e+01 2.0491763010795694e-02 -1.3551692178146914e+02 1.1057689644163474e+01 -1.3137576089322920e+00 -3.6631832063812908e+00 4.8790891731388317e+00 1.0018493948497292e+02 -2.9884202694978740e+02 1.9248851068746515e+03 2.0838834491887537e+03 -7.3567742015396629e+00 -5.5716866732987311e+00 2.3616737831162754e+02 -3.1573957708858845e+01 3.7139323846640804e+02 2.4915100497083181e+01 2.2011400160728476e+03 8.2126451144827683e+01 4.4857781876207093e+02 6.2869571749281113e+02 1.4043594302873007e+01 -1.6022721406130756e+02 1.6681085584903599e-01 -1.9938833672509418e+01 3.5883335035272896e+00 3.2871515010365420e+03 6.7349539567234933e+03 2.3566807713410305e+00 9.9188339340730636e-01 -3.6449130306308524e+02 4.4700352783377184e-01 6.8041443714412253e-01 9.8611290999883749e-02 -1.0744657417417831e+04 -3.9255061777661979e+01 -2.0669862416971037e+03 -5.9958768629809674e+02 -1.1836901646934739e+00 -7.5649293757496672e-01 -1.0886290670670887e+03 
      </Row>
      <Row Index="114">
        4.7324862136480483e-01 -3.8511187013573362e+00 -5.5020475130440900e+00 7.9113652112937416e+00 -4.2447076645120978e+02 2.4183426604508895e-01 -4.3395387791649392e-02 1.2008738495950820e+02 -4.6187320225075079e-01 -2.9046116291428916e+00 -3.7423476780702458e-02 -1.9717574100177899e+01 5.8245044508519641e+01 -2.5118819447001442e+01 -5.2564245973175275e+01 -3.2581404220763943e-03 -5.7903701476370770e+00 -6.0155654205345854e-01 -4.4377021491068263e+00 -1.2924637589501799e+01 -3.3647831802372821e+00 1.5026061070710421e+02 -1.7509277926311162e-01 -2.4004478864886679e-02 1.6130302250105160e+01 -4.7977078422775321e-02 6.6291055866167881e-01 4.5967034416207753e-02 -1.5448563061170429e+01 -2.8603411464227975e+00 1.5550758489483542e+01 1.6722882942133583e+02 3.0221558643827962e-01 -3.6365062947688784e+00 5.6464345123731619e-01 3.3159619648431544e+00 2.0798643038331647e+01 3.8279673253884539e+01 2.7986367098987103e+02 -3.6739104165962999e-01 -2.2731918092654269e-01 8.9693617719924077e+01 -4.1570819865592057e-01 -2.4875882701235241e-01 1.8570025448383376e-01 1.5035327405057615e+01 -3.0600749767669186e+01 9.0983065345790237e+00 4.4305036295636091e+02 -3.1919460770905062e-01 -7.9868435973985470e+00 8.8544796717677166e-01 9.0024220045706898e+00 1.6925321293383604e+01 -1.6913871213619132e+01 1.3772771386057138e+02 4.3003760809269398e-01 2.6504368523289523e-01 1.0574222469236702e+02 2.9148272324328151e-02 -8.8031876895760419e-02 -1.2099864049399175e-01 1.5344278509353899e+01 -1.9863727077237897e+01 2.0842874184731045e+01 -1.3089884079014882e+02 -4.3874063307120692e-01 2.2677304338862410e+00 -6.1662002739967647e-01 5.1431920107133919e+00 2.2216841664208914e+01 -2.0281583693169523e+01 -1.0105701873227954e+03 -8.2086636506630839e-01 4.1657942419760974e-01 1.1667238994792569e+01 9.7715011399395735e-01 9.2606379395874683e-02 -3.4058055158243405e-01 2.6146209674509009e+01 -5.8751182775944471e+01 2.6730489105771085e+00 5.7495709112728946e+01 -4.1096043421043760e-01 1.3903072306571687e+01 -2.2904477034752002e-01 -3.1392695877875667e+00 1.1785481995546434e+01 -2.6323677473585121e+01 4.6383003890700638e+02 6.0551642258815264e-02 -4.7061899333129986e-02 1.5646546355666942e+01 4.3078023466023296e-03 -3.6537083130679093e-01 1.7786051720645113e-01 -1.1538923640910070e+00 3.7793315753166610e+01 -3.2496311946451897e+01 1.1683320891694166e+01 9.5023207362942230e-01 2.5681220953156298e+00 2.4499896778512449e+00 -4.2717117117802573e+01 9.5069658567968631e+01 -4.2175723730254686e+02 8.4866869680583477e+01 -1.1494221933819880e+01 1.9437186328394995e+00 -6.9555766622080159e+02 -3.9158562522228724e-01 2.4985293765560619e+00 -1.5748863716994321e+00 1.0986189012884515e+02 6.4200545716380407e+02 1.1834887157196096e+02 -3.0595426667026718e+03 -2.7959351933722720e-01 6.1146739717412999e+01 1.1968984137495324e+00 -3.7883083820177266e+00 -1.4171077589933127e+01 6.3485353777897640e+00 1.9713947151601315e+02 2.3616332546893748e-01 -3.5378761228882699e-01 -1.1838793754789413e+02 -7.7754158478370106e-01 -2.0378881202198436e+00 2.5968831324372932e-01 -6.1598385708262974e+01 4.7075044413398672e+01 4.7260636784628041e+01 1.2960551000248728e+00 5.9188007704871048e-01 -1.9087239855699838e+01 5.4194906353724381e-01 -5.3842791931626071e+00 4.0231259028150816e+00 4.7002251685211775e+01 -2.9148499790579081e+01 -9.8507229742580260e-01 1.3355966241663375e-01 -7.7604081138153560e+01 -2.1923451574723307e-01 1.8374685652938751e+00 8.7034499593803272e-03 -8.4753841631536773e+00 1.2334292711664318e+01 2.5861109900870360e+00 -1.8273857511968828e+02 -4.2218156545864671e-01 -2.4412456350550933e+00 -1.5672099344119483e+00 3.5891312224584055e+00 -4.8211162333880928e+00 1.7009978812624468e+01 5.1811634325981140e+02 -1.5675937329124447e+00 1.7547859897939055e-01 2.0575727483303154e+02 -7.1207019082358491e-01 1.4133487331925423e+00 2.1340910781502598e-01 9.9487724949116227e+00 3.1411227246452228e+01 -3.0660141094676703e+01 1.8221456858091892e+02 2.0956545991544551e-01 6.5753216887976436e+00 -5.7759576097711474e-01 -1.6289387682016027e+01 -7.9762073083776386e-01 -2.9679230973683872e+01 -1.4558926653421076e+02 1.2233612598617150e+00 -6.1850911543526654e-01 -1.3855886452722342e+02 1.8516529015864158e-01 5.2056009388700808e+00 -2.5677880005666509e-02 3.0451671443816508e+01 -5.4923190506335231e+01 3.6427025134760243e+00 1.2433998893623425e+01 6.7657360717810944e-01 6.2478244472050122e+00 -9.9815939740801696e-01 -4.5647002953046467e+00 -1.2261520668427693e+01 8.1194983501918614e+00 2.7425429389253259e+02 -4.8431849798164706e-01 -1.2736494247659658e-01 5.1172615383606171e+01 -3.4651491271086576e-01 -1.3235788813653926e-01 1.2086018898857276e-01 -1.4519065339001827e+01 2.1498146798171547e+01 -1.1991347331553698e+01 1.8906132898584474e+02 -7.4140782764573032e-02 -9.5238474277812202e-01 2.2358377619996692e+00 -2.1286702468968343e+01 7.5644548830011786e+01 -3.0915657735706537e+02 -2.5441943593623364e+01 -7.1341362553959087e+00 2.1035803009849401e+00 -5.5156885222101118e+02 -1.6192980438731297e-01 -5.2266884251920436e+00 -1.2874152729518118e+00 1.1472638217226138e+02 6.3351540414297756e+02 1.6529514903323152e+02 -1.6019186431326716e+03 -1.9704531169857287e-01 3.9691895089171368e+01 1.5579170234872208e-02 -2.0715628409714192e+01 2.4793546381942275e+00 -7.0599404198823436e+01 -7.1016883428810843e+01 2.4503658446961532e+00 1.0120963687910489e-02 -1.2620013235509742e+02 4.0259655070599365e-02 3.6503666944728508e-02 -6.3649883583593692e-02 1.0053385276710139e+02 -3.3361573821259032e+02 -4.0104152167507220e+02 -6.6300078742257313e+02 -1.8775235744216767e-01 3.8842631904173230e-01 4.8929147952867760e+02 
      </Row>
      <Row Index="115">
        -1.0101273997203023e+01 8.6972284509411111e+00 -3.6337406237823598e+02 6.0877010758245888e+02 1.2976013724328950e+03 -8.8630201769076393e+00 2.7082804387348425e-01 -3.2312386459758272e+02 3.4243574935354157e+00 9.0357897750072880e-01 -4.3777279564363880e-01 -1.2859254669642678e+02 1.5915283123562403e+01 -1.1544684730630252e+03 -3.7641001000296819e+02 -1.6084439123358152e+00 1.7704064076711802e+01 3.9784001628677288e+00 2.1591363598986391e+00 5.1921536430512788e+01 -1.4718661546605290e+02 -1.5227967306151986e+03 8.4400522088364944e+00 -3.8640106323013379e-01 5.3486903650321983e+02 -4.3743032978612746e+00 8.1997984206027468e+00 9.4874339672674068e-01 -1.3023662680760435e+02 -2.6869538802930037e+01 7.1450914327271084e+02 1.2769819530827226e+02 -1.3455555988119556e+00 -1.5972168642217184e+01 -1.6335839612665950e+00 3.7564812879172678e+00 5.6249025327013806e+02 1.3883130406027194e+03 -4.0944955248571932e+02 9.1932870943933267e+00 -1.0655199265484043e+00 -1.5169886977644637e+02 -5.3818516283154167e+00 1.4908606790631893e+00 6.7623325682859559e-02 1.2753229596710298e+00 -1.5661331867318950e+01 4.1709442978266452e+02 5.4223432610748569e+02 6.3589628097724926e-01 1.1176793692713545e+01 5.5147566302936895e+00 -5.3302852481841910e+01 2.7782418859672907e+02 -8.7226649643928977e+02 1.6660894232504070e+03 3.3501392319396430e+00 3.8785646669940377e-01 -2.3499295926513150e+02 -5.3861513939500014e+00 -2.1110106679755233e+01 3.8532139080231156e+00 3.1872634237184684e+01 -3.2579158943768590e+01 8.1974486479912593e+02 2.8035804422432557e+02 -8.8661210189113326e+00 -3.2142079568092811e+01 7.2906717808691610e+00 2.3343605462705455e+00 4.2982282844564179e+02 -5.3335010387317743e+02 2.5904481821358204e+03 6.2298713905361751e+00 3.2328809800178016e-01 4.2719776784069836e+01 1.4873637611808590e+00 -6.2104129733561422e+00 6.2414546296247408e-01 1.0717519925616216e+02 -3.8086356898165832e+01 9.2758430673576549e+02 3.4493368407926755e+02 -5.5256100875772063e-01 9.5838755119955295e+00 -2.9146370460797826e+00 1.1002937063683930e+01 -1.4936272898648713e+02 -8.4843768204422668e+02 9.2177350683137774e+01 -3.6105305224946278e+00 1.3785560302602562e-01 -1.5255194009807019e+02 2.6548012561095220e+00 9.2136886133594089e+00 -3.1972307965679647e-01 -5.7178342206956586e+01 4.2441758712235298e+01 -9.0788051725469995e+02 -2.4513622574618785e+02 4.7962427329032380e+00 1.0962494156821776e+01 1.4896653165037325e+01 -5.0704368654344499e+01 -1.3081771948965766e+03 -2.0825906523577578e+03 -1.4453029026612639e+03 -4.1420901708637963e+01 -8.9784907901482978e+00 -1.6986155826180516e+03 4.1267407421635625e+01 -3.4754520904327308e+01 -1.3759063900965142e+01 -2.0202770296924825e+02 1.1834882370237733e+02 1.1607901627406987e+04 -4.1508587887277672e+03 2.5193422016442561e+01 5.4618659481908367e+01 1.7135641702380084e+01 8.2985882335626115e-01 1.1223662073814512e+02 7.5321305060428699e+01 8.5009052738547325e+01 1.6042407639964402e+01 -2.9387675431083977e+00 3.1100104018976072e+02 -3.8938014229545619e+00 3.4719910269017795e-01 2.5500862012151826e-01 -4.9595774717506629e+00 3.1653553437969094e+01 7.3969216868499325e+02 1.3523501011928327e+03 5.2416064316120448e-02 -8.3140710522512720e+00 -3.3893107172355048e+00 -5.6499608408245592e+01 -1.2560489046459406e+02 9.0704135383238554e+02 6.8822896982356906e+02 -3.7783765324930130e-01 2.2938163412764982e+00 2.3366425105265807e+02 3.8680552911906059e+00 4.4149787087358163e+00 -2.1917187994786683e-01 6.2917113869009654e+01 1.5186765624642362e+01 3.0220080995041644e+02 -4.3035792567073599e+02 1.0860937613490353e+00 1.3509980700806921e+01 -3.2281795537038196e+00 -2.2014957598971250e+01 -3.5126403385079681e+02 4.8133724022685783e+02 -6.0225151696801186e+02 -6.4081099927390426e+00 1.1276296041593241e+00 -1.6525021411209968e+02 6.3357395702152592e+00 -3.3548470563291630e+00 -8.7412070111425777e-01 4.0233030291392424e+01 6.2612937835958746e+00 -2.1602328248047871e+02 -1.1534480990257662e+03 3.2770049347890193e+00 4.1773420777990758e+01 -3.6417808199553875e+01 -1.0936097856990695e+02 -1.7748763995154177e+03 2.7591059160139821e+01 1.4779656210103021e+03 -4.4278648555810648e+01 -1.7128067253966277e+00 -4.6129201703289255e+02 2.2273251593762730e+01 -3.0078812383996663e+01 -1.6454719383796615e+01 -4.9011556427777850e+02 -4.8948075961855963e+01 7.4713669985889783e+02 -2.5013375175480933e+03 4.0970713028340011e+00 2.2549669949051122e+01 -3.1845967394347099e+00 4.9713295950423344e+00 -2.1591744128020946e+02 -2.5995577554078773e+02 -9.3482016671821475e+02 3.8829078716737371e+00 -2.7708647477153026e-01 -1.5831256347044837e+02 5.1644090758123617e-01 5.6566452811057388e+00 -7.4645759046542537e-01 -4.2979303893866017e+01 1.9867664064880046e+01 -6.0959775401279330e+01 -9.6717413349193521e+01 2.0428216179415699e+00 -4.0820769430156361e+00 3.2146696956679307e+01 4.7917138668947786e+01 5.2504432636508636e+02 -5.1884231465977582e+03 1.2271352614454481e+03 3.2783980077339656e+00 -4.2662266108713034e+00 -1.0648239335546969e+03 5.4830625723215007e+00 -1.6137840022312986e+00 7.6708149535088523e+00 -2.0717731432981245e+03 1.1813256099423859e+02 1.3503050772890565e+04 -1.0267882713632214e+03 1.1001028486511824e+01 -1.6825105206650523e+01 3.5714210405511437e-01 2.5351867745732573e+01 5.4939856772293211e+01 -8.7511288100711317e+03 -1.0793198233227493e+04 -7.4263897167596751e+00 7.4934397589632340e-01 -1.1464310673983509e+03 6.1555579964212370e-01 1.2974025898996899e-01 -1.3468729251457034e-01 -3.8509725163981216e+03 -1.2808879637239238e+02 -2.1924785011669035e+04 4.1063846036311702e+01 -3.1189730776931635e-01 8.6421817842792414e-01 4.9824432382272755e+02 
      </Row>
      <Row Index="116">
        -3.4698927685149110e+00 -1.1639272906235419e+01 -5.2282509335316718e+01 -5.5253721563657746e+02 -7.2507858008593321e+03 2.3933287475738325e+00 -4.0374994478526247e+00 3.6809044653177261e+02 -1.0881182832788280e+01 1.2514811990084127e+01 2.4659275791636901e+00 1.4792728028501733e+02 -6.9952429755823687e+01 -3.1151523502636701e+02 5.0096581972497515e+03 -3.6414559242475661e+00 -1.7780149496742524e+01 4.0862438033800572e+00 1.2847481548436917e+01 5.9759144086949527e+02 3.9186790468916297e+02 -4.1256263060569763e+03 -2.6061024908409820e+00 -3.0128167305565512e-01 2.6855206899694167e+02 5.5431325801655476e+00 -8.9842256738338619e+00 -1.9375821636349428e+00 -2.4936915105307116e+02 1.3125545250414871e+02 -2.3675247829899308e+02 -1.8298790925294161e+03 -4.5329614447955464e+00 3.0555734509893227e+01 8.4911481492163148e+00 1.5435059526935220e+00 1.2390590178268030e+02 -2.1882202802598476e+02 6.2160519428253174e+03 7.0851251789572416e+00 1.3282135284680407e+00 1.7446367071866989e+03 1.1900493760840618e+01 -1.3589592919452116e+01 -2.2966123708119994e+00 -5.5439477647654712e+01 1.7010150458151475e+02 1.6558331728586927e+02 -3.8083973598293960e+02 4.1838220512145199e+00 5.1175543229328468e+01 -7.1618227608727238e+00 2.6128236359101720e+01 1.0880121806543320e+02 3.6762440987303853e+02 -7.0770577061176300e+03 -2.4951966033875610e+01 -4.2038193060089668e-01 1.1390971139073372e+01 1.5627959115879406e+00 -1.1678622549364377e+01 4.5468346811322524e+00 1.8019368152029347e+02 -1.6997095615553849e+02 1.3416801394103095e+02 -2.0193015050441027e+03 3.5177300043737816e+00 2.5066857312435104e+01 1.2106211879712646e+01 6.1432902583619580e+00 2.9295920009957626e+02 5.5997623627632856e+02 -8.0942060400247574e+03 5.0555390494519088e+00 1.6726765388380471e-01 6.5036175911501050e+02 -1.2368214445217745e+01 2.7294034888036549e+00 -4.0547230856973329e+00 2.2252048782072961e+01 -7.3298408032860607e+01 4.5368590218597092e+01 -1.4936690965304151e+03 -4.0238601090095472e+00 -1.3446123429441286e+01 2.2678694696766293e+00 -7.2275451403111219e+00 -4.2284419459896162e+02 2.2125484102778137e+02 2.5657060037851334e+03 4.3407051906397101e+00 -1.1377240314632218e+00 5.6744271450163797e+02 -6.5947292518831091e+00 -1.1514044109033421e+01 -1.8812177129096526e+00 3.0677704614587128e+01 6.5267590828447283e+01 1.2800819705519825e+02 1.9575377404820174e+03 -2.1919378048914950e-01 -3.1364289646036923e+01 5.2223760193880310e+01 2.3784582306790003e+02 1.9033706994473596e+02 5.6294388497080654e+03 5.1559570391178131e+03 4.4541425941685452e+02 -4.4359443802706133e-01 -2.0395511964452366e+04 2.3506203803423631e+01 2.4082747038507250e+02 -5.2016760354230065e+01 4.3126511178275041e+02 -3.0595427208039778e+03 -4.1508618788465528e+03 1.4418397227684528e+05 -5.2667815603420422e+01 -9.8528431601575505e+01 -2.5071594463939380e+01 4.7780562789840815e+01 -5.4760960681273582e+02 1.7086226907255957e+02 -3.7581478133201599e+03 -2.3432984621113633e+00 -5.6269787864648961e+00 -1.9879761890030713e+03 1.0245133023087348e+01 -5.2487207079921518e+01 -1.1895465203294364e+00 -2.4682439827903363e+02 2.4338062160066329e+02 5.4924672545911744e+02 -2.5373764332557344e+03 2.3421259132741845e-01 2.4658154774250420e+01 -8.9543387833033243e+00 2.9562522659915771e+01 -5.0311566883884370e+02 -7.4571227493047445e+02 -4.3985623122453690e+03 3.7018067179414899e+01 1.7355955658831483e+00 -1.9121074763536453e+03 -3.0772782582858311e+00 2.6230349808713072e+01 -2.6054490779386477e+00 1.0926423773815691e+02 -1.7737580200179517e+02 -1.7889424418099225e+01 7.1750909329626393e+03 1.3098907578816075e+00 -4.0127248499960722e+01 1.5149064003737083e+01 5.0456036659920073e+01 1.7262433114090720e+02 -3.6187223253212869e+02 -3.8828935980796814e+01 3.9077025760448691e+01 1.0294213884164730e+01 -1.0041052237318754e+03 1.1899386979436656e+01 2.1429540344687723e+01 -5.4131307864146230e+00 -2.3258935831254348e+01 7.6024250214438894e+01 -3.7136327158596509e+02 1.0512976451539194e+04 -3.4092060868090073e+00 -2.9259033164153550e+01 4.5513765409783900e+01 7.0350433390364714e+01 -7.9538200101504162e+02 -3.2617738173547843e+02 -6.1208491086655704e+03 -3.2649446420256822e-01 2.7927857424339564e+00 -5.2254077806796549e+03 -1.8330078783563977e+01 1.0980214691866195e+02 9.1910514352895802e+00 7.3317604441087133e+02 -3.8043764691559545e+02 -1.5167776472289124e+03 7.4654009293175041e+03 -3.5207288297359369e+00 5.0955497623147721e+01 5.2992640054435469e-01 2.1607006228296086e+01 -2.1395924718212336e+02 -2.1348273733258247e+02 -3.5710516953468323e+03 2.8481610158742569e+01 8.6213203381329251e-01 -4.2924719029106200e+02 -1.0828692821489128e-01 -4.4978102486347780e+00 -1.4710235325537724e+00 4.2882351055741310e+01 8.8630179486412089e+01 -2.1969271166622639e+02 1.6880058606974781e+03 -6.0096083521966648e-01 5.7213218407996465e+00 -7.5330737564259564e-01 7.7515511790670431e+01 1.2473082844595590e+03 5.4505080936554077e+03 -5.1993576212484149e+03 2.7760125972898493e+02 -7.7807036364932172e+00 1.5079972743578255e+03 2.1977901012817512e+01 7.6544349325973428e+01 -3.7673538536016096e+01 -2.3118899360892879e+03 -2.3950556121986538e+03 -2.6313594808714661e+03 6.9791201232437626e+04 -3.6288232792311256e+01 -1.0931277517564729e+02 -7.5629416812262207e-02 -5.1024059479421510e+01 -3.5420971710709459e+01 3.1929274964914762e+03 4.0640546983162612e+03 -4.2025732287023843e+01 1.7840225899799407e+00 1.7797922643214355e+04 -1.9307723508200070e+00 6.2959737034006480e-01 7.8313404668915609e-01 -3.7210535481198494e+03 2.9557286283389715e+02 1.2724575474492599e+03 3.5552094030731816e+04 1.7745611406508413e+00 -2.4460603213446115e+00 -2.0353910920375642e+04 
      </Row>
      <Row Index="117">
        -4.5779709576552974e-02 9.1891997312075091e-02 4.8999017202459072e-01 2.8713177433216970e+00 -1.7871084694925230e+00 2.1941426323795810e-02 2.5318205082788647e-02 2.7508955727935245e+00 -2.9940576427772619e-02 -6.5407702574134419e-02 -3.2161080261714936e-01 9.6441060477528140e-01 1.5365623527077332e-01 5.3265595890134136e+00 -3.2044734748460542e+00 -5.0974881967958652e-01 1.8564254951274961e-01 -6.6901937199176587e-02 -3.6285942294583151e-02 -2.0371299524185815e-02 -4.5905398813374632e-02 -1.8323628907091916e+00 -4.2474562629160717e-02 1.9626837197579017e-02 2.0431595396377134e+00 -1.1854090633382164e-01 1.3776228468645968e-01 -8.6730245339339263e-02 1.4435608532701849e+00 -1.0131427844436303e-01 -8.5683347918047303e+00 1.0620219860515135e+01 6.7564938041897671e-01 -7.3623686244999931e-02 1.4916128262416350e-01 7.3594740507587630e-04 -7.5838142739371506e-01 7.8206097312140628e+00 4.7702833356452174e+00 -3.5537360070108548e-02 3.4735857520480806e-02 -1.8272997340827715e+00 2.7545098572417714e-01 -2.8708992065185157e-01 1.1406377197490070e-01 -2.3476456944695201e-01 -1.0702775936795206e-01 5.6947816308079382e+00 1.1679761958349445e+01 -1.7757631800675426e+00 -7.9184502527596123e-01 7.7941545943071233e-02 1.3953623784939850e-01 1.5381295753943505e+00 -3.7943570670922782e+00 -1.3241655543213710e+01 3.3662245627077578e-02 -2.2576224721768012e-02 2.8239196354697924e+00 9.5163011013955412e-02 1.8732157258303062e-01 5.0543174553030645e-02 -5.2119968474187317e-02 -2.0652680722093919e-01 -9.3028522470590360e+00 2.6495989480717981e+00 -3.7528939223691793e-01 -5.2644713741964733e-01 -1.2234400482260810e-01 1.4435138095740285e-01 -5.8006639509744673e-01 -1.5563465798968537e+00 7.5073015350499190e+00 -3.9390392436795096e-02 -1.7081663145270501e-02 -9.7080812449712539e-01 -6.2929904181757479e-02 9.1207371885161592e-02 -1.2775101749548412e-01 1.0208075529408234e-01 -1.9052255678218444e-01 -4.1120833909366041e+00 7.7320042552905761e+00 6.5665036427961354e-01 3.2859799044967275e-01 -3.4812888121078966e-02 -6.8073271006369396e-02 1.8904168896129931e+00 -6.8452775313962775e+00 -1.3699778529058676e+01 2.3212968396109090e-02 -4.5709734930525769e-02 3.4131273055351130e+00 -7.2315895419016840e-02 -2.4665231600795323e-01 2.9129296628564161e-01 -1.1996096976145054e-01 1.1569489064896210e-01 -3.1616681804548534e+00 -3.8774057567143245e+00 1.8495104575580257e+00 6.9401234877693696e-01 3.6179041943561292e+00 4.7994197446520026e-01 1.1100611289774648e+01 1.0678810647984392e+01 1.1199934281175956e+00 -7.9180333940065017e-01 -5.1258244406756615e-01 -2.3302278518175399e+00 -8.2302243265455788e-01 3.7565864590552303e+00 2.7085286925389731e+00 9.9074639794341834e+00 -2.7959359752691171e-01 2.5193421828226050e+01 -5.2667810908452395e+01 9.7993600689507812e+00 -2.7215506560627603e+00 2.5504901847464850e-01 -1.2037911267855433e-01 -1.3235246374187781e-01 3.9903876830822540e+00 1.0639027385041118e+00 5.8287660001185015e-02 6.0031536225002957e-02 -2.5955769471431722e-01 1.9666185673158865e-02 1.2165639239057824e-01 1.8192813062946336e-01 1.0284444553526342e+00 -6.5862700847674205e-02 -6.3954482259064207e+00 -1.2896893553115234e+01 -2.6293419792333883e-01 -7.4309064326488361e-01 1.4318129073377150e-02 -9.3525144513144198e-02 1.1593009362532030e+00 9.7901308191199803e+00 1.8653681998257525e+00 -2.5545113483904647e-02 -4.9986873550686824e-02 -2.5613320583797758e+00 3.6345248135498665e-02 -2.6357952421756181e-01 3.9310550404585171e-01 -1.4855505489682344e+00 6.0490103585614463e-02 4.1154718255997977e+00 -4.2768981439749041e+00 -1.9110045923631480e-01 -8.7905692858109408e-01 -1.1369317249712019e-01 6.4975535298088971e-02 1.8826381491028599e-01 1.2885247132544464e+00 -1.4193127470847685e+01 -9.0064940362952428e-02 -8.2763338700650585e-02 6.5377686645582571e+00 -2.1578665757937673e-01 2.6628799278186577e-01 -6.3720414192709574e-02 -1.1662424464619505e+00 -1.7086256122611587e-01 3.2283817694036401e+00 1.1825137004113799e+01 1.2288745746326004e+00 7.7324121855246197e-01 -8.4474792489677619e-01 -2.9398290854199871e-01 4.4133044095765115e+00 6.7820486078485800e+00 8.5032988552052018e+00 3.9296187565565077e-02 1.2429308995696836e-01 7.3563871013189441e+00 -2.1601676974382711e-01 -4.1350696290605526e-01 -1.5749211552107945e+00 -4.2229838622617990e+00 6.8427667051082552e-01 9.1045997170149349e+00 -3.6665172219986175e+00 -5.6709218481602086e-01 6.1865830371076314e-01 -1.9619479772526915e-01 -6.0055684909457341e-02 -1.3625360153173460e+00 -3.7829387239471544e+00 1.2619533725664951e+01 -2.3125017659626712e-02 -1.1010609324954707e-03 1.9864205759467950e+00 6.8861165946762504e-02 4.6145955145561857e-02 2.4433136209160100e-02 -1.0619684667835827e-01 -8.3658111146007741e-03 8.4748649277753429e+00 -5.1034615874650626e+00 -4.6077822721562622e-01 -2.9581975651706216e-01 3.2406873819445563e+00 8.2505938605181495e-01 4.3476631478796577e+00 7.9049849934619942e-02 7.5720347319595476e+00 -5.6142175948313300e-01 -4.7808080125931385e-01 -1.0728036695636547e+00 -4.2194146038196334e-01 3.2037267617246314e+00 3.1846049149467928e+00 7.4715191450981671e+00 -1.3103292991946058e-01 2.4501805658848959e+01 -1.6047745630028757e+01 9.1163496520100349e+00 -2.3744505193614329e+00 9.2310310158754127e-03 1.3102673060878178e-01 1.0313341284288114e-02 -6.4288782735205148e+00 3.7981285701201575e+00 6.6590349396989934e-02 -2.4114190923444134e-02 2.0705200945173406e+01 -2.9702162470428561e-03 -5.7129453753512749e-03 -1.4101816487463115e-01 -7.8808521379169347e+00 -1.2859079450483550e+00 -2.3670857698109671e+01 -3.5150941410863679e+00 -5.5243143690986685e-01 2.2590979018402953e-02 1.1996768671128299e+01 
      </Row>
      <Row Index="118">
        9.0724499329690933e-01 -4.2804647643167755e+00 -1.9005615171263344e+00 -3.0001672173233601e+01 -1.5114314079907490e+02 -2.5037062318762082e-01 -7.4287923663637234e-02 -2.2065953319575783e+01 7.5030110707822217e-01 1.5623176420413074e+00 -4.7270542694363371e-02 -9.4236580592606742e+00 -3.3498970797950278e+00 -6.9391048010038503e+00 3.4954408181756662e+00 -4.1052941207721005e-01 6.1318470839726160e+00 1.3069046531851995e+00 -1.9824142953875707e+00 -1.9348889041384609e+00 -1.5723591569214477e+01 -7.5230886486358941e+01 -1.4747392757972477e-01 -1.8290372872129979e-01 -2.7160637710183437e+01 -7.5835030938691261e-03 -7.9566011383667501e-01 -6.3625407177568150e-02 -2.9199012773783011e+01 -1.2703355211815506e+00 -7.4180008301380553e+00 -1.0430402586312994e+01 -7.3734309482166083e-02 -1.7187671051486291e+00 -8.1609745958672875e-01 -9.0667458391840228e-01 9.3606445375244220e+00 4.8665494570508599e+01 2.3879007362271659e+02 1.6793809336121512e-01 -3.0950011207804096e-01 -2.7133863909519278e+01 -2.6006789360154698e+00 9.0230441294943375e-01 2.9502687181477683e-01 -3.3910097419702652e+00 -7.7692844308649001e-01 -4.8772220349155759e+00 -5.1411786090797250e+01 4.4349527894922858e-01 5.1400967056592890e+00 2.8375790968685877e-01 5.7236243438750307e+00 -1.5720475035786876e+00 4.0452330173655355e+01 7.9444950312376022e+01 -2.9005429513163428e-01 -7.1139097198283707e-02 -3.8320945607876638e+01 -1.0955721530152083e+00 1.9466370627196667e+00 5.5343839069844636e-03 -2.6425568889019360e+00 9.5900915255590746e-01 -2.5279827311960616e+00 2.2100561321058194e+01 -1.7008935926056812e-01 -1.3895380599441829e+01 3.1442944743389489e-01 1.6522801762312156e+00 5.4380955975684628e+00 -1.8100475853301759e+01 -2.4464959497679956e+02 1.2338878093721917e-02 -1.2073527323735578e-01 -1.4150192595770932e+00 1.6635171001120170e+00 5.3470082453350187e-01 -7.4390404903581953e-02 2.1631090788905567e+00 6.2830730482810395e+00 1.3421749958068290e+00 -1.6652571034343055e+01 -2.1949823319604889e-01 -2.9070661534620399e+00 -1.9538986592337193e-01 -6.5996327024822676e-01 4.7056334646574669e+00 -4.0685091911294876e+01 -1.2336032672226429e+02 1.7259133477665500e-02 3.4816644131133856e-01 -1.7429147189241121e+01 1.7656101955858787e+00 -1.7523080514615685e-01 -4.7158002377418740e-02 -2.5092477465750562e+00 -1.4428277925414577e+00 4.7225010461143029e+00 -4.5860144971738919e+00 3.6994263099786906e-01 -9.7574222811572326e+00 4.6094983868841091e+00 2.1012190026379493e+01 -3.8122040274317712e+01 -1.2878987491296102e+03 -1.0062550732772797e+02 4.2638484834803076e+00 -1.3165850496888075e+01 2.2858702271761194e+02 2.8816346771452555e+00 -6.5500687566444256e+01 6.6984573169310480e+00 -1.4347101074598839e+01 6.1146740429821818e+01 5.4618684468520456e+01 -9.8528449545402850e+01 -2.7215506349652290e+00 3.8490830251769876e+02 -2.5065556960203788e+00 9.6012095185838220e-01 -1.7523967913024450e+00 -1.8709157141891836e+01 -4.0952674043597654e+01 -5.0526779243437181e-02 1.2197434800852533e-01 5.5729493351831366e+01 -1.2308298205369983e+00 4.2462282866671348e+00 -8.3551965563070790e-02 -2.5026082071378575e+01 -6.2986313326534855e+00 2.9910753836556978e+00 1.9573239893246580e+01 5.4101901065314928e-01 8.8194742573177649e+00 1.0029499307962828e+00 1.7786734355636433e+00 -5.5002291537443853e+00 -1.1554887063015030e+01 4.0468196077272296e+00 7.6170786966779147e-02 1.1009090095844809e+00 2.2727353484158812e+01 5.1467423523387834e-01 -1.0907930348390380e+00 1.6429346893121327e-01 -4.8746008474262226e+00 -2.5797819458278504e-01 1.0940743172926886e+01 -1.7242464801118331e+01 1.7545644320250942e-01 1.2660778132391407e+01 -6.7477172569352373e-01 5.6284807982286793e+00 -1.2843219434132095e+01 -1.1817127017347957e+00 1.8250356507720426e+01 3.0870197887707018e-01 7.2493048164375828e-01 -4.4423259736030154e+00 7.0417680129238303e-01 -3.0898486888606982e+00 -1.6656263518812192e-01 2.5064077116866201e+01 6.2499329067333775e-01 2.7056191106758320e+01 -9.4330562587292775e+01 -1.7963041910036370e-01 -3.9400750113542458e+00 5.7688873999952150e+00 4.9760150323856731e+00 -2.4408463374369944e+01 5.8424988113827766e+01 2.6526234215161821e+00 2.1292034289214357e-01 8.2041367985547309e-01 -3.7811296444565187e+01 2.9154112306756730e-01 9.5122922868052058e+00 -1.3825641406984026e+00 6.9364233432490892e+01 -4.9884856016601447e+00 1.5352850532791308e+01 3.0757218871018154e+01 -2.8798188216149878e-02 -3.6372772045433024e+01 8.8872810595677265e-01 2.8639011344375831e+00 -1.0411986602521210e+00 -6.3627119073644280e+00 -9.0383896900340915e+01 6.3579558917174595e-02 -1.8657029912890311e-02 1.0077184897600091e+01 6.1250421819666001e-01 -7.0553671958282393e-01 -4.6078818768195973e-03 3.2734895905887242e+00 -1.6919741279291998e+00 -3.7077297352370806e+00 -2.8409292977667064e+01 -3.6641543923434838e-01 -6.1616566807730919e+00 1.0621968357640927e+00 2.5016504877975194e+00 5.6545940145963414e+00 -1.0620230626387215e+03 6.8200397126580356e+01 2.4251890136459870e+00 -1.1066646246125167e+01 6.3553528666448983e+01 2.7729200206352758e+00 -5.6070753541027692e+01 6.2131002298340343e+00 -6.0792896267437442e+00 4.9067588498128153e+01 -7.1363980074890023e+01 -4.0977401668762440e+01 -2.1608856639154341e+00 3.0688349704671145e+02 -8.6423019352383612e-02 -2.2880737380602596e+01 4.9017075014210398e-01 -1.2638990790351824e+02 8.1062269469623544e+01 -2.6772415217228662e-01 2.2844891468805528e-01 -2.1404522075461165e+02 2.6226981053423515e-01 -8.3584507132465014e-02 -2.2253834212865087e-02 1.1539176259989573e+02 1.0540013314153480e+01 1.9673381746096709e+02 -7.7221110654697100e+01 -6.5790479688124792e-02 -7.8290696715076002e-01 -4.2422523376875787e+01 
      </Row>
      <Row Index="119">
        6.5772943672943285e-02 7.0447141656550372e-01 1.1188698791024763e+00 8.9445449582080698e+00 -4.1059301595087163e+01 -1.7953001496732224e-01 1.6205936540795146e-01 2.6037625375377047e+00 7.6060420917352101e-03 -1.5131345408249501e+00 -1.0994800806435601e-01 4.9927219722877592e+00 2.1272420751850518e-01 -2.1670676395236796e+00 -4.5263979309557669e+00 -1.2668922377612724e-01 3.3081510850835727e-01 -3.8176437277889068e+00 -2.1393317800272271e-01 3.2351500985649864e+00 1.2104891019920387e+00 3.4795921149489004e+00 2.9885990971249976e-01 -1.0900109056214169e-01 1.9114838616212637e-01 -6.6736423248199728e-02 5.9864688574785418e-01 -6.7398093984786911e-02 -1.3162166396132129e+00 -6.0795137368461383e-01 3.3279749974116921e+00 1.7818434651825328e+01 3.4474487797842840e-01 -8.2865158051068022e-01 3.8187628811179763e-01 -7.1137089934246944e-01 -1.3048191751298646e+00 8.4322862006456489e+00 1.1960168662073556e+01 3.0659673374302976e-01 1.8989111802761016e-01 -3.0212865127768964e+00 9.0264033919300601e-02 3.7798293961483864e-01 1.8957809738735731e-02 6.5171782561716611e+00 -2.7027573697840523e-01 1.2084584408475507e+00 1.1332353292974062e+01 -3.6694441238693720e-01 -2.0547999877657332e+00 -2.3079303865341259e+00 -1.7393638461923864e+00 2.1142868784372979e+00 -7.4265807675443511e+00 -4.4088324742624536e+01 -3.3338176726822843e-01 -1.7551707741331246e-01 3.7216635561271687e+00 -2.5234771581878579e-01 -1.7859650568082910e+00 1.6101658204422664e-03 2.4336351110182122e+00 2.5753677804121544e-01 5.4376867606152928e+00 -2.4942657973897440e+00 1.7722840399552520e-02 3.2392035285662146e-03 -6.9467105098356186e-01 -6.4073886075847497e-01 -1.5804578126265199e+00 -1.6051710194046791e+00 5.6068467068886093e+01 1.5190164702382036e-01 6.9034573171215419e-02 1.5757978725696375e+00 -4.3425946973922436e-02 -2.7558953867433189e+00 -1.2562625062941812e-03 -1.1608827416517897e-01 -4.1811016247352484e-01 2.9142642044320208e+00 1.7601521590072707e+01 1.2372284188883587e-01 7.3520298028690045e-01 1.0375299038813179e-01 3.2586376578802856e-01 -4.0522107732189738e-01 -7.4065438405581290e+00 1.3646457801674842e+01 -5.2192507064116711e-02 -9.4934022745818192e-02 -3.0028509148390157e+00 -1.8385737590696394e-02 -8.8142998786435811e-01 1.4156988265088943e-01 4.8863406185706708e+00 4.8443499609130725e-01 -4.1664574418964264e+00 -8.7583209353854272e+00 3.8241855768921695e-01 2.5429832728948725e+00 -2.5000229851773765e+00 1.1909296548400747e+00 -3.4510125236286093e+00 7.4823284054568830e+00 -2.2058490838011494e+01 -3.9056841653373908e-01 -1.0555175438106118e-01 1.2972296513805588e+01 -3.1793110179838890e-01 3.0310277557156566e+00 -8.9577535589554058e-02 1.0744048639465547e+00 1.1968982876185339e+00 1.7135637558003566e+01 -2.5071590947307385e+01 2.5504901193815965e-01 -2.5065557198694997e+00 9.3541497026091580e+00 -9.3492956866163723e-01 7.6404352286201842e+00 7.7061568827338647e+00 1.7568772362224991e+01 -9.5359056123426017e-02 -2.6311188936172414e-01 3.7216590051866660e-01 -3.2805101958843064e-01 -3.5144845583358917e+00 1.6970761716223470e-03 -3.5290032394100024e+00 4.3268594306123020e-01 3.5862664666737487e+00 5.3447776033734726e+00 2.3781935291611261e-01 -8.1426704310242004e-01 -3.4497269598144173e+00 -1.4910349582140601e+00 2.0857890644960548e+00 1.3281064765954085e+01 3.8792945182722178e+01 6.1694478886162474e-02 -3.3907653850284780e-01 -5.9658447328840793e+00 -1.2837277580863005e-01 3.7423822665644781e+00 1.1967713006851649e-02 -2.6000712637615067e+00 1.4421177272281227e-01 1.7376870232806709e+00 -1.9419003593035313e+00 6.2034605054978265e-02 -4.7949463424215777e+00 2.7565542330819959e-01 9.4615360962635009e-02 2.7073217952761297e-02 -3.2048423950917595e+00 -2.2114049921801779e+00 2.6779739550801956e-02 -2.7983097872811169e-01 2.8455700756362745e+00 -1.1822087753686872e-01 2.8713669829865971e+00 -4.8314450695659004e-02 3.5214998550170811e+00 3.1579732761087875e-01 2.9045291833957805e+00 -9.3468827656774067e+00 1.7722434317203140e-01 6.2749983783556740e-01 -1.4591719839933388e+00 7.9133514717508646e-01 -6.8184742316437674e+00 2.7605047183455575e+01 3.2408932731990717e+01 -1.0958931372586536e+00 -2.9360910732419332e-01 -3.3024560388630491e+00 -4.1174371708501445e-01 -2.1024887400350059e+00 -3.3150075979032323e-01 -1.8811099949824310e+01 -1.7959942230718908e+00 -4.0170091791401319e+00 -8.9109035942736732e+00 4.5812567982089147e-01 -3.1904591735908543e+00 -2.3579632788625968e+00 -6.6022746921191811e-02 2.1742963058607074e+00 4.8328251981183712e+00 -5.8157618455443298e+00 4.0944837031307979e-01 -1.3937845123753220e-01 -2.4178243861396140e+00 -1.4714586315420242e-01 -1.5733396183646704e+00 -3.1754690859273349e-02 -5.0831296613168888e+00 1.6736218698754968e-01 8.0733362330101954e-01 2.7160710670148092e+00 1.1204177699750673e-01 -5.3035220280055029e-01 -8.3376573995999017e+00 1.0835280037618815e+00 -4.0556273817167288e-01 -2.2179378012359372e+01 3.2786519900196708e+01 7.2372341244840876e-01 4.6802552199204850e-01 2.7171913668284787e+01 2.7992829971413169e-01 4.3892801251504210e-01 2.3169965584943664e-01 1.8943937994176018e+01 3.4996949954500303e+00 3.0772042598815109e+01 -8.4327792689452821e+00 -7.5121827651369877e-03 2.6676740798057708e+00 2.1163210503007068e-01 3.3178335861742987e+00 -2.9118927113140314e-01 -9.4992170451960583e+00 -6.0039299002709456e+01 -4.4012482228600858e-01 -1.3802784575658900e-01 2.6491320637858024e+01 2.6308513329523775e-03 1.4051495381516443e-01 -4.9913512538644622e-02 9.0722969714916069e+00 -2.9753231134721121e+00 -6.9295163307396962e+01 2.2540662582016132e+01 -1.0281242679307470e-01 1.3070214378182166e-01 1.5107240968922726e+00 
      </Row>
      <Row Index="120">
        -6.8961647788055580e-02 -1.7629117038155016e+01 -1.1642567032731677e+00 -1.2897847385961086e+01 -2.1756800435780315e+02 2.1062159260793578e-02 -1.4937919396121763e-01 5.4168999811099638e+00 4.2771662655085585e-03 -4.4436065077911735e-01 1.2298480150469970e-03 1.2618166726268782e+00 2.5463976785026716e+00 -3.7884954743703929e+00 -3.6751870645093732e+00 6.2495943085237116e-01 -3.0200189866718574e-02 4.0422651909639740e-01 5.7100558290168948e+00 4.2426221249456830e+00 -3.3338023960477585e+00 8.4702738889027387e+01 2.8314474602341860e-01 7.1256666465245644e-02 7.5706437812814329e+00 1.9989414463779198e-01 -1.0660465061484956e+00 4.6155945475661042e-02 -2.8100122752188923e+01 -3.2470077055995716e+00 -8.1533118035518157e+00 6.1174372536079318e+00 -2.6388470236376449e-01 4.8322430207693401e-01 1.0950110213346420e-01 5.9763021413467072e+00 1.4208588072760904e+00 -1.1898130789530114e+01 1.8475940012143110e+02 2.1873500887379294e-01 -1.9803318443931062e-01 2.7059212470681814e+01 7.4210410946348304e-01 -2.0666181397666605e-01 -1.6788475698125715e-01 -1.7165873193080188e+01 -9.3196005823779160e-01 -4.4750036303289562e+00 3.6300960249365744e+01 6.1814799064316617e-01 1.7819769417646967e+00 6.3902810885521300e-02 1.4064888705461243e+01 1.0136748743775570e+00 1.4025938458022210e+01 -3.1554570153530221e+02 -5.6209208646597286e-01 -9.9363379002469533e-03 2.0299423112010118e+00 4.3430035738562800e-03 3.9489967684190219e-01 9.7281095698714126e-03 -4.7819516120666776e+00 8.0309198965084025e+00 3.7976188113912031e+00 -1.8575054650529637e+01 -3.4723686164331302e-02 2.5175246328898593e-01 -1.6862525490267899e-02 1.5008314771716869e+00 1.5223783335368353e+00 7.7548419362847198e+00 -9.1354739106376655e+01 -2.3970046755187369e-01 2.1784199796136550e-03 1.8467515901789739e+01 -1.2535916879332092e+00 8.3716535589178420e-01 -1.2023593828722312e-02 2.1519575442807763e+00 -7.6012448816657070e+00 6.1663131873001475e+00 1.1241782772513034e+00 -1.9584392754950386e-02 -2.8061288766956078e+00 -5.2149811826250769e-01 -4.0098731845250768e+00 -3.3582802519030110e+00 9.1161599305469281e+00 1.0516555005533155e+02 6.4864109633035127e-02 2.0151375302210184e-01 -7.1626040497449139e+00 -5.1164156219276435e-01 2.1168094716131236e-01 1.4569595527692714e-01 -3.5232957745984095e+00 4.8279228663017157e+00 2.3111675119098436e+00 1.0353976833830529e+00 -1.0417848201373729e+00 -1.5135219679918919e+00 1.0158493775997117e+00 -2.7492887157109482e+01 -6.3108800951093933e+00 -4.7945270501666528e+01 -3.3480789773282595e+01 2.1408608160883549e-01 3.8742899577761052e-02 4.8227690518507970e+01 -4.3025195356528206e-01 -9.9850906627267477e-02 1.8836070065724703e-01 4.3635425856004986e+00 -3.7883080126815045e+00 8.2986246813484321e-01 4.7780547166397604e+01 -1.2037910343300329e-01 9.6012096795392488e-01 -9.3492958176498553e-01 6.0982355898572095e+01 4.5307810632083090e-01 -7.2083905485914288e+00 -3.2795069847814739e+02 9.4720368216604722e-01 -2.6846556362872204e-01 -4.1994045497710999e+01 8.4661553041190440e-02 -2.1984872015531778e+00 2.0769478410618342e-02 1.3287132248262196e+01 4.3618693215190660e+00 -1.2044604633432300e+01 5.1637509588191449e+01 3.1280018059533921e-01 2.1643683481378764e+00 -6.1902671190625602e-01 1.1806936907115997e+00 -7.7969224700568702e+00 -6.5495636353906548e+00 -1.8725367667386308e+01 -2.2474872024956599e-01 -1.2913401332541977e-01 6.6009540543782350e+00 -3.0518036755269345e-01 2.3744804977871041e+00 -1.1943528031291301e-01 -2.2186762177707664e+01 1.0745334187662175e+01 1.9469189483791524e+01 -3.2339740355080721e+01 -4.7144233277399339e-01 -3.2557443183882127e+00 1.3711165670301889e-01 -9.1357374893743799e+00 1.3642801275263423e+00 -3.3716956971875334e-01 1.1839352627424523e+02 -4.5321755905261674e-01 2.6675416319709910e-01 2.5782086145247263e+00 -2.2627685684411902e-01 1.5256015041555457e+00 1.9259223857674485e-01 8.4931910073768080e+00 1.3887075822043565e+01 8.4813645706385614e+00 -5.8251374288180386e+00 -9.0611067082152741e-01 -1.0106797624349682e+00 2.0080130963554406e+00 -2.3470467824937927e+01 2.9523419045574819e+00 -2.0007436989412611e+01 -2.5686009556236968e+01 -9.2141476976647230e-01 1.2998279603742202e-01 1.6141356850677322e+01 -4.2390815321370567e-02 -3.6189928046776121e-02 2.4815807653192223e-01 3.0183966034251675e+01 2.1834136786506484e+00 -1.3982719399806172e+01 1.8648081281374935e+01 -1.9534372770819841e-01 1.9234843018679673e+00 9.9052042247672034e-01 1.7443006183241323e+00 -1.7247407865042987e+00 -9.3051110045053065e-01 -1.4095843788236380e+01 4.8364201699546649e-01 -8.6966505146498951e-02 -2.1246816336277334e+01 -1.5809265773364389e-01 -8.5331040523055890e-01 2.1085648595675188e-02 1.0333031921909424e+00 6.8207505512787634e+00 2.4519878927094396e-01 -7.7048988955612003e+00 1.4341554981202798e-01 -1.1244381770740119e+00 -5.5321088471557456e-01 -3.3209316696608873e+01 -7.6334426218739555e+00 -2.2739981281853655e+01 1.0749230325633107e+01 8.2518420187946573e-01 6.1973661085730769e-03 2.1954690707514601e+01 1.8123342181031177e-01 -1.1631706835540889e+00 -1.8963517821505682e-02 -1.5836126154397729e+01 -1.2561666953077907e+01 -2.7756064209323220e+01 1.1583158839492356e+01 -5.4247934419741117e-01 9.6996212860012587e-01 -5.4548911490359231e-02 -5.1125971200162247e+01 -2.3805735212039414e-01 1.7299340198954809e+01 -2.4605228475960757e+01 -4.2993751965326865e-01 8.3023856853976952e-02 -3.4996098919835418e+01 -1.2738699089304539e-01 3.0539581325772280e-02 2.1708584356497695e-02 -2.6291688648188742e+00 -1.5161934250890820e+01 8.4057214910788630e+01 5.3721714164955756e+00 1.8766205998051033e-01 -7.3955119969261851e-02 1.8200469457748042e+01 
      </Row>
      <Row Index="121">
        -3.0541549126024101e+00 -3.1540981754687891e+00 -8.1527172790873919e+01 -1.9146128606008460e+01 -4.8019225667187129e+01 -2.5034063582693733e-01 5.6979262974095435e-01 -8.8878990699313363e+01 -2.4872902289735421e-01 -7.9434123816440660e-01 -6.1287553270536677e-01 5.7586169180017066e+00 -1.2384419832893172e+01 -6.4285008239933632e+01 -2.0437517839341126e+00 -6.2286418970587931e-01 1.3015645733332804e+00 1.5298759623448177e+00 -6.5290806038567268e+00 1.1197312207831965e+02 1.9485522310264059e+01 -4.6941845368547365e+02 2.1541544455981301e+00 4.3460645832074718e-01 -6.5940212786309985e+01 -3.2072289533018505e-01 -5.7398226866832829e+00 -1.7697238483248157e-01 -2.5831593791722696e+01 5.2155268668587951e+00 -4.5145998433791078e+01 4.6885058631052925e+02 3.8455050257980794e-02 -2.0203305081273584e+00 2.9412094421397228e-01 -1.3192642500565626e+00 4.1203082554514367e+01 1.1421984080385300e+01 1.6909744554536883e+02 1.5503392916605208e+00 -7.8552974649841190e-01 -4.0078103369603923e+01 -1.7226555462457327e-03 -1.0161828776244874e-01 3.5424558138891449e-01 -2.8011248468433223e+00 2.0873661343305230e+00 4.9796271368202270e+01 1.0717335813133650e+02 3.1466109733258918e-02 -7.8829202669066945e-01 1.2052293553524773e+00 -5.5169767304012112e+00 -6.5805730437186867e+00 -1.1481474941689157e+01 1.5910125145944767e+02 -2.8999154075336797e+00 1.6045436964748772e-01 -3.6819230331413564e+01 1.0505464534832409e-01 2.1838225572352314e+00 -2.3844457583295942e-01 1.4658819026588617e+01 5.1785993407526796e+00 5.4761875455221798e+01 4.6523137939482694e+01 -9.7422728912265910e-01 -4.8784928855454268e-01 2.5233639207046679e+00 7.5415494752178347e-01 -2.2604866890024368e+01 -8.6133327871102665e+00 1.7733289275341667e+02 4.4738124566264403e-01 -7.0121693741738134e-01 -3.2737934384236723e+01 2.1577299355948298e-01 -2.7435120407699287e-01 3.6724655345699375e-01 1.6086108787658304e+00 1.9414198486415444e+01 1.0917126531164345e+02 1.7086143725012971e+02 8.7532604605267750e-01 -1.0558369390348439e+00 -5.3269598180187927e-01 1.9374952337291234e+00 2.4652595483526397e+01 1.4348411843315262e+01 -1.0380338532757014e+02 -4.5428413223667974e-01 6.3073839504572682e-01 -1.7671725622736403e+01 3.4488947977146722e-01 3.1357790273739283e-01 -2.7587815289817685e-01 5.0998336526163257e+00 -1.7522158879463628e+01 -4.4305693028723454e+01 -2.2179674573868760e+02 -6.6961280978031112e-01 -1.5322738288441542e+00 3.4731401174277234e+00 8.6931828549195558e+00 3.6720803829283206e+01 -2.0077367688201775e+01 -2.8506113598193042e+02 -3.9939203179620599e+00 7.6011478210347105e-01 3.0764497203120175e+02 2.6211034908454933e-01 8.2926714044363337e+00 -2.4098218861882503e-01 -8.9212638275028553e+00 -1.4171076412191720e+01 1.1223664560043932e+02 -5.4760966360925840e+02 -1.3235245950494523e-01 -1.7523963652537446e+00 7.6404352151262351e+00 4.5307810958797390e-01 7.1336920992548266e+02 3.2206567779664795e+01 -4.5774454285448883e+02 -9.9031230792231923e+00 -2.5439817939986731e-01 3.4633810917553956e+02 -5.7878716217951975e-01 -2.8362670161671701e+00 -5.0492332583812871e-01 -2.5691998446186290e+01 -1.2791181823125157e+01 -2.6571727899244797e+02 1.1537467821086193e+02 2.4539221707334162e+00 -4.2667023888010664e+00 1.7476308444235551e+00 -1.4663473335408135e+00 -4.8596450155304638e+01 -5.6145654818608250e+01 -8.2224327507603448e+01 2.7687741976989475e+00 4.9199227817989577e-01 -7.2576924036769924e+01 5.7550161938256350e-01 -1.8393230004661518e+00 1.9738896591023214e-01 -1.4516519672713827e+01 -4.6838556327534633e+00 -2.6024051738007984e+01 1.0577734159975262e+02 -1.2836396054501533e+00 8.1126359484196957e+00 3.7898718232951900e-01 1.1401146109174221e-01 -1.1952227606137512e+02 -1.4712729429045794e+01 -2.4034536606376059e+02 4.7701277408065881e+00 3.1315509636456795e-01 -3.3511074293115598e+01 -3.2186264874285442e-02 3.1409445376949918e-01 5.9169950999081955e-02 2.1244827975836074e+01 -7.6871156847559803e+00 -2.2469997041091062e+01 2.8176067434333959e+01 -7.2407593017751304e-01 8.7845725473965892e+00 -2.8860223345293146e+00 4.6119645778526603e+00 -4.0505628962466125e+02 3.7459965975937394e+01 3.5984807911458483e+02 -7.0361069087851158e+00 1.0485249718769836e+00 -2.6589663686793926e+01 -3.2237102970861553e-01 -7.4709393474372270e+00 -2.9515761785557615e-01 -1.1210286841823930e+01 1.4905274161133359e+01 1.3798400506947655e+02 4.3698455021016684e+02 1.3968141623879711e+00 1.0857789441632377e+00 3.5444929023647944e+00 -1.5409058444506627e+00 3.1455483128720516e+01 2.5077815637632739e+01 3.5832668139040470e+02 4.2147573166011156e+00 4.7378026802624262e-02 -3.6974644821054426e+01 2.5971686240152803e-01 -2.7539209826649085e+00 4.2470809289550715e-02 -1.2551449257742206e+01 -5.8777674925948133e+00 -5.4445292420597980e+01 -7.5008463143898553e+01 -4.0611699266226964e-01 2.1964372251910333e+00 -2.0712359181024134e+00 -1.0324531337963249e+01 5.4194987863653665e+01 -6.0990329200050027e+01 2.7322501071619081e+02 5.4706611437761126e+00 7.5338788655721878e-01 7.4826147904666868e+01 3.5163254309936942e-01 1.4008913248511048e+01 -7.0341763054880668e-01 1.5758529754645963e+02 -4.8382219184521951e+01 -1.8978889679271330e+02 -3.9548182104645070e+02 -3.6168858781917854e+00 -5.2882576833506878e+00 -1.6696089446791085e-01 -1.0103705456213714e+01 3.8505530228824343e+00 -1.2451520165053061e+01 2.2642524695016681e+02 -6.5518469871337768e+00 2.1541501545704200e-01 -2.2359776798548054e+01 4.2225099497194662e-02 3.8374941459786704e-02 -7.9730404538485899e-02 2.3687197038762048e+02 9.0993554663056472e+01 3.5963735444738649e+02 -2.2509674348232281e+02 -1.1031066005727716e-01 3.5910954273604051e-02 2.0790131299995164e+01 
      </Row>
      <Row Index="122">
        -1.4597989323357785e+00 -9.6533767456385249e+00 -2.0004248271521647e+01 2.1091667208554281e+02 -4.3228883587312885e+02 -7.9972066984646517e-01 -8.3532828914560930e-02 4.6437119656446157e+01 9.9760624045695723e-01 -3.9260558579335338e+00 -2.4859232170655332e-01 3.4099601056504980e-01 9.4822889185634267e+00 3.2988442149973707e+01 -2.5035161969746696e+01 -7.8851572906546608e-01 1.8831992967249789e+01 -6.7752847279689377e-01 -8.1623748909942151e+00 -1.3369061674362456e+01 4.9295770893763984e+02 3.0065730087459087e+01 7.0503538566227331e-01 1.7385007054758717e-01 3.2754499363763898e+01 -1.2696975826699486e+00 5.7659743556287140e+00 2.6800578950508225e-01 -1.0886711501118953e+01 -5.6993335088664026e+00 -6.7787572135345727e+01 2.6140759063261794e+02 2.9230163065573720e+00 -4.7124083992708620e+01 -8.5751968779277377e-02 -9.5546931317949202e-01 3.5404891992329794e+01 9.0938143534865230e+02 1.2182858885359019e+02 7.2606518843713275e-02 -4.2393765329575217e-01 5.4764027643715963e+01 -1.0137833658636737e+00 2.3043212208049226e+00 -3.8865882388495265e-01 -1.9853076716317446e+00 -1.3662451790223713e+00 1.2318179069992766e+02 2.1305717420348083e+02 -1.8432774319344389e+00 3.8423056210122013e+01 1.8404324006636887e+00 1.3361373019160055e+01 -2.0644701021083165e+00 -7.9149141540119308e+02 3.8624579384177923e+02 4.4213170546373703e-01 -1.1511204676894848e+00 -2.7888403353514150e+01 1.6635078870059328e-01 6.2063171017041512e+00 1.0412071641617255e+00 2.0896761797863292e+01 -1.6392620754939713e+01 -1.4460486420714005e+01 -4.1545302746293601e+01 1.5328718424533418e+00 -5.4804163766098739e+01 1.5823198273164962e-01 6.5107928299930791e+00 1.2669387548099621e+01 5.4385734279057942e+01 -8.5240929605439305e+01 4.2747740122547384e-01 -4.0972913640850928e-01 -7.9513797526422422e+01 8.7226649241210907e-01 2.7344884954618465e+00 2.4625901868716937e-01 1.5153585598789505e+01 -1.9502078430465190e+01 -2.5828711125343034e+01 8.4114775497291703e+01 1.0677342457936447e+00 -2.4322623908153503e+01 2.0344006487950006e-01 1.0475398498601862e-01 6.6449474487671978e-01 -7.0377105692209443e+02 -1.3452512132748961e+02 9.1573407596706602e-01 3.5659056932533417e-01 2.7305059777867427e+01 4.6905904236223250e-01 -2.3588654909635807e+00 4.2008932321061110e-01 1.0335492191821686e+01 7.8345982974142885e+00 -2.3657169518282899e+02 -8.4070973318244796e+01 8.4432758164655297e-01 -2.3970140681944031e+01 2.6031150980578239e+00 -1.5916954934253816e+01 2.3883422234001557e+01 2.3401793119770591e+03 2.4100963275879622e+01 -3.7807773009233714e-01 1.3265532867419587e+00 2.2994574291612685e+02 7.4682848985597161e-01 1.3630594844075953e+01 1.1063733505463653e+00 4.2915951409133186e+01 6.3485328265176619e+00 7.5321381912745352e+01 1.7086249597109770e+02 3.9903876838278083e+00 -1.8709158227981838e+01 7.7061574507627668e+00 -7.2083909102595740e+00 3.2206565906784192e+01 2.1092456203285033e+03 -6.8682712046429515e+01 -1.5983076796951678e+00 9.2677963118284301e-01 2.4662955411035909e+02 -4.0262708714817101e+00 9.0562794233077177e+00 4.5958405422892690e-01 -4.8060093962747487e+01 -1.3795159667670305e+01 -1.7489161198623333e+02 4.7255487340588388e+02 -1.0822675344874844e-01 -9.4942741868699343e+01 -1.0834664786653994e+00 1.2399820836255856e+01 7.3058457706283662e+00 7.3489824653892413e+02 -1.1657523178867996e+02 -4.4216330822312622e-01 9.8920703779630270e-01 8.0902394916396588e+01 1.3037860119770195e+00 3.0618700546413038e+00 -3.8884602711026539e-01 1.1498355515445425e+01 1.2939771256274369e+01 1.0424777000404720e+02 -6.0556924816046376e+01 -3.8327548840213921e-01 3.0002813881450905e+01 -3.0004744310291187e-01 1.8271726189643825e+01 -2.9545302237227588e+01 1.7643795828483417e+02 2.0783583299629390e+02 -1.3429741405317408e-01 1.1430703175827759e+00 3.5105202197707627e+01 9.1835252152973634e-01 1.4005151327017362e-01 -6.8841606502342056e-02 3.4759316129265244e+01 2.1085221537114389e+01 8.0364997870952948e+01 -7.0845067329063824e+01 3.9395954008672107e-01 4.7196996491326544e+01 3.4049236883628158e+00 -2.1902074182033346e+01 5.1622536894381327e+01 4.6695601543893645e+03 5.2683137751177128e+01 -1.0508480546383481e+01 4.0215238574528112e+00 -3.9093673293774089e+01 -6.8061181867069340e+00 7.6811184932149956e-01 -3.1150241754485819e-01 6.2491425356818127e+00 -7.1680063286330835e+01 -3.0411931851240774e+02 2.4914656973882660e+02 -1.6011259230120274e+00 -9.7029412439803508e+01 -2.1703026513005170e+00 4.2422517986924504e+00 -1.4010368470044341e+00 3.6591893584933132e+01 8.1302798200398684e+01 1.4651641124950459e+00 -1.1310884136685972e-01 4.7208760183289996e+01 -3.3852343705130927e-01 -4.9471087512756640e+00 -1.8303443701309874e-01 -1.3203244298812933e+01 6.9950865930359214e+00 -2.7030960144707933e+01 -1.5038352764851879e+01 -9.6137444186103949e-01 -1.8638959103261186e+01 -6.5760466379950326e+00 -7.9137642017791983e+00 -6.5962512257299295e+01 -4.0123260344549099e+03 -1.7506400102528460e+01 1.1676139549891360e+01 -4.3223236743048412e+00 3.4602926644589752e+02 8.4413597637310502e+00 1.6235745115121922e+00 1.7081909534110151e+00 1.2953890996837549e+02 1.0062041253434620e+02 3.6370388203884022e+02 -2.6977606833659911e+02 6.9985406034136410e+00 6.4733253671182439e+01 1.0793978726228204e-01 -4.9795821972782576e+01 5.9528363664277890e+00 -1.3151536182451753e+03 7.3146594866374653e+02 -8.0559397808619782e-01 3.7436268554068874e-01 6.0439528868556965e+02 1.1492359294433641e-01 6.0096043432626089e-02 -1.0653229844075440e-01 1.6963688261379292e+02 -9.6044054907317133e+01 -5.3915216009540757e+02 1.9685469783833389e+02 -8.2642921099852096e-01 -1.0609920592089761e+00 3.3575487601866172e+02 
      </Row>
      <Row Index="123">
        -4.9579839395982557e+00 9.6452258416684344e-01 3.0595829514507204e+02 -7.7732097332458943e+02 -1.0981105221937597e+05 -6.7581991713814205e+00 4.7218640239893581e+00 8.6673054087720811e+02 4.2844294129159799e+00 1.5422861049417406e+01 2.0679475031392940e+00 9.5738506125821732e+02 -4.0990489106625319e+00 1.6008100576046854e+02 -1.7954397186497226e+02 -2.3007797016471159e+00 9.2617452482227236e+00 -4.4957555980392499e+01 3.2506358051658026e+01 -2.0434836590243503e+02 1.7226720937341452e+02 6.3244501652002335e+04 5.4437790921975449e+00 -3.1540087477333145e-01 -2.5911386244816240e+03 1.2986986947307742e+00 9.7422669176012278e-02 3.1656931949401041e+00 -8.7918885103735374e+02 -4.2006736371084116e+01 3.3762899313116213e+02 1.1832897993456572e+03 -4.2522152559940878e+00 4.8150709185691085e+01 -3.9396088490233524e+01 9.6460513248806819e+01 -8.1247234609816223e+02 -7.9558721350878477e+02 -9.5488439812064171e+03 1.7126454609882785e+01 2.5321483431907836e+00 1.3976744671612978e+03 -5.4954682837997098e+00 2.9109404646093026e+01 4.4446737238631613e+00 -2.0047930429922417e+02 -1.1159949475037865e+02 -8.8841055602766573e+01 1.0590799933522940e+03 4.0796303324168548e+00 1.0519436317007057e+02 -2.1378608116931183e+01 -8.3326538147288375e+01 1.0099945561867207e+02 5.6724600255489349e+02 -6.7933343018293381e+03 1.0612111895854468e+01 -3.1460002505587958e+00 1.3654494952708483e+03 -6.4120713176372863e+00 -4.1554252496516142e+00 1.5762153828681869e+00 6.9616456772200763e+00 4.1760508141275480e+01 1.3353270541084930e+02 3.2672998351603746e+02 1.1041376183321292e+00 -4.1723254160430514e+01 8.8451709443615982e+00 -3.2642904305073898e+01 -2.2114750443818048e+02 4.4204605220630765e+02 4.6180156474471092e+04 -7.1984097245876910e-01 3.0368110315445200e+00 4.4503324104472995e+02 1.2111586459010141e+01 -3.2709397558588535e+01 -6.9820213788261754e-01 -5.2037826229818165e+01 4.1177775535965338e+01 1.1467545508319745e+01 -5.5598965639807284e+02 -1.9187772388249869e+00 -2.7132528738189649e+01 -1.0390839141041631e+01 4.6815738368779421e+01 -5.4201556390151381e+01 5.3185024228505790e+02 -1.1411283169305325e+05 1.0456143444753252e+00 -5.4893058753277728e+00 -5.9072162476368248e+02 1.5272581809258554e+00 2.6632760274223983e+00 -1.4020953954995541e-01 2.3188208388164639e+01 -6.9996002924563072e+01 -1.5715008672745898e+02 1.0419030256569386e+01 -4.1940711362622096e+00 -3.7866778719704598e+01 -2.1783206925516630e+01 -2.5981549899450374e+02 -3.7675458106862280e+01 -5.1220663227140903e+01 5.5942433332324028e+04 -2.7439626855995790e+01 -2.1723153774512358e+00 -5.6654123868645356e+03 4.1091421415973794e+00 9.8006557087846389e+01 1.6576976885801935e+00 1.0705718518461456e+03 1.9713953034666940e+02 8.5008205643361407e+01 -3.7581529484724188e+03 1.0639004706900821e+00 -4.0952657002532135e+01 1.7568764440113860e+01 -3.2795068695090220e+02 -4.5774453996779806e+02 -6.8682926731067710e+01 8.2736391452789307e+05 1.2948686732322468e+01 -4.6401777686364643e-01 -7.7245158095814659e+03 -4.2772351274326450e+00 1.3605712258333381e+02 1.0557243533965666e+01 3.3973834007126279e+03 -6.4217261573765427e+01 -7.0020709207281470e+01 -1.5188370715760216e+03 2.9942576980461251e+00 -2.2547539246701689e+01 -2.2496653750485375e+01 -1.9927718884387303e+01 3.4075029174028896e+02 -7.4668008097261782e+02 -6.4380179279208183e+04 -4.7190353199397137e+00 -4.6875068348819964e+00 2.0621007715798914e+03 5.7201990273557684e+00 2.2531170918911812e+01 -4.2461870119380851e+00 -1.4709192092350459e+03 1.4168317125970498e+02 -1.0736145246960223e+02 2.9119493908993900e+02 6.4276777993164735e+00 3.2195545879446342e+01 8.4628943192587656e+00 7.1687744570126597e+01 2.3656080078077503e+02 -5.1806595685146749e+02 -6.0720035668253899e+04 -2.9049022088572158e+00 -1.0399056468045742e+01 1.4421486921258004e+03 -1.4901997713473905e+01 3.8790808503070750e+01 -3.5304019414064323e+00 2.0664555296213116e+03 7.8891931417648379e+01 -1.1974702534506923e+02 3.9203317790371243e+03 -2.2073721478473729e-01 -7.4825927788868114e+01 1.7631425231943567e+01 -4.7028700068953657e+02 1.2437698529997024e+03 -3.0333871133123694e+02 -8.5386100184460549e+04 -4.7159507635577455e+01 -2.9620197057213646e+00 3.9699028548947886e+03 -1.7380181647053366e+01 1.5328263043431383e+02 6.2404662953994894e+00 3.6959468605189602e+02 -2.1866704217704910e+02 -6.1370582065283861e+02 -3.0206916864958002e+03 -1.5553896747744815e+00 -2.3490662309745306e+02 -4.5892656599171460e+00 1.9792591142002493e+01 1.5288211405090988e+02 3.2133172380924225e+02 7.2850402215719223e+04 -1.2550281325569813e+01 -5.1038998939123670e-02 1.5459808733817190e+03 -9.2839821006025147e-01 -6.0511355424940120e+01 -8.2161741404115674e-01 -2.6296142077445984e+02 5.3184734980983194e+01 1.9946585744619370e+00 -4.5567573484778404e+02 3.6636796307884651e+00 -3.6695994886656990e+01 -7.5346680388666300e+01 3.1245466424637021e+02 -7.7240462848190236e+02 4.8397314036073703e+03 -9.3868198312076915e+04 1.9161284744071953e+01 4.8280430888298600e+00 -1.6463414703849703e+04 2.2709033661853056e+01 -1.9198055397451128e+02 -5.3988433997205298e+00 1.2934226463547107e+04 5.6289168805060945e+02 3.8994905133717107e+03 8.3233718662470037e+03 -9.9351589012510466e+00 2.6642052659048579e+02 1.2720280435205495e+00 -7.3985996775125074e+01 -8.4745936192614877e+01 1.0323705149380872e+04 -2.6068901039750028e+04 4.5858407247259585e+00 -3.7233718272946135e+00 -1.6387606553301630e+04 1.8069417295318999e+00 2.2092995762681653e+00 7.1957145433225378e-01 2.2915315134993325e+04 -3.9311942626241932e+02 -7.6273803953235956e+03 -1.1809151532591462e+04 1.9989185092517183e+00 -9.4979447088924474e-01 -1.9142306492008254e+04 
      </Row>
      <Row Index="124">
        -4.6298498053156667e-02 1.5625823456245858e-01 -4.2493844747610865e-02 -8.4268025633155474e-01 1.1632623783819781e+01 -2.5256884258127571e-01 2.5960995391450508e-02 -2.1292239069020980e-01 -2.5894000914407050e-02 -1.4554406757474325e-01 -4.9130397099214490e-02 -4.0377216890470402e-01 5.4357316625111984e-01 -3.7297082363162559e+00 -1.9798665889559292e+01 1.2793858855157103e-02 -1.1831548312529083e-02 -2.3026208235702628e-01 2.9320278978034553e-01 2.0623999198530747e+00 7.2454314415844578e-01 -8.7984635406828602e+00 1.6808580003974782e-01 -2.5677746463156598e-02 4.3007189769610576e-01 -1.9759358509371383e-02 4.8113410513127519e-01 1.6643451348481941e-02 9.3088313460508543e-01 -4.0166631384555718e-01 2.7321753368050503e+00 2.1150389364648433e+01 2.4647944476342699e-02 2.1775646325871190e-01 1.8309197190159798e-01 4.1358671674080583e-02 3.2305382398504179e-01 -1.2187030050293970e+00 3.9783989315887993e+00 2.0031214525967300e-01 1.1339781692242479e-02 -1.2300136218664193e-01 -1.7275405659676890e-03 6.9531964870575891e-02 -3.6795133848866596e-03 1.4471955726820447e+00 -2.1067497294852977e-01 1.3866996611608435e+00 1.8414826082654898e+01 -3.5286879674719218e-02 -3.9940673002213956e-01 -4.5652032858954256e-01 -7.1446337023885853e-01 7.7836719257506459e-01 1.8474137640268395e+00 -1.1368635996099329e+01 -3.3578726604812636e-01 -1.0800282510174355e-02 -1.6645500341066963e+00 -9.8709945762595064e-03 -5.7378901610991717e-01 7.7553981038273462e-03 -9.5605089709938085e-03 -4.0592716375931204e-02 1.6133713638134282e+00 3.9395553619029897e+00 -2.9603142831159279e-02 2.6787726208855700e-01 -1.0062963439222994e-01 -1.2769140375061827e-01 6.2723196295034001e-01 4.4727297869178528e-01 2.9966558530841212e+00 -4.3986076221585874e-02 1.5690679897054492e-02 -1.8235256615613480e+00 2.0120013325670705e-03 -1.6315508184931460e-01 2.1488726201109309e-03 -4.8049115670364273e-01 -1.1121949220768848e+00 3.3301170833254425e+00 4.4321883878198747e+01 4.2493347707604046e-02 1.1040643181371287e-01 1.2802399213478144e-02 1.6774801506482717e-01 -6.4242766976328003e-01 1.6706591153225645e+00 7.1832381718663783e+00 5.6216334040780636e-02 -4.9141222391048955e-03 3.3342711199627750e-01 2.3776375245489922e-02 -4.3513333529261899e-02 3.6602151378399006e-02 6.1006965062970409e-01 7.7369319701277051e-01 -3.6944494858339425e+00 -3.2154963298011765e+01 3.1122934545433911e-03 2.4590547830673870e-01 -3.6451686745140821e-01 1.4689963493617952e-02 -4.4917235816935381e+00 -9.4537655641569529e-01 5.1771315696460078e+00 -4.3348101531189731e-01 -3.9751390029203026e-02 -3.2573283674236535e+00 -2.1339408674478533e-02 -5.3485408876890528e-01 6.9243843785039734e-03 6.7294769454995240e-01 2.3616333042103843e-01 1.6042405483601392e+01 -2.3433006648098740e+00 5.8287658535729481e-02 -5.0526764492969001e-02 -9.5359063873138444e-02 9.4720368994582960e-01 -9.9031230356984654e+00 -1.5983077591820649e+00 1.2948685917608600e+01 1.5776573835684320e+00 -2.9352919664740386e-02 -7.1853958059067224e+00 5.1770610786403493e-02 3.4803976516262480e-01 -2.9135986352632329e-02 1.2529768321248014e-01 -8.5144553895514896e-01 -4.8323413398552439e+00 3.5468542964520736e+01 -1.7735423108893522e-01 3.4276801209196972e-01 -1.6581389547866365e-01 -7.1913208032773457e-01 3.0163803006829060e+00 -3.7957045041245152e+00 -1.0406834730017181e+01 2.6578300426992163e-02 -2.7147719420936925e-02 5.5995370038762644e+00 1.0814198426184670e-02 1.0882619489386447e-01 1.9158785335242623e-02 1.3559375103438533e+00 9.5454886246425374e-01 2.3797020866700080e-01 -2.9946407537915562e+01 -5.4271682780664465e-02 -4.7945881783752187e-01 1.1006751051551328e-01 -4.7465678111577292e-01 3.3481313460978956e+00 -1.6161105326006151e+00 -1.0049303652731396e+00 -3.9391008133586514e-01 -1.5487262876949570e-02 1.0686852573853685e+00 -3.9717889394385919e-02 -1.1948817929749880e-01 4.6280063271129879e-02 -1.0564535770420385e+00 4.3264679863274935e-01 -9.5001744381939179e-01 7.9851314748082984e+00 7.9429175416275657e-02 -5.8837759909433918e-01 -8.9916878208065409e-01 -1.1070119293256520e+00 -6.6110114445215657e+00 -9.1804293411946105e+00 -7.9239664880792589e+00 -9.4885751352970615e-01 -4.3087876841685413e-02 1.0673351067319512e+00 -3.6172521635030458e-03 -5.8706429717591657e-01 -5.3112714930176885e-03 -2.9024900330699133e+00 -9.3391138737467738e-01 -7.6718229989789819e+00 4.0711570741740275e+01 1.3271519138080323e-01 -1.7448912809691075e-01 -1.1874236233310409e-01 2.5279986623513651e-01 8.2650127505924331e-01 1.1142549387718645e+00 3.5014756120181119e+00 5.2364101410699382e-01 -1.0419562796001397e-02 4.2421682848541309e-01 -5.1914834573207891e-03 3.6640307000889649e-01 -2.4347317622479270e-03 5.7481807303400956e-01 4.6120976728803154e-01 1.9050170966851283e+00 -3.0458865710842019e+01 1.1479607959868146e-02 -1.8982412100748869e-01 3.0064341292582919e-01 7.7608017779331895e-01 6.3037779959733768e+00 1.7071984785896994e+01 -9.6911388156181744e+00 -3.7070298631801002e-01 1.4345830774548525e-02 3.6780099314341328e+00 -5.8717573251219290e-02 -2.1679834704013828e-01 -1.5505734066517951e-03 -4.5469478335884084e-01 2.5037764201583719e+00 1.2637084209899095e+01 -2.1275467377563306e+01 3.3722569429517721e-02 5.1510594318181679e-01 2.2721341774294541e-02 6.7115392675820207e-01 -4.7482161412841561e-02 1.8084679138135026e+01 -1.2512357354734339e+01 -7.2213158438880509e-01 -1.1526255109455902e-02 5.2615754539350652e+00 1.1017197639636295e-03 3.2254608599162071e-03 -1.3480318855720555e-02 -3.2517760102184443e+00 -3.6558639828540658e+00 9.3698585728301842e-01 8.6978777501864304e+00 -1.5367156242844123e-02 5.8714786988273704e-03 1.7724013267389133e-01 
      </Row>
      <Row Index="125">
        1.3278566447884702e-01 6.5033389037751022e-02 2.8184381692233273e-01 -4.9839960641332937e-01 1.0829307649808470e+01 8.1230119004489509e-03 8.0362396003091308e-02 -5.7239426881824329e-01 1.3606649952449865e-01 7.7022974077863182e-02 -8.0930044359964093e-02 5.1583478391645343e-01 -6.7847332256638992e-01 7.4333839570499549e-02 -4.8533670918823759e+00 7.5458309612635333e-02 4.6806795474462604e-01 -9.0866958396176756e-02 1.2742026733151945e-01 5.7451667241986115e-01 6.3825510696756282e-01 -1.9041732582845725e+00 9.5324869902462250e-03 6.1393607936667927e-02 -1.4325425254556592e+00 3.9601560985278894e-02 1.3265027946687269e-01 3.8985652874180765e-02 -8.2066899691547235e-02 1.6166488133895029e-01 -5.4537511202354239e-01 4.7466111607891435e+00 -6.6841691684907834e-02 1.1698678006299801e-01 1.1726545036822955e-01 9.5374905497820350e-02 -5.1457453132331921e-01 -3.1922754657771293e+00 -4.5563881703783409e+00 1.3775979203174415e-03 1.7024157260778239e-01 -1.7127080557092995e+00 6.5334994461291984e-02 3.5170539443129201e-02 1.8038325608124017e-02 -6.9392326772236856e-01 2.4482567144394807e-01 3.0838571467438669e-01 4.0456510851640815e+00 2.3912020028866721e-03 4.3152498960785124e-01 -1.3923085669104496e-01 6.0231808891728633e-02 3.6538127736150727e-02 8.1127503814786905e-01 -1.8164237146265805e+00 -1.6240045204663378e-02 -5.3858515205117738e-02 -8.8624084147704707e-01 -7.5386301876371076e-02 -1.5817902133766060e-01 -2.9843724072671468e-02 -4.9895393386545095e-01 -2.2214858610381527e-03 -1.6754247713595305e-01 -3.0738228779864585e+00 2.7264707833303439e-02 1.8127442796278537e-02 8.4912655977667839e-02 2.1711736243020141e-02 -4.7469555530761909e-01 1.2758385027441363e+00 7.3811475391121348e+00 -1.8777896869445865e-02 6.6342889470537125e-02 -1.3265115060639801e+00 1.2557617030454438e-01 -1.9193028410782631e-01 8.3086560434963985e-04 -2.0822105633556021e-01 8.5088028598755727e-01 5.9855698937067459e-01 4.7635430492787236e+00 1.0046851542691471e-02 5.7279267404355849e-02 2.1139866303203636e-02 -6.6840859029127841e-02 -3.5909396055050991e-01 2.1234967704560859e+00 -6.6378389003803022e+00 9.4225675679808774e-03 -1.0883024285381060e-01 -2.6211495318889888e-01 -3.1926509962492133e-03 -1.2248928791115077e-01 1.1631014095547937e-01 -9.1504588749899085e-01 -5.0871298791947339e-01 3.7558394815999918e-01 -2.4512596008642049e+00 -1.2061364122854457e-01 -4.8039364723356925e-01 -1.1409582657563133e-01 1.7627707469900056e-02 9.5227710871025018e-01 6.7518247825387334e-01 -1.1592120003479067e+00 -6.6470291420323346e-02 -1.5330158741318686e-01 -2.3278086308021670e+00 9.9929673922996565e-03 5.6261109684673904e-02 -6.4478431321419907e-02 -1.3129211267962830e+00 -3.5378762307801459e-01 -2.9387681492826729e+00 -5.6269786517096492e+00 6.0031536270813979e-02 1.2197435046715110e-01 -2.6311189100097609e-01 -2.6846556296403357e-01 -2.5439816498226264e-01 9.2677965090364012e-01 -4.6401857113232836e-01 -2.9352919908218728e-02 6.5733634701881749e-01 8.8205234188194481e-01 -3.5991946180878409e-01 5.6768647246117165e-01 1.9297860229549046e-02 -5.1944712812866101e-01 -5.0300783318056119e-01 -2.2801186490291911e+00 -5.6038513883208338e+00 -1.9786248410635149e-01 -1.4174796325657442e+00 -3.3849732910548996e-01 -1.2681068897277559e-01 5.8412390982670104e-01 -2.3997269361060773e+00 1.6250115182047011e+00 3.3872543374187936e-02 -1.9288064932677457e-01 1.0290145420790395e+00 -4.8881984619910557e-02 2.6071543810884634e-01 5.3016222557687676e-02 2.4273315841270460e-02 1.0952074072263684e-01 -1.3915058483453322e+00 1.1886792451266501e+00 7.3483576776840781e-02 -2.4073686123290106e-01 -2.3677625227316001e-01 -5.7049198157905323e-02 7.2667934834717585e-01 -8.0263920931770372e-01 -6.8723505562811624e+00 -1.8844782133619620e-02 -4.6081730304347335e-01 -2.7959961974735066e+00 -2.9167546712352882e-01 3.1045553822533201e-01 -4.8981910652351690e-02 -4.6398801777880294e-01 -1.4169175857038141e-01 -5.5216166483022988e-01 8.0848955617734575e+00 1.2628076388785470e-01 -6.7855790349968093e-01 -2.5037323518465182e-01 1.4370808504712507e-02 -6.4023581763585646e-01 9.6759655866565453e-01 4.7525783924775169e+00 -8.1086193014479613e-02 -5.0178591226275104e-02 6.3325490802303430e-02 -3.5612417159599885e-01 -2.9647923976299895e-01 -1.1594070539304258e-01 1.3514842605281259e+00 1.0353055922145502e+00 2.5435609719859542e-01 3.1468305142044457e+00 1.4952988744507789e-02 -4.2189965148014430e-02 -9.4180520105293652e-02 3.4599409725046826e-02 3.7214482142030647e-01 6.1171455558724119e-01 4.4038890135416295e+00 2.5001256900771984e-02 3.7492280485242595e-03 6.3773994627104003e-01 1.3156052594015755e-02 -2.0309435629394557e-01 -1.9093129091794614e-02 6.4828253430005134e-01 -3.8081005777395660e-01 -1.4887505562910519e-01 -2.4487335342123515e+00 2.2269450315719030e-02 9.7943424393896805e-02 4.3581417661878913e-01 3.7653886993474200e-01 1.1548756064043562e+00 1.3504494392433370e+00 2.9357455971629918e+00 6.3081828004774992e-02 -2.6210137662434418e-01 -3.8612742281839019e-01 6.8247189841424616e-01 -3.6654103234692537e-01 7.9700049921875016e-02 -5.6796699559507573e+00 -2.7340927595645668e+00 -1.1485179285841953e+00 -4.8823593595038126e+00 -1.1778923987438017e-02 1.6231573572352715e+00 9.4555335254246087e-03 2.6216898719044646e-01 -7.6743428548812859e-02 5.6145835155289916e+00 1.5487207063923405e+00 -2.6739675867753887e-02 -1.1714237826714435e-01 4.7072298045040517e-01 1.7387309478162472e-02 9.5487182816016217e-03 -2.6490364549433876e-02 -8.4112414888014069e+00 3.8795032116113939e+00 2.5354159272328025e+00 3.7121637148720921e+00 2.5086803019280388e-02 2.0262860332103949e-03 -3.0748956685050848e+00 
      </Row>
      <Row Index="126">
        3.7985009357284767e+00 1.1779522186785471e+01 -1.9088273468846455e+02 3.7456815561861731e+02 1.3563176199272275e+03 -5.0971872415175312e-01 -6.7036457833471008e-01 -4.9199532547015697e+03 3.2192959740176601e+00 -1.0845104077132419e+01 -2.5720659970284032e-01 -4.1627637005360157e+01 -1.1152152074710466e+02 -1.8182612165389583e+02 -1.7760775196402101e+03 1.4563800997275393e+00 5.0150310978846392e+01 -8.8763081977740512e+00 -4.5380445448754472e+00 -4.1882749068434350e+02 8.5468925925903022e+01 -6.7891181818246841e+03 -5.6874505408349272e+00 1.7034224235785587e+00 1.5461839150501764e+03 3.8690157955988980e-01 6.8854747132863849e+00 1.1841098130389582e-01 -8.4250057185883634e+01 7.9665794040309265e+01 1.3888620109942713e+02 -1.1495537608256564e+03 1.8719878428646552e-01 -9.8228647932992317e+00 7.1128574254689738e+00 -2.2076401964586694e+00 3.1928626091009937e+02 -2.4083164271712303e+02 9.5211444448530674e+03 3.5259142867071205e+00 9.5917807458681636e-01 -6.4348558130487800e+03 3.2027651294629322e-01 3.2133453276357614e+01 -7.6074020795385877e-01 2.2475456035532989e+02 -5.8678306200657971e+01 1.0944027235778049e+02 -4.8095639483523555e+03 1.3341565018272377e+00 2.6969736421713606e+01 3.1055558465026216e+00 -5.4269951111113187e+01 1.3064005145104602e+01 -6.2326754040084779e+01 1.0498544509649277e+04 3.9657128740027474e+00 -1.2723965249740732e+00 -4.6304172672331333e+03 -4.4917401177841998e-01 -5.1812245634847471e+00 3.2120095867867349e-02 -4.2542651896947064e+00 -3.2634944221164398e+02 1.9468158090487123e+01 -6.7076637236215174e+02 -6.1367971070808380e-02 4.8957799910234577e+01 1.1861637289192004e+01 4.7972796066896990e+00 1.5487251739087515e+02 -6.1727347712963820e+01 -3.4293549688458443e+03 2.9412889085006100e+00 1.8459330508159155e+00 -2.2707032734453678e+03 -4.4547857937432127e+00 8.6443759771063924e+00 1.2422697592737677e+00 5.8693557177670300e+01 -6.8959352617734112e+01 1.4426131399792212e+02 -1.8258400947554037e+03 3.6499903924413957e-01 -2.7578066940445751e+01 2.4461771925187286e+00 -1.1686230304767378e+01 5.1893451257434208e+01 9.4235457289032638e+01 4.0898531467020512e+03 1.0174310886650346e+00 -1.9566989522381846e+00 -2.1353825679039583e+03 2.3676019490521867e+00 -5.5934075944824144e+00 2.0983807975605027e+00 1.4019195690751076e+01 3.1858913196339927e+01 -7.2463227070984431e+01 -2.2724454807117581e+01 -6.1948077438937617e+00 1.3282514538906980e+01 4.6388958146892545e+00 4.9245491583124618e+01 6.5413883942321570e+02 9.6948454567370936e+02 -6.8207301676869392e+03 1.0411684331572362e+01 -2.4385676021830474e+00 1.3026335503938426e+03 -4.9129364658144974e+00 2.9671559095735116e+01 1.9900368705418974e+00 1.4491397065353419e+02 -1.1838793206458719e+02 3.1100186474881230e+02 -1.9879756384457874e+03 -2.5955609779443289e-01 5.5729481424968867e+01 3.7216691437977256e-01 -4.1994048823939629e+01 3.4633808447348878e+02 2.4662959716602927e+02 -7.7245178885459900e+03 -7.1853958829808935e+00 8.8205271351853609e-01 1.6998720581145470e+04 4.1763627319962637e-02 -3.0207636401442784e+01 1.6178638923270017e+00 9.9414006447652355e+01 2.3879216266621370e+01 -3.0062121296068653e+01 1.9399910959589761e+02 1.3118103634280542e-01 1.1457683418943688e+01 -2.1895343669195952e+00 -3.5000908177874663e+01 -1.3637598998344038e+02 6.4947534589353381e+01 -3.4634242232143879e+03 1.2114989252842041e+00 -2.2928979341892428e+00 9.1140015138313174e+02 2.6072996457561315e+00 1.8567878996618674e+00 -1.2005865898610877e+00 -1.4757685586828580e+02 6.0933809606457942e+01 2.6170723798684776e+01 3.0253376671606675e+03 3.8704811599385991e-02 -2.0222765241147030e+01 -2.8729314684032801e+00 1.4340901836369028e+01 2.0241953967500012e+02 -2.4132154289772734e+02 8.0843199521303177e+03 1.0118682904256259e+01 -2.7751980668224689e+00 -6.7570894226832334e+03 -4.8475400185656010e+00 5.9403167580250752e+01 -1.8072125551108886e+00 4.5436294337989102e+02 3.1691457346072099e+01 -5.5682485660424413e+02 -1.7560533906561527e+03 -3.9937610198127000e+00 3.0756045030512610e+01 1.2717189324687080e+01 9.8128131892592023e+01 1.0077152972087231e+02 6.0819647133712351e+00 3.4017908333525993e+03 -4.0691376147113587e+00 2.0584353562360853e+00 9.6897759769671848e+02 -1.3976516534969090e+01 -1.8696592214833153e+01 3.5998622534057034e+00 -1.0537626862892967e+02 -5.2660688544126481e+02 -6.7818145565396776e+01 1.4892480813319521e+03 9.8661007841675197e+00 -1.7091306285210345e+02 -5.9226079202198889e+00 1.4175867833779193e+01 -1.7674702866934240e+02 9.3343015730381012e+01 1.2483324509561062e+04 -1.3093718689362959e+00 7.7747842054194560e-01 -3.8984309668373317e+02 7.1807687223187155e-01 -3.3533867455844302e+01 -7.8098853957908432e-01 -2.2945997038856149e+01 -1.6183222112769727e+01 -8.8421452529728413e+00 5.1364030012860894e+01 -1.2787343673344367e+00 1.7519340609869687e+01 -1.3568593758461070e+01 -5.3708897262153926e+01 -1.5164179830899423e+02 5.3067912284683825e+02 2.6867000695285969e+03 8.7562076849396142e+00 -4.5623688103079028e+00 -1.0262683201941662e+04 1.4227459041944797e+01 -1.0625546031833778e+01 -1.2683618400554462e+00 -1.4410259731616507e+03 3.5892655497001556e+02 1.7833086165778801e+02 -7.0920129171547796e+02 -1.1800218238982914e+01 2.4953594838512373e+02 2.5397237771358050e-02 5.7196325993711980e+01 6.3597135507584483e+01 -7.3063674540397415e+02 2.2116519474260040e+03 3.9768173384868906e+00 -1.3042452677987058e+00 -1.6491181652270261e+04 1.7598050449942093e-01 9.2564994818368973e-01 -3.6849255091146915e-01 -2.2156162801004048e+03 -3.9701696092971878e+02 3.1501537476815713e+01 -7.4850696950943366e+03 9.7093804930488936e-01 6.0978173639477085e-01 -7.7243225146180266e+03 
      </Row>
      <Row Index="127">
        -1.5876972281275381e-01 2.1777465434544752e-01 1.7523611610687340e-01 -6.6959911768307734e-01 3.8014818078736425e+00 9.7288427484079065e-03 1.2884943807376770e-01 2.2342711620899536e-01 -1.6043752661066174e-01 1.5577610740302816e-01 -9.0929771898550893e-02 -1.4099021727214680e+00 -3.9725180950071604e-01 -2.3727492496720970e-01 -6.1516583818064419e-01 1.8267057992940217e-01 -6.0426171373052284e-01 6.3600557721564144e-02 8.0872302491457049e-02 8.9163914668006328e-02 -7.9162156437246267e-01 -8.9153480270470027e+00 -4.0707529032801282e-03 4.1232967190106606e-02 -2.5342515722341830e-01 1.6396679554567806e-02 -2.9262611831671848e-01 3.2662296624371034e-02 -1.6067891946495294e+00 2.4498377935579185e-02 -8.0924543889525147e-01 1.5749537363142281e+00 -1.5396527136105015e-01 3.9100687100231113e-01 1.7733539902820006e-01 -3.3549441011239622e-01 -7.0810446439276120e-01 -5.4686150863408329e+00 5.0015479305875488e-01 -2.9022087406913144e-02 1.0518423513595820e-01 2.5284288943321371e+00 3.0236488341791556e-01 9.3239338242909753e-02 3.2514468135605545e-02 -2.4260856799314752e+00 3.2310983898508994e-01 2.1798451563267918e-01 -4.8193292187831958e+00 1.0743095871530883e-01 9.7899354675757877e-01 9.8635506636545855e-02 -1.9564931916614725e-01 -2.1987080129122205e-02 3.2347464065339864e+00 1.2584037544424064e+01 -1.7359111085208045e-02 -6.2332711504066968e-02 -4.2862320334461401e-01 1.0661949341562482e-01 5.7754420108636140e-01 -1.5526579549548725e-02 -8.0629019391291479e-01 1.3079973927191313e-01 -1.7112614573255200e+00 -2.0628141007637169e-01 7.5610223893165712e-02 1.2229719824013152e-01 -2.1386231016609791e-01 -7.4581563327974720e-02 -6.1791432752556830e-02 2.1263175824938116e+00 4.4143477086618077e+00 -3.3732211615571384e-03 8.3446837631050819e-02 -2.0687355569798456e+00 -8.5278029404712186e-02 -1.2954799715916465e-01 -1.7175065514118071e-02 1.1921966507638899e+00 2.0269228797397432e-01 -2.0716206798363430e+00 3.5169932475995438e+00 -4.6875095492417529e-02 -5.4729175300621180e-01 -4.0648122446481416e-02 3.7284425756698170e-01 1.2709628864005396e-01 3.6698371291229250e+00 -1.3211317082714231e+01 2.1570001371303604e-02 -9.3624006064892074e-02 3.9829262643340257e-01 -1.7210679896437764e-01 -3.3217337647357681e-01 1.0047178895343334e-01 -1.4624372301767607e+00 -2.9005019715185654e-01 1.2702361989376811e+00 8.2326769033102210e-01 -3.9946659438702969e-01 -8.0667979246736365e-01 -5.4356616442904748e-01 -1.4261818284992778e-01 6.8716539559396494e-02 -8.7612955857468933e-01 4.1122058566688793e+00 -2.7541779815075440e-02 2.0889919325584635e-02 -2.4588586375376309e+00 -3.7635879601654598e-01 3.8269136841906537e-01 -6.7225530461838309e-02 -1.1319261456655347e+00 -7.7754157999765916e-01 -3.8938017802223399e+00 1.0245132914768845e+01 1.9666187892850295e-02 -1.2308298257308019e+00 -3.2805102346152060e-01 8.4661550349775183e-02 -5.7878715466251895e-01 -4.0262707608240618e+00 -4.2772398568631615e+00 5.1770609617108221e-02 -3.5991946145024023e-01 4.1763080654845908e-02 2.0984312349847625e+00 -1.8500403176733933e+00 -6.2196716451085043e-02 -8.6398373536259498e-01 -1.3084608959279365e-01 4.7421018046831591e+00 -1.5367981219910689e+00 -1.7343636074188604e-01 1.3566317315592293e+00 -1.9441995094107689e-01 -3.1927609982532523e-02 1.0112490585244984e+00 -3.3774477759568455e-01 -9.5725762251240667e+00 3.4702987917055061e-02 -1.2084494903403090e-01 6.4685064958416660e-01 -2.0732444092705005e-01 1.3368943707935443e-01 2.5339410076069963e-02 1.3150049765189067e+00 9.1485255535921794e-02 -1.8285580913390618e+00 2.5006423591614748e+00 5.8829490908638871e-02 -9.7029427940852520e-01 -2.3671018426465551e-01 -1.9632265512351665e-01 2.2524762663138631e-01 -2.7589296920317565e+00 -2.0244066061131889e+00 -4.8122264972145778e-03 -2.1615090657703886e-01 -1.4453614631984806e+00 -4.0874901072509812e-01 8.8280158376175777e-01 -9.3443683845331194e-03 -2.2750820157639851e+00 6.2122788177319421e-02 -5.3228986582749371e-01 9.8214224393124994e+00 7.1006732949297380e-02 -6.6678488189259255e-01 -5.5441885819482950e-02 -3.8748713449972993e-01 -1.7977789201683727e+00 -7.3407727420409117e+00 -5.4020804550395951e+00 -2.6343750260998423e-02 -1.8227957757545898e-01 -1.6337633061238819e+00 3.8654143337210223e-01 7.0017935334784287e-01 -8.7097012965474230e-02 6.6863790462322541e+00 -1.2631936074069205e-01 7.0896651923086011e+00 4.0244570629273255e+00 -8.3039992094050830e-02 -3.3389680611790595e-03 -2.9641670117785068e-02 3.4379307465513875e-02 1.1844279192314389e-01 3.1232153522068984e-01 1.6001328860438662e+00 8.2467191748683832e-03 1.0319531268344187e-02 4.5252650733380051e-01 -3.1582856356166200e-02 2.2797969947384900e-01 -2.0159948818176732e-02 1.3105139254030291e+00 -7.8945388177086073e-02 2.7031214058115438e-01 -2.2439355872961642e+00 5.7247522088047509e-02 -1.6813834140406314e-01 8.7049376472524420e-02 4.2172141318161638e-01 1.7715007400451341e+00 1.2803508808452834e+01 -5.3127913628409829e+00 -3.6521768382010961e-02 5.4945164135033653e-01 -7.4155552210361293e+00 -1.8039234266935251e+00 4.5908737915660724e-01 5.8751621722515274e-02 -1.5023691117899705e+01 -1.4223496025286257e+00 -1.1293505441794368e+01 4.0810862981488345e+00 -1.6258910249045211e-01 -6.7633256078977766e-01 -2.7503186611255170e-04 3.8559542851783601e-01 -2.6534482216187705e-02 1.4356408308521830e+01 -1.1647157207086527e+00 -1.1132013461993558e-02 -8.6962532949012461e-02 -1.2918305203420587e+01 -1.2243049045550625e-02 -2.6403264525597742e-02 -2.0188879622345057e-02 -1.7160019538599279e+01 1.8301111257674667e+00 6.7625929209874895e+00 -1.8378523758725489e+00 6.7044103976795499e-02 -4.5108611024914647e-04 -1.7741726656111951e+00 
      </Row>
      <Row Index="128">
        -9.0768994794755509e-01 -6.7140505427209973e-01 6.8536431045140489e-01 -4.5191783569580366e+00 8.2675033462175634e+01 -5.6256987763205757e-02 -2.3691528724469482e-01 8.9460217187915987e+00 5.9849452187857721e-01 1.0396076003371491e+01 5.7507477776908900e-02 -1.9307704414934335e+01 -7.0063592654969398e-01 -8.0994464839386637e-01 -1.1933548911592879e+00 -1.4522625587478899e-01 1.0470954326387982e+00 4.6523642117363693e+00 -4.9861942178324625e-01 1.9246034894422337e-01 1.0861984823815874e+01 -1.3422416013944894e+02 3.0043370158440758e-01 4.1264471298889305e-01 -1.0283066896573018e+01 -4.3404172450321710e-01 -6.6776006349564341e+00 2.0047547792623277e-01 7.2910241872995130e+00 -7.5942336986599912e-02 -5.3698058665657413e+00 1.8283134006167529e+01 -3.5399538571065037e-01 -4.2242559809037061e+00 1.3081222004547044e-01 -1.6840863634456582e-01 -2.3353083947004052e+00 9.6300051550497301e-01 -1.6634421219769865e+02 1.0906669209526854e-01 -8.9282043652644916e-02 7.6945691958389943e+00 -1.0738833116328124e+00 -9.8145287499391998e+00 1.2457007442009882e-01 -7.9671080296111541e+00 1.9288548618137611e+00 5.3089106579227519e-01 2.7202650207589613e+01 -3.1149110505964472e-02 8.8204709615993124e+00 1.1353334257039869e+00 5.8974378317316223e-01 -2.8103336127333023e-01 4.0028325643143035e+00 2.3812046982813627e+01 -1.0286817651736868e-01 2.3325596593099684e-02 1.2569264693796868e+01 -7.2097034225688805e-03 1.8122338801911226e+01 -9.3800496080408635e-02 -1.4561243068233352e+01 1.9657039526205153e+00 -1.6519815666815703e+00 -4.8440502089215443e-01 -1.7890027425544797e-01 -4.1604332369599177e+00 -2.7469724929767381e-01 -7.1788552657835680e-02 -4.0465787676193941e+00 -3.9094135978157283e+00 -1.4228183673275635e+02 9.1025905889026149e-03 -2.0924543287050579e-01 1.0282597405210254e+01 8.6735960735398976e-01 2.4571525106697663e+01 -1.7496913890028054e-02 -4.6979100006792578e+00 2.2804566246777540e+00 -1.5677982416138434e+00 2.0285130732600010e+01 -7.2356391852395063e-03 -1.8369848165833247e+00 -6.6239520025699417e-01 -3.9339627396293508e-01 -2.2703776515022582e+00 -3.8270917940208165e+00 -3.2082766163861379e+01 5.4984392321415498e-02 -3.2835274962828009e-02 5.9881941795429157e+00 4.2562535894890630e-01 9.0408948498470636e+00 -9.1449811729745339e-03 -1.4461984895293426e+01 -9.9197014465651989e-01 -7.4983021224607000e+00 -7.2000695479691785e+00 1.9802890730453271e-01 -8.4423965092964863e+00 2.8423240483838175e+00 -9.7111507205231984e-01 -2.0877459752743164e+00 -7.7535250216678833e+00 8.1989052906632423e+01 -4.0132660948678023e-01 1.4662038549656306e-01 3.5406044113747399e+01 1.8217655520179328e+00 -2.0725194906764678e+01 -1.0809227570819224e-01 -2.5402315721689384e+01 -2.0378881425935695e+00 3.4719440045027739e-01 -5.2487205954345818e+01 1.2165640198580335e-01 4.2462282880587185e+00 -3.5144845792551247e+00 -2.1984872118720080e+00 -2.8362668708557877e+00 9.0562801361731999e+00 1.3605710197100416e+02 3.4803975741178705e-01 5.6768647223565127e-01 -3.0207641660584684e+01 -1.8500403243746817e+00 5.9950991757172112e+01 3.5209527113376332e-01 4.7070755031768840e+01 -1.0200242185835577e+00 -8.6494285060744005e+00 -3.5795789042267643e+00 3.8801179738883862e-01 5.4841675839865029e+00 6.0670088910668643e+00 2.9630692616450283e+00 4.4002243250579340e+00 -3.6182855457688845e+00 -3.8457154020434245e+01 -1.7534638083906784e-01 7.5508804628615067e-01 -1.8444991415686673e+01 1.4646713983606052e-01 -2.1338775048966141e+01 -1.2749293516031573e-01 4.3512029365285230e+00 -8.5744981349878202e-01 2.2540275747523992e+00 -2.2451973286082648e+01 -2.6479603853343736e-01 8.7175180402948715e+00 2.2149287074696189e-01 7.8263721128069363e-01 6.2734866968435199e+00 -5.9178765665274113e-01 -5.2614126245258376e+01 -2.0551150151277131e-01 -4.5675695676792624e-02 1.5970000234699114e+01 4.7548390573169985e-01 -1.5830818028886032e+01 -7.9782893167897773e-02 -1.1535332540488739e+01 -1.7422179116252323e-01 1.1015332684616402e+01 6.2089274933867955e+00 2.3094999093553414e-01 -4.4003927483706580e+00 2.4342602343355910e+00 1.2351898730221542e+00 1.1568902551909446e+00 -1.3835168487476970e+01 -4.3755896311020479e+01 -3.2206977562018130e-01 4.9856573408294097e-01 2.4010749792620715e+01 1.2858194286331526e-01 2.4454473585596240e+01 -2.1662497125499058e-01 1.4206265680033589e+01 4.5563979834774706e+00 -1.2675729761604913e+01 1.5274673856183369e+00 -5.1477730104060038e-03 6.3597300458091510e-01 2.5196581100525464e+00 -1.0394471928157145e-01 -2.0551919391764386e+00 -2.7109622839489020e+00 -1.9633592824172229e+02 2.8688075003111990e-01 2.4581119585843331e-02 3.3770712136720249e+00 3.4727216419215345e-01 2.1745084095374295e+01 -3.8723677852941840e-02 1.7413333596778102e-01 -3.3558618897143333e-01 -2.5896877610357478e+00 -1.7118406726876856e+00 -1.9366874605223217e-01 -3.6958806901343451e+00 1.9298749058928732e+00 -1.8826360433074529e+00 -6.1892533197826118e+00 4.1744653188487206e+01 -6.5487588624783712e+01 3.1934380002770268e-02 -7.5548594812186187e-01 9.8998205954558216e-02 2.1714298822776712e+00 -2.7123234803504030e+01 4.6778886994597327e-02 -1.2006481200790238e+02 -8.9461102849142211e+00 -1.8067784222482551e+01 -3.9268321601261754e+01 -2.4606091160398397e-01 -2.5253332734991041e+00 -2.4898858928672940e-01 -1.5103459568749176e+00 -3.5175868332758164e-01 7.3410942110095874e+01 2.4848814760225508e+00 -2.9431265777343774e-01 1.4317592408650270e-01 1.1431070102074159e+00 1.0339081430180741e-01 -1.2438185520726690e+00 1.2409879099401167e-02 -1.1999091944046550e+02 1.0211203398152712e+01 6.0271470588461305e+01 4.6477263673879875e+01 -2.1091160683590113e-02 -4.3210196214479846e-01 4.6403473635692180e+01 
      </Row>
      <Row Index="129">
        9.6590374795672840e-03 4.7803279191981574e-02 4.2183392219180860e-01 5.8988883864384434e-01 -2.0742685188779433e+00 1.3235399551128069e-03 2.7790287430597194e-02 -2.2385448680324771e-01 1.2319726139341947e-02 -7.8538560069887353e-02 -1.4347287248704266e-01 3.7639779276323893e-01 2.0170160965898276e-01 -2.0812261132118692e-01 1.6940970861355709e-01 -6.9025545437153113e-02 2.9875041877727426e-01 -5.7770839166472854e-02 -2.8822970419344784e-02 5.7907885164706840e-01 -9.5632620902051713e-02 3.6732914764434099e-01 3.5109137957434200e-02 5.7755173074150790e-02 3.5199250212900779e-01 5.3617648844834775e-03 -3.7533086062182974e-02 1.2282761574303080e-02 2.0518195941300377e+00 1.4020545440118326e-02 2.7142806443715983e-01 -8.9953991230777319e-01 1.0443664833050326e-01 6.7379862090266585e-02 8.2525311937622803e-02 -9.8970812000942487e-03 -5.0143409763785485e-01 1.1179367985514546e+00 4.8191291423427174e+00 3.5662700931489155e-03 7.0729218679796091e-02 -8.2689620039855072e-01 6.3128830112102463e-02 -1.4215510180116553e-01 9.4086788467243387e-02 1.3043103327302674e+00 -1.3193980363837454e-01 5.8796595639159932e-01 -2.9264354550628013e-01 -2.7208591797647941e-01 -5.2440776823345914e-02 -1.0002801735743028e-02 -6.8002328462718253e-02 5.7501269739515237e-01 -9.1643758361124128e-01 -2.0369637632975355e+00 -4.6687104812486169e-03 -3.2001518386772343e-02 1.4362377273391758e-01 -2.8143174696934545e-02 -5.3940930698384904e-02 1.6751741381785257e-02 -3.5355276578850692e-01 4.4668258578068887e-02 7.4608717680143855e-01 8.4879513135183515e-01 -8.7606270533470629e-02 5.8935900669905728e-02 4.2921182930342638e-02 -3.1115781042217350e-02 -5.4006870755574710e-01 -3.6694513540942353e-01 1.8470834758772980e-01 9.8049637158670322e-03 3.4269546195649647e-02 1.0733506368969756e+00 5.8323235048895583e-02 1.5838853449849921e-03 -4.4820248106780092e-02 1.7717520195355974e-01 -2.4711967465577800e-01 1.8851406565168816e-01 -1.4380468614524489e+00 6.8832404778358836e-02 2.1200948178093482e-01 4.5517061455095376e-02 2.5304637546241793e-03 -3.6201047342088088e-01 -5.7421899918085728e-01 1.8173854026390472e+00 -2.4838089663923313e-03 -6.3797310914787353e-02 -2.3905222385187130e-01 5.4588936177879077e-02 1.4374335468050958e-01 1.6677998618316436e-01 -8.5512050443298904e-01 1.6556133492191538e-01 -8.3330914143459722e-02 7.1893767115057017e-01 2.6777511031765311e-01 -1.5479123324897159e-01 -8.1685768350817062e-02 1.7520980208637260e-01 -1.2401453956480921e+00 1.2000615892554833e+00 -3.4150648833019659e-02 4.6706594505443455e-03 -4.3740075601774939e-02 -5.9116350446985422e-01 -4.0864643602200795e-02 -1.2410334291663283e-01 -1.5445031337915757e-01 -1.6274109552144083e+00 2.5968825698513065e-01 2.5500871054118335e-01 -1.1895424300610102e+00 1.8192813226104512e-01 -8.3551995302419968e-02 1.6970804898052139e-03 2.0769471488184976e-02 -5.0492334710728315e-01 4.5958407888736019e-01 1.0557242498791311e+01 -2.9135985003186260e-02 1.9297860738436187e-02 1.6178624052490136e+00 -6.2196717280518676e-02 3.5209527300936116e-01 5.2229052689088984e-01 5.9960093180809508e+00 2.3003272650990425e-01 -9.5621578215161662e-01 -5.2814772819726272e+00 2.0840840114365394e-01 6.1903467494968512e-01 -8.1705813782991243e-02 -9.6494902952935391e-02 6.0164940978023651e-01 1.1844827822177280e+00 -5.3281573461572407e+00 1.1676132185427679e-02 -6.9991245335971203e-02 -1.3673149839110010e+00 9.1301876119543324e-03 -2.6513127032583128e-02 7.2366736478658600e-02 -2.4623933368658726e+00 -1.9668808627386625e-02 -6.2285993408067952e-02 1.8497001525183805e+00 -1.0742743142267919e-01 -3.1351690554884870e-01 -9.1899006271172423e-02 3.2586515709629893e-02 3.5190973949116255e-01 5.8159659001785258e-01 -3.5059781426098198e+00 3.3312003187140421e-02 -2.2844694667325433e-01 -1.0107506283611656e-01 -1.1539045415097660e-01 1.4704509988450098e-01 -1.1932684734258096e-01 -2.6119551017011275e+00 3.6302652152972570e-02 -9.7379641554700669e-01 -2.3515902783351237e+00 2.8178606837101233e-01 6.6842453581240857e-02 -2.2434517512626395e-01 7.2333258772397269e-02 -1.6325848088767752e+00 1.1485328767688792e+00 6.3019834577971778e-02 -3.5718359798680932e-02 -3.3505150434191430e-02 1.4433000562635101e+00 -2.4070723681287404e-01 4.9214965067640559e-02 -2.0279614492014092e-01 4.4164440885863954e-01 -1.8815525572664341e-01 -2.2621295520674316e+00 -5.3153795934428594e+00 4.0698611897101267e-01 4.5149617769715578e-01 1.5510502743936172e-02 1.5134764433355485e-03 -4.4270457868151425e-02 -3.3139395764010260e-02 1.9031250693660695e+00 1.8548285472896220e-02 -4.9481295543813905e-03 -1.1767325126891137e-01 1.0840548586092402e-02 4.8790872249497852e-02 3.8893510275736509e-03 4.4887837483747717e-01 9.7635686138744404e-02 -1.8649589710003056e-01 1.6690188794791538e-01 -7.0145620656293151e-02 1.0490214580924118e-01 1.6321909714738597e-01 3.0509716114608176e-02 5.8121395173257717e-01 -2.6263084151050045e+00 -2.8114318255953208e-01 5.5626949960974573e-02 1.2995786461001141e-01 -3.7925271958974918e+00 2.3910763090464188e-01 -3.2993815095019674e-01 -2.1278419104705978e-01 -1.2201811940626401e+01 8.3244154920070978e-01 8.1293346561627366e+00 3.2218859873852965e+00 -1.4720911389614649e-01 -6.9346661564925483e-01 2.4275818342628375e-03 9.2091807790950053e-02 -9.5546769874393367e-02 -5.2723890063993499e+00 -2.0414425669112006e+00 -1.7221778753794416e-02 -5.5574864868342733e-02 -3.2080119843932264e+00 8.3246735197324284e-03 -6.5105436063481181e-04 -5.9852838154793586e-02 -1.5885826649950237e+01 -1.1390298837378747e+00 -1.4140681409895768e+01 3.7505881729401347e+00 -7.5032088053956919e-02 3.5633170064915190e-03 3.2082160648952538e+00 
      </Row>
      <Row Index="130">
        -2.4151320320367939e+00 1.3467235198639173e+01 1.7491821288000210e+01 1.9984768560978409e+01 4.4852138786655851e+03 -1.0507489976466786e+00 1.7864388976458050e+00 1.5870173125504516e+02 -3.0948109453072004e-01 -1.1242958294038544e+01 -1.0419234352156650e+00 -2.6338049973436318e+02 -1.2973418542133004e+01 4.7198863765806891e+00 5.0625743460652302e+01 -5.8742954989679674e-01 -6.9804435325131635e+00 -6.8829446513427683e-01 -1.7713177011546577e+01 -3.6177489766574581e+01 -4.3386550673632883e+01 -3.9408307981491089e+02 4.7159023498997685e+00 -1.9142778934599392e-01 -2.0690445388014632e+02 6.5716798323666126e-01 1.6678400237738970e+01 1.2681980028251019e+00 1.6987982809014948e+03 2.7559583917538475e+01 4.8500741763305086e+00 6.9135906981595326e+01 -3.5988772965811222e-01 3.3547529938212392e+01 -6.9373258464565879e-01 -3.3436683304005783e+01 -5.2137142119347118e+01 -1.7485771331004798e+02 -1.3381958258571103e+03 6.4357474750167967e+00 1.6776709383987054e+00 -1.7517559682321735e+02 2.5442597426690554e+00 9.0419808396654844e+00 8.9082259586450618e-01 7.8318966586313036e+02 3.8871904291452665e+01 -5.1410204669024097e+01 2.9421673589025158e+02 -1.6363493748231122e+00 4.0502197975576564e+01 1.0643727002716830e-01 -3.7615427961010028e+01 -5.8551247962750494e+00 6.0901006691507064e+01 7.2674154836684465e+02 -1.6153285012080687e-02 8.9889911521834343e-03 2.4157566700084135e+02 5.5843238889175351e-01 -1.8389638842884921e+01 3.2874998676561518e-02 -2.8968811805701989e+01 1.4787265661564817e+01 1.2512902681060950e+01 6.9863862576195970e+01 3.2496772993442913e-01 1.0397368084540233e+00 -4.5445118430507137e-02 -7.4450704274186137e+00 -1.3595511529565556e+01 6.1626649729325436e+01 -5.6239378323778510e+02 1.0852202829414637e-01 7.4823847141544775e-01 1.2163681969552999e+02 -1.0533140848456242e+00 -8.6175707685833913e+00 2.6525439224235470e-01 -5.6628083338087890e+01 1.8020234399285982e+01 1.2404298354155799e+01 6.8922958461043891e+01 -2.6530368808380445e-01 -1.2595500514742980e+01 4.5046638188820332e-01 -3.1214468482066877e+00 9.4446811250563769e+00 6.3233033628726844e+01 1.7062887321356684e+03 6.5190021419402910e-01 -1.9842038620054723e+00 1.4243041391018778e+00 -6.6261722849208127e-01 -1.3638435305954772e+01 5.9560581181793859e-01 -8.6202140345500084e+01 -1.7385252732811978e+00 -7.1421551420848118e+01 -2.2439484368427657e+01 6.6299935284018829e-01 -1.3078062852764560e+00 -1.6930355888567794e+00 3.6676462435140834e+01 -1.4453294353518700e+01 1.1843636796425562e+02 7.6974518425017595e+02 -6.6398994770781750e-01 -2.2398023982173210e-01 2.4365960707456679e+02 -6.1687914672390609e-01 -1.8767272975018095e+01 -1.9665333053966627e+00 -1.4251014577183719e+03 -6.1598385013865141e+01 -4.9595911872983152e+00 -2.4682441697026792e+02 1.0284445050365694e+00 -2.5026082255912797e+01 -3.5290033478812237e+00 1.3287132323896287e+01 -2.5691998401693127e+01 -4.8060092479274317e+01 3.3973832891583443e+03 1.2529767334996333e-01 -5.1944711840719004e-01 9.9413994525775053e+01 -8.6398371655423034e-01 4.7070755311358880e+01 5.9960093415050562e+00 2.4068548204214967e+03 -4.0553635090946045e+00 -5.8749231713998597e+01 2.9030964064731961e+00 -2.3958333090536521e-01 1.4045691266348939e+01 1.0265491568753111e+00 -6.0713328710294292e+01 -1.6051036786957411e+00 -1.2272261138203487e+02 -2.3568072036840022e+03 2.7111323788920796e+00 -2.5546963946637860e+00 -5.8923085840290878e+02 -1.3376314628898189e-01 1.8578863685929718e+00 -5.6097710885344476e-01 2.4131955435361533e+01 4.2733915347006644e+00 -1.3887504566198913e+01 5.6984208512760233e+01 1.5674206285120178e+00 1.0806812506185445e+01 4.5595270927402609e-01 8.6492452454078261e-01 2.7416507534209813e+01 5.6283307670819340e+01 -1.6428296253830194e+03 -3.2937917761251168e-01 -3.0023373518073626e+00 5.2847145664075470e+01 -4.2752762504749962e+00 -2.5036027825158513e+01 -2.2790152224677054e+00 -1.5396024081714972e+03 -1.7659309636250839e+01 -1.4379129024154963e+01 2.4656889660477663e+02 4.3028172367427056e+00 -1.9237605555012298e+01 -1.5364316046827762e+00 1.6660259307183459e+01 4.6967428747449986e+01 -3.1918547195290387e+01 -1.4589275523105171e+03 -8.8435598902332551e+00 -1.3457477611145001e+00 1.0651047684908553e+02 9.5088378551211505e-01 -4.6988942853645277e+00 -9.2118279512106938e-02 -3.9390317148698887e+02 6.0710930427624703e+00 -7.1443871482625525e+01 -3.8160337376940834e+02 9.7626375666677845e-01 -2.9778417964884930e+01 2.0785236650317529e+00 5.9036421317432541e+00 1.5625726073369151e+01 6.8457924100104719e+01 -8.9566805163398385e+02 5.5216872453860333e-01 4.2136875063308388e-01 9.3808403265342349e+01 -7.2285791190140625e-01 -9.8954657553949801e+00 -2.2383381228252830e-01 -5.5387696499237791e+01 -1.3761217111662518e+01 1.1100328511791304e+01 5.2510891276993789e+01 2.8281396116346968e-01 -1.5516378117537897e+01 3.2360405632356759e-02 3.6451994949759232e+00 -4.2313176950428996e+01 1.0503502977004672e+02 -1.7028070613228901e+03 8.2343950281860110e+00 3.8390166948616815e+00 -2.4264137015165761e+02 1.0303755924216489e+00 -5.6612210839072347e+01 -3.9958952100235248e+00 -1.9919495306237322e+03 -4.9780072055835689e+01 -1.1421909147009231e+01 -1.5324474970587778e+02 -1.4701243935372568e+00 2.4638583183593539e+01 -3.1436624827961168e-02 3.8236847186336774e+01 -2.2814978130889587e+00 4.3951525075044337e+01 -7.2372266326593456e+02 -1.3584809742808197e+00 -1.0989083042908021e+00 -2.4533814898705344e+02 -1.2951578497376204e-01 3.4999959747179332e-01 -2.1932117916492189e-01 -3.8446368823346791e+02 5.3772349605667969e+01 1.6077715042237679e+02 4.4459660354975063e+02 -1.1940480965252898e-02 -2.3107919909211727e-01 5.1939497450234569e+02 
      </Row>
      <Row Index="131">
        -1.7822824868783815e-01 -3.4946090504299718e+00 -7.6981648016953841e+00 -1.1247027990638344e+01 1.2008485619723797e+02 8.5942090758479139e-02 -3.1407804854839916e-01 -6.9771416015373688e+01 -3.7429326866064849e-01 -1.8917525510187261e+00 -5.4702490933429715e-02 4.0429737861478543e-01 3.9350440602100207e+01 -1.5715432160541241e+01 2.1206607421687295e+01 1.2600838956782923e-01 -5.0110321667341395e+00 -1.7161220284236833e-01 -2.4827893299897710e+00 -5.6321098651769717e+00 1.7661215910804458e+01 3.7929514694120735e+02 -1.1365997035624398e-01 1.1249952930148055e-01 1.5228145325466176e+02 -7.6858710926558160e-02 -1.0972777555198263e+00 -1.2087167811046129e-02 2.0515440187136392e+01 -9.2874496813340102e+00 1.0326624904372068e+01 2.4790363004455139e+02 -1.2559658046302147e-01 -1.5892700516034211e+00 2.4597837338319550e-02 -2.7942602156817884e+00 8.6939923831641863e+00 -4.8526638237963198e+01 9.6630029537715018e+01 8.4064379375604403e-02 -3.1061136347886986e-02 -6.5881140816840343e+01 -3.3664618083474807e-01 -2.4347438359427542e-01 1.1712811363067743e-01 2.1539452673952837e+01 -2.8628567087222564e+01 2.1098564240501219e+00 3.0231182972099487e+02 7.2091260034198967e-02 -2.3202436774499802e+00 6.1696390709744153e-01 3.3953253475850715e+00 9.4088222178861542e+00 1.4501625855056773e+01 -3.7630393600463867e+02 -7.2481919966520536e-01 9.0638459590843448e-02 -1.3563942514848895e+02 1.4038786048715224e-01 1.8757336585880182e+00 -2.4587430567500235e-02 2.2270847073008099e+01 -2.6407827052608031e+01 7.9186037540712277e+00 -2.3334514857488102e+02 -2.3771850560165886e-01 7.7625522421868300e+00 5.8482144606585962e-01 -5.8394261490932422e+00 1.6056879265115640e+01 -2.1698186521069147e+01 -3.2261653698305599e+02 -1.0335503012948166e+00 2.8741577100879567e-01 -7.8116528219878091e+01 8.7482545872603623e-02 1.4566078932139135e+00 -2.2940588659960781e-01 2.2940060433065810e+01 -8.4146369152634179e+01 1.3080073759091988e+00 2.3872185969676138e+01 -3.1603367443776165e-01 1.4027948200109996e+01 -1.3111728578529958e-01 1.3220431755416939e+00 -5.3036774520137442e-01 2.9276022410675068e+01 1.6514405914861709e+02 5.9948394503317104e-01 2.8454566863388209e-02 2.1072877615185007e+01 -9.4740616813737688e-03 -9.5527463751682262e-01 3.3624633245747704e-01 2.3146318072758731e+00 4.6034907913335715e+01 -8.4163079421923612e+00 -8.9139776881893340e+00 2.6818135206207216e-01 -1.2108634098799484e+00 -1.2980132186149156e+00 -4.6990632601628413e-01 -4.1270913920994019e+00 1.8197312510055781e+01 -3.3761487939860672e+01 1.0350501582946352e+00 -1.2905639946951364e-01 1.0860319919165545e+02 -3.6799691496766140e-01 -7.8921165666195137e-01 2.8357411512282638e-01 -1.1652750869708552e+01 4.7075044510740149e+01 3.1653536913267018e+01 2.4338061277195374e+02 -6.5862704272991346e-02 -6.2986315418063565e+00 4.3268589057324336e-01 4.3618694108201908e+00 -1.2791181884847447e+01 -1.3795161826386448e+01 -6.4217273698188365e+01 -8.5144551165318916e-01 -5.0300781919839332e-01 2.3879216354666966e+01 -1.3084605120663895e-01 -1.0200239752166453e+00 2.3003272899579230e-01 -4.0553630088052159e+00 1.9254061452681481e+02 4.5232732710966957e+01 -5.9009150256267094e+02 5.9836647954247191e-01 -1.0403076962824493e+01 1.0934671723025988e+00 1.1082996712730333e+01 -7.0177115290807706e+00 -1.5512950701290265e+01 -1.6796340679656714e+02 9.6382161254766729e-01 2.6773739767770199e-02 7.0256759220181266e+01 2.7425404185594959e-01 3.1658081021453199e-01 -6.6543445382730937e-02 5.8775616510429245e+00 1.1442202256583947e+01 -3.1365161258127046e+00 1.6961713639815571e+01 -3.9566797683130162e-01 -9.5102381456006313e+00 -9.3265338276866483e-01 1.2925106490102294e+01 -1.0278339138227238e+01 -8.7830998940626159e-01 6.6430275381519459e+02 5.1531042989063680e-01 1.6534383426449750e-03 3.9880840748312153e+01 1.8945270836218864e-01 1.0470510397198254e+00 1.0894814333001898e-01 -6.1379057258993726e+00 2.9192605054203710e+01 -1.4338563530742846e+01 5.2403670569110227e+02 -7.6847598750162893e-02 -4.2231692241517198e+00 1.7910318594278325e+00 -6.7538466764975151e+00 -1.4584303565623344e+01 1.3992108992753952e+01 -2.0577015983947786e+02 -1.3416508971923473e+00 4.6855278730095395e-01 1.7860754256651077e+01 1.3838684497877596e-01 1.1596762943094152e+01 -7.0082667725157410e-01 7.8006216961708603e+01 -1.0217257769986378e+02 -9.7554225352921264e-01 4.2430240140756115e+02 3.2897674673086252e-01 2.2942583572951752e-01 -4.4430311116855137e-01 5.8039258961607629e+00 -1.3570516574909561e+01 3.2399519125348888e+01 -8.3404605274554342e+01 1.3458719665046379e+00 -8.9553783017019939e-02 3.3628539150469805e+01 -7.0743872648486583e-03 -2.5898831338463424e-01 2.3780774390325554e-02 -1.3804893374923267e+01 3.8257693412224398e+01 -8.8316057570336852e+00 1.4501078329812299e+02 -5.8997253429105001e-02 -2.0529645516172081e+00 -3.2372964464062508e+00 -2.4705569624809431e+00 9.4538422689652677e+00 2.4740533399327937e+01 3.3698686397460733e+00 2.9438436688871339e+00 -3.5177983195488804e-01 1.1523540650452924e+02 -6.8971939418334038e-01 -1.2217646843705296e+01 8.9821046322204035e-01 -6.4735403347704818e+01 9.3310889812609389e+01 2.9518598511062990e+01 1.4918395584381858e+02 -3.9118732729679562e-01 6.9598780446880681e-01 -3.3876496693924452e-02 -1.7218982292210093e+01 2.4946795541855749e+00 5.3974113305689244e+01 -3.3830871091210150e+02 -1.9274717570768005e-01 5.3610582622724223e-02 -1.2793894490800216e+02 -6.8723155904564237e-03 2.8584424657084107e-02 -7.7649633273317420e-02 5.1170127828750708e+01 -2.9497457510923454e+02 -1.2416453217129541e+02 2.0973852997928495e+02 -4.1822269195122427e-02 1.3093425270989589e-01 5.1631228579616817e+01 
      </Row>
      <Row Index="132">
        7.7463676842534257e-01 -1.0408399187622308e+00 -7.7043724987015594e+00 7.0569435225004781e+01 2.4505657864303794e+02 -8.8526067430711919e-01 -7.2349327934542673e-01 -3.3247518139309250e+01 -1.4761701024617069e-01 -1.7441016154334648e+00 -2.3819543486945349e-01 -9.2315787051331881e+00 1.7898051583828419e+01 -2.1362980286120001e+02 -1.1488907327864581e+01 1.8262111016952076e+00 -5.5047825511542214e+00 2.3491966456406317e+00 7.9261902552309493e-01 2.1429538410324312e+01 -1.2189308653515764e+02 1.1810922803729773e+02 6.4581721858248953e-01 2.1436176932445505e-01 1.0681668394868211e+02 5.4058571720351267e-01 -1.0674158538949996e+00 3.0167904488413910e-01 -5.5817436739384448e+01 -1.1528635580046284e+01 3.5588770237760241e+02 -2.0314511157252127e+02 -1.8566064616264057e+00 4.7279197334653418e+00 -1.0719494963298075e+00 1.2348743471052330e+00 5.0744839739349118e+01 1.7946012114419136e+02 4.9825430366443470e+01 8.8040316737988178e-01 1.3147393771112093e-01 -1.4978646940318868e+01 -8.6766636777610984e-03 2.7426066515208731e+00 -2.4559678160622411e-01 -2.1369397954753367e+01 -1.4525293974509623e+01 1.0873622881314077e+02 1.3033051421446726e+02 1.7272044880633075e+00 1.0109787350838815e+01 -3.7111307029880525e+00 1.7070160036942070e+00 7.9272162015608046e+01 -8.2405855677570798e+01 2.6621311036031693e+02 1.6488011166723027e+00 1.9625980568360006e+00 -6.8153980026836507e+01 -1.0622047127684882e+00 -1.2507920944546839e+01 3.3037646392716624e-01 2.4927485044288915e+01 -1.7636988682915984e+01 2.4867726967269118e+02 3.6399302392354002e+01 -3.7284289987850801e+00 -5.0947792799982494e-01 -9.1883306637782880e-01 2.1001328826805548e+00 7.4153343791724183e+01 -8.8402727474807762e+01 2.2383175266534090e+02 1.6448079288151689e+00 1.0197485409935503e+00 3.4454027306637727e+00 -9.7277926313586249e-01 -2.6195339275454899e+00 -4.3243672028111746e-01 4.0569618369030650e+01 -3.4230915249438112e+01 1.4938718716501444e+02 -3.0010505442682188e+01 -2.0295333177140265e+00 1.3130747778736236e+00 3.3288183967215978e-01 -2.2036921161052305e+00 -7.0354729982281242e+01 -2.0977937043632846e+02 -1.5109955452755094e+02 -1.1353711994971718e+00 -3.3734786378275317e-01 -3.5836167745905186e+01 -3.2698846016410243e-01 3.1235259383447556e-01 8.9056264443812738e-01 -3.3594922412077722e+01 2.8060682645270532e+01 -1.9420854552592573e+02 7.0213220612684381e+01 -1.3894169150827906e+00 -4.5051903831135860e+00 -9.0724512491646898e+00 3.8616296938757841e+00 1.7804292117056832e+01 7.5528688566555502e+01 -3.1445373880770057e+02 5.3650017308632565e+00 1.6368496541040287e+00 -1.1427228858138335e+02 -8.4965792240684435e-01 -2.8628924192906382e+00 -7.1784897382249913e-02 9.3247533752142431e+01 4.7260624214930012e+01 7.3969213195154691e+02 5.4924750700402660e+02 -6.3954481936059011e+00 2.9910691785207186e+00 3.5862674277118671e+00 -1.2044605417235289e+01 -2.6571728453583455e+02 -1.7489163195766378e+02 -7.0020504893735051e+01 -4.8323407909844525e+00 -2.2801184941556043e+00 -3.0062344918203834e+01 4.7421018893320479e+00 -8.6494272742311296e+00 -9.5621583894191176e-01 -5.8749228591590509e+01 4.5232736403727358e+01 1.1003071504541258e+03 -4.4171305341221523e+02 3.8892995733054265e+00 9.2454469892986566e+00 -9.5876717894388008e-01 1.5683741218465173e+00 -6.1302875851852150e+00 3.2382290646409842e+02 1.2717256178474054e+02 7.0474224820503650e-01 3.3828826046261007e-01 8.7038551492500119e+01 7.0821255049040732e-01 4.9986677301178588e+00 1.2895907357012618e-01 8.1830773916414046e+00 9.7808445373738095e-01 -5.4490653549677518e+01 3.4014759318146389e+01 -1.1531491133388627e-01 -5.1339499598254434e-01 -4.6606160600715274e-01 1.6676548615510285e+00 -3.2824516445562040e+01 4.7496601648890646e+01 7.3625006875023246e+01 4.0580827444105871e-01 -3.4346305321247339e-01 -3.6182559048239455e+01 5.5587470247584037e-01 6.3726408433610686e+00 -1.2395772637744162e-01 2.1669457851062134e+01 1.2534678191055036e+01 -1.0258887028385848e+02 -2.5061031130725951e+02 4.9273215062815590e-01 -3.1916872144165040e+00 5.7573747331287226e+00 -1.2587524583827239e+01 -1.2820314511571937e+02 -3.1564922665258683e+02 3.4782959221745841e+02 -8.2874287478965449e+00 -3.1975182473601302e+00 -7.8394683967101059e+01 9.1342300391538647e+00 2.6782888673486323e+00 -4.7706484625689356e+00 -1.7045599090595437e+02 -5.4190619341635205e+01 1.3900059353211378e+02 -5.2970503608084323e+02 7.4781092768502742e+00 3.4644951555593764e+00 3.4575914583977010e+00 9.8274245156608231e-01 -3.5487858571155812e+01 -7.9404600928770378e+01 -3.3337252238765359e+02 9.0322065495272952e-01 -3.1892239267880917e-01 -1.7952869594009826e+01 -3.7946451392543779e-01 1.2055132371324362e+00 -7.1999795507657893e-03 -1.5798981167463353e+01 1.2817860884772017e+01 -1.9100054272776470e+02 1.5005382703815121e+02 8.2416352273791915e-01 1.0175612894272490e-01 -1.3699041170350489e+01 1.7319732790745981e+01 2.6792990405107730e+02 -5.0266618372051198e+02 4.6101050372834652e+02 1.4800279649061842e+01 5.9989431527359542e+00 -4.4219561588557553e+01 -1.2916553579596414e+01 -1.5123762028564464e+01 5.9523253410213437e+00 -4.8715814090162610e+02 9.2329147098788013e+01 1.4251430654511973e+03 7.1626186913325910e+02 -1.7331521831699025e+01 -9.1443319553742413e+00 -1.2463012745402224e-01 -6.9268056407380438e+00 2.2428637862060263e-01 -1.9805877253121348e+03 -2.5471532417767685e+03 8.4941542967997830e-02 -1.7335543682435173e-03 -2.8934727279435765e+02 -2.0936150982464596e-02 1.3740585812194839e-01 -1.7705503934648448e-01 -1.2701556435686653e+03 -1.3018562280011096e+02 -5.2977535195067676e+03 4.8461271772489454e+02 5.5618431367625898e-01 -1.3943594521636404e-01 -1.4939976062806946e+02 
      </Row>
      <Row Index="133">
        -8.8712573107448094e+00 -2.3553283821136574e+01 -8.5204463175032288e+01 -2.3420396347396309e+02 -1.3961760036051273e+03 1.6370725570439390e+01 7.7679403628561516e-02 -2.9616002373644151e+03 -4.0732565286750155e+00 -2.1387852435291279e+01 6.4559440875382279e+00 7.8582479626813438e+01 7.6454996083164588e+01 -6.2692635757615790e+02 3.1812415951280855e+01 -7.0920980676673935e+00 -5.4615423484065104e+00 -7.8776909717635135e+00 -5.2370168595771247e+00 1.0354401662608143e+02 3.3834397163288668e+02 7.4738611680269241e+02 4.8533128413277922e+00 -1.0296455764682833e+00 9.6901182268047705e+00 -3.0160788310313364e+00 3.5934130240813829e+01 -1.4100290674978169e+00 1.1882844259164267e+02 1.7705035139368556e+02 -5.6167277842141630e+01 -9.0219821562226862e+03 -4.5837347043682257e+00 2.9184904329726123e+01 7.1618604884570232e+00 8.8393216662225313e+00 3.4435789902496617e+02 2.2159585952758789e+02 5.7193661271035671e+02 -2.5950349502782046e+00 -5.9165401726022537e+00 -3.9444796821493655e+03 -1.8570029769871326e+00 4.7906678639934398e+01 1.5368032467899866e+00 1.6885510328796227e+02 1.1326931084808894e+02 1.9050815539131872e+02 -1.1775249935491476e+04 1.4486208982511016e+01 5.7652089509880170e+01 -5.7839933652709696e+00 3.9353199052799027e+01 2.4687578019348439e+02 -2.0540377470757812e+02 6.2944891768693924e+02 5.2472691452831896e+01 2.6895919337232650e+00 -2.1374268434457481e+03 -5.4833560869778442e+00 -5.9110607033234999e+01 1.5293059603372967e+00 4.1508391363720875e+01 -2.4173748613445014e+02 1.8191438613145147e+02 -2.9080205332264304e+03 5.1340622819803912e+00 -3.2000958176340490e+01 1.7851996833262092e+01 1.7961515120943659e+01 4.6166523772513028e+02 3.1160235198680311e+02 -2.3006790656745434e+03 2.9250761237060033e+01 -4.9160503937564499e+00 -1.9889851221144199e+03 3.6527533260305063e+00 -9.8023648170055822e+00 -6.1672966854257538e-01 4.2288458157330751e+01 -2.0160890935687348e+01 8.0728995687670249e+01 -1.2432310032685287e+04 -6.3207589996563911e+00 6.0540077502387703e+01 -1.0427070500011709e+01 -5.2376963285496458e-01 -2.8929645634259214e+02 2.5146056719124317e+01 4.2367036814391613e+03 -2.9312307654876349e+01 3.1562520885067897e+00 -9.2842798013880383e+02 -3.2761858579324326e+00 -2.0575730261945864e+01 -7.3456414510155383e+00 6.2097541966941208e+00 1.1803434923214809e+01 -1.1404328972450458e+01 5.1595387635217048e+03 6.4838505189436546e-01 -6.2022380099515431e+00 8.5699519564962117e+00 -4.1507048814580230e+01 2.1426518136782852e+02 4.7796499859075993e+01 1.1909454588890076e+03 5.9670853576912478e+01 -4.0858631052097394e-01 -6.7293726047607197e+02 5.7060243274473095e+00 -1.3989111091465986e+01 -7.6597000110019486e-01 -9.0123535452986971e+01 1.2960790293413993e+00 1.3523512150724919e+03 -2.5373767515035324e+03 -1.2896892054185219e+01 1.9573234883048485e+01 5.3447786159705686e+00 5.1637505135498941e+01 1.1537465730507392e+02 4.7255494135298068e+02 -1.5188387353420258e+03 3.5468542231527778e+01 -5.6038513294119650e+00 1.9399945292241682e+02 -1.5367979202092101e+00 -3.5795777475868817e+00 -5.2814757588796510e+00 2.9030968946171924e+00 -5.9009150284167845e+02 -4.4171277197136078e+02 4.7606466031910852e+04 3.7721085472389078e+00 -5.6740202137529536e+01 -2.7983160877378616e+01 -4.0502084354844214e-01 -2.8787789494695608e+02 -5.6316812391686472e+02 3.3357680049091578e+03 -5.6155690612337295e+01 3.1249719551504587e+00 4.8058999299816787e+03 -3.8931869232668821e+00 5.7255559580189583e+00 4.3673687779153880e-01 1.8074007317353880e+02 5.5483943465954724e+01 5.1153732188232243e+02 2.6670956584638916e+03 1.4296332740132392e+01 -6.5970039141466202e+01 1.2051977583413702e+01 -7.8844970869306849e+01 6.6533179844729602e+01 -1.3423966012941673e+02 -4.0170710607767105e+03 -5.8101510968817536e+00 4.7051907495295211e+00 -3.9392033825456519e+03 1.5521555134212296e+01 1.4009809374105714e+01 -2.1446394538624487e+00 1.3128222885787841e+02 2.8229182544951414e+02 -5.6141611220287245e+02 -2.1649396092391806e+04 -1.4814011000112757e+01 1.6133070295704130e+02 1.1869673143242956e+01 -5.2788150153405425e+01 5.7223919019211860e+02 1.0283696032483931e+02 -1.4142666522711515e+03 1.2679769928684829e+02 6.4474477839340336e+00 3.9117413481388826e+02 7.6037179893780333e+00 8.5418637200158628e+01 -7.3154908370015193e+00 4.0980283927247388e+02 9.9003605794536767e+01 -1.6756485040600378e+03 -1.2487476270121340e+04 -3.5213215610864872e+01 4.8708302235635870e+00 -1.3213480868093029e+01 -1.7600486864568666e+01 -2.7984613747289404e+02 -2.4765271739661694e+02 3.9299856420159340e+03 -7.2256001573038816e+01 -2.8686493290800286e+00 -1.6685386686492711e+03 -1.9721133779171254e+00 -6.5328814847161993e+00 9.9064809514845820e-01 -9.7926086364313960e+00 -2.0837095594470156e-01 3.1391307622566819e+02 6.3452993452707306e+03 5.7071063308985686e+00 1.0080691143521108e+00 -2.9165140246748940e+01 -2.1713836717486920e+01 -5.2421236027625355e+02 -9.6944285322891187e+02 -2.0044382247385965e+03 -5.7236489630623282e+01 1.2269420331504008e+00 -7.1586271564429626e+02 -1.4246412186474913e+01 -1.7093971095930772e+02 1.1972960947203129e+01 1.1648207138043913e+03 2.8436689300529122e+02 1.7147685266626174e+03 -1.8358641119358133e+04 1.4816640945217266e+01 -3.7616675609132301e+01 9.0003469726445928e-01 -1.0661223496827887e+02 -4.4287995827877893e+00 -1.6055580187227233e+03 -1.3175337680609709e+03 1.0732489321441902e+02 2.2602322841498790e+00 -7.9349267204119551e+03 -1.5564992367762898e-01 1.3329897780590443e+00 2.6779421699889099e+00 3.0788426790707886e+03 -4.2983603083455245e+02 7.2033456178739527e+02 -1.1914984406983578e+04 3.3521110264013307e+00 7.5128085882391460e-01 4.7566933413490215e+03 
      </Row>
      <Row Index="134">
        7.9987537504227241e-02 -9.1166407954048623e-02 -1.4653991417196721e-01 -3.0001443737873501e-01 -9.3641363785172871e-01 2.2034335771607516e-02 -8.0477764786127823e-02 -1.2859023428087539e+00 9.0016761803980105e-02 -2.3870684759131677e-02 1.1751076979273356e-01 5.6517820604912394e-01 4.5139634413101248e-01 5.5192263470280523e-01 3.4480082498003810e+00 -8.8995957919043800e-02 3.8710200482722001e-02 -1.5500566636009694e-01 -1.1112873380154298e-01 6.0195283387534460e-01 -4.3551263138476770e-01 1.5614237441681325e+01 -1.7237743216280910e-02 -2.4450459985505546e-03 -2.0652427928752104e-02 -4.5347829454908783e-02 -1.7490570323073484e-01 -3.6588715466148614e-02 1.2920428248627047e+00 -8.9357762791131279e-02 -5.8215167355263731e-01 -2.3509053957559445e+00 -2.4556176765326898e-02 -2.9769780124169110e-01 5.9654519685842899e-02 9.1441606277044230e-02 -5.6128684973955956e-01 1.3235038085240376e+00 -4.3017402227451385e+00 -9.4787992346656580e-03 -1.7254939697623861e-01 3.8356116000204565e-01 -1.7344929649445184e-01 2.1329963852821265e-01 1.6031964357942408e-02 2.2017824064539298e+00 -4.2554836704312038e-01 6.4495013772858556e-01 -1.0823293020600090e+01 2.7552330652116552e-01 1.4585886870824538e-01 -6.5398958906675020e-03 1.7531787548847433e-02 6.8970290934430523e-02 -3.7998185887818181e-01 6.4688667768496089e+00 2.6404242050211746e-02 1.3728616249373826e-03 -7.5761221487482544e-01 -5.5794010034255076e-02 -3.2718156660398900e-02 7.7301711481903013e-05 1.2395253278581606e+00 3.5961587728726485e-02 -2.3490503359238346e-01 8.1344669065401831e-01 4.0342985490641081e-02 -1.4982944240467255e-01 -5.2754980487685899e-02 -6.2163874056942348e-02 2.5685648239027614e-01 -1.3822193745522782e-01 -3.2265209835459245e+00 3.2618448909474740e-02 -4.3748395444620503e-03 5.1433588244094608e-01 8.4248638697209444e-02 1.0063111537981229e-01 5.4817116439487279e-03 -5.1453622406233990e-01 -6.2881959049906300e-01 -9.6605624082092056e-01 -6.5193099801452945e+00 -5.0816997311409651e-02 -1.3858156229145613e-01 -5.8081826486221066e-02 -7.9754530260913725e-03 2.8928553047536099e-01 -1.1357117743450544e+00 1.6001026233479934e+01 -2.2163771721627867e-02 1.3875809953356377e-01 -1.1851711515817982e+00 5.1021827940207487e-02 -1.2869420504053153e-02 -1.4541262053325882e-01 1.1868851146052748e+00 4.1061436250073147e-01 -5.5377631368952507e-01 4.3998080287467474e+00 -4.1368021806040822e-03 -1.9211632231422016e-01 5.2859261590040854e-02 -9.6019363166559568e-02 -3.6072173394934381e-01 1.2326303319059662e-01 1.5958150157530326e-01 7.2989304724173115e-02 7.8874406341102890e-02 1.2354257605984742e+00 2.1056476987997619e-01 -2.2514051930480505e-01 7.8566738992302404e-02 1.7499943241579743e+00 5.9188008870655739e-01 5.2416181151260233e-02 2.3421173034536480e-01 -2.6293419905424642e-01 5.4101900831768779e-01 2.3781935315268035e-01 3.1280018349308136e-01 2.4539221549376009e+00 -1.0822688000144609e-01 2.9942593108280562e+00 -1.7735422981204507e-01 -1.9786248373716331e-01 1.3118179214612269e-01 -1.7343635886977893e-01 3.8801180417190295e-01 2.0840840157647755e-01 -2.3958328250728300e-01 5.9836650364012200e-01 3.8892996166938474e+00 3.7721088457160761e+00 1.1830995237927402e+00 -3.6174816226058804e-01 8.3200714285909694e-02 -3.2052356123347892e-02 -8.2260343706668948e-01 1.8375102859281611e+00 3.6137513288558694e+00 -2.9861237369334936e-02 1.3690854460120222e-01 6.1642505804979919e-01 8.6801422705750308e-02 -1.5870922939212218e-01 -1.3436322769587639e-01 6.9013395395023736e-01 8.1623078000287563e-02 6.9501195292860984e-01 3.1091067370608698e+00 -1.0648674620288234e-01 3.6505107592058167e-01 1.2583351978353208e-01 1.2372456170449908e-02 -1.0603116583220356e+00 -4.8538696026389516e-01 1.0717712456404115e+01 7.6698190701595170e-02 2.3659859869969119e-01 -1.1586627747360581e+00 1.9022428197303404e-01 -4.2583579645355840e-01 1.1510359437811868e-03 1.2851560481701085e-01 2.8961149914381679e-01 9.7260031809736347e-01 -8.7798508097775851e+00 -5.1169182567709726e-01 4.6143396774636258e-01 -1.4968485234277795e-01 -1.3070563136458402e-01 3.4909217834080741e-01 -5.1218915930286713e-01 -1.3436194428227282e+00 9.2653154615928962e-02 8.3765472195489049e-02 -1.3164131153625362e+00 -1.1184202968566731e-02 1.3196074514029310e-01 3.0346618182634666e-01 -2.3639725452301175e+00 -6.6632321687928575e-01 2.9824545760962273e+00 -5.1661675525288935e+00 1.8102027302799972e-02 -3.3845774906699599e-02 3.0534777030448268e-02 5.7141370936449221e-02 -4.5509585123613761e-01 -7.1106244730071921e-01 -3.2404444453277392e+00 -4.5777196211496285e-02 -2.7535884869876383e-02 -1.2710834921892911e+00 1.1215287816578018e-02 2.6778266896435099e-01 1.6061022675741277e-02 -7.4900156910189253e-01 2.6110524693634929e-01 4.5558172907476546e-01 2.7711668945501060e+00 3.5021867888348157e-02 -1.0429166196099793e-01 -9.6565437345874167e-02 -2.4485577615445805e-01 -9.6316567235514272e-01 -2.1150406839587097e+00 -6.0853795927897636e-01 4.7992362204693273e-02 -3.0837156377546072e-02 2.2347149558313504e+00 1.7223741552363869e-01 -3.1577744836520405e-01 -3.0638349924999742e-01 1.0323327503153536e+01 1.9241990406257665e+00 -8.4355882949785066e-01 1.6125665450700040e+00 -8.0659928676479831e-01 2.6042631473145450e-01 2.8423830015048002e-03 -3.4223431230329615e-01 -1.4051554045978756e-02 -5.6164875546868478e+00 -1.4460125438619734e+01 6.0171691372436942e-02 6.1066495106316121e-02 -2.3665582376585768e+00 1.5133973324036765e-02 -1.3527552841119048e-03 4.2449817247604216e-02 1.4266971169838177e+01 -2.8576969640262240e+00 -1.1906478468076367e+01 -4.5901917284644647e+00 4.2483645305786424e-02 -8.4750010053411678e-03 -1.4198926484850312e+00 
      </Row>
      <Row Index="135">
        -8.2133780944762758e-02 2.0490775328971722e+00 4.5827011340879835e+00 -1.0941463015486261e+02 -1.2044289063313045e+01 2.0279164274407435e-01 3.2402514412056604e-01 -1.4524848363776982e+01 1.2174650810491501e+00 4.2858908282541961e+00 4.0863768912157639e-01 -1.5556275483920786e+01 -1.1911691726630124e+01 -1.4853815145252156e+00 3.2113974737258104e+01 -4.5214566845885429e-02 -1.6303181268643584e+01 4.5959710060153611e+00 1.5526327927915418e+00 5.3176959461397928e+00 6.2900576286701835e+00 -1.3405267271213233e+02 3.1529732743562455e-01 -6.3817907110788497e-02 9.6037302406002709e+00 5.0438271593684192e-01 -1.0135689138547605e+01 1.0287352211273060e-01 -1.6378983801909271e+01 1.6071793195842474e+00 1.1086910158428509e+00 -3.5641129637930135e+01 -1.3283096005180255e+00 2.0311483736985565e+00 4.6772458474947598e-02 6.0844264538218340e-02 -1.0319770812149727e+01 -1.2108821917767636e+02 -5.6682906032539904e+01 2.9226532736061017e-02 5.4520726198217062e-01 2.9546722178143682e+01 -1.1512362422574824e+00 -8.2168164990848709e+00 -9.7596623568875884e-02 -2.6132948848176966e+01 5.9578105608306942e-01 -9.9605644351140654e-01 -5.9144690853892826e+01 1.0646994299390826e+00 7.5168828144714098e+01 1.1433551101840469e+00 -2.4994968201090160e+00 3.4793048370902397e+00 1.7591072535180137e+02 2.8563505140598863e+01 -1.4021348356118324e-01 -5.4657963612883764e-01 -1.9431642833165824e+01 -2.0300050692358855e+00 4.3853213391858050e+00 1.8129255120000209e-01 -1.5364393577773626e+01 5.8221067946922886e+00 -1.2392654921935900e+01 2.1569394637132064e+01 1.4848212510430159e-01 -2.6836941374500903e+01 1.1431558053417916e+00 -1.7490531139410450e+00 -4.3207744230603566e+00 3.2121775399005855e+01 2.6977625651285052e+01 2.3370534531645148e-01 -1.8227849565726650e-01 4.4105307685807929e+01 1.6745888422062762e+00 1.0088070714550668e+01 3.3439907492433463e-01 6.5722674196003936e+00 1.7424427695667873e+01 -1.0047343381584597e+01 -8.7131875631166622e+00 -7.2218552100599709e-01 -3.3731285289619152e+01 -9.5008956958473689e-01 6.2499163786742429e-01 -2.8254979982671102e+00 5.8679977525556751e+01 -2.3462553987745196e+01 -9.0679239712414983e-02 -1.0544992393177210e+00 -1.3957806909511419e+01 5.0295880048628305e-01 5.9176209304087024e+00 -2.3156765584267669e-01 -5.9394590207775764e+00 -4.9129567292895047e+00 -4.5540630741197674e-01 2.1399364438853809e+01 -1.2683921081296035e+00 -6.8178650492899578e+01 -5.4773293268406320e-01 3.4549942464644783e+00 -2.7055576201761653e+00 -2.0897354019719933e+02 4.4895394835621119e+00 -5.7025948768140533e-01 1.0513959888629216e+00 -5.5990203114493752e+01 4.6485247213819907e+00 5.4995552885692867e+00 -2.1045383640745707e-01 9.2452472525143818e+00 -1.9087238937208262e+01 -8.3141119608519745e+00 2.4658062505347971e+01 -7.4309064276538417e-01 8.8194747897738068e+00 -8.1426729814408016e-01 2.1643684915338781e+00 -4.2667012770334622e+00 -9.4942741148560344e+01 -2.2547634006012231e+01 3.4276796909542373e-01 -1.4174796283738114e+00 1.1457694164092857e+01 1.3566317606980789e+00 5.4841678109887653e+00 6.1903467152893832e-01 1.4045691384319980e+01 -1.0403078148398436e+01 9.2454362209700776e+00 -5.6740174075945106e+01 -3.6174821394506296e-01 1.5558942491133740e+02 1.3608453042089530e+00 -3.7152082982133123e+00 8.0597974840575262e+00 -8.9886234017095262e+01 -2.2144610722782090e+01 -2.7733276218302549e-01 1.8201110495802799e+00 -9.0960037308686879e+00 1.6280006914963454e+00 1.3456549691434816e+00 -9.7786012552249790e-01 -6.6369599612397678e-01 -1.0153192785743521e+01 -4.0016652493868605e+00 -1.2246340291567321e+01 7.8309161108548642e-01 4.3168704953689826e+01 -3.8058233295555568e+00 -4.5604837909537075e+00 7.1915132088297469e+00 -1.2929086135281977e+02 -8.5499862991739064e+01 -3.4285718342028471e-01 -3.5450797439348136e-01 -2.5107539266397794e+01 -1.1834300781153453e+00 4.1548724760265898e+00 2.8602376029826493e-01 -3.2273334942121323e-01 -8.0022963346487757e+00 3.9122554464871087e+00 8.7201876355883428e+01 3.8640018095087636e-01 -6.1605821845328727e+01 4.2247650611617873e+00 4.5763772053669660e+00 9.4386455156893589e-01 -3.8237983575467308e+02 1.9291174270620104e+01 -6.5970982739788087e-01 -2.5789564505835327e-01 6.3079094966836351e+00 1.9634285903869604e+00 1.0614495250051448e+01 6.3048641627264246e-01 2.4675643440432097e+01 6.9394029368040915e+00 3.0802384043757598e+01 -1.5309934903185692e+02 -8.8611412030552161e-01 1.1125757865099638e+01 2.8189421043172160e+00 -4.7100107643927913e-01 -3.0491799963310768e+00 -4.9632379847695120e+01 -1.2565505058318377e+02 1.1575995487073598e-01 -4.3544394789396967e-01 -5.4498342298975331e+00 -1.1639810326802147e-01 8.3686701315032224e+00 3.4216216728186843e-01 9.2877030513773207e+00 -4.0019120586980534e+00 -2.3006559445639141e+00 1.9730127529241145e+01 -2.6229813021014081e-01 -3.1839271159179816e+01 -1.5590554137116708e-01 2.0109024468906065e+00 -3.0646247905841548e+00 4.6797269038220361e+02 1.4081823043749750e+01 2.7856594911138316e-01 8.5720671556439543e-01 -1.1084757960012939e+02 1.7973759529298761e-01 1.0183454028928156e+00 -8.2575498099039979e-01 -1.3176263067182293e+02 -3.4590101119776193e+01 -1.5180538936537698e+02 1.6236671851353526e+02 -1.6411571139442811e+00 -8.7828616171015540e+01 -2.5783305262542555e-01 9.6479149755062572e+00 -1.3412093558208749e+00 6.3926899445923198e+02 -2.2675181200470507e+02 -8.5433418281677942e-02 -1.0883516102770585e-01 -1.2728028544176141e+02 3.8737719961241979e-01 -4.9837927431383489e-01 1.8070918321280516e-01 -2.0291546927292413e+02 6.4795926134055833e+01 3.0151787940267502e+02 -6.7244635835988227e+00 3.8289822815924923e-01 -3.6228163282942170e+00 -8.2057228722257548e+01 
      </Row>
      <Row Index="136">
        -5.7853335455437382e-01 3.6759979088160577e-01 -2.8228184102926264e+00 -7.3319830329973144e+00 2.2385697048787733e+01 1.0160932117231347e-01 -1.6610550121071174e-01 5.3667671620814872e-01 5.2805491357375833e-02 9.2489002229766015e-01 -3.3091503142171907e-03 -5.7009750580648237e+00 8.1231942358078868e-01 7.1651600834547935e-01 -6.7710356840092345e+00 1.8271645586650864e-01 -7.2878894727521981e-01 4.5492091971508799e+00 -4.4727880707972556e-01 -5.5108967771233495e+00 -2.9494708445076867e-01 -2.2023986694781343e+01 -2.9517012339724180e-01 2.4354460282618517e-01 1.3748234462239992e+00 1.0589930563061722e-01 -7.2040737477402672e-01 1.4780739196453174e-02 4.3001539186767790e+00 -5.0126740694005889e-01 3.2231256469455083e-01 6.4827449005050539e+00 -3.4778421990583147e-01 -1.3819388016645124e+00 -8.5507763221944089e-02 -4.8748083376581874e-01 2.5768393240031173e+00 -2.1621048571018946e+00 -3.4449789967733523e+01 -2.2566591325270924e-01 -2.4302943211490513e-01 1.1846284507291784e+00 -3.1710153086168180e-01 -2.6754936640125493e-01 -8.8205217049915352e-02 1.9040098312625560e+00 -4.8814673188390145e-01 -1.8369497113579314e-01 1.4312657853436122e+01 8.3576481664101365e-02 -6.2227128266574994e-01 2.8876933153368856e+00 -1.1062785282491081e+00 -7.4873598051064505e-01 5.2646501801563090e+00 3.7464794655490550e+01 2.4554084008561650e-01 2.4062557287997555e-01 -1.0232181627452519e-01 3.7827110833077743e-01 2.1712551686526176e+00 -6.5638532393321736e-03 1.8008713846143536e+00 -1.3867952489596291e-01 -3.9467823417222121e+00 -8.2099982444087800e+00 -1.5341483921622245e-01 -1.3918321056059142e+00 4.4829876560472037e-01 -2.1901556575619807e-01 2.1346859895614898e+00 -3.3021000314142839e+00 -6.9976359669090016e-01 -2.0995106205668801e-01 -3.3424651700538321e-02 -1.9593691909859672e+00 1.8868193085429041e-01 2.8036356735004944e+00 5.7043633555724504e-02 -8.0746999836736677e-01 -1.0150347370467045e+00 -1.7160762466152981e+00 1.6088667966777791e+01 -4.3398770684465404e-02 -5.9515880036032931e-01 -6.6620242886852199e-01 1.1734460178175254e-01 2.1305825557255886e+00 8.4231988492194887e-01 -1.5726993458694778e+01 4.5430556844276104e-02 1.5394626618105911e-01 1.6999480363309232e+00 2.8499088437191977e-01 8.8081375576614107e-01 1.2006013325407461e-01 -2.1858891072002393e+00 7.6387779299379865e-01 1.5450719176724306e+00 -7.4076555187707527e+00 -2.7124197058166866e-01 1.7253846042247289e-01 2.2305709630303117e+00 5.2593995155714790e-01 4.6943832187281487e-01 -1.0151993562491157e+01 -9.1224414879543474e+00 2.9452194708483459e-01 3.7828605524195347e-01 9.9978523560142420e+00 3.2897690179473543e-01 -4.0345904139424427e+00 -1.5149991927147928e-02 -5.3379827910632613e+00 5.4194915494052864e-01 -3.3893088625582983e+00 -8.9543430005119546e+00 1.4318128974453635e-02 1.0029499696796202e+00 -3.4497269603724807e+00 -6.1902670738710697e-01 1.7476308525912785e+00 -1.0834663120846528e+00 -2.2496652978596103e+01 -1.6581389911723232e-01 -3.3849733061981224e-01 -2.1895325897729663e+00 -1.9441995243482935e-01 6.0670088741443848e+00 -8.1705812750920676e-02 1.0265491333568519e+00 1.0934671823660622e+00 -9.5876677645310338e-01 -2.7983159214850730e+01 8.3200716223868265e-02 1.3608452041318095e+00 9.5220908679832981e+00 -1.5887605270224595e-01 3.7797723189365655e+00 -2.1773359317113439e+00 -2.2595070253933955e+01 -2.1107966162423208e-01 1.0732695424495264e-01 3.8490581262906289e+00 -1.3705917620105706e-01 -2.6266832604091626e+00 -1.1643810288419282e-01 3.1277817136683339e+00 -1.0209301842858842e+00 -2.5700441480478275e-01 -4.7579805924178800e+00 -3.5728100270387170e-01 6.3969393385626203e+00 -6.6847409626673371e-01 4.5143118820635664e-01 8.4188439574563745e-01 3.4377253916585460e+00 3.1692490725399693e+00 -1.2266158591365789e-02 3.8771442530731615e-01 2.8426706582855559e+00 -6.4356950063393509e-03 -3.0311728424066136e+00 5.1845822872503555e-02 -3.9796837207690601e+00 -5.4722806055274020e-02 -3.5860046035903417e+00 4.7298274375663581e+01 1.5013607589569905e-01 1.3433179128294410e+00 3.6996045599661320e+00 4.5654563470684639e-01 7.1220242580145907e+00 -1.0431039376767700e+01 5.6928472614472412e+00 4.4300820482626369e-01 2.4162202729519580e-01 7.0211244422062791e+00 3.1012931405718125e-01 2.5178369662607007e+00 -3.2649852094723819e-02 1.1091864518750089e+01 1.6164259039500286e+00 7.0080007746561535e-01 2.7780957575999409e+01 1.8879032567525833e-01 -1.1013123236578787e-01 2.8304614310875884e+00 -1.0846651033257615e-01 -3.2818201160629883e+00 -3.5131887224524689e+00 7.6890272408345481e+00 -1.8030397427602601e-01 2.3770182385682981e-01 1.8137036329184753e+00 2.6001754371705954e-01 2.1516742728115084e+00 1.5262901923543223e-02 4.7205213637357701e-01 6.3930772808989467e-01 3.4612450784152315e-01 -1.0209897965867185e+00 -2.7173034988103217e-01 -1.3524795667695830e+00 3.5011316274202081e-01 -2.8232527993585987e-01 -1.1438703279370760e+01 -5.4788348824678419e+00 6.7699199063723654e+00 5.0379204023751761e-02 3.7581325303127794e-01 -2.1133155901369491e+00 4.9646722035531621e-01 -3.3191388064940797e+00 1.1532087551030556e-01 -4.0247091261307721e+00 1.0494583192804785e-01 -1.4702210036621754e+01 -1.4237689566372401e+01 -5.0317447449950159e-01 -3.6999888488518895e+00 -2.6148263670472421e-01 1.2934401873413026e+00 6.2115037025368669e-01 -4.9668119207976424e+00 3.3540125560512209e+01 2.9643901310067883e-01 1.7152021583787336e-01 -6.8975106016319110e-01 1.8884139235908370e-02 -1.4985096305430268e-01 -7.6586677545322779e-03 1.9241704606574309e+01 -4.0920061865670281e+00 4.5194746481313629e+01 1.3406022704559519e+00 1.3757925308455056e-02 -1.3190438226877585e-01 1.0469723913113358e+00 
      </Row>
      <Row Index="137">
        8.9355517851004440e-01 -1.4735133163579690e+01 3.6353428464763056e+00 2.4902425098712229e+00 -1.5978016327673686e+02 4.4462481484711702e-01 6.3382447386994584e-02 6.2442347977848840e+00 -1.4439227070092608e-01 -3.8968828798083450e+00 7.9648745602831639e-03 3.4440747569855034e+01 -1.7368157204969066e+00 4.1304105579893076e+00 6.2524759439934314e+00 5.3791622674388861e-01 6.8143302814519302e-01 5.9661533023850666e-01 2.7427184743954172e+00 2.1278040765291735e+00 -2.6634605092440324e+00 1.6629426754079759e+01 -4.1627982188682161e-01 9.1502869575734280e-02 -3.7304733034056881e-01 -1.4255597381956875e-01 3.4086622297400027e-01 4.4351888939644368e-03 -5.5988871743971572e+01 3.4769971975879344e-01 -1.9079839535769025e+01 -3.2425462390347093e+00 -1.9274075090295995e-01 -6.2605073883815976e-01 -2.0874342149954828e-01 6.5186628194551304e+00 -5.0525330243667668e+00 2.6672162717441097e+01 3.3500033611286199e+02 -4.0782097374673754e-01 -1.2013395944464378e-02 4.0115345206722850e+00 3.6240362724416286e-01 2.3483027434099313e+00 -1.3884867371104193e-01 -5.6972355193805925e+01 3.2024447175026580e+00 -7.4955428885095898e-01 1.9392449490635045e+01 2.7535929598172970e-01 7.5807477852731608e-01 -2.1931186680948206e-01 2.1739867605687436e+01 -1.7599073502669853e+00 -1.0142849916752311e+01 -2.9550189895322546e+02 -4.7243249256862541e-01 -7.4525679220645236e-02 1.0954865410458297e+00 9.2551268165771694e-02 3.4585914415719579e+00 -5.1288235827117390e-02 -2.9116651223555664e+01 8.1947377438781244e-01 -6.9408353018170601e+00 -6.1311511572566815e+00 1.2218066940870020e-01 -2.2637205439838137e+00 -3.5746195572673400e-01 4.7750494088928690e+00 -1.3488983983097569e-01 -6.0050186114021926e+00 8.3329326694831252e+01 -2.3923317341897743e-01 -9.4386965690985924e-02 9.2201391556191084e+00 -3.7728386037204587e-01 -4.3046103205597319e-03 4.2936353941719574e-02 -1.7956315760893631e+00 7.3058812512772420e-01 -1.1710998495028065e+01 -1.3602879596110142e+01 -9.5275794501219480e-03 -1.6957908476041368e+00 -1.9487693391879757e-01 -3.6119572729949141e+00 -1.3327576358919941e+00 -1.5061564038987854e+01 -2.5012189174443483e+02 1.9752365687776319e-01 1.2671570851177805e-01 3.4477828212943677e+00 -2.4778572643785424e-01 -2.1054982766663670e+00 9.1956402920296471e-02 -2.7673474593757419e-01 -4.2731085437322491e-01 1.7605279383580637e+01 4.6770819769408263e+00 -7.6052826509202021e-01 -6.3394383909076168e-01 2.1331251462452239e-01 -2.3634204438907858e+01 1.3331444522696783e+01 -2.9528463966085837e+01 -6.5368681243853644e+01 3.2620597467794366e-01 -3.0752914466593312e-02 8.2330264491761795e+00 2.5653364333327872e-01 -3.8553012582688186e+00 -3.7252189655364032e-03 6.6250895491544114e+01 -5.3842790493190567e+00 -5.6499599519719354e+01 2.9562524944439460e+01 -9.3525130359344621e-02 1.7786734075212198e+00 -1.4910349356071311e+00 1.1806936457289794e+00 -1.4663473878663353e+00 1.2399821837035461e+01 -1.9927724394015968e+01 -7.1913209023618585e-01 -1.2681069274931295e-01 -3.5000910247539338e+01 -3.1927623102326663e-02 2.9630691913413898e+00 -9.6494898796896322e-02 -6.0713329076339960e+01 1.1082996646369565e+01 1.5683761895679709e+00 -4.0502183968737882e-01 -3.2052350705837895e-02 -3.7152087616766991e+00 -1.5887605887737821e-01 5.4017915666147147e+01 -4.6026493686849790e-01 2.6847176142658860e+01 -3.4535257318790536e+02 5.7758600319595899e-02 -4.9888018628981345e-02 -6.5703935980855022e+00 -7.3188319062977580e-01 2.0790969440312210e+00 1.2419403760669658e-01 -1.8732996621780245e+01 -4.2365146376681064e+00 9.9862744348502019e-01 2.2655730609585589e+01 -1.4571872799899910e-01 -3.8493011889452733e-01 -2.7917788756857564e-01 -7.8069074797911853e-01 -3.9541383358573512e+00 1.0850697699996090e+01 -8.7638689923100173e+01 6.0311513292652941e-02 -9.0284273662810222e-02 -3.0142556298528689e-02 -1.5214072879143281e-02 2.3556152774162911e+00 1.0532924204148986e-01 2.1397805130693460e+01 2.8341251275595294e+00 2.3441884418944205e+01 4.5065805913967438e+01 -5.5597607358184575e-01 -4.8769837567459895e-01 2.2679930223000198e+00 1.4579371577364647e+01 -4.2652973919625410e+00 3.1031328210737431e+01 4.2469566732950625e+01 1.6814618005422222e+00 1.8573111268242332e-01 -1.2176911924965850e+01 5.6155026117729934e-01 2.4144081352619384e-01 2.4215829021711954e-01 1.1184873914372842e+02 -7.9474590744987683e+00 9.4494071415804655e+00 4.2809463183025997e+01 9.2634361186477887e-02 2.6216231692070213e-01 -3.6856873966826242e-03 -1.3892831684893281e+00 2.4340148637329548e+00 -8.2238484181580134e+00 -1.3737526573147625e+02 6.3673452725923507e-02 -2.9412114942640427e-02 2.4132485997179174e+00 1.7754252550069582e-01 -1.1319608712701665e+00 -1.8436788919792058e-02 4.6565727548222640e+00 9.2529705011344276e-01 -6.0602773424034240e+00 1.3524290473949804e+01 8.6588611733233734e-03 -7.0845355776992847e-01 -1.4997142213498960e-02 -4.8043656914555157e+01 2.0795262950116168e+01 -7.2034367817566448e+01 9.5632319165681110e+01 -9.0505044862442763e-01 4.5666432032168150e-02 4.3917885411676252e+01 -2.5020291350204360e-01 -9.0125064852615697e+00 -2.3510755177618753e-01 -1.5319961305208919e+01 -1.9039070576203507e+01 -6.6779324193729849e+01 -3.0616331133142431e+01 -3.7040280900318800e-01 2.9972381510559529e+00 -3.6782531856576206e-02 -4.9671167744845427e+01 -7.8291714273282809e-01 -3.4511239107149947e+01 9.2343929191751442e+01 1.3680541800312729e-01 1.3093568149766810e-03 1.4695667311818553e+01 -6.4172440939426423e-02 2.1650853099480116e-02 1.1442093171531553e-02 -5.5345702360407259e+01 2.4679315272718870e+01 8.8983518902802615e+01 -5.3978448821311034e+00 1.2418258754514283e-01 -4.4298695206626881e-02 3.1553872733149237e+01 
      </Row>
      <Row Index="138">
        3.8053801162292933e+00 2.8320699065993722e+00 5.3756758517520211e+01 4.3839177445450332e+01 -4.9937163843517192e+02 -4.3476176337389916e-01 -3.2626476866542070e-01 7.1801940895486041e+01 -5.5265130499709691e-01 3.4263524101170333e+00 -7.1703611620489482e-01 1.7755972406812361e+00 -9.5650538643894834e-02 3.1081114617009007e+01 4.7808399843870575e+01 4.0426788153325788e-01 4.4118422171095517e+00 7.9729639721745116e-01 -2.0944682258530065e+00 6.5061215356647153e+01 3.2314700786766480e+01 -9.5786911701783538e+01 2.8921201696868417e+00 -2.8849703878421451e-01 -1.9413237757730712e+02 -5.2945893877500794e-01 1.5709752224192925e+00 2.2668859684785048e-01 -8.3111584639427747e+00 -3.3221773634750207e-01 1.2739214798041303e+01 5.8119664422626374e+02 4.4238327485184215e-01 3.8206112423329159e+00 -1.4817774893726892e+00 -1.3054198172185352e+00 -1.2544477240653578e+02 -5.5517043682048097e+00 2.1555928149726242e+01 -3.8818361152607395e-02 1.1857698870147715e+00 7.7991360489861108e+01 4.6508225241825585e-01 -4.2329748264301088e+00 1.7872813167571167e-01 -2.5809347123988118e+01 3.7326940454095165e+00 1.8215643914027169e+01 2.1640220338958898e+01 -1.0658130518393136e+00 3.9031228368185111e-01 -2.4266865011479783e+00 -2.4088637841023228e+00 1.9885073147757794e+01 -9.4714149511128198e+00 1.7349127509165555e+02 -2.5637562845601565e+00 -2.6968321442812082e-01 2.1888109137886204e+01 3.8155930805154381e-01 2.2339285479985378e+00 -2.5308611010709114e-01 -2.0847392344740001e+00 -6.5847310598640831e+00 -4.1446063040482841e+01 5.1602971451065969e+01 -3.6487834276243802e-01 -9.7968690287686400e-02 -3.9494743766848615e+00 1.7310021228990990e+00 -8.8957791625583923e+01 -7.1027403679516283e+01 -5.5817514741886407e+02 -5.3383012961307941e-01 6.1114041565914690e-01 1.8875362242892152e+01 4.8461314476071493e-02 6.5519701053199242e-01 -5.3754987740464344e-01 -8.5994750115860370e+00 3.6974558375277411e+00 -2.4615810614347993e+01 1.2083367119445029e+02 2.5345438136719167e-01 -3.4100525967072315e-01 2.9148102693982381e-01 2.2627314595283678e+00 -3.3669135783214188e+01 -5.7749332624880481e+01 -1.1959749288856983e+01 -4.9878258476644532e-01 -3.8432958371188874e-01 1.1993068962488178e+02 -4.3378938167631986e-01 -1.5671327009567904e-01 9.3431518107389133e-01 -1.1591058782287291e+00 -1.3216384036855970e+00 1.0332679762046610e+01 -2.5738172156283690e+02 3.3889741299128673e-01 -4.7581849057805812e+00 -1.0099354864359709e+01 8.4228872774999424e+00 -3.5329328546466684e+01 -1.1836717131882324e+01 -2.5112781478650868e+02 -5.9045052398415212e+00 3.5192225586443815e-01 3.3538941205097746e+02 -1.4353010924838719e-01 -2.7086120818310246e+00 -1.2229797560269566e+00 3.6749792476827565e+00 4.0231253826705959e+00 -1.2560489873958542e+02 -5.0311564215150736e+02 1.1593009347024550e+00 -5.5002292511636277e+00 2.0857890837836299e+00 -7.7969225123233628e+00 -4.8596450021680539e+01 7.3058457808083404e+00 3.4075030050240457e+02 3.0163803082691460e+00 5.8412390955765536e-01 -1.3637600221834157e+02 1.0112490435054724e+00 4.4002242731630758e+00 6.0164939395444250e-01 -1.6051040971105976e+00 -7.0177116344711976e+00 -6.1302896037814207e+00 -2.8787790350063733e+02 -8.2260343367399003e-01 8.0597975119187986e+00 3.7797723345415988e+00 -4.6026498763467316e-01 5.0969360354216587e+02 1.1237881308113822e+02 -1.5655595907103270e+02 -5.4962681562306770e+00 -5.4410352296965536e-01 1.1915698052372318e+02 -2.2665054151400499e-01 -4.0486196354080448e+00 -2.2185497548855393e-01 -4.7178018589114316e+01 1.7667308269098783e+00 -2.4858521928303526e+02 9.6181377607965260e+01 2.2378206784134777e-01 -6.3855796023335749e+00 1.7498370718199840e+00 -5.1572837564105996e+00 9.2387374091709717e+01 -3.9549994022148894e+01 1.4898140000179410e+01 7.1713249222830111e-01 -1.4220236011281031e+00 9.7905114388582490e+01 -8.0010137210645693e-01 -3.2952497557198512e-01 2.5164769752706051e-01 4.5115659767953815e+00 3.4648174488615666e+00 1.7225979511766639e+01 4.9802269329366669e+02 1.1363645009607357e+00 -5.2822785973939119e+00 -3.7688789277217358e+00 5.1010645043586500e-01 9.1032006890726393e+01 6.2436927891735280e+01 1.9374788984353654e+02 -1.2809062655378465e+01 1.9066997366180316e-01 -6.0608724508588693e+01 -1.0620305355714197e+00 5.0046286885832263e+00 -1.4013927984710461e+00 2.2558359885893651e+01 -1.6436806786976426e+01 1.2571598102658734e+02 1.6965841412675326e+02 3.1530611146214516e+00 -1.0318127343271833e+01 -7.3947127791052480e-01 -6.3320928579923930e-01 7.1510852099359909e+01 7.8002397967502475e+00 1.6667202312499285e+02 4.1608228332235093e+00 -2.0218563134914169e-01 8.8136274473865342e+01 -1.5831560301134662e-01 5.3781153246527538e+00 2.7585130342643538e-02 6.9337176099070348e+00 -4.2832469061113443e-01 4.2499720298219472e+00 -7.6758412973140366e-01 5.1429827514738236e-02 1.6494388812634497e-01 -3.6087764181691533e+00 9.8778034728415136e+00 -2.6135559693303685e+02 -6.6326590662509375e+00 3.4782669696047378e+02 8.2738636557630354e+00 -6.8405802399986071e-01 1.8397551654723065e+02 1.4851336203750376e-01 6.9555496857333665e-01 1.5212387289893536e-01 -4.8216261179862514e+01 6.8062128015655805e+00 -2.7436498497515558e+00 3.3067429345517922e+00 -1.3623833987172851e+00 8.7670616686972274e+00 1.8927940881510352e-01 5.5385079583723975e+00 -1.2580719452409509e+01 3.2573248980733203e+00 -5.3781998807359685e+01 -5.2524890609220618e+00 -3.5331574838485835e-01 1.8382493564507314e+02 -3.7910292605623397e-02 -2.0818043600212999e-01 -2.6864060844235382e-01 -1.2182903079304856e+02 1.7176256709603219e+01 -1.3907414264021804e+02 4.8229597741085996e+01 -2.8041287351547389e-01 -1.1860731363335675e-01 1.4973934787536035e+02 
      </Row>
      <Row Index="139">
        -1.6248251220358048e+00 -2.0674223705364057e+01 -4.2641942157220910e+01 3.0418990731259692e+03 1.2278051976514980e+03 -4.5621919149903079e-01 2.7204271667010738e-01 5.1819109163398389e+02 5.6401730019834995e+00 2.6733519135159440e+00 -2.3351116080368683e-01 3.1011346200493790e+01 1.5305451876127336e+01 1.8882737176420051e+02 -1.5360072405241954e+02 -3.0899766422153334e+00 6.8614264351526799e+01 -9.7788610488541963e+00 -1.5936790072312760e+01 -1.0138070169772254e+02 -9.3981045515125152e+02 -5.9359942013025284e+02 1.3787175219451768e+00 2.0788906758609755e+00 -2.3120912429748205e+02 -4.1625360768759379e+00 1.3245902311406098e+01 1.4401362197645540e-01 -2.6700424125456266e+00 -1.8699836750525719e+01 1.3158180612931665e+02 6.4206832278450020e+02 6.3726005147551064e+00 -6.5953069057229186e+01 3.4641301481769915e-01 6.8780707897658431e+00 -2.1417595534367138e+01 6.0805332740386948e+03 4.3074269969202578e+02 5.1757030142516669e-01 4.6425671844394856e-01 2.0738367941812612e+02 -2.1490874936926048e+00 5.3204123998220894e+00 2.7127013077029005e-01 -3.5765829341558856e+01 -1.3340947308104660e+01 4.7111945490830112e+02 8.3702028133952990e+02 -5.0610696983267189e+00 -2.5913062471372541e+00 4.2177332242959027e+00 3.6431017663057901e+01 1.0489630453143036e+01 -3.4167601996469311e+03 5.5918669442459941e+02 2.5997226090280492e+00 6.6085459391690415e-01 5.6866780302673578e+02 -4.2510159708475275e+00 2.0534870853669062e+01 3.6641434444400716e+00 -6.4763380710210185e+01 -2.3086203910238137e+01 1.1017239005195734e+02 8.8631615296995733e+02 3.3973891568075345e+00 -2.1887534140540345e+02 -6.6908293142787443e+00 1.5924282354231764e+01 3.4718423308484489e+01 -2.2100871563316905e+03 -2.7651713836193085e+02 2.5434959719078734e+00 1.2883947033858334e+00 2.2766503759991610e+02 2.6326937247358728e+00 6.7160483382613165e+00 2.5061186537459434e-01 -1.8233905479981331e+01 -1.2114766028818849e+01 -1.4222506426400741e+01 5.0512471576189273e+02 9.5807065775625233e-01 -5.2420105040650355e+00 6.1494935578452137e-01 -6.8170971413201187e-01 -7.1394584392000979e+00 -4.0954401899073273e+03 -1.5241322581116110e+03 3.2391279924331684e-01 -7.1541509003679948e-01 2.2915949559435103e+02 4.4094516801942518e-01 3.9229216914791323e+00 5.8192314655506117e-01 -2.4188276771223173e+01 -1.6781032261837936e+00 -1.0791363774943602e+03 2.3902883861935697e+02 6.5772087133229888e+00 1.5132860439614888e+01 -5.1719127297339789e+00 -2.1532751027625018e+01 9.0843571157655390e+01 3.6767905925094092e+03 3.8789723165333271e+02 5.1332622357974707e+00 5.0751735727584739e+00 9.3289743570325572e+02 5.6386561132139903e+00 4.6308762094397679e+01 7.1165313357823945e-01 2.2871911182813659e+02 4.7002216764220663e+01 9.0704265824912329e+02 -7.4570899260395879e+02 9.7901310515409197e+00 -1.1554905555105847e+01 1.3281073000636017e+01 -6.5495686543799820e+00 -5.6145690867539088e+01 7.3489823865671860e+02 -7.4667747528478503e+02 -3.7957031818198494e+00 -2.3997270369393844e+00 6.4947032952436530e+01 -3.3774585644391664e-01 -3.6182925804550905e+00 1.1844829356588491e+00 -1.2272261684823388e+02 -1.5512915460571094e+01 3.2382325209496776e+02 -5.6316915168020932e+02 1.8375118103618320e+00 -8.9886238623489746e+01 -2.1773390116564109e+00 2.6847162243484490e+01 1.1237881578774977e+02 1.0830977275109337e+04 2.2918469592556357e+02 -1.5034963823991845e+00 5.0714812912633080e+00 -4.8289791344874538e+02 -6.2762094653324905e+00 2.5229982749629016e+01 -1.6067096802694687e+00 8.7063077564158391e+00 -8.8306301494964146e-01 -8.2316733889892930e+01 2.8140973060164833e+02 1.4318569171656748e+00 -1.3462038721427695e+02 -8.4462476696488302e+00 4.3248365331810028e+01 4.0968984028681007e+01 8.8872920526526286e+02 -4.5408461832255125e+02 6.3831719462562031e-01 -2.6244010778093241e+00 6.2947917963596865e+02 7.2394834291090140e+00 2.9777923893707339e+00 -8.6910496914766178e-01 7.5002458592782773e+01 4.0689562452136002e+01 1.6422878937037603e+02 -3.7347581702902426e+02 3.0267091774586161e+00 1.6189421215054097e+02 -9.6954889914401896e+00 -1.0605718047204249e+00 4.0212802863693167e+02 2.6401001889875579e+03 -7.3178710652305745e+02 3.3501420858371684e+00 -4.7705285330773668e+00 -7.7459086691152754e+02 9.3458383371400870e+00 2.5481127359071287e-01 -6.6862375759748147e+00 -7.1309573671501880e+01 -2.5455918670913171e+01 -1.7819237663470568e+02 -7.2715677978793315e+02 -2.8798264033964407e+00 2.1866044513299590e+02 -7.2176422078764517e+00 6.7516730396091589e+00 8.5318114485999104e+00 -1.7053769548754208e+03 3.9148351477831602e+02 -1.7990910032250511e+00 -2.6898025512168688e-01 1.9354007786890725e+02 -1.8345731074355178e+00 -2.1484819008001068e+00 -6.2981526063111204e-01 -3.0106594814686105e+01 -9.4807571505625674e+00 -2.7838795442320406e+02 2.8679547090479173e+02 -3.2326047975651022e+00 -7.4054969889029962e+00 -2.3087955943912104e+00 -4.5471289660271474e+01 -3.6787230899786323e+02 -8.2552808446491163e+03 -8.4681414401568691e+02 3.1342307794455002e+00 9.5359417493288507e+00 1.3230562430589343e+03 -6.5628341369613707e+00 3.9928415177765906e+01 9.4604711314845265e+00 2.1334020571746573e+03 1.1272254686149618e+02 3.0543515260119598e+03 5.5891314941584460e+02 1.6954504060682048e+01 -3.0138962510472828e+02 5.1965963354820133e-01 -9.2097267232535216e+01 7.8855740310932472e+00 -1.9856106591359883e+04 9.4961424744144606e+03 1.7471349371005971e+00 -1.9617194227359391e-01 1.4933179682554303e+03 5.3011188691783673e-01 -4.1265166419381671e-01 -4.7750722694786418e-02 3.1404686336859590e+03 -1.1907006155033179e+02 -8.6689473410036499e+03 5.9216514790268923e+02 -2.2586990316140332e+00 2.4047111712403932e+00 -5.1979339700258640e+02 
      </Row>
      <Row Index="140">
        -1.0118490081501641e+01 5.6436644892237382e+00 1.1357574880728498e+02 5.6251260574674234e+02 -5.7621873941466212e+04 1.8626336971283308e-01 -4.1201013052014126e+00 7.1346220140741207e+02 7.0079046085671193e+00 6.3765666855033487e+01 5.7981244327129389e+00 3.1100030762411443e+03 -3.4488203925138805e+01 5.9328503406373784e+01 -1.3937999486015178e+02 -7.0020351355924504e-01 2.2422603712751879e+01 -3.7657952092722553e+01 8.4620008667363436e+01 2.5042654305289034e+02 -5.5112112719728611e+02 5.3526996062994003e+04 -7.2839936583615330e+00 2.7557059666246460e+00 -3.0811164078271831e+03 -1.2696182944428074e+00 -4.6485108701221179e+01 -1.4457355843205733e-01 -2.1580917506320548e+03 5.1700454951482243e+01 2.5380714779636764e+02 -2.9118640920934267e+03 3.9079457377511062e-02 -1.5775749530686880e+01 -2.6193848256811179e+01 6.7761995317036053e+01 -8.9835246600938262e+02 6.1354949415288866e+02 2.2937827699854970e+04 -1.9850617217380204e+00 -3.5596321980810899e+00 7.7816189888119698e+02 -9.4348281204256637e+00 -8.5656768290966284e+01 -1.0928043840067403e+00 -1.1967401002753759e+03 4.6818055133480811e+01 2.6822257969930070e+02 2.6919341361732222e+02 -2.1963102962290577e+00 6.5022116163396277e+01 -1.7967845036094527e+01 1.3668158631648112e+01 2.0251490817405283e+02 -1.8578646282711998e+02 1.0012185698866844e+04 1.3135147114543543e+01 -4.7763460841948380e-01 2.1707129122149199e+03 -1.0351511160690261e+01 -4.0884207292384303e+01 1.8007184059624706e+00 6.0523145733015554e+02 -9.3245227108340600e-01 8.7964500212110579e+00 4.1684474180825055e+02 -6.3014989441338685e+00 -8.5451694177133106e+01 3.3274680388567504e+00 4.6734435953607317e+01 -2.0674080550717190e+02 -1.3219695346197113e+02 1.1510334958612919e+04 4.9573083223931462e+00 -2.7731574368971224e-01 7.4401555369189009e+02 1.2051622366703668e+01 -5.6045353578170761e+01 -1.5594195196053988e+00 -4.7372741507482715e+02 6.0446667046751827e+01 -5.0498824522415816e+01 -8.9729278464219533e+02 6.3068194242787285e+00 -4.0389862673615426e+01 -7.4297310761728390e+00 3.6366074917605147e+00 -4.9527018580405274e+02 -3.6167430016305298e+02 -3.4813153711795807e+04 -4.6533923881324881e+00 2.5904607742168082e+00 6.8715873803370050e+02 2.7988130448829907e+00 8.5128668996621855e+00 3.2834609187329740e+00 1.4172615962270647e+03 -5.4983704073311856e+01 2.1626828891236801e+02 1.0952433125884272e+02 1.1245065992898162e-01 -4.3315315571817337e+01 -2.1423339509659325e+00 -2.2726855074244986e+02 -7.7570995729645222e+02 1.5491237330692820e+02 1.5156631893217564e+03 -6.1134817946439286e+00 1.8790875535409131e+00 -2.3333954462223137e+03 2.1805881405668430e+01 -3.4271645993530626e+00 -1.4039354095097831e+00 -4.4586786291471708e+02 -2.9148501579494166e+01 6.8822887275881430e+02 -4.3985624260456843e+03 1.8653682146576145e+00 4.0468184822720374e+00 3.8792944558458387e+01 -1.8725368150189752e+01 -8.2224328103126027e+01 -1.1657524476984690e+02 -6.4380179621100426e+04 -1.0406834631700233e+01 1.6250116845671825e+00 -3.4634241622414229e+03 -9.5725758311682512e+00 -3.8457151608141430e+01 -5.3281572120401961e+00 -2.3568071962494869e+03 -1.6796341003426642e+02 1.2717254117573611e+02 3.3357680129472865e+03 3.6137510090882188e+00 -2.2144602877784507e+01 -2.2595070298278749e+01 -3.4535257285411353e+02 -1.5655595804488985e+02 2.2918451067944989e+02 9.1536403990571201e+05 2.3650883425258868e+00 4.6966658493534599e+00 -6.1356744380868040e+03 9.6809073663398273e+00 7.2486414859497017e+01 -4.6931736396471313e-01 -3.0842688627837288e+02 1.8578628472638023e+01 1.0237086715619080e+02 7.3813005953328684e+02 -8.1061345041453610e+00 -1.7810442918775379e+01 6.8634035954158428e+00 -3.8636446035242528e+01 -8.8861886624654289e+00 1.6031126090893522e+03 -3.3705440618693829e+03 3.9732273881563440e+00 2.8968958727798793e+00 3.8314026027452674e+03 2.2631781311032828e+00 5.8555935603362741e+01 2.0350993468621912e+00 2.6174210220883392e+03 5.1698973555518421e+01 -9.2641216996358708e+01 -7.1160600219865501e+01 -5.3768889436863851e+00 -1.6840261295808205e+01 9.4635324984895490e+00 -5.4858130123571027e+02 1.7352918893302046e+01 7.1626893371250526e+02 -9.7738421019967645e+03 9.4883081509507861e+00 -1.1686090611394526e+01 5.8354977767980545e+03 -9.8618181810522518e+00 2.7998903284145916e+02 6.4057133635203627e+00 1.1897651481767091e+03 -2.5165651881656282e+02 2.3626532307402726e+02 -3.0819155883635776e+03 1.2221182879704010e+01 -3.9406321723233305e+01 -4.2475172263657441e+00 2.0853716685669497e+01 -3.7427136090118438e+00 3.1682231489196420e+02 4.9393096756726503e+04 -1.5373510740139920e+01 -3.4273551332938190e-01 2.6328141256754752e+03 -3.2167097324776428e-01 -6.1227742695700726e+01 -1.0073734854480563e+00 -5.5801144967973232e+02 -5.5827059791845386e+01 2.6808629104867578e+01 2.0742389079313725e+03 -1.2685513949854794e+00 -3.9198018833212700e+01 -6.2314487167316670e+01 4.6297501293325456e+02 -4.0826667391534136e+02 8.3347861944999818e+02 -8.3193994910216425e+03 -6.0570329502255724e+00 7.1610035681430446e+00 -1.0030811494472437e+04 2.2672632943297288e+01 -2.8593947495913199e+02 1.4251775802373032e+00 1.6756182317736939e+03 4.1163019374388324e+02 1.7520502500099358e+03 -1.6932656684270733e+03 -1.2360558363174192e+01 6.7383774606067902e+01 1.0232947201632214e+00 -5.5621181913621911e+01 -7.8545621303820155e+01 3.0775179216667839e+03 -1.3077233670056821e+03 2.3878627552071968e+01 1.2694495336986620e+00 -2.2021218639928702e+03 2.0881214542189355e+00 3.0380088900093369e+00 -1.9524570840053457e-01 3.5223120290951010e+02 -7.0704481786677547e+01 -3.3432125504988167e+03 -4.4935939048723449e+03 -1.3700007443847997e+00 -1.6789669262065665e+00 -3.2574876444071238e+03 
      </Row>
      <Row Index="141">
        -1.7801326694032726e-02 2.3184278017333781e-01 9.6053993341865862e-01 3.2352679938890105e-01 3.1466501902003074e+01 -1.0018631066126815e-01 -9.3417489766917799e-03 3.0166443136204180e-01 -2.3505338962586678e-02 2.7299516907748966e-01 -2.0541034862736396e-02 -5.0904129573957846e-01 3.2613660163065106e-02 -7.6219489885261282e-02 -1.4610428487980244e+01 3.9980457809033254e-02 5.5422578730485839e-02 2.3011333908527831e-02 1.0155760528633095e-01 3.7633464524783449e+00 -9.9709570494087529e-01 7.4215587596409023e+00 2.0006052168926391e-01 1.8079489963160000e-02 -2.4556208910681789e+00 1.1902083953625464e-03 -3.4776051326730339e-01 1.3035587301693852e-02 3.1108023901027479e+00 -4.7807924439638327e-01 7.3166796602862405e-01 1.8350195508649449e+01 -1.0504403782030103e-03 -1.1615649167654851e-01 2.0901171936174023e-03 -8.9572946666294229e-02 -1.1552334832658744e+00 1.2533828188315965e+00 -8.3386774150421843e+00 1.5090018833299723e-01 1.3951168347325904e-02 -9.4382767031129333e-01 5.6086465875416991e-02 -2.2785649636421113e-01 -6.7313198510960959e-03 2.0625945596418660e+00 -3.8990616233354558e-01 5.3936629404188352e-01 2.2608665570242920e+01 -1.2956487768391867e-02 -1.3874104350702510e-01 5.4208178056362022e-02 -5.7148516328254573e-01 3.0992001019876625e-01 -4.1186794315035513e-01 -1.0039618291775696e+01 -2.3073466774001794e-01 -4.6687222598733591e-03 -1.9209219327603932e-01 1.7462955586652028e-02 6.0455085257936680e-01 1.3872759053119132e-02 -5.6524661404080234e-01 5.2487110162413808e-01 1.2283419408345253e-01 5.3480104797527019e+00 -7.9361401487458849e-03 1.8775269558490915e-01 -2.2393751393423145e-02 -1.1590472608250479e-01 -7.7338739553192681e-01 3.9692436779660056e-01 1.4463266267499421e+01 -1.1094310739813196e-01 5.7928707647576516e-03 -3.1159799038723577e+00 -1.4185569266416564e-02 -5.0144414013857386e-03 2.5622406129066633e-03 -3.1135216285701972e-01 -3.8506003386487464e-01 8.6346902643106205e-01 3.4061639501353511e+01 9.2085100893513072e-03 -1.7435634673275935e-01 1.0477868834352144e-02 1.2837969821134720e-01 -1.2765603131936700e+00 -5.8022306466591544e-01 -1.6602566303918138e+00 5.2227320596635707e-02 -2.8368459329985996e-03 6.6879018563349746e-01 -1.2744266093733359e-02 1.0265040253545976e-01 4.1259001468073056e-02 -1.3805315516901828e-01 2.1098603862881049e-01 -6.9533230776460186e-01 -2.2548771443067380e+01 -5.4649591363162386e-02 7.8140461401972061e-03 -1.1001363152099297e-01 2.5129177592774349e-01 -5.4556281908284099e+00 3.5019907052792405e+00 4.1144929293077439e+00 -1.4779831712798902e-01 -1.0815138884681025e-02 -3.0163033524464993e+00 -5.5737087670111082e-02 4.1953846326516619e-01 -2.5095166516487931e-02 -3.0619747768429590e+00 -9.8507231090489045e-01 -3.7783690159812000e-01 3.7018068735653209e+01 -2.5545113517760981e-02 7.6170777872373752e-02 6.1694483462819916e-02 -2.2474872375511268e-01 2.7687741778398731e+00 -4.4216332046056550e-01 -4.7190335797495209e+00 2.6578301156915562e-02 3.3872543266804528e-02 1.2114987860146833e+00 3.4702987387765560e-02 -1.7534638527573065e-01 1.1676132257393501e-02 2.7111323747311644e+00 9.6382163414489241e-01 7.0474244491651916e-01 -5.6155691079712597e+01 -2.9861236403392333e-02 -2.7733276336029189e-01 -2.1107966337573755e-01 5.7758591033291395e-02 -5.4962681560780311e+00 -1.5034964257515639e+00 2.3650884960661642e+00 8.0000157591672316e-01 -3.2590787538729862e-02 -1.9955407182224008e+00 7.3655825397095859e-03 6.7377392691255977e-02 6.8473962596958989e-03 1.4659046631829824e+00 -3.9562062376764651e-01 -4.8076538790414816e+00 1.7194290366473069e+01 -8.3078157571129962e-02 2.2306220250554543e-01 8.6417114639360526e-03 1.2649898349425204e-01 -1.8040597024207727e-01 3.0819209642868373e-01 -3.8417860451154411e+00 9.9736957114570868e-02 -4.9307068523069431e-02 -3.3482275160452843e+00 -1.6394105342895288e-02 -2.2895658655659190e-01 -7.8477824392612708e-03 -1.5864852080476162e+00 -7.3272913361251102e-01 -1.4919348096645990e-01 2.6913030897987344e+01 3.2852400088690760e-02 1.2318507255882682e-02 -9.1069394812203414e-02 -1.0899222016767546e-02 -1.4579699050716417e+01 2.8118227234546742e+00 -3.5753874473302858e+00 -2.2525544729860161e-01 -8.5757545800762516e-02 -4.7805973662728114e+00 -1.1154523500963527e-02 1.4429318844920647e-01 3.4459722142882176e-02 -1.9208102836066203e+00 -2.3904411357657146e-01 2.9431417995921749e+00 8.1676795845001891e+01 7.5095097361486909e-02 8.1539474272528412e-01 1.0602562689081196e-01 1.9121204571979433e-01 2.3582387675851351e+00 -1.4887620034278370e+00 -4.7473599568475038e+00 3.3451625396283036e-01 1.4096280032039540e-02 1.0301060550300463e+00 -2.8778398805520689e-03 -3.7433059011448222e-01 -8.4575895127614320e-03 3.5782377505529439e-01 1.4352383100134603e-01 -1.1944339060792117e+00 -2.9017782863140383e+01 -1.2731984964625909e-02 -7.8831706364908882e-02 6.6172678526261242e-02 2.1627256774777265e-01 1.0261473893923798e+01 -4.8725347690482224e+00 -4.1191283475573641e+00 -2.6341076921100059e-01 8.7219744253288739e-02 6.9852092472519871e+00 -6.9324906707292078e-02 7.4997906820021765e-01 -3.8551435558005429e-02 1.2978883132848451e-02 -2.2814793413118151e-01 1.0964960873595149e+00 -5.3706662626696708e+00 -6.8390759199170842e-02 -4.7770251954797915e-01 -5.4038634110544770e-03 6.9318241468583786e-01 -2.9708905654934376e-01 -1.1955122613800386e+01 -3.0533956591243410e+00 -5.2841772572333578e-01 -6.8827841887459940e-03 7.0672081856703688e+00 -3.5949262973584695e-03 -3.2535641728577147e-03 -1.2868462017389781e-02 5.5670262795097845e+00 -5.5021774429988513e-01 -9.7272491974694528e+00 -2.9000874824921099e+00 1.7103421081079082e-03 -1.8905038556882928e-03 1.1164536650859484e+01 
      </Row>
      <Row Index="142">
        -1.1116013424334203e-01 7.8448574293397577e-02 -3.6361161236349915e-02 6.5062727849959501e-01 -1.8043493135984249e+01 -2.2194387474043342e-02 -8.3505087803066119e-02 5.7443890616522708e-01 1.9969448691347730e-02 -1.7166156411168032e-02 5.3345738286731753e-02 -7.1244687585300781e-02 2.4023167383741928e-01 2.0240741669623930e-01 3.6562187949527996e+00 -1.6079044020799793e-01 -3.9287015377010182e-01 3.0829488793999493e-01 9.8013418456163737e-02 -4.7817034849823159e-01 1.0152714942742591e-01 4.5973048245086829e+00 2.9189125818745998e-03 -4.2189007969283099e-02 -2.1268046299636190e-01 -5.3210238720274694e-02 -2.2557607564216475e-01 -1.7775207910895430e-02 -1.3835419065358079e+00 -1.4147951152318594e-02 3.5403477808417427e-01 -7.8684869908022392e-01 5.0377604378008277e-02 -2.3080595476511934e-01 -1.2977658461013308e-01 1.8367089982345508e-01 2.8320148360014130e-01 5.0853024386103129e+00 -1.4612811081840391e+00 1.1136541634150232e-02 -1.2469818853133963e-01 5.5426169920480106e-01 -1.9171273729628524e-01 -1.2613532068010525e-01 1.5493390600725160e-02 -1.1461450730940399e+00 -9.4548931343664933e-02 6.1905920284946347e-02 -5.8766884223597060e-01 -6.9820729599337605e-02 1.1280393795580572e+00 1.7615769934613418e-01 1.6911190162927081e-03 -2.3475284239190231e-01 -2.2506947791034264e+00 5.4222000159188610e-01 -1.8390649886861732e-02 3.9933464969677826e-02 8.0947297769262150e-01 -4.7654503447454921e-02 3.3933203825591063e-01 3.7863646475681662e-02 2.2423545947144419e-01 -6.4248671015404213e-02 5.8983548600973279e-01 5.5227070111516241e-01 -5.8223964865381568e-02 -1.0465642642581074e+00 9.0130865840399865e-03 -5.0367415210568200e-02 1.6565756419459987e-01 -2.2770519257825583e+00 -5.0240423450331946e+00 2.1718150027067396e-02 -6.3108234682211176e-02 7.5115120809675773e-01 4.7004268305048225e-02 3.6672123867887407e-01 -8.8672613837369463e-03 -3.9500251781272055e-01 -1.6526381992967210e-01 2.6568994475919094e-02 -1.9318592533715417e+00 1.5195225130393286e-04 -3.9111031922821521e-01 -3.2938557280859371e-04 -5.6818504173234530e-02 1.3694205182587638e-01 -3.7143849467826442e+00 3.4765999389765057e+00 -5.5260175561666625e-04 8.0487631435059978e-02 6.0891098720348324e-01 8.7120615220091624e-02 1.3384498325256633e-01 -7.7695230274800298e-02 8.2709036158799165e-01 1.7564430715036547e-01 -7.6470195990328094e-01 -2.8805991129527797e-01 3.2324216839452602e-01 -1.1100492307861547e+00 3.6857177186580115e-01 8.1137115765701928e-02 -5.2358159201828158e-01 -2.1360793189130334e-01 -1.8335448044153964e+00 2.0501551554979125e-02 8.0915253822296113e-02 1.8849304823832824e+00 2.7448128982343245e-01 -2.4992985709038074e-01 3.5165776467203189e-02 4.5859968944688809e+00 1.3355964181547364e-01 2.2938165094659979e+00 1.7355968055317135e+00 -4.9986874326073516e-02 1.1009090032771718e+00 -3.3907653543808286e-01 -1.2913401367208444e-01 4.9199226683725694e-01 9.8920697608930741e-01 -4.6875047197181630e+00 -2.7147718297680479e-02 -1.9288064928389939e-01 -2.2928980340243186e+00 -1.2084494904209256e-01 7.5508804465009760e-01 -6.9991245704998040e-02 -2.5546963851897804e+00 2.6773759920214246e-02 3.3828831322617603e-01 3.1249716128122813e+00 1.3690854533031957e-01 1.8201110713742621e+00 1.0732695308938522e-01 -4.9888026676490949e-02 -5.4410352614553226e-01 5.0714805339057207e+00 4.6966660195662371e+00 -3.2590787955046940e-02 5.0582532451763140e-01 -5.0187353066479545e-01 -2.6469636457665391e-01 5.0567524584146484e-02 -8.8320587365634751e-02 -8.7334350867223876e-01 9.9280772734715583e-02 -1.1001716103948453e+00 -3.2472675368616422e+00 -2.3889155057335243e-02 8.8802760800314307e-01 1.7866933919998440e-01 -1.2966448707219058e-01 -5.6598422837985396e-01 -1.1128735316262350e-02 7.3978392318940678e+00 2.5745356762030103e-02 3.0101426556885874e-01 2.6561883858079511e+00 2.4656703932895427e-01 -5.2622637755393953e-01 4.6564731644508639e-02 2.6066104555030307e+00 1.6344356065179966e-01 1.4314476987476112e+00 -9.9186173230117660e+00 -1.6154099532999955e-02 -2.4619513326822196e-01 2.5493261854734228e-01 1.8301423102454573e-01 8.4598471783771156e-01 -3.0623295922540450e-01 2.7095804985790437e+00 6.3390268523347837e-03 5.3935903695784632e-02 5.7139504942206187e-01 1.4285325197479107e-01 7.0667685975041739e-01 4.9399580271172638e-02 6.4101006514846759e-01 -4.9131366161449591e-01 -5.9405809690195355e-01 -1.2651837810888065e+00 -3.2831647047523560e-02 1.1133386778789722e+00 2.7994862885906380e-01 -3.2892511967224536e-02 -3.6948065710384270e-01 -9.5059394679969955e-01 -2.3902761360695877e+00 2.2411903049858534e-02 -9.2712446191594855e-03 -2.7666776087141898e-01 1.6480954845824985e-02 2.8234960855343783e-01 2.9171334039894324e-02 -1.7798784695892778e-01 5.8905254822533948e-02 -6.2737803311904372e-01 1.6738165466087764e+00 -6.4913094769977323e-02 -6.6518713259140494e-01 3.9026299697897660e-01 1.6101073262988955e-01 -1.1038230139935576e+00 -2.7317292352322200e+00 3.3391715616978459e+00 7.5155589376666720e-03 -1.5505509337365517e-01 2.5439798384949199e+00 1.6346683686408175e-01 -7.1511186820369499e-01 5.0146707017369521e-02 7.0642993364117554e+00 1.2711443756087184e+00 4.5024096740741451e+00 3.9172839902146057e+00 1.4505081500735650e-01 -1.8540981947342652e+00 -2.1616964011160318e-02 3.9176587734674367e-01 2.9609601019515340e-02 -8.2614162266558910e+00 -2.7914513690318188e-01 -1.4989836564263410e-02 9.4927791456448335e-02 4.2442274558810027e+00 1.1522456903001757e-02 -2.0293527155157753e-02 1.5260501539193005e-02 5.2448775760740363e+00 -1.5782772794026425e+00 -8.9120888208005713e+00 7.5595702029241729e-01 -4.8924430657170670e-02 -6.9404759670189206e-02 -1.4045312694532541e-01 
      </Row>
      <Row Index="143">
        -8.6096456279720357e-01 1.5718219305068487e+01 -6.3196034810156561e+01 -9.4696299328381428e+02 -2.7554147945344448e+03 3.2581016805124818e-02 -5.2445291255281723e-01 -1.8539473994993605e+03 -1.1704477771899959e+00 3.4206880354264285e+01 -3.5089632947347127e-03 3.0959268849955333e+02 2.5186814132903237e+01 -1.3787752528232522e+02 -2.7476957525848993e+03 1.1059709081164328e+00 -1.1862780394920264e+01 4.5047574356904079e+00 9.4251180849460070e+00 4.4639805661048740e+01 4.2814458792190999e+02 5.7843878296613693e+03 -5.6374724402978238e+00 3.4097845132282600e-01 2.2518503510119626e+02 -1.0793173500283046e+00 -1.2820561880304012e+01 6.2577316356964729e-01 -4.8605098726829601e+02 -2.2280183783354005e+01 2.8859721518158040e+01 -2.0449688902026974e+03 -3.7373729163300595e-01 -9.0008214440167649e+00 3.2408156961173518e-01 3.6152777982060798e+00 1.3885782418400049e+02 -7.2960549390874803e+02 -1.4575547042265534e+03 1.2483727801845816e+00 -1.6925299985232414e+00 5.0737540973536670e+02 -2.0439064640631841e+00 2.9708279549668077e+00 -9.2483758762318757e-01 2.5007597750285640e+01 -4.7176277832128108e+01 2.2713184144813567e+00 -4.6100866263452917e+03 4.3348279965939582e+00 2.7787818705197424e+01 5.0071623281547617e-01 1.9033686608920107e+01 4.9045163107570261e+01 3.0818064255174249e+02 9.4772469403147697e+03 7.1742649780526335e-01 1.1414053256461940e+00 -2.0947871677912772e+03 -6.6361375774793419e-01 1.4275311073210702e+01 -3.2935938218543015e-02 2.6230553077257355e+02 9.0103481563116361e-01 4.9614372691255994e+01 -5.7463135837484151e+02 -2.0154418977688238e-01 3.3909840760493950e+01 -1.3417209931722027e+00 -2.5738871029316215e+00 1.4263438951992430e+02 1.4564457137510180e+02 1.1409110198616982e+03 -4.7490465640662478e+00 -1.6916684655973313e-01 -2.1838448124174029e+03 1.2920382431002508e+00 -7.1744893052964471e+00 6.9466233084585838e-01 7.8351952287834138e+01 -7.9101694339478854e+01 1.1210199968055531e+02 -4.9789893428096548e+02 -1.5446891984065587e+00 -1.2322643382685783e+00 3.8281817071937518e-01 1.2268197168537881e+01 -1.0558006145255058e+02 3.5619981667399406e+02 3.3601475336998701e+03 2.0355064750328893e+00 1.5497807316210128e+00 -1.0754727837386890e+03 -4.5845835822365189e-01 -6.2685049822903238e-01 -3.0034211050404203e-01 2.8414849388645962e+01 4.3553818254042653e+01 7.1612197194481269e+00 -7.1767096869321540e+02 -9.6676386020080827e+00 -8.5312662732030731e+00 4.4062185121718835e+00 3.1009208256323262e+01 1.0748816571788586e+02 -1.2464527351404540e+03 -1.5479818566143513e+03 5.3983476952976694e+00 -7.1599995442984721e-01 -2.5537070379629677e+02 -1.9924281627951435e+00 1.2182201197773779e+01 1.8775540489826210e+00 4.0557564680190285e+02 -7.7604083271416954e+01 2.3366424660719485e+02 -1.9121074268475902e+03 -2.5613324077774102e+00 2.2727356347383054e+01 -5.9658441777825431e+00 6.6009537172358250e+00 -7.2576919887098484e+01 8.0902395579818403e+01 2.0621015643477440e+03 5.5995369229928187e+00 1.0290143599306401e+00 9.1140015864161956e+02 6.4685024300888472e-01 -1.8444994742632844e+01 -1.3673153411544945e+00 -5.8923086710134521e+02 7.0256760893505998e+01 8.7038544038427062e+01 4.8058999727137852e+03 6.1642549440921357e-01 -9.0960082208742801e+00 3.8490583765065232e+00 -6.5703956239303807e+00 1.1915697693871334e+02 -4.8289782675437164e+02 -6.1356744060218334e+03 -1.9955406312810737e+00 -5.0187338584282526e-01 9.3896912251124159e+03 2.3705749901358812e+00 -9.3173482535967196e+00 4.9339748613924872e-02 7.7048326396499760e+01 3.9551693079621089e+01 -1.2219030239316635e+02 -1.2488545569316484e+03 4.1312861699620029e-01 4.8964742084633315e+01 1.3109518180740549e+00 -2.7959615117603192e+01 5.4936622880282812e+01 -1.0758377859261818e+03 2.6215257057845592e+03 -2.1102950843785435e+00 3.3635096977901568e-01 -2.8897538156482251e+03 4.7370018380883216e-01 1.0668371689418564e+01 7.5843555298057086e-01 5.4382228739315724e+02 -1.4511659900678406e+01 -2.2461987958883401e+02 -5.4438991651096558e+03 -7.3518738171026952e+00 1.9674364615619879e+01 1.3410605878762949e+01 9.3614296173830720e+00 -4.2694139640357022e+01 -2.9935352039920724e+02 2.5080100685153157e+03 -2.2246806911444942e+01 5.8523993856758483e-01 1.5375005893116031e+02 -2.8148937273604067e+00 2.1925923755165265e+01 3.1749458755692785e+00 3.0623412595352011e+02 -4.1151625332485338e+01 8.9300713530079349e+01 6.4097818769029436e+02 4.4196954850603190e+00 -3.6161085626275081e+01 -7.3244221047934843e-01 -2.6268614623695612e+00 -8.4982038089772686e+01 -7.3778096705675125e+01 1.1528427247762680e+04 1.8628036578365936e-01 2.0621094928537786e-01 -1.5197073780812789e+03 -2.0528484961208759e-01 -1.1877745772668277e+01 2.1685872464382783e-01 6.4195736477151513e+01 3.1980799773235049e+01 -1.7320915495976806e+01 -1.7643847417859361e+03 9.9068725692995940e-01 -3.0871611017209943e-01 -3.7979647854015246e+00 5.3011357772102322e+01 -3.1546694151984070e+01 -1.4076811850897177e+03 2.4137302865427773e+03 2.4134907495756096e+01 2.0164800406702640e-01 3.4262198561406694e+03 -2.0136732300978082e+00 2.1066208947929489e+01 -9.7996510107236467e-01 1.3880344323298491e+03 1.5577302232294613e+02 1.1369907048807559e+02 -5.3321402378234443e+03 -1.0988045849389497e+01 3.7769690410360276e+01 -2.9102471138116925e-01 3.2849921534198316e+01 1.2190770587583890e+01 -9.9224735408784011e+02 1.5475438126953557e+03 2.0471967317802209e-03 6.0686879575587227e-01 6.1612405513829899e+03 5.8135403429787402e-02 4.0666056906422909e-01 1.5364260565411314e-01 1.8396265115002871e+03 -4.5171739877276400e+02 -3.6517939370395493e+02 -1.0429524147912718e+02 2.1019545638911690e+00 -8.4256796003406720e-01 4.0048242772442882e+03 
      </Row>
      <Row Index="144">
        1.5015894773519167e-01 4.9886128275224451e-01 9.6574162395654639e-02 4.5750767330537201e-01 -6.3079425625728618e+00 8.9720146946721258e-03 1.6936505549139044e-03 -7.1310965767224843e-01 2.9240855718100434e-01 3.1989354363565781e-01 -9.3829635698292613e-02 1.7909496810004057e+00 -1.2572031496347336e-03 -8.4885333385727790e-01 -4.2339945840296878e+00 -9.6862440709900355e-02 -5.5069664491398385e-01 6.1185834321662469e-02 -1.8036912313908360e-01 7.4176039117787695e-01 3.1179590602050666e-01 6.6219320789095946e+00 3.5946660555774557e-03 -4.4252902899782676e-02 6.1536702290703715e-01 6.1736616076048634e-02 -2.1643067602161636e-01 -3.6272592986728469e-02 1.2158256749389551e+00 -1.3692287963674232e-01 1.6410832514813336e+00 2.7401687574670177e+00 2.3594917433351759e-01 5.8989683136310589e-02 -1.9625142017014241e-01 -3.3617096577570749e-01 2.8498608990855701e-01 3.3191667987739493e-01 1.5266039092457504e+01 -4.5425333682171498e-02 -1.4513000274773447e-01 -1.7199864513295324e+00 -4.1113997656580992e-01 -4.2462980527952254e-01 -2.7615650564964511e-02 2.7799975806902921e+00 2.0582247702122913e-02 7.8745167923398185e-01 1.1558271126182262e+00 -2.3404476695108656e-01 1.8121958613594416e+00 5.3672472988239850e-03 -2.6241623440036221e-01 5.5290190186485688e-01 -9.6516496544018082e-01 4.5006777167727705e+00 2.8490367625348512e-02 -3.7597425650766458e-02 -1.0366795343288686e+00 -3.0346552708141628e-01 -9.8650977292287578e-01 3.9562338705140254e-02 1.1665920163749774e+00 7.4706717727069716e-02 2.4992017678159755e+00 1.1743365012052891e+00 -1.8012331035415419e-01 -7.3985259324039987e-01 2.4407940994442612e-01 -9.5690944859967431e-03 -2.7720149812353156e-01 6.9128254035695136e-01 1.3926528707263060e+01 3.5601662611979279e-03 1.9666769869053691e-02 -1.6510625127284584e-01 3.9519002777507950e-01 3.2581209846455295e-01 -2.0006483261897579e-02 6.2681510174820687e-01 -2.6218226130561106e-01 3.6929582523551119e-01 2.2481889325131306e+00 1.4760029849698242e-01 -8.4524153572612137e-01 7.7314213547937438e-02 2.6423445009919533e-01 -3.0647933383139048e-01 -1.4236505877011041e+00 -8.8615760873653926e-01 1.6480738732628453e-02 1.2175121284935297e-01 -1.4550497257533834e-01 2.6048848284209924e-01 4.2777637941711077e-01 1.3707231080498655e-01 1.0029115953052496e+00 6.0562331098225286e-02 -2.6069848842605552e+00 -1.9872311475151037e+00 3.7792670634713943e-01 -1.5542171063881369e+00 2.9968046469854476e-01 7.5543692537047136e-01 -1.6672705234959366e+00 2.9059996065288942e+00 7.0952085751923732e-01 6.8980682609142030e-02 1.3176028015654440e-01 -1.0355816136167775e+00 5.0077787303911592e-01 8.7078751633535401e-01 2.7121884496531579e-02 2.2999774015676806e+00 -2.1923455102855272e-01 3.8680554449635878e+00 -3.0772761903864563e+00 3.6345247437126249e-02 5.1467421893316190e-01 -1.2837277198700578e-01 -3.0518036870159904e-01 5.7550159467714934e-01 1.3037859028901835e+00 5.7202009753382299e+00 1.0814200501562510e-02 -4.8881984147156693e-02 2.6072994232621340e+00 -2.0732444012981954e-01 1.4646714383246717e-01 9.1301875756326645e-03 -1.3376311420182674e-01 2.7425406904700367e-01 7.0821261967148530e-01 -3.8931876125209328e+00 8.6801422984063903e-02 1.6280007391536184e+00 -1.3705917835582282e-01 -7.3188320100591397e-01 -2.2665054012497876e-01 -6.2762109624832192e+00 9.6809075735654915e+00 7.3655816305215893e-03 -2.6469636489393500e-01 2.3705747602853080e+00 1.7718356600868725e+00 -1.2036233612253788e+00 2.4992051946551470e-02 -2.8356588094266044e-01 -2.4832869298256277e-01 5.3648737613161757e+00 2.1783672866540655e+00 -2.7709171752698469e-01 3.0935839156736247e+00 7.7479285934747288e-03 4.7854187116147529e-03 -1.6575770929562168e+00 1.6071471442223810e+00 -8.2141288256389089e+00 1.3261252853646710e-02 9.7498914513203583e-02 1.8039491552463005e-01 -7.2846278540731335e-02 -2.9022899137839886e-01 3.2928275243768734e-03 -8.1756328702726933e-01 -1.6788461750357442e-01 -1.1247228967725960e+00 2.9688389320494508e+00 2.4028897176817221e-02 -4.3182247906962168e-01 -3.2307242260007485e-01 -1.1757171199014449e-01 -1.0367948521979247e+00 -1.1570594556785210e+00 2.9327893740010040e+00 -7.9860889483720665e-02 4.9588520482752196e-02 -5.4201151071628590e+00 -8.4487484809316504e-02 -3.6104275282329024e-01 -2.4179068425770667e-01 -5.3165574319531377e+00 1.2870630416951023e-02 -2.6905772635544807e+00 2.4195999554028660e+00 2.1915720508312478e-01 -9.4152741342663049e-02 1.5410533493489709e-01 8.2383731910226743e-02 -8.2862409730978470e-02 -4.0091377485077828e-01 1.7213241604622453e+00 -1.8446580356358599e-02 -2.1759807977448808e-02 7.2751761977997376e-02 5.4958323168040724e-02 -2.3582128310528105e-01 2.5934155478307686e-02 -1.3770845007793469e+00 1.3674549983822715e-01 -1.7395115267463552e+00 -2.9624008054479418e+00 -1.2259199591604153e-01 -8.2159509017571963e-01 7.3112468924322072e-01 1.1629518150521674e+00 1.4962428074042133e-01 4.4196302341946270e-02 9.5831018346467545e-01 1.3873657251981070e-01 1.2216631387151097e-01 2.3204258816863330e+00 -7.9465703650017039e-02 1.2924172217955461e+00 2.5952586875641437e-01 8.0783212250342977e+00 -2.9788402761637156e-01 7.2551658674849939e+00 -2.6345035336484646e-01 2.1273124490589695e-01 -1.2831294250208214e+00 -5.0054132529823159e-03 9.5817261950252985e-01 -3.7989871664267871e-02 -9.9468859924000856e+00 -7.6274467219667557e+00 1.0598032899921351e-02 3.2648099258058672e-02 -1.5373840742637341e+00 7.2536237769362577e-02 1.6861887456979092e-02 -4.2789578073230583e-02 5.0396059010449594e+00 -4.9436307095829357e-02 -1.9611851922807880e+01 -2.9767720639078679e+00 -1.2244666266337104e-01 -7.1208924398391618e-02 -4.6736076709190071e+00 
      </Row>
      <Row Index="145">
        1.7564161090371061e-01 -3.0969869425013599e+00 -1.9584892180896531e+00 8.3474818244083053e+00 1.7671247225892148e+02 1.7072385979278693e-01 1.4279518641264380e-01 -3.2563236590476663e+00 -1.1302480729291675e-01 -1.2808304747702550e+01 1.4548223713357089e-01 1.4780528660709621e+01 9.3198002646590794e-01 9.4718148462197860e-01 2.3345900656081540e+00 3.5256483178927311e-01 -2.5275798459129533e+00 -3.7874849111307469e+00 9.1641122655242668e-01 -3.2202527393515084e+00 -6.1471249335236280e+00 -7.4224247450707480e+01 -2.7733457925133398e-01 -1.1682991509327145e-01 4.1231739131912946e+00 1.8957920018642227e-01 1.1947724244051642e+01 -1.6764902120301883e-01 1.7770691639881903e+01 6.9134968562678978e-01 4.2978501556092965e+00 -6.0620722258936439e+00 -3.0575782810827024e-01 9.5991511139419572e-01 3.2318460586395759e-01 1.5016607066574466e+00 3.0816567427632435e+00 1.0489471843859064e+01 -1.0503910257545067e+02 -1.5937536435316701e-02 1.1116629748241991e-01 1.1667950597620802e+00 1.0604591541203092e+00 1.0389109351346974e+01 -1.4679190557616906e-01 1.6204105611615887e+01 -2.7229342723819627e-01 -5.0824234830633941e-01 7.8956215564940067e+00 5.4540203437245793e-01 4.0777636679406442e+00 -9.3452478287536023e-01 7.2165028878072235e-01 -1.2290868046638934e+00 -9.8550117106187827e+00 3.7255485567846335e+01 3.2910702821764559e-02 -2.0480653721600683e-02 -4.7543629886640701e+00 -4.0696178064172400e-01 -1.5503839809061503e+01 1.5252447887968934e-01 1.0340489346202958e+01 -1.9368989868845077e-01 5.2361624444483823e-01 -5.5035520991077647e-01 2.8941416125150310e-01 -2.1863204506156571e+00 -3.3541389611215777e-01 -6.4490044006902281e-01 1.5621096187246621e+00 -7.8391281509539112e-02 6.6305094303679653e+01 1.0940827155621768e-01 1.3232205361709437e-01 8.0857994094549213e+00 -8.9451510250221133e-01 -2.0606994313356836e+01 2.3005946652121523e-01 1.0865510130915936e+00 -1.0673721206967457e+00 -2.0222005702774482e-01 2.3975074053427306e+01 -1.0849492153371898e-01 -2.9067397837901101e+00 -1.9296609226217676e-02 -1.7640769779375205e+00 2.3127091751841249e+00 -6.1959251355638116e+00 1.3649772377550835e+02 6.9993749484311252e-02 -1.0846339446182185e-01 -1.0570417946177031e+01 -4.7151212972006817e-01 -8.3720459238767262e+00 -2.7935844631631096e-02 1.6166307231112114e+01 8.4600544784034248e-01 -3.5767724549077684e-01 -9.9410944316405221e+00 -8.3747645129898274e-01 -2.1084127120616358e+00 -2.2021836957873755e+00 -2.0507932130285740e+00 6.3255706653830117e+00 1.2523261313934199e+01 -8.9954874385148287e-01 2.1320657365993712e-01 -2.1955276434491994e-01 3.9591154012460450e+00 -3.0582107558793281e-01 7.9937729190758828e+00 -5.4093234503536924e-02 1.7571740479067849e+01 1.8374686622978800e+00 4.4149788139179336e+00 2.6230341551730316e+01 -2.6357953630778985e-01 -1.0907929637302436e+00 3.7423822704299359e+00 2.3744805254037260e+00 -1.8393229800378776e+00 3.0618694798804427e+00 2.2531190873356536e+01 1.0882619800862625e-01 2.6071543620195126e-01 1.8567926743527323e+00 1.3368944006174743e-01 -2.1338775068920938e+01 -2.6513130675620999e-02 1.8578865066725712e+00 3.1658095981333645e-01 4.9986676812823134e+00 5.7255598302851922e+00 -1.5870922224341300e-01 1.3456551283573597e+00 -2.6266832637600608e+00 2.0790969036230535e+00 -4.0486197204179462e+00 2.5229977192249407e+01 7.2486416728585027e+01 6.7377389994092596e-02 5.0567522941317083e-02 -9.3173504770529689e+00 -1.2036233596010035e+00 3.8811562652792972e+01 -7.7490637546766453e-02 2.4429841466223706e+01 1.2172365594438195e+00 3.2959721120346330e+00 -8.5659065304298565e+00 5.4428297916643942e-01 -3.8607531080967092e+00 -3.8553974875033203e-02 1.1755209476828865e+00 -1.0110284840329768e+00 1.2117761106928810e+00 -3.9150845173280686e+01 -1.3937134610464352e-01 -8.5800608684635238e-02 -1.0208213234367577e+01 -3.6932444550397886e-01 1.0204187490559775e+01 3.2227133028765079e-02 -2.5467158295773913e+01 5.1586054140356907e-01 -5.9309592509766844e+00 1.5492329671186681e+01 -4.4209552153858234e-01 -9.6474455270861625e-02 -8.5233062073594779e-01 7.6425639115051869e-01 6.2415497432522056e+00 1.6593030817173148e+01 -1.6165516288579965e+01 8.3480552751590054e-02 -1.9190479796944754e-01 4.2179552471684900e+00 2.2458748421551866e-01 -1.9169687721072293e+01 3.7334139981610637e-01 -4.1449014420932073e+00 -9.9592863500609163e-01 2.8974329274051627e+00 -1.4838198142601449e+01 -2.8757581938658289e-01 -2.3054521363979248e+00 -2.0195100975136171e+00 -6.0425618456633856e-01 -8.9707192919377121e-01 -4.4155848256195895e-01 4.5611930040759034e+01 6.4384097512995675e-02 -5.3434668679273045e-02 -2.1608766598692455e+00 -4.8211158080876304e-01 -1.7832483755388239e+01 9.6739774457381245e-02 -9.4168746802824899e-01 3.2987020293413138e-01 -4.0667958659469150e-01 4.5818568380673241e+00 1.5203947014937036e-01 -2.6538857215774669e+00 -4.1107811364833760e+00 -5.2432394817462402e+00 1.2617486661550661e+00 -2.7277642649170069e+01 -1.9728654310245020e+01 1.5799797032929080e-02 -1.9954979986827098e-01 4.5602582061026624e+01 6.1809826672223789e-02 -1.1374063116804638e+01 -3.8049305037303449e-01 5.9335535386060236e+01 3.5330516157658485e+00 3.4050789912641717e+00 2.9639928313314428e+01 -5.3806403423758575e-01 2.4844572727540015e+00 1.6957251659949057e-01 -4.3827494657575725e+00 5.7263925578826669e-01 -4.3259773108458148e+01 -2.2943112281081174e+01 6.3903709584250512e-02 -9.3247191539444607e-02 6.1859745376216949e+01 -6.9995421494191135e-02 1.0686242003168185e+00 5.7669388718284864e-02 9.3280280555803813e+01 -4.0472070845164616e+00 -1.1147835816574547e+01 1.0914349863940307e+01 2.1784677698477395e-01 -1.7984617866942831e-02 1.4058242453014113e+01 
      </Row>
      <Row Index="146">
        -2.1451687967683739e-02 6.8033132540604058e-02 6.3649044595143778e-01 2.7560830880496212e-02 1.2152772285132414e+01 1.7505517328798570e-03 -2.2453188652637138e-02 6.7032465610834890e-01 -2.0822484567472030e-02 1.2708247431128505e-01 -2.8662284246729719e-01 8.8951274717367301e-01 -1.5770924854541590e-01 -5.5590602706199377e-01 -4.3415274841542839e-03 -8.9230944693990843e-02 3.9270910624920408e-01 -8.5050051832471718e-02 -8.0419146649144624e-02 8.3628297230351478e-01 3.4163007234649001e-01 -8.5679558260162594e+00 3.4058318624342075e-02 1.6484722386662098e-02 6.0551238531016338e-01 -4.4580497733507252e-02 -3.9852851922809407e-02 -3.6482665582006357e-02 1.9534459576352985e+00 -1.6348176412561699e-03 3.5267444265293890e-01 -8.8571209102559578e-01 3.4328796696391956e-01 9.9666860453726747e-02 4.0055024218337287e-03 -4.2759498778343286e-02 -1.5782450447229124e-01 -1.7164719755855913e+00 -1.2109866325085022e+01 -4.6931715645908145e-03 1.2895892608539739e-02 5.2711836340085938e-01 -8.9182337724702521e-05 -1.4032115650893751e-01 4.8353263000682753e-02 1.1140272463433938e+00 6.9596502098050905e-02 -4.7062523995134597e-01 5.4037087428204700e-01 -6.0174905983591764e-01 -7.7513579890876017e-01 -1.1204213062908597e-01 -6.5139611087088323e-02 9.8798624386369127e-01 5.6499349533990539e-01 2.4617138534867991e+00 -6.9508894233390739e-03 -1.1686005188400989e-02 1.7118066802981957e-01 3.2665375527546558e-02 5.7057659883105294e-02 3.3790693886889114e-02 5.2843759867298790e-01 -1.0229296445286096e-01 4.9851889906839375e-01 9.6816559418732595e-01 -2.5045473999156420e-01 3.0562127726367216e-01 -1.2002358811551206e-02 4.3401406032074874e-02 -1.0962372690323008e+00 9.1657932899494199e-02 -7.0240966072014999e-01 -8.9177271042212292e-04 9.6277876523313925e-03 1.5917201029103012e-01 -2.2910809676382371e-02 1.7383509690486854e-01 -1.2198873667285581e-01 2.3494251417119472e-01 8.5623103342509665e-02 4.5928666699158516e-02 -7.1074696207573140e-01 2.7171996613074889e-01 4.2149496290344957e-01 5.4190294066555067e-02 -4.2390320550730110e-02 -4.6627538184271877e-01 9.0302204480536830e-01 -2.1352130823606785e+00 4.5194001824184760e-03 7.1452544627053860e-02 1.4307619309096964e-01 6.0658643856763006e-02 -2.1514573668093817e-01 3.3113466228370730e-01 -1.1248901987886342e+00 -5.4332647901444320e-02 8.2605603764428182e-01 1.1532237911748240e+00 6.2711985256756853e-01 3.0989587229059445e-01 6.3001018177602855e-03 7.6506019485508892e-02 -1.9259011608089640e+00 -1.8840107100776038e+00 7.0168868934160855e-01 -2.9997328995071071e-02 -4.8564654975119123e-02 -1.5421215403833288e+00 -7.2078002447436257e-02 -1.2619539940862223e-01 -1.3630093016521000e-01 -1.3175042873963392e+00 8.7034377435344368e-03 -2.1917230449555491e-01 -2.6054486607551723e+00 3.9310550401121080e-01 1.6429346565199243e-01 1.1967712410550843e-02 -1.1943528034819373e-01 1.9738896986740784e-01 -3.8884604455390992e-01 -4.2461872954190767e+00 1.9158785689870061e-02 5.3016222735303112e-02 -1.2005868671891449e+00 2.5339410206982382e-02 -1.2749293294705000e-01 7.2366736196144921e-02 -5.6097710853280880e-01 -6.6543450645318636e-02 1.2895897315413407e-01 4.3673670698133193e-01 -1.3436322803970707e-01 -9.7786011355550373e-01 -1.1643810241486563e-01 1.2419403814632179e-01 -2.2185497398909249e-01 -1.6067100552972633e+00 -4.6931740639411146e-01 6.8473960563281699e-03 -8.8320587546766263e-02 4.9339820384972199e-02 2.4992051522949921e-02 -7.7490637614415769e-02 6.6736963023003870e-01 2.8332277686456777e+00 -1.6331267931111793e-01 -8.3399305897776088e-01 -2.7356592422366504e+00 8.1332359082322753e-02 -1.2942048359171210e-01 -2.3851742711737012e-02 -5.6782564826019843e-02 -2.0313837652986422e-01 3.3410377731131291e-01 -2.3471406641538124e+00 -1.1865075970723393e-03 -1.8101223040507573e-02 1.0805929946504875e+00 -8.3140030172556112e-02 2.3476746138329752e-01 -2.1908500395243294e-02 -9.1129707248660097e-01 -7.8002773943138592e-02 3.1618036203667543e-02 4.0075911234600028e+00 2.8857606895993587e-01 2.3314428755767236e-01 -2.5689848166633089e-01 2.1460517987863725e-01 -2.6979698151834439e+00 -1.3418239733062176e-01 4.5716439828038347e-01 -8.4317989194084425e-03 -3.6044414272559694e-02 1.2942703242173295e+00 -3.4819720189773429e-01 7.2984200024663726e-01 -4.2924851704386158e-01 -3.0612787783677886e-01 1.5720611973787693e-01 -2.3684793388017162e+00 -6.0157364172152938e+00 7.7932300701707069e-01 2.2627946018118694e-01 -7.7570719544524325e-02 1.5314366690468262e-02 -3.4676509060687977e-02 1.2042759455218857e+00 -6.3911898369224218e-01 1.6615086876978387e-02 -9.1406439700758013e-03 8.0825088993577765e-01 4.3541698636127932e-02 1.3056343686781346e-01 -1.1752900905940278e-03 3.3247880520355011e-01 -6.0970937690962845e-02 7.6769909475160603e-03 -1.0421719284573783e+00 -1.7927774500897442e-01 2.7896680089385306e-01 1.8028793585808345e-01 -1.5705571254771380e-01 1.0685915798961712e+00 -3.3513997201091605e-01 -4.1121885270178993e-01 -3.5719984221166817e-03 -3.1137681019630624e-02 -1.9558756604610608e+00 2.6553745122715361e-01 -6.4751019785056074e-01 8.6991856817500976e-02 -3.4576978190281249e+00 -6.0096607705743332e-01 4.4477977308570553e+00 2.6796495376230567e+00 2.0604271260521298e-01 5.4851696017504370e-01 7.9233294404135700e-03 4.3081480418230712e-02 -1.2615208271603304e-01 2.3081521639435723e+00 -4.2442089448916454e+00 -2.2461160787135372e-02 -1.2394251708780349e-02 6.2642560749419141e-01 6.2600677080816985e-03 -5.7424632982647494e-03 -1.1103615152863820e-01 -3.9670863515095998e+00 9.3228499204024251e-01 -4.6210207736734450e+00 9.9534860862898955e-01 -1.9991688681484449e-01 2.2634090444432389e-02 -1.9322672930182017e-01 
      </Row>
      <Row Index="147">
        -5.4407907818010059e-01 1.5393606621058098e+01 -2.4583043085804093e+00 -2.6995828471590357e+00 5.0925856481769588e+03 -4.7994737231488216e-01 -2.8302874404029343e-01 -3.3325720998182078e+01 9.0089447067771555e-02 9.8084056832303759e+00 6.5704765784016672e-01 -1.4605613036579848e+02 6.4119432788065751e+00 1.5989984653424472e+00 -5.6601453602772381e+01 7.4683178559098451e-02 -2.8781951655018929e+00 5.7628226523049761e+00 -2.7242513034949752e+01 4.5415578467509476e-01 3.6050793973117834e+00 -1.4564957791939378e+03 1.7625722173964320e+00 -3.2958541397309205e-01 -5.3834013433002838e+01 -1.1568440077772948e+00 3.2916391185790417e-01 5.4931465664083134e-02 5.5653399999884414e+02 -3.8803948156828483e+00 5.7765730600060579e+00 5.0560342655779095e+01 5.2709848064019127e-01 1.3482140684837759e+01 6.4032328354051060e+00 -3.2749438116389683e+01 -8.9058870441913314e+00 2.4883525168057531e+01 -3.2022195183136500e+03 3.1786641189826241e+00 -1.7301683365191138e+00 -3.3905311689362861e+01 2.1543736514399825e-01 6.6543236775032710e-01 1.4266091249001533e-01 4.0631983898607723e+02 -3.6917328444178565e+00 -1.8444821721066546e+01 3.4193143078417052e+01 2.2371555008003270e+00 3.9960792264864722e+01 1.4172898507282810e+00 -2.4742202738636934e+01 -1.4619945868180366e+00 -3.2015422691765707e+00 1.7896986835971475e+03 1.1979954381845914e-01 -2.6294828510243207e-01 -4.5710987502476200e+01 -1.5530853010271883e-01 9.7555142301444349e+00 7.5608208255776788e-01 1.5449884917178497e+02 -5.8039081944141255e+00 -8.1799005696884706e+00 1.0327890960557852e+01 3.1319990666140285e-01 1.1090628613596891e+00 -1.8110393523065795e+00 -8.6245311395523458e+00 3.8913342862506397e+00 2.0064046989340568e+01 -2.0255482190586627e+03 -1.8066333346524743e-01 -4.2151903640635524e-01 -5.3201422396989074e+01 7.7718624513408940e-02 1.0769474190234178e+01 5.4855867816115733e-01 -3.2907966350147035e+01 -7.9005175740967388e+00 2.9310661621502732e+00 -9.9704962728006649e+01 2.6545935098033624e-01 -4.6911392547482933e+00 1.1874672890882532e+00 3.3037408664422401e+00 4.8907281465235428e+00 8.3240110759797972e+00 1.5372002394953743e+03 3.0022073135569372e-01 8.6067973460484382e-01 1.8434267442178680e+01 -4.3473416293591072e-01 7.0673713652304286e+00 -5.8457439459132210e-01 -3.0794784670360968e+01 1.2915972219263949e+00 -4.6689508027109696e+01 1.3940987007314106e+01 -4.9919606664786897e-01 -9.2850161349379050e+00 -3.5758434349506887e+00 4.8036882616408157e+01 -1.1810919082089786e+00 8.3679442160486360e+01 1.1258928739763796e+03 2.5429784961323376e-01 2.0341562443263808e+00 8.9646369375938093e+00 6.5763866054095521e-01 -3.3701687069874229e+00 -2.7490512006423501e-01 -4.7141364821446382e+02 -8.4753792251183562e+00 6.2917070326294095e+01 1.0926383393699237e+02 -1.4855508509048931e+00 -4.8745980809338647e+00 -2.6000716180857806e+00 -2.2186761178033521e+01 -1.4516517939895493e+01 1.1498341619335406e+01 -1.4709188874904066e+03 1.3559375139571981e+00 2.4273281402408919e-02 -1.4757668798983639e+02 1.3150051479494209e+00 4.3512030119572955e+00 -2.4623933880343429e+00 2.4131960410322790e+01 5.8775639435225457e+00 8.1830640657935874e+00 1.8074023008488803e+02 6.9013403421540431e-01 -6.6369174257043895e-01 3.1277817431553849e+00 -1.8732996817437197e+01 -4.7178020731789729e+01 8.7061738433258142e+00 -3.0842684945091605e+02 1.4659045885621822e+00 -8.7334359694540975e-01 7.7048266796744429e+01 -2.8356591784756802e-01 2.4429840938106281e+01 2.8332277577409655e+00 1.0650280052412672e+03 7.2803685838043748e+00 -3.3376145915841334e+01 1.1434628154936945e+02 1.0391535800910581e+00 6.3844966238672907e+00 1.5091422580531246e+00 3.0674739852677684e+00 1.0515263328597939e+00 1.3012444359919755e+00 -5.7273424650542438e+02 -1.0390926056246088e+00 1.1673488564615191e+00 -6.3091491644241614e+01 3.4895131866204832e-01 -1.4124228359736662e+01 9.0174521916918138e-01 -5.7641417818642128e+02 1.3890135868597469e+01 -1.0546617583459010e+00 -2.2992413824126061e+01 -2.4861808352456789e+00 -6.7333995734969676e-01 -8.4493508757296230e+00 3.3222615832473302e+01 -2.0147403406639562e+01 9.4471776733787976e+01 -1.2635908899768256e+03 -2.4124100985903594e+00 2.8218212222297949e+00 6.7483233651979617e+01 -6.4086761488920363e-01 2.2452378334207548e+01 -6.3718054471760865e-01 -2.1746600290849833e+02 -4.8244370841045168e+01 8.7111755967838462e+00 1.3000680073838168e+01 -1.7857373825510914e+00 -4.4382416761002737e+01 -7.9315828562062052e-01 3.7104147507634480e+00 -2.7868696649384219e+00 -2.9589927543886006e+01 -9.1434006305038929e+02 -4.4298120997723345e-03 -1.0664778528757779e-01 -6.7327139982808148e+00 -6.5482669991900533e-01 8.0985746596343233e+00 2.5957950453987166e-01 -8.1368280444585253e+01 9.4321762684003261e+00 9.8822984361322597e+00 -5.3844163472007494e+01 4.5690718071028869e-02 -7.9111438858690235e+00 8.8691015916919866e+00 3.6716571433315863e+00 4.2005969087863747e+01 -1.2021244165230502e+02 -1.1537255976439646e+03 1.9135884774466962e+00 -1.4057281572033682e+00 6.1629353198400349e+02 -7.6877546169030353e-01 -1.3222114741999512e+01 8.8471045873349574e-01 7.4524155606634872e+02 1.8292795166723739e+01 -8.6001766268417242e+01 -1.2082588462931494e+02 4.7317433617090510e-01 4.2842663211649068e+01 -7.7703045894494949e-03 2.4753962514328080e+01 1.0918053929913045e+00 -1.6450607628086317e+02 -1.2316463133509587e+03 -3.3728899662574219e-01 4.3476856377066042e-01 9.8337273644922732e+02 7.0970586239113231e-02 -6.2093634264884301e-01 2.0203067308386835e-01 2.3942054199842069e+03 -6.4240342438781823e+00 2.2523057769461923e+02 1.0970438472425371e+01 2.5594157863992972e-01 -4.7636919365408836e-01 2.3233031607342963e+02 
      </Row>
      <Row Index="148">
        -2.3611324235325110e-01 -2.1581017350285947e+00 -6.3975504864356481e-01 7.5237127661857812e+00 1.5889113451301819e+02 -2.6898293639607118e-01 5.3519411123013672e-02 -2.1266329909834894e+01 -2.0106200173225464e-01 -5.1744734516887547e-01 -1.1877732879952418e-02 7.6577778590416301e+00 9.4363881839917667e+00 -9.5994440797585412e-01 -6.8938652911112513e+01 -1.3956797704395285e-02 -1.5798644303686160e-02 -7.2333205102938791e-01 1.5828646450347605e-01 1.4833248360773723e+00 5.5289363587580738e+00 1.1154326948802918e+02 -1.5360860269528304e-01 3.9167344657542458e-02 4.5784492964337915e+01 -6.7189045509678635e-02 4.7664375975091389e-01 -1.8007865719098959e-02 -6.2273397501621730e-01 -2.3536667084281362e+00 4.4368353198598243e+00 -1.0160647370665538e+02 5.4782877637528316e-02 -2.4376402420581371e+00 5.2747042795579091e-01 1.7557239458074037e-01 2.0990093956716009e+00 1.6289445468195481e+01 -8.7936365518835373e+01 -1.5135892668303086e-01 2.5100209079738534e-02 -4.1839821036031935e+01 1.0797023416483853e-01 -5.9694999588145947e-01 4.7941992506075337e-02 -5.0122182871837140e+00 -6.3928424871137395e+00 3.6468631093193835e+00 -6.6737944595319277e+01 1.4450061188540531e-01 -3.0480448337584676e-01 6.7080314095110755e-02 4.7333417791526244e-01 -2.4049117556151032e+00 -2.0580652758748329e+01 -3.7914115209132433e+01 -3.6367555637625060e-02 -5.7727123982054318e-02 -4.9331665810372215e+01 -6.5994493826518660e-02 -6.8709973687306913e-01 2.3636269872881144e-02 -9.5116862094255339e-01 8.5903759201662222e-01 7.3305579723273695e-01 9.3555167190919747e+01 9.4613309140637369e-02 4.7564454840261305e-01 3.3682208263115854e-01 -1.5883723559570626e+00 5.4566091407014028e+00 -1.0434119339573954e+01 -1.7792222366202623e+02 -1.7306609753609337e-01 4.3995390948811774e-02 -3.9987170259868435e+01 -8.9287868623273425e-02 8.0897128479591629e-02 -4.9790404114787634e-02 -5.3894241438829340e+00 -1.8285787202425126e+01 -2.8888500826358268e+00 7.5337460540304164e+01 -1.1211366536997502e-01 4.6674053767373067e+00 -3.0659536888401140e-01 3.8319401798344188e-01 -1.6217606697769043e+00 -1.2095882359164534e+01 1.8453374133375473e+02 9.2860984550497960e-02 -3.0246351655087267e-02 6.5222016511115726e+00 -1.1233411638488633e-01 -1.7722646371566952e-02 3.3962116394943731e-02 3.3784007108515652e+00 8.6460440703906514e+00 -4.6401769129170134e+00 -6.0349311337784457e+01 -5.1312542458987309e-02 -3.0137877646029665e-01 -3.2613398566356322e-01 -2.4988133161347923e+00 -9.2134163671017113e+00 2.0129055625136971e+01 3.8877499564550817e+01 -4.2089885885934641e-01 -9.6007994650805062e-02 4.0177747942616236e+01 -2.2966697403477501e-01 5.4954798231157076e-01 1.0363765530526836e-01 3.1204787706883508e-01 1.2334292622659632e+01 1.5186765927296094e+01 -1.7737579423122406e+02 6.0490098189365391e-02 -2.5797826189344253e-01 1.4421179368062953e-01 1.0745334191076381e+01 -4.6838557033634061e+00 1.2939770679910453e+01 1.4168318925844505e+02 9.5454887205500172e-01 1.0952074111678259e-01 6.0933808765125718e+01 9.1485256086770050e-02 -8.5744982604887809e-01 -1.9668812582100514e-02 4.2733914937107329e+00 1.1442202394490323e+01 9.7808459796760872e-01 5.5483941335607597e+01 8.1623083628564075e-02 -1.0153192565744085e+01 -1.0209301939792526e+00 -4.2365146946151526e+00 1.7667308052477892e+00 -8.8307064116088441e-01 1.8578630686970428e+01 -3.9562062793467589e-01 9.9280772195093347e-02 3.9551692227803869e+01 -2.4832869126871060e-01 1.2172365705192760e+00 -1.6331267778355954e-01 7.2803692757315730e+00 4.4623007448720273e+01 5.0716329900860728e+00 -1.7559755534966826e+02 -3.9426985638147061e-02 1.1536442220737730e-01 -1.7892514339822307e-03 1.8035292566090035e+00 9.1792776697466252e+00 7.1016385192524467e+00 2.3524956328049302e+02 -6.8239466216649691e-01 -4.8260463389318442e-02 -1.2014432746218517e-01 -7.9784954586118950e-02 6.4272143744528876e-01 -3.4972548765853650e-03 1.6389301003256747e+01 1.0201459286550175e+01 -7.8952532719031296e+00 -1.9703906939039175e+02 -1.6456017080767965e-01 3.4552890213499730e+00 2.4023213863804216e-01 -8.0324981247016005e+00 3.2475835335604408e-01 2.4402796166566709e+01 -4.8090578400122467e+01 -1.8182731633622891e+00 2.5809711094889415e-02 3.6658906736438617e+01 -1.6850680000503865e-01 -8.7606067511798336e-02 -8.7320083784492297e-02 -2.5142712625585720e+01 -2.8828415299594326e+01 2.4092384724657592e+00 -3.6235206297911049e+01 -2.8114025814541821e-01 2.9025190443129585e+00 -7.8850009625193707e-01 2.2131180842989124e+00 -9.5674789316399256e-01 1.9692348842509091e+00 1.0708927648607641e+02 3.0538356329301486e-01 -3.4136801087228719e-02 1.9303794655381353e+01 -1.3157618656840819e-01 9.8385158084738578e-02 -1.5160307763756542e-02 6.6287287527375156e+00 3.0642480501797991e+00 2.6519296839251183e+00 -1.3392815947912459e+02 2.1528087844622235e-02 -5.8613812984253855e-01 -1.1691352834380231e+00 1.5558720506696266e-02 -1.1513565838104899e+01 -2.2400942417867540e+01 -3.9269756863348107e+01 8.7284109478865934e-01 -2.0730148998043552e-01 4.3664563939317304e+01 -1.2007613917792437e-01 -3.0211663187138688e-01 2.7040953223746189e-01 5.9721177647310917e+01 6.8018119899114382e+01 2.4763668708171881e+01 -1.0543334516972583e+02 3.4111422650421158e-01 -1.0452906763661050e+00 3.4312579368544149e-02 -6.7530532533410579e+00 2.1731930181515602e-01 -6.1031647592740462e+01 -1.2224429214924442e+01 -7.9855675246143476e-01 -3.7709433382705271e-02 6.2349463496996421e+01 -1.9616882084591225e-02 2.4947355925877934e-02 8.1068227895286782e-04 6.5807179439960109e+01 -1.1316869961541437e+02 -5.0411016639196141e+01 5.7650694022784585e+01 2.7728156613456054e-02 1.2110763167969540e-01 6.9100464779071558e+01 
      </Row>
      <Row Index="149">
        -4.1044552966460639e+00 -1.1445122225142768e+01 1.0187993220031785e+01 1.1363980061861366e+02 -2.6896235970733687e+02 -4.6980885208631662e-01 3.1001668389705017e-01 -1.4507899226911832e+01 8.4607037105296157e-01 -2.7800485255938838e+00 -3.6990407183736806e-01 1.4744090460852021e+01 2.0656044953648234e-01 5.4625742818228900e+01 6.1505458484909468e+01 -2.1361133918121595e+00 -2.5458968335824466e+00 -1.5845846693719068e+00 1.1546502573082762e+00 -1.5809307795738277e+01 4.1632613504014444e+01 6.2947563063353300e+01 1.0301852123899478e+00 -8.8147980495159572e-01 9.3607147099171925e+01 -3.0385333578681184e-01 4.9239662060135743e+00 -3.0699802513765917e-02 -7.7119625352902403e+00 3.2021754778525064e+00 -3.9865129724851158e+00 -4.3716416107656551e+02 2.9067973163443384e+00 -5.9646958306989291e+00 4.1059110570404300e-01 5.3019776758137596e+00 1.8005315869977494e+01 2.9157774089125451e+02 -1.1121569864358753e+02 1.0772226240626424e+00 -1.2545711351266391e+00 -5.4815247510443442e+01 -4.8827704677069050e-01 3.3507904242287623e-01 -1.9590435546851381e-01 -1.7053140323994739e+01 1.0208372852721368e+00 -3.0769679246091982e+01 -2.2633686758094700e+02 -2.2279746038896064e+00 8.5365817656020226e+00 5.0676145530705909e+00 1.5280498311890824e+01 -3.0708541184780188e+01 -1.5911040366187808e+02 3.7342858567833900e+01 1.6153574804820039e+00 -1.2029435819013568e+00 2.1902863979339600e+00 -2.1706042364869522e+00 3.2333980769211195e+00 1.1298258296705228e+00 -4.7568108102568658e+00 3.5533010981297934e+00 1.9443176056076481e+01 4.7422854501113761e+01 3.1279745127964986e-01 -4.5892256429963254e+00 3.7052782416499213e+00 1.8181272483880093e+00 3.1268129673480871e+00 -5.8212500017281855e+01 4.3366600533574820e+02 1.8091475944593753e+00 -6.5517683533717275e-01 3.6580861911032116e+01 -8.5838253408451237e-01 4.4691163434035843e+00 2.1313436379352879e-01 3.3010670716757886e+00 -1.4354221084831806e+00 -2.7632372623038009e+01 -3.0259454090076906e+02 1.2638199802988765e+00 -1.8644541903791492e+00 -9.9344552655049867e-01 -6.5792477059258090e+00 1.0589934482786703e+01 -2.3267641649310826e+02 -3.6829490716382861e+02 -8.0959302998621752e-01 9.1770386460260056e-01 -3.4571580882013222e+01 7.0688081887658427e-01 1.4538130515466037e+00 8.5061632165153056e-02 -7.9503023863508133e+00 -1.8991918046501155e+00 -1.0566747743218002e+02 2.8995451756709372e+02 3.1729620660130422e+00 -2.0893949586006784e+00 1.0945451396125534e+01 -2.1287645886765482e+01 -8.6521039786658577e+01 1.9507778127008351e+00 1.3224080026708543e+02 1.7763172613317266e+00 -8.7632973826671323e-01 -2.0445792124983666e+02 1.0348163163540904e+00 8.4104525215983177e+00 1.2907047139556864e+00 3.2981492513848934e+01 2.5861127129325894e+00 3.0220086392570886e+02 -1.7889496334624880e+01 4.1154718185222787e+00 1.0940744097551827e+01 1.7376870893968146e+00 1.9469189540275693e+01 -2.6024051557031271e+01 1.0424777459249162e+02 -1.0736139384843409e+02 2.3797012070590906e-01 -1.3915058931604953e+00 2.6170759197441242e+01 -1.8285581589813660e+00 2.2540269635524055e+00 -6.2285982796069561e-02 -1.3887505643153418e+01 -3.1365157383534097e+00 -5.4490641727075854e+01 5.1153735461817632e+02 6.9501202614375757e-01 -4.0016681018496918e+00 -2.5700442058193040e-01 9.9862745956306753e-01 -2.4858521975382246e+02 -8.2316649125197728e+01 1.0237086894549429e+02 -4.8076538283129935e+00 -1.1001715686353943e+00 -1.2219030705530895e+02 5.3648738338139310e+00 3.2959723530802876e+00 -8.3399307162797176e-01 -3.3376143023815530e+01 5.0716333122909418e+00 8.8912732578867872e+02 -2.5303341678812285e+02 1.9278729922229623e+00 1.1417969954382514e+01 -6.5339970206121034e-01 9.0181435669510392e+00 9.4925011409322906e+00 1.1919965089650941e+02 -1.6360836792550981e+02 -5.6069240062548964e-01 2.8085937444190456e+00 1.5460413595166756e+01 4.9960093043797116e-01 2.0277262396266451e+00 -1.0331601619538677e-01 2.6827026056849490e+01 -3.6721901337527925e+00 -3.6139902520779287e+01 -5.2979318463414563e+02 1.5424673136102030e-01 1.6744422466512916e+01 -1.6281254905540877e+01 -3.4396321561946621e+00 1.7848506534103311e+02 1.3799997429986826e+02 -4.5390734989894554e+01 2.9657081041582818e+00 3.3065843863969939e+00 7.4972776286104335e+01 2.9809190221714243e-01 -3.3764874078088134e+00 -2.7921099358377575e+00 -7.6121130650946043e+00 2.3102348702070955e+01 -2.9999270844693746e+02 -6.4173272431868759e+02 -3.8342413080463564e+00 -2.3201360560681401e+00 -4.7847522099737034e+00 -6.4053293833057978e-01 -1.7970743742713239e+01 -5.4215530300745741e+01 -1.5329075954854488e+02 -2.3490558184049029e+00 2.1053603767700224e-01 -3.4861105183270411e+01 -3.1691133153564266e-01 -6.6667109958480069e+00 -6.7236674903117688e-02 -7.6075537863071077e+00 -2.0415313714420336e+00 7.0349553996464238e+01 1.0605331400322029e+02 -1.0968389953510211e+00 -5.9191049997184564e+00 2.0029398103506349e+01 -2.4458977300492396e+01 -1.3258239477098212e+02 -5.7327040188753088e+01 -1.8615227174241227e+02 1.1998663700032353e-01 -3.8765941620759143e+00 -7.6381518986745505e+01 -1.2201507690135287e+00 4.2954313523078298e+00 4.4245753605638178e+00 2.9193101584343145e+02 -1.1116308011723021e+01 -2.8568689903284724e+02 6.8900626064669908e+00 8.6370270695160745e+00 -3.2659544013938699e+00 1.7029572890896816e-01 -3.0304776209679481e+01 8.4261341417956548e-02 -2.3235299611796518e+02 1.2530899655302469e+03 2.4904243587161980e+00 5.4904077572120968e-01 7.9342681882408897e+01 6.3889980720972517e-02 1.6071269728078974e-01 -7.1294690522080373e-02 3.9365723087911647e+02 -3.5337731508314825e+00 1.1712365018283410e+03 4.6533561926505428e+01 -1.0765483234354249e+00 -1.9309019203499034e-02 -2.4025256699785206e+02 
      </Row>
      <Row Index="150">
        4.6930717079965785e+00 7.4528094520646846e+00 -7.4034282972454093e+01 3.1685122690396383e+01 2.4847411923836917e+03 4.5955071586931808e+00 -6.0192051885156861e-01 -1.5161912729465403e+03 1.3111528100080569e+00 1.4504931310802931e+01 9.0865137130549556e-01 -6.3270580353360856e+01 -6.2857776569027919e+01 -5.6899429766461253e+01 1.5471719555417076e+02 -1.0422783415915546e+00 1.0248077676296816e+01 -1.4843089728019550e+00 -3.9597007132870203e+00 -2.9615939533821074e+02 -8.1133043084060773e+01 -7.5598331326246262e+02 7.3103604020153004e+00 9.6456378027096434e-01 -8.7600385736100725e+02 1.7959958591122813e+00 -1.5117056124116061e+01 -1.5333500586721129e+00 1.0508306420830195e+01 -2.2598886837484315e+01 -2.1056332693075092e+01 2.0835658030565828e+03 -2.9909978366113137e+00 3.1309571404788585e+01 3.2905263858665421e+00 -7.6496400725809508e+00 -4.5619486653362401e+01 5.7358299801126122e+01 1.0779019033014774e+03 5.4506452763089328e+00 1.4804351437705918e+00 -2.8025568765038624e+03 9.6967666683667630e-01 -7.3636442387505667e+00 3.3175079045986422e-01 -2.5641875415632967e+01 2.6620473300863523e+00 5.1473905628197826e+01 -2.2103286992663052e+03 2.7041879841890477e+00 1.3904796842311043e+01 -1.3991618358874760e+00 -2.7122925012699852e+01 3.4288468221493531e+01 1.5023546022106893e+02 1.4668205773830414e+02 1.8775972216888022e+01 -2.5054784215837955e+00 -7.9331131480261683e+02 2.7403321651297041e-01 2.4294808498108424e+01 -3.2976563790748514e-01 9.5078321224136744e+00 -3.6870102521000376e+00 -7.8234256952244323e+01 -1.3302640687068924e+02 1.4303619512271553e+00 1.6751686002877250e+01 3.6269445630532573e+00 -1.6393430827447446e+00 -3.3770853332069237e+01 1.5676807866757736e+02 -1.2899771261811256e+03 1.1361625264194117e+01 2.2622532089942524e+00 -9.1763663891190663e+02 -4.6850522362001357e-01 3.1769199681002647e+01 -9.4073248730092018e-01 -9.7261260787956417e+01 5.9476928497955669e+01 -3.0147111676324130e+01 -3.9845342991211219e+03 -1.4855760484006169e+00 2.5364101128498532e+01 1.8282311119604486e+00 4.0744396035734098e+00 1.3088950818328885e+02 4.8927845137426630e+01 1.6626913923770189e+02 -1.0560580101900996e+01 -1.9102875738221883e+00 -4.1201165229137405e+02 -6.0875533406942850e-01 5.8604372499394231e-01 7.2629263221811957e-02 -3.4251758879981935e+00 -4.3293298832323671e+01 1.6799770947312936e+01 1.3577605171164032e+03 -4.9829082923133683e-01 5.0806723655841779e+00 -1.0820067846858308e+00 2.0913208784271433e+01 5.2104225027470432e+02 8.8067589323408902e+02 -1.0021112269163132e+02 3.8958567295845761e+01 1.9347799083679114e+00 -1.3377716644711800e+03 -1.2552087589867289e+00 4.7039215382997980e+01 -4.2558160518818511e+00 1.2635909078700934e+01 -1.8273856161157306e+02 -4.3035725369225537e+02 7.1750908202195178e+03 -4.2768970527256842e+00 -1.7242468617700606e+01 -1.9418998717986682e+00 -3.2339743515636656e+01 1.0577732887565799e+02 -6.0556874266563682e+01 2.9119359654188156e+02 -2.9946408053959843e+01 1.1886793082058280e+00 3.0253378150645167e+03 2.5006424467997022e+00 -2.2451972236711299e+01 1.8497011405754051e+00 5.6984207230678294e+01 1.6961710892370320e+01 3.4014929894939996e+01 2.6670956142303185e+03 3.1091064358799940e+00 -1.2246360030961483e+01 -4.7579815244415293e+00 2.2655731887352886e+01 9.6181384045601590e+01 2.8141045049863169e+02 7.3813002254068851e+02 1.7194290698960685e+01 -3.2472673076882925e+00 -1.2488545504314825e+03 2.1783676753238979e+00 -8.5659089536802639e+00 -2.7356591437781947e+00 1.1434617640753277e+02 -1.7559755396284163e+02 -2.5303343244583812e+02 1.0645740661213174e+04 -3.3256880693625135e-01 -6.5732949855521099e+01 8.4147313985820027e+00 -1.4395214749616571e+01 4.1727098575211130e-01 -2.1702388180396520e+02 -4.1531699347496033e+02 1.5317898551035709e+01 -2.7203242854466501e+00 -3.0772558261267841e+03 -2.1253702864592325e+00 1.7103225485887378e+01 -2.7175322077526634e+00 -1.0754232201756668e+02 -6.5334348936784124e+01 -8.6202780226420145e+01 -1.5960701016698231e+03 -2.8524670313314928e+00 6.4982671832068490e+00 1.4121971523557770e+01 -4.0004678707280688e+00 1.0477444912202810e+02 6.0292328433907517e+02 -7.1196323852147907e+02 9.0825244618840159e+01 6.5294635632610953e+00 -1.0703985880835244e+03 -1.0417757609532359e+01 1.2152664786527490e+02 -7.0493131366083475e+00 -1.6165388132415296e+02 -2.6781364642948020e+01 -5.0034361612559343e+02 9.9012717576622235e+03 -1.0602046669936955e+01 -1.1253044077187781e+01 -2.9424354422808392e+00 6.6083987922756933e+00 -5.2779354390688241e+01 -1.7161689990758896e+02 3.9361042302846909e+02 -2.8212481058022775e+01 9.2849689004651736e-02 -4.3939928303356282e+02 -4.5746804759968640e-01 -1.2305348310677800e+01 -7.2731792017106045e-01 -3.8924384319223464e+01 -4.1956095326851937e+01 8.5067497240379453e+01 1.3949902348346077e+03 1.2052710138577822e+00 2.0238543276504060e+01 -1.5505450217066596e+01 1.7538461816901531e+01 1.3305053892870296e+02 -9.5735880829022335e+01 -4.7446599194439841e+02 -4.3544342152930525e+01 -6.6706539554684996e+00 -1.6788521151153836e+03 8.4973985713448492e+00 -5.8525945307719923e+01 4.4779498251052239e+00 3.7311333115242616e+02 -1.5106185519531263e+02 3.4775339842990057e+01 -6.4016214118045227e+03 3.4006234275090819e+00 2.6407184757448078e+01 3.4840220178386971e-01 1.4560251578584200e+01 3.1115661525860432e+01 -7.2773752142549171e+01 -6.6293316311611227e+02 3.9937297186869259e+01 -1.1063656340461421e+00 -5.7483006249370537e+03 1.2742559380490093e-01 -6.4319068408357793e-01 3.0560249177256082e-01 4.4871989555304458e+02 2.4337249176378944e+02 4.8139699402230934e+02 -7.8772276190992779e+03 6.9909094213464362e-01 3.6858323960912376e-01 2.6594155947063687e+03 
      </Row>
      <Row Index="151">
        -7.2381508683129925e-02 3.0850131389482272e-01 2.3726259667773775e-01 5.2978065848083133e-01 8.6731369506669580e+00 5.8944358021406629e-04 3.8051011177448524e-02 -4.2121024879452307e-01 -4.1647684093539361e-02 2.2894040726430376e-01 2.6747081957442553e-01 -1.6130607610442027e+00 -2.6996076774116773e-01 2.9646814970737978e-01 5.3393972784906509e+00 -9.8666561915843332e-02 1.1452806373056035e-01 2.0418571661124219e-01 3.1514322407296902e-02 3.1013268823471662e-02 3.5709661449709529e-01 2.7167573859915137e+00 2.3548472559301384e-02 -6.1863103747686665e-02 -1.2659910961492642e+00 5.3311058301215297e-03 -5.8461938815185022e-02 5.9441598233386017e-02 -2.4579569571092890e+00 1.2062265040529496e-01 6.6236752017003653e-01 -7.6476793013252973e+00 -2.0919191151218341e-01 4.0829184945709329e-01 -2.2577341730573863e-01 1.2642695686989214e-01 -4.0806622076502208e-01 8.2547306326887337e-01 -1.2979671891152975e+01 -5.0170974872429497e-02 1.6751542521240737e-01 2.8732933601440891e+00 9.9250974613106280e-02 -2.2771057652494164e-01 3.5839547809493055e-02 -2.0100608220036520e+00 6.8570059912929082e-02 -2.5283335702283694e-01 -1.8259628989838802e+01 4.1194734440288272e-01 3.0908686596706048e-01 -3.8632287822300437e-02 -1.8564285423258298e-01 -5.6756848438851648e-01 -7.8945096778716106e-01 1.9304330675688107e+01 5.2558814337463566e-02 1.9474302946417756e-02 1.2330411824586918e-01 1.4316036856274389e-02 2.0161666490610575e-01 -6.5121004741963695e-03 -5.8964192890420009e-01 7.4303322661455340e-02 -5.7141173165291548e-03 1.1159054110612487e+00 2.4396918990380434e-01 -8.4500232631789629e-02 1.2828275141429657e-01 -2.6488086702431701e-01 2.2890250727846251e-01 -4.6568927126372728e-01 4.5970280761539470e+00 5.4073084374277158e-02 -2.9299977431073598e-02 5.1063010508460138e-01 -9.1384923172384447e-02 1.4856920006900509e-01 8.1134100953189403e-02 7.9167901829828224e-01 4.5284999614523258e-01 -8.5326856670334905e-02 -1.0772519829793737e+01 -2.6376730161645767e-01 8.6149604328786822e-02 1.1454483602982968e-01 1.5292422124321092e-01 -4.9107080881046272e-01 -4.7394349800924829e-02 1.5111277526724734e+01 -3.7246888835415604e-02 -1.6799991024851169e-01 -1.1217850686952602e+00 -1.6782332592105220e-01 5.3132866210461316e-02 -3.5898071938660608e-01 -3.0277560262970837e-01 -3.1390556247308776e-01 -1.1924910852144421e-02 1.0681797655255195e+01 -2.4539065102921320e-01 -3.6015246075919549e-01 9.3218258436979951e-02 1.5064433453175272e-01 1.6766535894263113e+00 1.2068515127657520e+00 6.3171563206124119e+00 1.2835127129449730e-02 -1.2799061751397367e-01 2.6778615423351226e-01 -7.8039204767158490e-02 2.6462001567669891e-01 9.5248040909681031e-02 -2.1394797714137894e+00 -4.2218156962361864e-01 1.0860946946675751e+00 1.3098923751103335e+00 -1.9110045632275602e-01 1.7545642430169606e-01 6.2034606417560034e-02 -4.7144233886317011e-01 -1.2836396326941895e+00 -3.8327536965235254e-01 6.4276738713379018e+00 -5.4271683262641257e-02 7.3483577194742494e-02 3.8704212304445207e-02 5.8829490735834433e-02 -2.6479603339289781e-01 -1.0742742964790108e-01 1.5674206201964580e+00 -3.9566798912022705e-01 -1.1531465533278151e-01 1.4296331946148825e+01 -1.0648674741455388e-01 7.8309157512204608e-01 -3.5728100411541097e-01 -1.4571872220787441e-01 2.2378208864034832e-01 1.4318582083631100e+00 -8.1061347796057817e+00 -8.3078156971934547e-02 -2.3889154601336504e-02 4.1312888350876165e-01 -2.7709171726247739e-01 5.4428297625892341e-01 8.1332359318491088e-02 1.0391533919611220e+00 -3.9426981196243105e-02 1.9278729829445638e+00 -3.3256926952299182e-01 1.3744286111309325e+00 -9.6847693727332662e-01 4.6719807665007607e-02 -2.9966539691497474e-01 1.8364888637920558e+00 5.0605298884556760e-01 1.1918293995637214e+01 1.7706651253903919e-02 -1.0037981220659109e-01 -2.0933279010096157e+00 2.1276816861593689e-02 1.2877822183918397e-01 -7.2636955696157759e-02 2.9335127159704921e-01 -6.1559828385523652e-02 -1.0965146192588691e+00 -1.0397454577370556e+01 -6.4695402126445950e-02 -6.8837188635328728e-01 6.4376284493333769e-01 2.7833629924590408e-01 2.5694406693978276e+00 -1.8618993758297813e+00 -1.0040180574533224e+01 1.6465997362474219e-01 -1.3019249507182912e-01 -3.1228822526051587e+00 2.3084561349114463e-01 1.1356425954250415e-01 4.1550936528298066e-01 2.1757605602876424e+00 -1.4038894724517983e-01 -5.9939829705877656e-01 -1.2953969679131403e+01 -6.3654613928294657e-01 7.4166961366359940e-01 -2.0913653058241977e-01 6.7639991585792814e-02 5.6171439508943877e-02 -6.5545607239619130e-01 -5.7067085568560287e+00 -9.4464052831469858e-02 2.1152225933033009e-02 7.1536751186386027e-02 -5.4097294256186319e-02 -2.0413459019837887e-01 -8.1827411212509471e-04 6.2173073467056383e-01 -2.3950931928538211e-01 2.4753199485712685e-01 3.3204220928500945e+00 1.8209133210282502e-01 1.2336510207016005e-01 -4.0685260079900376e-01 3.6020191904684495e-01 -1.1294587449338449e+00 3.7906593718572559e+00 -8.7519275469297853e+00 -9.6233986675567776e-02 -1.2330269718241540e-03 -8.7584475143248710e+00 -2.0922113635617134e-01 2.4018085971181485e-01 -2.6349199438913307e-01 -1.1779101629512427e+01 -5.6820252452521403e-01 8.2909173426492178e-02 -1.3530229428316738e+00 -2.6218019217929217e-01 -1.3662976700064833e-01 3.8626392381818642e-03 7.2182480914355673e-01 -5.9141868570581485e-02 4.3833956814274821e-01 4.4246656728334823e+00 8.6921530203533423e-02 -2.6315862709093363e-02 -2.0905296422153032e+01 -2.2223328433114808e-02 -1.1835619282521415e-03 1.0844148670515708e-01 -1.3291822386491738e+01 1.7604639771738122e+00 3.4553508603630272e+00 -4.4958162032059636e+00 1.7740913036778816e-01 1.6272729318689075e-03 -5.6422584576010504e+00 
      </Row>
      <Row Index="152">
        -4.1147708645197056e-01 2.5240409550451659e+00 -3.0790585476333945e+00 -2.7543141796325472e+01 3.2950546337320702e+01 -2.5753988395820215e-03 -4.9677889142249299e-01 -1.8414763543551089e+00 1.0320561446058605e+00 7.1107497980574408e-01 6.8343946181872894e-02 5.6983416111925749e+00 -4.2601955867030483e-01 1.0986069296995993e+00 -7.2507407957450596e+00 5.5533773517103668e-01 -7.4795115557282088e+00 5.3654275331923031e+00 2.0642354324289158e-01 -4.6817982313386892e+00 2.0985356792290986e+01 4.0401443358045071e+01 -3.0114063737327124e-01 -2.5449883372941429e-01 3.4484943062586808e+00 -1.9283798080500958e-02 -2.6067641537247255e-01 2.4973266367591407e-01 1.5884414142954313e+01 -1.2521955390513995e-01 1.3347289796636517e+00 1.3558478564500547e+01 -4.0970327307598708e-01 -2.8997528480613255e+00 -1.3941602278946448e+00 4.3730439992259562e-02 3.3240710540640066e+00 1.8080739587647258e+01 6.8758723181672394e+00 -1.4250137466174806e-01 -7.7258687407680782e-01 3.1376371279315208e+01 -1.9588010972347547e+00 2.2006206323374045e+00 -3.8341711564014958e-01 2.8133876018622686e+01 1.0932811688585389e+00 4.5024432397685814e+00 1.3910529331042198e+00 1.0736408812153968e+00 4.1539695818842574e+01 2.7973413684693220e+00 -3.1382846306724446e+00 6.1007657639220270e-01 -2.8423825142257556e+01 1.5096507789450698e+02 -2.4110446914620098e-01 -5.7426250808052526e-03 -1.5492634419497335e+01 -1.2125001623997369e+00 -1.2616584010326903e+00 1.9144758756791980e-01 7.7623309335315298e+00 5.8056055902983061e-01 2.7694714533563456e+00 -2.3561921868902573e+01 -4.3269241820731885e-02 -2.1918267845964351e+01 1.3788828996304403e+00 -1.1354083151445593e+00 2.2291121449725324e+00 -1.4561761300141370e+01 1.6472915661055595e+01 -5.4131018664413943e-02 -2.9737118384311412e-01 1.4187687611491128e+01 1.4063087992997225e+00 1.0967598795305094e+00 2.6793276284352885e-01 1.0085745795913681e-01 3.1352279703646673e+00 -9.7070251838880495e-01 6.8048237462568068e+01 -1.3595074238361349e-01 -2.0749429172730196e+01 6.9040944746010080e-02 -8.7298965591344313e-02 -1.7512443154166704e+00 -3.1315321299953212e+01 -8.1067031093058176e+01 2.7064304864322253e-01 4.3906150237365438e-01 -8.1306215838276330e+00 1.4256044846223404e+00 -1.5462441799111275e+00 3.1007741078081419e-01 -3.9216999425552785e+00 -3.2144912306134543e-01 -6.7985187232998214e+00 -4.8609102507325588e+00 -1.5506986270821699e+00 -3.7310934790209558e+01 2.3463074353082858e+00 5.8038714304137065e+00 -1.0458622638156996e+00 1.3740116791910623e+01 1.2184033812023699e+01 3.2360878148941097e-01 1.1453978984817696e+00 1.5005724926605353e+01 3.7289927457120267e+00 5.5305060228479608e-01 1.7859841147695954e-01 1.9797114076816797e+01 -2.4412457348405994e+00 1.3509991373929122e+01 -4.0127235451557979e+01 -8.7905693246089189e-01 1.2660778094041993e+01 -4.7949462910133320e+00 -3.2557443302464435e+00 8.1126357191192255e+00 3.0002813785661601e+01 3.2195569463307038e+01 -4.7945881236398991e-01 -2.4073686384827231e-01 -2.0222763881180558e+01 -9.7029428525208772e-01 8.7175179780606413e+00 -3.1351690349231198e-01 1.0806812570464672e+01 -9.5102378386079636e+00 -5.1339227126300102e-01 -6.5970042353149438e+01 3.6505108955493526e-01 4.3168704881470447e+01 6.3969393172864741e+00 -3.8493021100998703e-01 -6.3855796367633957e+00 -1.3462038586464405e+02 -1.7810441218083724e+01 2.2306220321479486e-01 8.8802761298911270e-01 4.8964739992123214e+01 3.0935839277844224e+00 -3.8607530768592540e+00 -1.2942048156095609e-01 6.3844974528192324e+00 1.1536447446314924e-01 1.1417969314363290e+01 -6.5732952380098141e+01 -9.6847694095887960e-01 9.0377561856073115e+01 -7.5706043899369990e-01 -9.6716915879233056e-01 -4.8714361798056416e+00 -6.6862174912657792e+00 -7.6471597646595910e+01 3.4642459651539081e-01 1.7850018802674708e+00 1.8800573194974277e+01 3.6810995001063673e-01 -5.5579347760931341e+00 1.8695142186498148e-02 -1.7890102253741063e+01 6.5715494159586996e-02 -2.9982215208019625e-01 1.0847389647935685e+01 -7.3926400478496257e-01 -1.2065462003614263e+01 1.0969663182770786e+00 5.9609505382249708e+00 -5.7197015954644215e-01 -5.7437814045041762e+01 3.7145632613071939e+01 -7.8456747800949245e-02 7.0580294492259188e-01 -6.6746792811208422e+01 -1.9324058841479236e-01 -2.5657203551601953e+00 5.5362312935545432e-01 -6.5185745545476621e+00 6.9649795583114624e+00 9.2241746870850285e+00 -6.8659555775935672e+00 -1.4431662764906816e-02 2.4618382472385942e+01 3.5517153308421712e+00 -1.4074538499398841e+00 -7.7130396307329647e+00 -1.5636606803745963e+00 -1.0503044321294874e+02 3.1291690443938158e-01 -8.3457604198954982e-02 -2.8920400132847135e-01 3.5568658480377069e-01 -2.0927819844483793e+00 1.7286041338431701e-01 -1.0852304878600989e+01 -3.5052899817890193e-01 -1.1571637401109911e+01 2.6005029522093537e+01 -2.8386189702061060e-01 -2.1572933672710860e+01 6.1088186568480101e+00 2.4151894349268468e+00 -3.7808812895477182e+00 3.6128177580858662e+01 1.0782789044393269e+01 4.2087532672307937e-01 -4.6998444891663477e-01 5.5085440645936615e+01 2.6203427249183875e+00 -1.1902366251526999e+00 1.7331848889028878e-01 5.4756103241134952e+01 -2.4507430716816145e+00 -8.7455090212714310e+00 8.5867626601661669e+01 -1.7559687416790692e+00 -6.7531572444799636e+01 -3.1880052032882666e-01 1.1781756048473655e+01 2.6820283265518674e-01 -1.4522678010133589e+02 1.0658838255527751e+02 -6.2511144112482542e-02 5.9178849409686229e-01 -1.2798547660078565e+00 3.1655405197854236e-01 -4.9271456447039230e-02 6.7058496456091632e-03 8.1985178902674647e+01 2.8600080915173409e+00 -2.7695950969253742e+00 -2.5161582080800073e+00 1.7952415833343308e-01 -2.0112455973014196e+00 -3.4004382637286390e+01 
      </Row>
      <Row Index="153">
        -1.7623006752534898e-01 3.5900742662386165e-01 2.9894322247964737e+00 -4.1777342001932993e+00 5.9733513767860131e+00 -2.1684263104418022e-01 -2.0641061670798139e-01 -3.2674169339479704e+00 -1.4738564368888341e-01 3.7657700118984394e-01 8.4991751660647097e-02 -8.1021201812757226e-01 -8.0308684164037913e-01 -8.4346274276867916e-01 8.0310129573097129e+00 -9.3056552560227601e-02 -3.3251490981382403e-01 -1.6285406692998521e+00 3.2415791000030936e-01 7.4109965627194470e+00 6.2059892713477893e-02 -1.1540471217129380e+01 2.6405019875115876e-01 -7.1215901242224433e-02 -2.0928125602139289e+00 -2.0678981760701731e-01 1.5695684462757526e+00 -2.6822218460047509e-03 -1.9465557307138113e+00 -2.8365659119043585e-01 -5.2757982199003095e-01 -1.6851621457275542e+01 1.7790090376226608e-01 -7.7632160155758356e-02 -1.2102634653879818e-01 -2.7981710461745024e-02 -3.6165813508127940e+00 -6.4483563359244727e+00 -2.6062402994168224e+01 3.1880695428678507e-01 -3.2616826382291464e-01 -4.7895346615550807e+00 2.3569500445486824e-01 3.7742944057367822e-01 -8.7493847533082203e-04 -3.8738761409331346e+00 6.2633699011030330e-02 -9.6607919622965710e-01 -1.8451224249702136e+01 4.6896988771280235e-02 -1.7851904465992448e+00 -9.3895828436103079e-01 -9.6942698499807989e-01 1.5212005231910553e+00 7.1235793928535713e+00 1.1300539076328278e+01 -3.9117636103488529e-01 2.4905025363021305e-02 -2.2477330494002672e+00 2.0539982430104575e-02 -5.8553244961749051e-01 2.4452939864699097e-02 -3.9668438590490496e-01 8.4016745808653059e-01 -9.2322656471651499e-01 1.5909869377373980e+01 -2.0030079962900516e-03 1.7637388370713865e+00 -2.8518669466016888e-01 -3.0918786954998723e-01 -1.9909032803720947e+00 6.9365497031158156e+00 -3.6631010673707351e+01 1.3539794340631595e-01 -8.5209020396780133e-02 3.1034887786317995e+00 -2.7869010180687326e-01 -2.4473629050362433e-01 -4.2554092310837177e-02 3.4482183557065582e-01 1.1318302927934383e+00 6.5938266775476961e-01 -1.9873012103957080e+01 7.2036327722273086e-02 -7.3045349251520619e-02 2.1721795603065508e-01 7.7860288788997423e-02 -2.7342088931603143e+00 7.7136841534975247e+00 -1.1983895031386055e+01 -6.7863450995034214e-02 2.6457520560187575e-01 -5.4139952434616134e-01 -1.6789817064643131e-01 -2.6560857452386699e-01 -1.3241198077164279e-01 -1.2299081933679190e+00 -8.0357611491250225e-01 1.2850560425799813e+00 4.6949186175843352e+00 2.2577599084544886e-01 1.4615654577227133e+00 -1.7470783390625022e-01 -2.2453122667344622e-01 -2.9782936125002433e+00 -7.0057301828637719e-01 -5.2011555348290130e+00 -4.2546589381162803e-01 8.7375868060615591e-02 3.6679439405084935e+00 -2.3887675989828538e-01 -3.8569995192373341e-01 -2.7821957174800904e-02 -1.3112017307407768e+00 -1.5672098929614684e+00 -3.2281782844281270e+00 1.5149063517367921e+01 -1.1369316701584017e-01 -6.7477172017118736e-01 2.7565541987233155e-01 1.3711164422289812e-01 3.7898719393797364e-01 -3.0004701377157517e-01 8.4628855956252664e+00 1.1006750537737653e-01 -2.3677625287360646e-01 -2.8729321218585540e+00 -2.3671018731986493e-01 2.2149286266395052e-01 -9.1899004092591774e-02 4.5595260514642177e-01 -9.3265345714712566e-01 -4.6606132120405164e-01 1.2051977462183913e+01 1.2583351817159283e-01 -3.8058235002172456e+00 -6.6847409355129628e-01 -2.7917786468873373e-01 1.7498370954740494e+00 -8.4462421168082074e+00 6.8634027479565702e+00 8.6417144868491391e-03 1.7866934107282106e-01 1.3109527357446495e+00 7.7479297229601229e-03 -3.8553970702153606e-02 -2.3851743338495712e-02 1.5091420179501256e+00 -1.7892388332256814e-03 -6.5339955385752546e-01 8.4147312083441648e+00 4.6719807441100158e-02 -7.5706040111180073e-01 9.6602785394113013e+00 -1.3890859942616771e+00 6.9176989517752645e+00 8.1379735359241749e+00 -2.6053969476255588e+01 5.7346902460410076e-03 -1.7450240035183173e-01 -5.7076289982069284e+00 -6.7663234085534443e-02 -3.9987901871883196e+00 -3.7723075842277964e-02 -9.9528283987335016e+00 2.0590349517891826e-01 3.6673417403967505e+00 -3.4928651323546546e+01 2.8439451049011111e-01 2.5414970945736739e+00 -6.4919563657905899e-01 8.8301927690866444e-01 -2.6488047987268333e+00 -2.1408446509458514e+00 9.4778959420873434e+00 -6.9484970914468680e-01 3.1097119322187239e-01 7.2630425158361849e+00 -4.2039347629445878e-01 9.1403325962889492e-01 4.5033859189736347e-02 9.0501816889857167e+00 8.1221444212380667e-01 -8.4721386247862540e+00 1.6132689209455080e+00 -9.0687162675070265e-02 -1.6533074644509842e+00 -5.8125506769789581e-01 -6.0830617804867870e-02 3.4028189116424983e+00 -1.2674246021633735e+00 -1.2507236765231937e+01 4.3150372103787826e-01 5.2890460569649633e-02 -1.9668515528119315e+00 -2.0810180877931694e-01 -5.7782802890056928e-01 -8.6335577305878264e-03 -5.3559580848377664e-01 -4.5430468391012369e-01 8.7494878430879908e-01 -6.1400828858386376e+00 1.0670858099814318e-01 6.6106273098563406e-01 -4.1921772972918321e+00 -1.8005158620595152e-01 -4.3704359136233251e-01 9.5807967124315141e-01 7.6460013686227057e+00 1.1148380283272663e-01 -6.4395019449920737e-02 -5.0884016986456118e+00 2.2527235348750518e-01 -2.7337823155181962e-02 4.2369815674360156e-02 -2.0273741536993398e+01 -2.3015089827939468e+00 -8.5021280585351970e+00 -3.7209939558349370e+00 4.3764423631855731e-03 2.6095891412408987e+00 5.8225929484533534e-02 2.2835023114764814e+00 -8.5205906524008346e-01 2.0893534208740917e+01 2.4293044095597423e+01 -5.2355587679714499e-01 1.7376750843153310e-01 -1.2660192058285052e+01 -4.2369871290053318e-02 2.9133520877432817e-02 2.6791892750200219e-02 -2.7144348469313073e+01 3.4770097998476643e+00 3.3798396248369187e+01 -1.3893572337065347e+01 -2.2378930818305845e-02 4.9471234985633772e-02 1.5377182216620527e+01 
      </Row>
      <Row Index="154">
        -3.3820975536962705e-01 -3.9575273428949913e+00 1.0294321847868559e+00 2.0436129455129048e+01 2.2326844044384779e+02 1.2234345394573154e-01 1.7500906417746592e-01 4.9586807331761520e+00 4.7654831353511895e-03 -5.4331838215193784e-01 -1.3924238186189797e-01 -6.5147433057415469e+00 2.0980801757996232e+00 6.0240210797601321e+00 1.6894352766022166e+01 2.1346921381328343e-01 1.3980382660472515e+00 2.0472937801798707e-01 -9.5339714697860813e+00 1.7705676217656219e+00 -7.6566988464110182e+00 1.5499448243528605e+01 -8.5501410575727577e-02 2.2159843796693224e-02 1.0258264479884019e+01 3.0886687988221695e-02 1.2665680299496671e+00 -3.0899751514510854e-02 3.6702853254124648e+00 6.7566567038488756e-01 -3.2139343309531228e+00 6.3827010279055685e-01 -3.8545011353727787e-02 -1.8713565541622188e+00 5.6654793139261983e-01 -1.7618389898996156e+00 5.0854414191235264e-02 5.1337903139356058e+01 3.4313077540602535e+01 -8.2316727470754358e-02 -8.2503744314578853e-02 -1.3169785914418753e+01 6.5838519915018878e-02 7.2746430599818268e-01 -3.2565508588973557e-02 1.6881595813152671e+01 -8.7939062504983667e-01 -2.4621186569547717e+00 1.5721946627116267e+01 1.1394035239527511e-01 -8.1269330860322953e-01 1.0902669393196679e-01 5.5493434501953516e+00 -1.6407105715570651e+00 -3.3196729264080204e+01 -4.1186337110120803e+01 -1.3424957539170634e-01 -4.2037531898605929e-02 1.5788077378732851e+01 3.8727067069825760e-02 1.2132350667515857e-01 6.7666574620304232e-03 1.2005605949756045e+01 -1.0469843524280016e+00 -4.5163237750966800e+00 -2.5110996337069082e+01 5.8747948554183083e-02 -4.8310137063339198e+00 -9.6108613554974909e-03 1.8749161777052450e+00 -1.4737306878250820e+00 -1.3566650463850237e+01 1.3063226006226614e+01 -1.4118707022351629e-01 -4.2893163677326207e-02 -6.9255473828525282e+00 -7.9251221630613600e-02 -6.0216884558212769e-01 2.5005120063923414e-03 2.2142859037085145e+00 -4.9062951911973869e+00 -5.0901197975338732e+00 1.4673448882531375e+01 5.3275927386323474e-02 -5.0857853344901116e-01 -4.1883819716085213e-01 -1.6950022314758826e+00 9.7238893647022451e-01 -3.5375511531892698e+01 2.2326473385328427e+01 6.9714055858582924e-02 1.0203915739573688e-01 3.0460828519394454e+00 5.3651269165641224e-02 -9.5448652976460835e-01 2.2145257531010445e-01 1.4639034485771845e+00 2.1002419573857054e+00 -6.3553718205639598e-01 1.7554146441398188e-02 -3.8129086154499703e-01 7.3283046654069040e-02 -3.9778631999219161e-02 1.6264583721899804e+01 -1.1843434090475931e+01 2.0914081746130250e+01 -9.7901924229227006e+00 4.8477346951040495e-01 2.5201533809542465e-01 -1.0977550169715414e+01 -8.6643509366322813e-02 -4.4788827284248756e-01 -4.7767014822532844e-02 -7.7375268253626928e+00 3.5891313513075520e+00 -2.2014951150687292e+01 5.0456035272070551e+01 6.4975530190469311e-02 5.6284808132221862e+00 9.4615390247984488e-02 -9.1357374825774968e+00 1.1401137914117498e-01 1.8271725997431304e+01 7.1687767448369414e+01 -4.7465677902722947e-01 -5.7049201890391227e-02 1.4340904748689887e+01 -1.9632265935573656e-01 7.8263715037439852e-01 3.2586514373162956e-02 8.6492447568980424e-01 1.2925106695299064e+01 1.6676563785149483e+00 -7.8844969311045134e+01 1.2372468615341248e-02 -4.5604838208629292e+00 4.5143117500337293e-01 -7.8069080973591554e-01 -5.1572838100173612e+00 4.3248365034269227e+01 -3.8636443673865870e+01 1.2649898447736518e-01 -1.2966448402917682e-01 -2.7959616607680800e+01 4.7854273772003353e-03 1.1755209738500412e+00 -5.6782564088102561e-02 3.0674748112451198e+00 1.8035292887498144e+00 9.0181431282180711e+00 -1.4395214183277858e+01 -2.9966539917805335e-01 -9.6716916219929772e-01 -1.3890860185649607e+00 4.0357634399866583e+01 2.6595792515836365e+00 1.6638884904925362e+01 -1.5776851031067781e+02 9.1791995620344702e-01 1.3169262202008980e-01 1.7103904132942262e+01 5.5049846271528091e-02 -2.7307223618472563e+00 1.2429004812928729e-01 7.1305093954163596e+01 -8.4870742315617491e+00 -1.6459445299864456e+01 7.4407219886851692e+01 -8.1823639958629180e-02 4.9680114035068783e+00 8.3297081948719098e-02 7.8715560086695806e+00 -1.5519075472151089e+01 5.5472411919405687e+01 -4.1658630071557127e+01 5.6180469530764343e-01 4.9427423344541838e-02 -2.5256413802797994e+01 1.4200681506338569e-01 -1.3511533956818702e+00 -7.1040433464673924e-02 -1.8114650034151943e+01 -1.5977516185493091e+01 1.5640551912569940e+01 6.9016448521324506e+01 2.2547771324220089e-01 1.1949308282947966e+00 -1.6524886082794410e-01 1.3569343433982795e+00 2.9322640292957658e-01 -3.6537459266837686e+00 5.0003571748733521e+01 1.1211283608322731e-01 2.0332567320849648e-02 7.9497490456542437e+00 -1.9217768345049957e-02 -1.1619019935526467e+00 -2.9353624669444578e-02 1.0528621421835851e+00 1.9744310536324292e+00 -4.2152614504448138e-01 1.6223020261968486e+00 -6.4255098057117266e-02 -2.0378659661270149e+00 -3.0903479827456659e-01 -1.3927797545953849e+01 5.0743950153126933e+00 -7.8153631628453553e+01 3.6170676353273393e+01 -2.7568231711270164e-01 3.7092627548101109e-01 4.5718612970005779e+01 4.1492325934374463e-02 -7.5365592058252176e-02 -1.4954265363280123e-02 1.9456696711688515e+01 2.3332166186155099e+01 -3.1344156791791981e+01 -1.0954076849784045e+01 -2.7869898889835848e-01 2.4965521339484127e+00 -7.9085506525800042e-03 -2.6726797651550239e+01 2.3330404046263697e-01 -1.1046455807918377e+02 2.5503374979910031e+01 -1.6914152147691219e-01 -6.6593040894495914e-03 6.9598775841871927e+01 -7.6974952350212789e-03 5.0978592214678486e-02 -4.3479492798780939e-02 8.2469310356851395e+01 -2.5047577464361453e+01 2.8834917892990916e+01 4.8056536231217486e+01 1.0646355843002414e-02 8.5341086038637215e-03 5.1673033720060999e+01 
      </Row>
      <Row Index="155">
        -8.0722116680198397e-01 1.2315397558054428e+00 7.0909117193559723e+01 5.2764124030949461e+01 6.5627341358305421e+02 -9.6135654282903715e-01 -1.1373955925050740e+00 -1.3834680555513842e+02 4.6633429745428856e-01 1.4073917796786191e+00 6.5139740373919608e-01 1.7359143299242874e+01 4.3805024915836839e+00 1.1300560298150594e+02 -1.3435999961842026e+02 -5.8217019631459266e-01 5.3983414648823782e+00 5.9929846075112891e-01 2.3030953863349168e-01 -2.0261658777821140e+01 -8.0373860846084426e+00 -6.4187566062342376e+02 4.7304291539260985e+00 -2.3889281046525923e-01 -4.2496134995777084e+01 6.1486464006537034e-01 2.1593919896358784e+00 4.9050251054828209e-01 4.6395918262562986e+01 4.0611803510762456e+00 8.0986589175842994e+01 -5.8361404362120084e+02 -1.7203181978862929e+00 1.3951353264928912e+00 2.8799491554053702e+00 2.2305753328093942e+00 -9.8774211283207478e+01 5.3711695930222049e+01 1.6239360829535872e+02 2.3127460893941247e+00 1.6764141141832454e+00 -2.7247776006819913e+02 5.0323151727491222e-01 -1.6878634925028564e+00 -1.3784538300579641e-01 -5.0902424649617387e+01 -6.5432471181393339e+00 -7.6311761013317664e+01 -2.8015057916003570e+02 1.3923705798389960e+00 -2.5204649646375401e+00 -5.8962210176413143e-01 -2.0953301132118440e+00 -5.1259542877960484e-01 -8.2340958761487855e+00 7.9210778066050261e+02 -3.2590226578092683e+00 -8.4215205898247270e-02 2.2958735218038782e+01 7.9110803331244695e-01 6.4130325565589139e+00 -7.9436330551061474e-03 -1.0109889341205417e+01 1.7473160025093591e+01 -4.8963554881416712e+01 8.5228651629207889e+01 4.4328717066649226e-01 5.0648989418391466e-03 1.1633835120470621e+00 -1.1681391455981611e+00 -5.3424459116029539e+01 -5.7641453627773444e+01 -9.5673351667355746e+01 3.2887944182050433e-01 7.5368816091966018e-01 5.9403924632060807e+00 -2.3074059781008032e+00 3.7021418734129838e+00 -9.3956939294912445e-02 -1.4296686236935784e+01 -5.4273943252183017e+00 -1.1302413684296783e+02 1.9283202172358870e+01 -7.1030582043812274e-01 1.1577647442253607e+00 -9.4145493232340982e-01 2.3601381042590219e-01 -3.4721903350167395e+01 -5.5711742233404948e+01 3.2642611299757846e+02 -1.4324787001891082e-01 -1.1529883565493435e+00 -7.4107274416853215e+01 -6.2976900409779546e-02 8.0270474395774727e-01 -2.0260257884754673e-01 -2.5071170871797221e+01 -1.5709821465886264e+00 3.1056012196490883e+01 1.9794251463513501e+02 -5.7364842918866543e-01 4.0936880065100922e-01 -4.6303508878982136e-01 -2.7947673587605948e+00 5.4975309783893408e+01 5.9836366277148045e+01 -2.1584608233813196e+02 -8.6878802455969506e+00 9.6938194059801663e-01 -5.5178527099611983e+01 -3.8602894182188012e+00 -4.2187201316826446e+00 -9.8214378501470967e-01 -1.1745260849212900e+02 -4.8211172181687587e+00 -3.5126403850408599e+02 1.7262439056024982e+02 1.8826383625657694e-01 -1.2843220065899700e+01 2.7073255483261560e-02 1.3642800076536332e+00 -1.1952227661682582e+02 -2.9545303678055234e+01 2.3656077218381688e+02 3.3481313883122903e+00 7.2667937091663992e-01 2.0241952245308266e+02 2.2524765258908985e-01 6.2734869476062158e+00 3.5190975150241144e-01 2.7416507974709930e+01 -1.0278339155694539e+01 -3.2824516613702144e+01 6.6533155273283228e+01 -1.0603116870732556e+00 7.1915142141763617e+00 8.4188435974765419e-01 -3.9541384253841443e+00 9.2387374421002278e+01 4.0968956017683013e+01 -8.8861885543446988e+00 -1.8040598972373800e-01 -5.6598423897174976e-01 5.4936623946370673e+01 -1.6575771091767422e+00 -1.0110285979182549e+00 -2.0313836599566848e-01 1.0515242052242684e+00 9.1792775694575539e+00 9.4925002706277155e+00 4.1725790716009215e-01 1.8364888586504833e+00 -4.8714364460131492e+00 6.9176989819054455e+00 2.6595790285491603e+00 9.7883599723690713e+02 4.8179584146058914e+01 -8.4750717493938282e+02 -9.8450240712053496e+00 -8.1795582288044244e-01 1.9365322040930914e+02 2.0808767879030049e-02 -4.6437458783766488e+00 -1.2822525494770096e+00 -1.0720744997069573e+02 3.7324639923190261e+00 -5.0419275101201856e+02 -3.0183118810558068e+02 2.7492581992301277e+00 -1.4821170836869822e+01 1.4665766898288322e+00 -1.7765289348609616e+00 2.7021166391839500e+02 8.2892056108640759e+01 3.9876163744076621e+02 -1.2624016737087453e+01 4.1237870718820746e-01 2.0828954539978895e+02 -2.6140762704943432e-01 3.5477314906012190e+00 -6.1066279318369787e-01 6.5626153481861138e+00 1.7371048349140839e+01 4.6612834964572933e+01 -4.5486894941711711e+01 -1.8967658418065767e+00 -1.2683877169720633e+01 5.8351816511674315e-01 -1.6080032738100272e+00 4.5303462697051145e+01 3.2523383931431454e+01 6.2966079373797402e+02 4.0113207480922464e+00 1.4414492512237587e-02 -2.7661921611219441e+01 -2.7291882613228680e-02 3.6758652272942527e-01 3.8625404790100681e-02 1.5027252463813056e+01 -2.3560281360306590e+00 3.3680686360050458e+01 -2.4180107472883537e+02 1.7184481094476212e-01 -1.3471612774640107e+00 -6.8206378435287274e+00 2.9164262111468666e+00 -5.3440958157911371e+02 2.2165844135780276e+01 3.3631399926003178e+02 5.9473751375280282e+00 -1.2317772401124512e+00 -4.4667158728573850e+02 -2.9694167184255016e-01 -8.8838544051527313e-01 8.5081546292308419e-01 -9.7083003529429732e+01 2.7278519764169975e+01 3.5685275411339092e+02 -1.9659167212096696e+02 -7.0493817651322144e-01 1.0192221636955530e+01 -3.7328872143971736e-02 1.2488435546559607e+01 -2.1371243236101762e+01 2.4992298267824339e+01 -3.3596320832429126e+02 -7.2465291467008264e+00 -2.9234856183196456e-01 -1.9223346913499213e+02 -2.2663760124135734e-01 -1.1008681385401664e-01 1.0803721112485221e-01 -1.5056118165014561e+02 -4.4999150087784628e+01 -5.7217662889290909e+02 -2.0139356919505980e+02 4.4029738775787541e-01 4.0198605649919728e-02 -5.8012076026576260e+01 
      </Row>
      <Row Index="156">
        -1.3757353237671472e+00 -5.8615384756194544e+00 -6.4996071180794388e+00 1.3219100609550369e+03 3.5889241343047470e+03 2.2756753181029126e+00 -9.6150810816230603e-01 5.6917581488378346e+00 -8.7816915881830937e-01 -2.8141122410306707e-01 -4.3829357096001331e-01 -3.2833979259459738e+01 1.7411896239820635e+01 4.6228827489423566e+01 4.2383421224908670e+02 1.7513627631715281e+00 5.9728969459480140e+01 5.7233173119930143e+00 -9.0887160083220806e+00 -5.2995036291249562e+01 -9.1978571382118389e+02 -3.7325504075288773e+03 -1.0880226912876250e+00 9.0957388033984898e-01 -2.6013548070332035e+00 -2.0846335166427252e+00 1.1228215185663430e+01 6.5210690877029265e-01 1.1266183156290936e+02 -2.2633181045530364e+00 1.5128662113752216e+02 -1.2139389123907313e+02 4.9426319831241017e-01 -1.4835893183942972e+01 -1.1260912735160673e+00 2.6951864470029250e+00 5.8625698601710610e+01 2.1810489690247923e+03 3.2217698474228382e+02 -1.0859912823416380e+00 -9.1367696299494128e-01 -3.5404343211092055e+02 3.1725864199288480e+00 3.8902841480594361e+00 -2.7340210785655472e-01 4.3805155262583867e+01 4.5427781526814215e+00 6.6625106379098725e+01 9.3749734765640460e+02 -1.2135895531209826e+00 -3.8416689351608511e+01 6.2056387132351425e+00 1.7713105646274926e+01 8.9775547416065820e+00 -1.6959198946354445e+03 -3.3184665545821190e+02 -3.2699104295215875e-01 3.6091215330464053e+00 5.7138176435418427e+02 -1.3047790975033635e+00 9.4703700814433489e-01 9.6184145982169866e-01 -2.1703916854123236e+01 -5.2628916848040319e+00 2.2531155766139273e+02 -1.3471892647724599e+02 -9.5591844212901833e-01 -6.5991464812443155e+01 1.6959758057710133e+00 4.9978468256231281e+00 -3.2949883432011120e+00 -4.1643872984778136e+02 2.0875725098252296e+03 -1.6702540240835333e+00 -2.0214258230657833e-01 6.2919316189177334e+02 -4.0343205333156220e+00 -1.9825983000337146e+00 -1.1618244223291185e-01 4.0308900090167299e+00 -5.3071048273413908e+00 1.1899124638289140e+02 -1.2181195974722505e+02 4.7670051681780024e-01 1.4752237163068912e+01 -5.1188500351418043e-01 -5.4371749132697005e+00 -1.6928734397413791e+01 -1.2156740084975027e+03 -2.5511477149203420e+03 8.3222485773148946e-01 2.5329410312974687e-01 5.5794794516696129e+00 -1.0270935316548275e+00 -9.3699974291666877e-01 5.5284718015131862e-01 -1.1443852446973324e-01 4.5907689894247596e+00 -2.1078917574224761e+02 5.8184546453412622e+01 8.0930375015213940e-01 4.9455875850544544e+01 8.2644001524229775e+00 -8.2737578475863955e+00 5.9406955696855679e+00 2.2543476938125677e+03 5.8261454758048058e+02 1.3631403373656337e+00 1.1870171187811391e+00 1.7085222345077452e+03 -4.9779410048238724e+00 2.5701313256856011e+00 1.1530320313461861e+00 -7.2348592806083616e+01 1.7009950457021844e+01 4.8133869037391150e+02 -3.6186917260822202e+02 1.2885253706452258e+00 -1.1817322514335089e+00 -3.2048346355644526e+00 -3.3717491885181516e-01 -1.4712769237346947e+01 1.7643796527470113e+02 -5.1806416434049606e+02 -1.6161094007042367e+00 -8.0263921961390206e-01 -2.4132196562165987e+02 -2.7589305270698787e+00 -5.9179275334463455e-01 5.8159717467140126e-01 5.6283306268654997e+01 -8.7827743974048644e-01 4.7496986058424227e+01 -1.3424066122766817e+02 -4.8538575855650379e-01 -1.2929086988010044e+02 3.4377220760377121e+00 1.0850685762175999e+01 -3.9549988334299996e+01 8.8872938625625102e+02 1.6031127619817853e+03 3.0819219848945067e-01 -1.1128005872487634e-02 -1.0758378733517602e+03 1.6071485974207462e+00 1.2117798029485130e+00 3.3410419144030357e-01 1.3013171760831028e+00 7.1016458860249259e+00 1.1919956336321775e+02 -2.1702456025406718e+02 5.0605201683720225e-01 -6.6862188830928062e+00 8.1379686480716504e+00 1.6638884518644772e+01 4.8179615274886601e+01 4.6872834851238877e+03 -2.6008915293812752e+03 -1.5481774700221944e+00 1.8934165570260149e+00 1.8131646050293930e+03 7.4021374251215910e-01 4.0955528549966402e-01 3.4161086399444951e-01 1.7218325624219801e+01 -5.1860678558005020e+00 -5.6843189571279800e+02 7.3864532230294435e+02 -1.5282093291433840e-01 4.2254356646711926e+01 -4.4679627554085766e+00 2.7193920403916806e+01 9.6988072505501975e+01 1.0353421380914538e+03 -5.0107150735147297e+02 6.5232130428560282e+00 -2.0793032995401028e+00 -3.5265680207066839e+02 8.5993811997771150e+00 -6.9543973532973524e+00 -1.8092499415569137e+00 1.6079665589984756e+01 8.6980496689068460e+01 8.6584987674982301e+00 -3.4988877004442037e+02 3.5089060470060955e+00 1.2780064978297939e+02 2.4341284691181500e+00 -1.1188504385063425e-01 -9.1520603183889762e+00 -4.1326704160124063e+02 -1.3435012033283710e+03 -1.6414468774011652e+00 -9.1460429775906960e-03 4.6393703806365374e+02 4.1152176484238545e-01 -9.3224117062636651e+00 -3.6690141780638896e-01 -3.6028395430184901e+01 7.1141330757272954e+00 -1.8168881144747138e+02 -3.2580418816301972e+01 -7.8902391519181947e-01 3.1968833464241470e+01 1.2789612876688077e+01 -3.6234577091049559e+01 -1.1420297172960898e+02 -8.6039428702634450e+03 -1.3807798986917576e+03 -2.3806988488995389e+00 4.7845884691644960e+00 -8.0180860570166260e+02 -1.1873310471776684e+01 4.5440666756255688e+00 2.9297639919930925e+00 1.3190664980337660e+03 -7.2863091507564420e+01 3.0844599657977351e+03 1.0399582215588721e+03 -1.0729908802183603e+00 -6.4155097113816879e+01 -3.3811495292582094e-01 -2.0101046965642638e+01 3.4961191219911285e+00 -1.8586308301057874e+04 9.2936429145448910e+03 2.7262875861635649e+00 5.3916098158424575e-01 -3.3446313160023665e+03 -4.6651702773067427e-01 1.8636708798342738e-01 -1.5942868846946112e-01 2.5217704730887726e+03 -6.9202862603748940e+00 -7.1990781895917953e+03 -1.3585959331735435e+03 -3.9086725862667515e-01 5.4949827992751352e+00 -2.4318524427285643e+03 
      </Row>
      <Row Index="157">
        7.5579090511923539e+00 -6.6115445081377402e+00 4.4866806855937466e+02 9.5612113496172242e+01 -2.2193470216110349e+04 2.7038189855411474e+00 -7.5059997675857062e+00 -3.7372430216819048e+03 -5.9957307581380519e+00 -1.0293693232582882e+01 4.7453094045285980e+00 -3.9145930345839588e+00 5.5419338087714277e+02 3.0074791189609095e+02 6.0957377256196924e+02 -8.9085624908075260e+00 -1.3945116036979016e+01 9.8584812645131024e+00 -3.1409889605347416e+01 -4.0995525636454113e+02 4.9758428614772856e+02 -4.1587410412788391e+04 1.8954552390824119e+01 -1.3672230543452315e+00 -2.6302177762711653e+03 7.9220770990559686e-01 9.4725156424101442e-01 -2.2756109991314588e+00 -1.8129293511524738e+03 -2.8757929672364844e+02 9.3334309818674228e+01 4.6297777401255444e+03 -3.1665123235034116e+00 -6.6559528667814448e+01 -2.0932217313384172e+00 1.9143628655845532e+01 -1.1430463521182537e+02 -7.3142321920022368e+02 1.6030931362509727e+02 1.6889572617816157e+01 -4.9094700154746533e+00 -4.5820845891349018e+03 8.1047939792188117e-01 4.4660234007402323e+01 3.3487943087666281e+00 1.4452464495087042e+02 -2.8172255357657559e+02 -2.6734042154112831e+02 -3.4955166302276775e+03 2.5261114001623355e+00 -6.8658207189175300e+01 -3.8738352578049486e+00 -3.6369504147223779e+01 -9.2028740497538820e+01 8.3857254001032561e+02 4.0845596308708191e+04 -2.1061668487269344e+01 4.6260649908144735e-01 -4.2514049480110407e+02 6.0785244961499796e+00 -2.8145809640495486e+01 2.4995352260034451e+00 3.0071835392166395e+02 -5.5883513259066149e+00 4.5903234824072570e+01 -1.2462194234039634e+03 4.4030881368098562e-01 1.0864532470252743e+02 -7.9838625599222723e+00 -5.3921453298680717e+01 -2.0831261290144175e+02 6.0606652851868421e+02 7.7694375471055508e+04 -2.0461693908691814e-01 1.5505387966079525e+00 2.1630456483177841e+03 3.2012529339990579e+00 3.6221018357551657e+01 -4.0549517215731612e-01 6.7212108976300806e+02 -6.6957650392455980e+02 -3.5214864154534007e+02 -1.2321176583007909e+03 -1.2804351825121557e+01 1.4060104102622063e+02 2.0736709405973670e+00 1.6615962746320292e+01 4.2655660363798961e+02 9.7608474903646857e+02 -9.9156300174206495e+04 1.1378529896144755e+01 -2.6391614628109892e+00 -4.6263867854604032e+03 -7.6712332093302393e-01 1.7232946692558471e+01 -1.2908608496632388e+01 4.9261063039768487e+01 3.6206525410636095e+02 -6.2682888376526535e+01 7.2997780800703913e+02 -2.1097616758306685e+00 1.3649111435981467e+01 5.7372553158950907e+00 -1.3441846997475307e+02 2.8725729734133893e+02 1.2829282607114874e+03 5.1642919294893742e+04 4.2071128384533125e+00 -8.2782333985948000e+00 5.4792487821459581e+03 1.2846365413964445e+01 1.4831154694341656e+01 -2.7957949932263775e+00 -9.2986041914392263e+02 5.1811633997106037e+02 -6.0225323356849049e+02 -3.8830334063344708e+01 -1.4193128977252869e+01 1.8250360868996609e+01 -2.2114104196788276e+00 1.1839353401982225e+02 -2.4034534402593272e+02 2.0783569813106442e+02 -6.0720035717666149e+04 -1.0049292991605121e+00 -6.8723499994839585e+00 8.0843200988893659e+03 -2.0244046869956946e+00 -5.2614114896539832e+01 -3.5059789918589104e+00 -1.6428295901438687e+03 6.6430274489941075e+02 7.3624586206395179e+01 -4.0170706272586249e+03 1.0717711251357287e+01 -8.5499795373340604e+01 3.1692507047832521e+00 -8.7638684630568605e+01 1.4898135502473451e+01 -4.5408667289069854e+02 -3.3705440063476562e+03 -3.8417872470963630e+00 7.3978379181850107e+00 2.6215255969446152e+03 -8.2141307705533109e+00 -3.9150851139158476e+01 -2.3471406861551714e+00 -5.7273428751062602e+02 2.3524955276912078e+02 -1.6360834061028436e+02 -4.1531661316100508e+02 1.1918294712337229e+01 -7.6471611225832021e+01 -2.6053964711564216e+01 -1.5776851854589768e+02 -8.4750719708378892e+02 -2.6008933387296274e+03 8.2960841140240431e+05 4.2104292259691903e+01 8.6249960831685470e+00 -1.9079661297215149e+04 4.8567687773354855e+00 2.5607878192071803e+02 2.7143770586404488e+00 8.9814970718387813e+03 -3.0702917488175444e+01 2.8817724479618482e+02 9.4286421829794381e+03 -9.6530743581204916e+00 -1.0046264663271995e+02 2.6935868919982696e+01 -3.3323450062137226e+02 1.7499581068354137e+03 3.1506961693730195e+03 -3.5633214090518653e+04 -1.5051121500280107e+02 3.2903025273309133e+01 1.7608788808551180e+04 -2.9284532043361480e+01 -2.3567224371503727e+02 1.5239405877024979e+00 -6.3963431041415133e+03 8.5901656059341531e+02 -2.4651967398862820e+02 -2.5395745408786504e+04 -2.7586745440099634e+01 -6.4650402813987796e+01 1.0189994239408406e+01 -1.6610273086000234e+01 3.1372213909123093e+02 -1.7683810019493103e+02 5.1808654631614685e+04 1.8353088662275013e+01 -3.4676321786901099e-01 -1.7490617680968717e+02 -1.5195436738249590e+00 -3.1577726353425533e+00 1.4095032069570834e+00 6.6043868802487850e+01 3.2563545328327746e+02 -8.5981419481337070e+01 -3.4140644867606461e+03 6.8476093818389927e-01 3.5027817294496344e+01 1.8297285715603770e+00 1.5078791339071540e+02 -6.1964403405410417e+02 3.6031700148330801e+03 -6.9420384851214767e+04 1.2842524608616719e+02 -4.3967575195819499e+01 -1.0722050970645621e+04 3.8587316186975187e+01 1.4624621051877028e+02 -5.3092556416740813e+00 3.0268713344879498e+03 1.4596344377134099e+03 2.3066310690316996e+03 2.0276063401581010e+04 7.9469731781365223e+00 1.5643567810935031e+02 -6.3384035258104632e-01 -8.5941602752830292e+01 -2.6180341047536466e+01 1.0766591858693428e+04 -1.3247241536417583e+04 -3.9750072706531348e+01 3.0556040247565761e+00 -2.5684887087719890e+03 -6.3952101436871089e-01 3.2596527851262636e-01 2.4177101159266385e+00 1.9865499633455443e+02 -4.7177877088229152e+03 -5.0691032217121501e+03 8.5297391005616173e+03 2.3306415369310183e+00 2.7272601261892362e+00 -9.2431338358355642e+03 
      </Row>
      <Row Index="158">
        -3.4688882480196526e-02 9.9084674021383989e-02 3.6983042762217337e+00 6.8669816672627348e-01 -9.9961463082145201e+00 -8.6073501112466033e-02 -7.5305824932058174e-02 -5.9054794618441520e+00 -5.8531121437749078e-02 2.1106510602260187e-01 1.0587910707709369e-02 1.0718510841340390e+00 -3.7428567367726373e-01 1.5768327362688979e+00 1.3245209914434326e+01 -3.6273223345904881e-02 1.5603193419664763e-01 9.2972747428632374e-04 -4.9573889016031103e-02 1.1869910185493609e+01 -1.0295728462160696e+00 4.6827271559159271e+01 1.5780165849539671e-01 3.3057514591005699e-02 5.2163016483922320e+00 -7.0103061013289114e-02 -1.9305616611563892e-01 1.0029893278126423e-02 -9.8873689493510142e-01 5.5794737470910150e-01 6.6352610860290895e-01 -2.5245710849845636e+01 1.5512182597809954e-04 -1.8594958802000860e-01 -8.0933193512606749e-03 -8.8496509359430320e-02 -3.8838407575199199e+00 1.6302845134341624e+00 -5.6001260112971067e+00 1.6245958098706126e-01 1.7165058500793862e-02 -1.8500257507366769e+00 4.0339753230547615e-02 -1.3049629122639317e-01 1.7737227075143913e-02 -1.3143430017339597e+00 4.9865987092687192e-01 -1.3000431657076206e+00 -2.0362576912034456e+01 1.9746264016120563e-02 9.6505639791985232e-02 -2.6377415195313858e-01 -1.2879102214364480e-01 8.9940715851344066e-01 -1.0556424924852763e+00 -1.5116622975154314e+01 -3.3340159149594228e-01 -2.1291968564915303e-03 -5.5001898286791402e+00 2.5302512649913692e-02 4.0398365217768306e-01 8.2493731297996753e-03 5.7834741435937076e-01 -7.3724093907635790e-01 -3.2456630031606437e-01 1.1865834432865086e-01 -4.4244997063753289e-02 7.6894038431021272e-03 -1.5123421055264430e-02 -3.6329630670905999e-02 -3.3077514628710105e+00 8.2710499335371424e-01 -4.0022124343668111e+01 8.0149937901845547e-02 -3.9798102743189290e-03 4.4226364784135512e+00 -6.6234992086393163e-02 1.5654033048213023e-01 -1.7236005169309010e-02 4.3169034525726602e-01 4.1589955483834729e-01 -8.0179415151087596e-01 -2.5871601487775933e+01 -1.9856592241723092e-02 -3.2686400901003232e-01 2.8504047294575230e-04 -5.6557898915343685e-06 -2.9696513896054171e+00 -2.4269516416279657e-01 1.2436521520285169e+01 -7.1714512353203475e-02 2.3870506637843292e-02 -4.2797202114927586e+00 -4.0384413476203918e-02 7.6472496535473056e-02 -1.0465872779944348e-02 -4.1207605412228077e-01 -1.7952850944575438e-01 1.1925476945914397e+00 1.8936447559891349e+01 3.4370516150307395e-02 -9.0809749262803052e-02 -3.4677513734778093e-01 4.7570087036311653e-01 -1.4686411804311092e+01 1.2508914625304897e+00 1.4809084176085889e+00 5.8538297959986330e-03 -9.4115070008031487e-04 7.1458247920450191e-01 -5.8579556849451278e-02 5.6023696281781898e-01 -1.4401100586312263e-02 2.6447750494694446e+00 -1.5675937278186547e+00 -6.4081086082574235e+00 3.9077026620197728e+01 -9.0064939514345743e-02 3.0870197635628971e-01 2.6779743870007700e-02 -4.5321756513510536e-01 4.7701277218127984e+00 -1.3429733232550234e-01 -2.9049016517819837e+00 -3.9391008201632266e-01 -1.8844782542102312e-02 1.0118683007717548e+01 -4.8122277060240748e-03 -2.0551151008211832e-01 3.3312003874844232e-02 -3.2937919935352511e-01 5.1531044085425037e-01 4.0580861444391303e-01 -5.8101513366439121e+00 7.6698191748320710e-02 -3.4285722821221953e-01 -1.2266160171314877e-02 6.0311507331192615e-02 7.1713249367621756e-01 6.3831857151262739e-01 3.9732274273701478e+00 9.9736957882463173e-02 2.5745357687831538e-02 -2.1102951011162077e+00 1.3261254415265711e-02 -1.3937134255861139e-01 -1.1865075357724297e-03 -1.0390925810690987e+00 -6.8239465528199617e-01 -5.6069243433830707e-01 1.5317898333977610e+01 1.7706650952678871e-02 3.4642460546484699e-01 5.7346866678932296e-03 9.1791996014376309e-01 -9.8450240475146984e+00 -1.5481762076142331e+00 4.2104292484058533e+01 1.7992182803781565e+00 4.5190558063226638e-02 -1.1274425797089862e+01 6.8683305889994023e-02 8.3920200972045222e-01 -3.3171332700889629e-02 -6.7275795378773395e-01 -1.5336096956191341e+00 -1.0109033545460079e+01 1.1256729024570251e+02 -1.2910146150189011e-01 1.0448073546783632e+00 -4.7581467057739385e-01 1.1059044037933341e-02 -1.9994280256198564e+01 5.1550435988458432e+00 -9.8239460785116535e+00 5.0923121531510934e-02 -1.1657724512453707e-01 1.5175201945410645e+01 1.9541530632309884e-01 9.5321920842437846e-02 -1.2172374237872929e-02 6.6916536078784619e+00 -9.6366945596809472e-01 6.3140007206171713e+00 -3.6134744441706346e-01 -1.0560786310774091e-01 8.2834009898678995e-01 1.5168771181934915e-01 3.4806658271463675e-02 4.8592193945314648e+00 -1.1282557744852966e+00 4.4265322526916862e-01 4.2017099600207819e-01 2.1476510842253660e-02 -5.7649667516984664e+00 -2.4648599953289052e-02 -2.0275561361290784e-01 3.7237706082804412e-03 -6.3034909032103315e-01 8.9939200103685835e-03 -1.5486647717916640e+00 1.5544036957560820e+01 3.0726377850749387e-03 1.4606115954420318e-01 7.4957487881076090e-02 3.1021254142075416e-01 1.1265102617208004e+01 -7.3378189760155585e+00 1.5778461186140902e+00 -5.8208539129797843e-01 8.7224098265901800e-02 -4.4133111193123113e+00 -2.9984772706519275e-01 4.7660396832183782e-01 1.5524200452066372e-02 5.9066981654501971e-01 -1.7414659993852006e+00 -3.6811674756760411e+00 -2.1393417968141030e+01 2.1369595330641755e-02 -7.9472089363858034e-01 1.8009064810131648e-03 3.0994881953725556e-01 -9.5091000045866469e-01 -8.8806114102370000e+00 7.0539766993011801e+00 -4.8787887032524446e-01 2.7286582982990026e-02 4.4850866553737578e+00 -1.3048443094118678e-02 -2.7233285672483565e-03 2.9838985677166363e-04 3.9150541893492732e+00 2.6911607570644280e+00 1.2364923003113873e-01 -9.9009035470528968e+00 4.7332989526854517e-03 -4.9052280150507221e-03 9.5578484592379098e+00 
      </Row>
      <Row Index="159">
        -1.4697966310468591e-01 -6.0320342747715472e-02 -6.7821591828675309e-01 -1.3744919161041480e-02 -1.6819415184023455e+01 -6.1443469934173045e-02 -2.5754566478906460e-01 -6.5760849223352125e-02 -4.4193591561504786e-01 9.6256653299477080e-02 1.3194976738112874e-01 -8.2433702828320676e-01 4.8438916711947400e-01 4.4867072707302214e-01 6.2023758582319601e+00 -7.7801164255852040e-02 -9.5637286713941450e-01 -6.1310200889170829e-02 3.5827322770032310e-04 -1.3273168827048494e+00 6.4546030681526645e-02 -5.2509290962188970e+00 -4.6794067716049659e-02 -1.8263155045897483e-01 3.0172492904522130e-01 -9.9907480065677845e-02 2.0463045323680262e-01 -2.0531545075805457e-02 -2.9051206676507029e+00 2.9881058225186052e-02 1.4068826026779035e-01 -5.8225125070729291e+00 1.3005064928562771e-01 -3.3560016260042325e-01 -2.0640795981425342e-01 1.0053912927319431e-01 1.0162908415177014e+00 2.7604147586334875e+00 -5.0746135434746975e+00 4.3315990853519892e-02 -2.9525154984357638e-01 2.8615561526071360e+00 1.2765593256694263e-01 2.5805277069429167e-01 -4.7883718121479291e-02 -8.4992162087075940e-01 3.0451233317791093e-02 -1.0144592213701742e+00 -9.9072476436826946e+00 4.7238478847990706e-02 -9.6573259246355292e-02 8.8444009916350597e-02 3.7893692402121815e-02 -8.7322334398979251e-01 -1.2878779232643183e+00 1.2214434549096040e+00 -2.3723666818792122e-02 1.1557081135805047e-01 3.8864567499331315e-01 3.1045562791493198e-01 -9.3898321288769182e-02 3.7421263063055377e-02 4.4084312284049076e-01 -9.8404254084107023e-02 5.4441140406936483e-02 4.8977330903271650e+00 -3.3116660315663349e-02 -1.8657593952770846e-01 -1.2605075988387604e-01 4.8811254645066526e-02 1.1214771539656851e+00 -6.7206476782803293e-01 -1.9261290712456685e+01 1.4043613180562575e-02 -1.9966012087377244e-01 5.3914541613107758e-01 -5.5820502613862111e-01 4.6426020280719626e-02 2.8769246747466504e-03 -7.3473875666138611e-02 -3.0425418320328390e-01 -4.3247623680972325e-01 -7.8639357562944951e+00 2.7453097011720828e-02 -7.2419944998865016e-01 3.5756203619332183e-02 -9.5125510776114197e-02 9.3227484378151360e-01 -1.5244072409205955e+00 6.9443922812242818e+00 2.5151308241682102e-03 2.1151186238777453e-01 -1.7545035469075287e-01 -1.3266277816658967e-01 -1.8239549096870888e-01 -1.7380683062201324e-01 8.2581067279124909e-01 1.4948982617162776e-01 1.7774211654497662e-01 5.3722518213862713e+00 1.3060565001176494e-01 2.0171335092091169e-01 3.5140770604928395e-01 9.1217234915357270e-02 1.1436539936411521e+00 -1.3788304633461621e+00 2.0408594103646465e+00 6.8882774065666508e-02 1.1004333065436245e-01 1.3452835735584046e+00 -2.4768282361324997e-01 9.1006679738547369e-02 1.5621967522444424e-01 2.9366913629309863e+00 1.7547862710725060e-01 1.1276304902845062e+00 1.0294212886292689e+01 -8.2763337886488125e-02 7.2493048644284119e-01 -2.7983097862846074e-01 2.6675416075221392e-01 3.1315508861879948e-01 1.1430703871779073e+00 -1.0399057368711510e+01 -1.5487264041784715e-02 -4.6081730325671449e-01 -2.7751975340354988e+00 -2.1615090672149684e-01 -4.5675698100883011e-02 -2.2844694567961807e-01 -3.0023373586666509e+00 1.6534356639965608e-03 -3.4346284223781254e-01 4.7051910678715672e+00 2.3659859879424089e-01 -3.5450800853779008e-01 3.8771442457988137e-01 -9.0284271925767712e-02 -1.4220235995595374e+00 -2.6243999102241560e+00 2.8968958722616662e+00 -4.9307067952069961e-02 3.0101426595384251e-01 3.3635090716256855e-01 9.7498915251415852e-02 -8.5800610406910671e-02 -1.8101223053421517e-02 1.1673487593706113e+00 -4.8260461493157436e-02 2.8085937336555844e+00 -2.7203240759844221e+00 -1.0037981145682551e-01 1.7850018866098800e+00 -1.7450240056040789e-01 1.3169262315599894e-01 -8.1795580475812812e-01 1.8934177571994724e+00 8.6249954228260322e+00 4.5190558560330579e-02 1.4509259641934111e+00 2.6950965048879425e+00 2.9404112821825468e-01 -2.4283815576595202e-02 -1.7671288032571164e-01 1.3550273303995439e+00 -3.7281369063313718e-01 -1.6543842856979154e+00 -6.7880743510418178e+00 -3.4994002815290165e-01 1.0217553116243933e-01 2.4749613741397852e-01 -1.1577085421755395e-01 2.8682069378815900e+00 4.0736301416845606e+00 -2.4735699818056673e+00 9.3252875521523837e-02 1.4400322950964423e-01 2.5217604097737620e+00 3.8862155666905318e-01 -5.5296819022501609e-01 2.5016229042486005e-01 -1.1472178419764312e+00 -3.9361269342868888e-01 1.1201738141344464e-01 -1.1143713486566895e+00 -2.3768652456476955e-02 3.7779292757595151e-01 -2.2863859833423206e-02 -6.3723518391299194e-02 -7.2405482498061247e-01 8.2745297056135314e-01 -1.0076922893495066e+00 -7.9250198916290537e-03 -1.2863746073469962e-02 -7.5580954402022371e-01 -8.4090473886517358e-02 -2.8416351195203760e-01 1.3308568447586488e-02 -1.0401445809520737e-01 1.6538454138866676e-01 3.0760012146765803e-01 2.6646780635314826e-01 -2.6315512522606777e-02 -4.5364239186085520e-01 1.6885985552804123e-01 -2.8424593751724125e-02 -1.2079058014673141e+00 -3.9364155989269305e+00 -3.2116945115175781e+00 -1.0218864117102053e-01 -4.2109792511424465e-01 -4.0621842318671497e+00 -5.1045683600171265e-01 3.6717495318390581e-01 7.6603540557973027e-02 6.7533574988764515e+00 1.4180453589755813e+00 -1.6616340509977627e+00 9.6730924311841235e+00 7.4038513707491010e-02 -5.8840496135749154e-01 -2.2232920104135745e-03 -9.1154912009108802e-02 1.8131449346130768e-01 9.0785870750641673e-01 6.9239441350778357e+00 6.4741651005299841e-03 2.4837465973124118e-01 -4.2341761886350664e+00 -7.9008410383435090e-02 8.7619619642305135e-03 4.3366838387083662e-02 5.2554096319461632e+00 -1.5200315444855144e+00 7.4879145616254412e+00 -9.6697511447046622e+00 -3.0625380548012997e-02 -2.4745554868824546e-02 1.4010524770848556e+00 
      </Row>
      <Row Index="160">
        1.4113295852638945e+00 4.1287277866795193e+00 1.1128252848982811e+01 4.8125527112989221e+02 -5.3667129928767681e+03 2.9381314259808278e+00 -6.9800086235943581e-02 3.4831156335342675e+03 -1.9500944411902310e+00 -1.1664304636651650e+00 -7.0650474355261395e-01 -1.7639321923035459e+02 6.4343503553071059e+01 1.3351882403995842e+02 2.5368605983805610e+03 -1.2281599866619217e+00 -2.0086468250985490e+01 2.7765013369717053e+00 -1.4786740714494954e+01 -3.8422873162664473e+01 -3.8093604896357283e+02 -8.6720981351137161e+03 3.2641052337264309e+00 -2.2737317394830825e+00 -2.9874503743095556e+02 4.9680068023553758e-01 2.3635430815629661e+00 8.2472767468061647e-02 1.3906975739449263e+02 -2.2370839196519228e+01 -6.0452934995555552e+01 2.4088335580825806e+03 1.9878167733647842e+00 2.4078917764272774e+00 -1.7838812797126593e+00 -6.0251239547505975e-01 -4.7228297923225909e+01 8.4870359917730093e+02 4.9404495364427567e+02 -3.4780408803198952e+00 -7.6602041141813970e-01 2.6490612337365746e+03 -2.9680244789051358e-01 -1.6939802020089701e+01 6.5068001222152816e-01 -8.5952372749336064e+01 -7.9963236930198036e+00 -2.0483963766368106e+01 7.3666896320744418e+03 -5.3825084455529577e+00 -4.5710085597936995e+01 3.0517106588289415e+00 6.7774726195930270e+01 8.2376915556378663e+00 -4.0039917162526399e+02 1.1442806037068367e+03 5.9685939688915823e-01 1.5315486405989764e+00 2.9257574832960963e+03 8.9658917068343769e-01 3.5395164463510866e+00 4.2026346351622124e-01 -5.8109090747660957e+01 1.8447051628347253e+01 -2.9958336335606873e+01 8.6420748746395111e+02 -5.1603629517990157e-01 -6.6071284175217443e+01 -4.8963950290126377e+00 9.2282666174287442e+00 -8.7454300926066935e+01 -2.3613377646729350e+02 4.4183754380345345e+03 -2.5654523064531531e+00 -1.0633180756706224e+00 1.5380237072929740e+03 1.1925891516002594e+00 -1.9649599057156593e+00 -6.8170775182807120e-01 -6.7608610947150737e+01 -3.3296932173077948e+01 -7.1678015249286545e+01 2.0634180725393817e+03 2.2158970334785408e+00 5.5132008682212472e+00 -9.9688905200309819e-01 9.6986626220168546e+00 8.3995483440899989e+01 -5.6494379798881710e+02 -1.1709746653884649e+04 2.0398985600622837e+00 1.2967443766146971e+00 1.6283201059950516e+03 -4.0203526986078941e-01 6.7777789809624664e+00 7.8554209661545515e-01 -6.1720236204564571e-02 2.1358870616675631e+01 -7.8021699821692891e+01 2.0083811155147851e+02 1.3301178205638280e+01 1.6488419923640322e+01 2.8691282587131033e+00 -3.7362493314901599e+01 -9.2964833459467627e+01 1.1072527519208379e+03 -1.7091858307719231e+03 -7.2558264489407165e-02 8.8131428640244280e-01 4.9781573748958044e+03 -2.0517222708019109e+00 1.0130242532040175e+01 3.3696267255154566e-01 1.4405745759140700e+01 2.0575725994671703e+02 -1.6525134612043593e+02 -1.0041055554665857e+03 6.5377666443882791e+00 -4.4423122353193110e+00 2.8455689841721039e+00 2.5782124664692674e+00 -3.3511041967780329e+01 3.5105148236616515e+01 1.4421513509750366e+03 1.0686854425436003e+00 -2.7959966398871074e+00 -6.7570895677446142e+03 -1.4453622942401125e+00 1.5969993288963451e+01 -1.0107709198064185e-01 5.2847127226123121e+01 3.9880839060060680e+01 -3.6182862582383677e+01 -3.9392030690781539e+03 -1.1586618282922245e+00 -2.5107525042283385e+01 2.8426730537215743e+00 -3.0145411117700860e-02 9.7905099122319371e+01 6.2947851607645862e+02 3.8314026598632336e+03 -3.3482277101065847e+00 2.6561882827185661e+00 -2.8897537700869143e+03 1.8039459971623728e-01 -1.0208206368581159e+01 1.0805926355717475e+00 -6.3091259854845703e+01 -1.2014545290730894e-01 1.5460463537368923e+01 -3.0772557234605774e+03 -2.0933288709129556e+00 1.8800575174362166e+01 -5.7076300615626678e+00 1.7103908386081457e+01 1.9365319447882939e+02 1.8131640054355375e+03 -1.9079661067664623e+04 -1.1274425700773993e+01 2.6950971316803134e+00 1.1189205295166001e+04 3.8767950757718053e+00 -4.0800763366627507e+01 1.5900349153534181e+00 -2.7950864314984869e+02 -3.3499152781325392e+01 9.0548233195906505e+01 2.1926911813495644e+03 8.4092258799999691e+00 2.6495058199030609e+01 -1.8800344889306373e+01 -9.7134947229314662e+01 -2.8148850350216514e+02 -8.8186417697150546e+01 3.2493461975269020e+03 7.1579535288519729e+00 3.4705694927718334e-01 4.2324057545682899e+03 2.5187685691629280e-01 8.7212738913468115e+00 -4.0385964835996333e+00 -4.8590033111831895e+02 -1.8384890903711764e+01 2.6444654256677165e+02 -5.7041629974215739e+03 -5.1684203667328124e+00 1.1670563872691422e+02 2.0045565155160148e+00 -1.3400236248620786e+01 4.3980136164929718e+01 2.6751930551230907e+02 5.3726953268051147e+01 -2.5310801647210610e+00 -6.1115413389234163e-01 1.3708507308028638e+03 -2.4626229828990098e-02 1.7806258338707266e+01 4.0840633836444340e-01 -1.5998609380796552e+01 3.0782430987223051e+01 -2.5740999408066273e+01 8.9840800433047116e+02 -1.1411969220234823e+00 -2.4518539511351264e+01 2.3861178568997484e+01 8.0396296460389948e+01 1.6843613021856996e+02 1.5704294470208838e+03 3.8270949689263216e+03 3.6563582407657655e+00 1.5639483223679171e+00 7.2509257554216310e+03 -3.1290533683792461e+00 3.1801980132157226e+01 3.4911935253581099e+00 1.2742895716368639e+03 2.8698933802768636e+02 -1.7943738677869231e+02 4.6039369843396280e+03 1.8671509782069315e+01 -1.4198751567550462e+02 -3.2805361380269460e-02 -5.1880843431448909e+01 -4.7086701673488012e+00 1.8752472284136079e+03 2.3465772651492784e+02 3.6811994129939549e+00 1.2071837017374492e+00 2.0677865306761290e+04 -3.0700974388309987e-02 -7.6351677692414910e-01 -4.1487022206183610e-01 1.2690010556409161e+03 -2.4659060124648900e+02 -3.1839315519886185e+02 9.8240520255964275e+03 -2.9577840457500124e+00 1.2329316369183756e+00 7.3380360941417739e+03 
      </Row>
      <Row Index="161">
        -9.6233553003348682e-03 2.1261150267154960e-01 -1.4509231450878133e+00 -1.5238930006267992e-01 -2.9043774256249890e+01 -3.7454197228474762e-02 -4.1169953055207897e-01 9.1303486306060222e-03 -7.7228656352935743e-01 7.4056198913552862e-02 1.0580099185541059e-01 2.9843790249592317e-01 6.1527301852748906e-02 1.9893419154490175e+00 8.5269990942384197e+00 -1.6279694393873267e-01 2.7190226023739683e-01 -2.2214652747984331e-01 2.3791441124210166e-02 -2.0593854445153852e+00 -7.5179115732578339e-01 8.9291698465240188e-01 -1.2478150417422951e-02 -1.2576274671942644e-01 -1.4418525590577502e+00 -2.0179865643823769e-01 5.1314404311744966e-01 -4.1945193336752062e-02 -2.2417594811176258e+00 9.3628780868598938e-02 7.2601185469378215e-01 -3.9196471531424777e+00 4.5491844439365603e-02 -4.0551806452171846e-01 -5.1960575021169575e-02 3.8122922689524330e-02 1.5418851597095511e+00 1.0367260397772043e+01 2.7629924796456180e+00 -1.8643759451055786e-03 -5.0689181494659508e-02 1.6450443452322361e-01 3.3292334335259177e-01 2.7503764200216096e-01 -1.0233067991367584e-03 -2.0166535776479009e+00 3.7408669165387209e-02 -4.0340510866076329e-01 -7.1899911344178236e+00 1.2978461105938877e-01 -7.1864563789145564e-01 -4.3131446000875817e-02 -4.2215391091442456e-02 -4.6015643722313371e-01 -3.6231699061486324e+00 1.3194624253141228e+01 -4.0777324360264045e-02 2.5925220330301341e-01 3.4886833491509606e-01 4.9711839620316756e-01 1.0557146737461665e-02 1.1674431484966163e-02 -5.7442711294626747e-02 -4.0715809194519892e-02 6.5634865760119965e-01 6.9618396497162394e-01 4.9761358761213847e-02 -2.8574883934606987e-01 -5.0044344091555004e-02 1.1592177906618417e-01 4.8898416671244149e-01 -3.8071486699545858e+00 -2.0520748959141201e+01 8.2147697739363590e-02 -3.8344163642402862e-01 6.1749561267561148e-02 -9.0270286927285781e-01 -5.1984473621473626e-03 -3.7590092902801686e-03 1.0920311560391838e-01 -1.2590002301067216e-01 2.2542371619071844e+00 -5.1189284916138149e+00 -9.6069107305334356e-02 2.4391064950703090e-02 3.6268241338796692e-02 1.2135671407699533e-01 4.8860100071375001e-01 -5.8460753857825694e+00 4.2963061127666151e+00 -2.4776556830978791e-03 1.1425746885393706e-01 7.8989618428062158e-01 -3.1351510691612017e-01 -5.3695410631988238e-02 -1.5753731416333536e-01 8.7893319684326343e-01 8.8562234410139995e-02 -1.6332269192959643e+00 3.5495905891041275e+00 1.7469188927275070e-01 4.9162929849329373e-01 1.9041332937544325e-01 2.8471744738443050e-02 1.2307376119962896e+00 4.8286401123857559e-01 -4.6836601293762214e-01 1.1851217539772646e-01 -1.3515608072005136e-01 -1.1051103984465271e-01 -6.7831219345909188e-01 -3.3219328292323436e-01 8.4973234042954246e-02 3.9013196098709386e+00 -7.1207021139202631e-01 6.3357402803285012e+00 1.1899388747679097e+01 -2.1578665766798077e-01 7.0417679036135294e-01 -1.1822087292574499e-01 -2.2627686056856788e-01 -3.2186286359930705e-02 9.1835249576001132e-01 -1.4901995948719559e+01 -3.9717888472777074e-02 -2.9167546710095704e-01 -4.8475401674655814e+00 -4.0874901105128281e-01 4.7548390250779704e-01 -1.1539045405810983e-01 -4.2752762497638059e+00 1.8945272918244882e-01 5.5587489290894609e-01 1.5521554587011082e+01 1.9022428280984816e-01 -1.1834300722445330e+00 -6.4356969272445497e-03 -1.5214082570878418e-02 -8.0010137165794504e-01 7.2394831990354191e+00 2.2631782975513488e+00 -1.6394105493668487e-02 2.4656703964903393e-01 4.7370006553364874e-01 -7.2846277721252406e-02 -3.6932444353273652e-01 -8.3140029918871372e-02 3.4895138369842016e-01 -7.9784951983725705e-02 4.9960087476279114e-01 -2.1253706514396526e+00 2.1276816334673043e-02 3.6810994776751471e-01 -6.7663236917182346e-02 5.5049843749657157e-02 2.0808787347704083e-02 7.4021346569179514e-01 4.8567701002612012e+00 6.8683304968252479e-02 2.9404112756609901e-01 3.8767952927523766e+00 3.2385512594013290e+00 -3.1964184151659225e+00 1.5275470477863928e-02 -1.0872464035651319e-01 -3.4785149087895206e-02 5.5678202849158538e+00 -3.0431949014316203e+01 -2.8063337396015764e-01 9.0441470376885802e-01 -1.3477403484698702e-01 -1.4215982016295253e-01 3.8917572686291910e+00 5.0569417477008756e+00 -4.9333666522488784e-01 9.7130013470842602e-02 8.4034517494723043e-02 -6.7243608763517955e+00 7.4971481103495830e-01 4.5806429795181280e-01 4.9172046818046766e-03 -3.4948412487622900e+00 -9.4919521266015439e-02 -4.0256689479635099e+00 3.2291497240605622e+00 -3.3980675449687997e-01 3.3420276651786374e-01 -1.3234452224588367e-01 8.2810532228137390e-02 -1.0531714782908921e+00 -2.2132300005523575e+00 6.4973898331809323e+00 7.9756385975057187e-03 -4.9108840452636304e-02 -1.2062268937926319e+00 -1.2464321885951390e-01 -3.3437684250891664e-02 6.1635158480231045e-03 -5.8298218440995697e-02 -1.9086410098115181e-02 5.1650293595230323e-02 5.5009292795557485e+00 3.7479869837873103e-03 1.9338445046595609e-01 2.7737673961864262e-01 3.1372568480718299e-01 -2.9232959009533896e+00 -7.5354824776110139e+00 1.8326120044394543e+00 -6.1996818447096813e-02 -1.7627433528851461e-01 8.2886086425594385e+00 -2.1394365833937292e+00 5.3072834999092811e-01 1.4570670999567392e-01 1.1891122344010668e+01 -3.5967917114304408e-02 8.1076599968470653e+00 3.7777437682873285e+00 2.5725593137044395e-01 -2.8101272453912252e-02 8.0007273001679313e-03 1.6414995872147875e-01 1.6206786745721644e-01 -1.0313329693135154e+01 1.7697264021959018e+00 8.1951889310828419e-03 2.5409410800903620e-01 3.1986681230966520e+00 -1.5918993709586826e-01 2.3460179956594773e-03 4.2244279330078571e-02 5.0571045255234424e+00 -8.7551094460084455e-01 -1.0463836150195428e+01 -4.5643425638936286e+00 2.4730579779377038e-03 -2.6027464119200800e-03 1.9500912900554248e+00 
      </Row>
      <Row Index="162">
        1.0631236516292830e+00 -1.5081160365718631e+00 -1.4632405168623563e+00 9.3810443176633385e+00 5.0566741176462529e+01 3.1699695554047658e-01 4.3661220914592358e-01 -3.7938853457421828e+01 6.0381805154811774e-01 -7.3827794895203738e+00 -1.6990118206987770e-01 2.5653852567740785e+01 2.1540754657632988e-01 -1.8142693935524221e+00 -1.8452682286231720e+01 1.3831012121002395e-01 1.5491529592508044e+00 -8.7788340331141512e-01 1.0600330268179015e+00 3.3203183570735746e+00 -1.0745787982441470e+00 9.3743507000850514e+01 -4.1644657550265074e-01 2.3286089958696987e-01 3.2340042268351141e+01 2.9790718164047725e-01 -8.9269823201074132e+00 -1.0408348835422387e-01 -2.4691104448852229e+01 3.8145294217144965e-01 1.7709467023772376e+00 -3.6255633248458253e+01 1.6745851556121960e-01 1.4850670653020117e+00 5.7720493493697234e-02 3.8595706830362531e-01 6.0696044953492674e+00 8.4249458310187038e+00 2.2847896905688685e+01 -4.0476329700073777e-01 6.8632456929569763e-01 -1.9932120975710859e+01 -3.3309716064128025e-01 -5.5795618366965982e-01 -5.7738903567662092e-02 1.5227932322444190e+01 3.2506882784548452e-01 2.1243347609031389e+00 -5.0219314741009839e+01 -5.0944042498485942e-02 9.5498893834229648e-01 -1.1612287838346025e-01 -7.9869422440496862e-01 1.6812472840229020e-01 -9.9165888750749218e+00 -1.0218030337779783e+02 4.2865925085999645e-01 -6.0406178777957531e-01 -3.4671553847321775e+01 -1.3264236874524504e-01 -5.7843100495055637e+00 -3.5447296591631927e-02 1.7687223775586205e+01 -1.7469958055224240e+00 1.0418204304096434e+00 -2.4371499317949201e+00 -2.4139689521540220e-02 6.8120339775777694e-01 1.0879399382973105e+00 -5.3457358153005430e-01 -5.4056998614339591e-01 -2.3374851848589060e+00 1.0220789921551477e+02 7.8236870558010985e-02 1.3517829302261519e-01 6.5413172647631654e+00 7.0921580277007479e-01 -6.1166986863929651e+00 4.9628193154509503e-02 8.6813168643188874e+00 -8.2606695331998026e-01 -7.1299809866297537e-01 -1.3834174707136754e+01 -2.3568910713745339e-02 2.7906593634992896e+00 6.3474282082704292e-01 -9.1650890866719692e-01 7.5534703883275256e-01 -5.5053202880749268e+00 1.6931324201195093e+02 1.0663867520780101e-01 -5.7529334995907311e-01 -2.5433555666359780e+01 4.6412155221548979e-01 -3.5649517344822073e+00 1.8016794472516284e-01 2.3808235486224021e+01 8.5710152309991461e-01 3.4138094622479684e+00 1.0196426462898216e+01 -6.6628267361165605e-01 -8.3726123312629852e-01 -1.9007458920293290e+00 -6.1074776701316935e-01 -5.0570535383067750e+00 1.5647078297271037e+01 -1.1197256764920894e+01 4.3940210592501150e-01 -1.0107156163431294e-01 -3.1230107686548280e+01 -3.1474642488995785e-02 1.1224183850569865e+01 2.1466268245872208e-01 4.5620592311891414e+01 1.4133488301674255e+00 -3.3548431927434024e+00 2.1429534890620346e+01 2.6628798124300335e-01 -3.0898486539990380e+00 2.8713669994096334e+00 1.5256015275132881e+00 3.1409435323655543e-01 1.4005080126193548e-01 3.8790831181977410e+01 -1.1948817295789183e-01 3.1045553720200392e-01 5.9403173622939448e+01 8.8280158968922429e-01 -1.5830818038142340e+01 1.4704510026047246e-01 -2.5036027563160673e+01 1.0470512914253618e+00 6.3726418105314906e+00 1.4009812220095569e+01 -4.2583578830300750e-01 4.1548726853811893e+00 -3.0311728562690936e+00 2.3556152142008955e+00 -3.2952504705832553e-01 2.9777855448548962e+00 5.8555938085628441e+01 -2.2895659043398897e-01 -5.2622637923475324e-01 1.0668368375646423e+01 -2.9022898759493287e-01 1.0204187475885320e+01 2.3476746294899187e-01 -1.4124228125665809e+01 6.4272143056217601e-01 2.0277256911531367e+00 1.7103227473793140e+01 1.2877822700954056e-01 -5.5579348324474580e+00 -3.9987901947842452e+00 -2.7307224122475873e+00 -4.6437456390075909e+00 4.0955063186333973e-01 2.5607879229410901e+02 8.3920200241280440e-01 -2.4283816407017156e-02 -4.0800771587299550e+01 -3.1964184178755231e+00 8.3953472840112056e+01 3.8624489631521186e-01 1.5766517742406728e+02 -3.6581042064000258e-01 -1.1602534757611465e+01 1.3183548009099803e+02 6.1745626163571865e-01 -1.4974089888137508e+01 3.1020666494015692e-01 1.7955292735156814e+00 -6.2053377817202637e+00 8.8023778348258546e+00 -4.4247592395404354e+01 1.3712156590541957e-01 -9.4095285988271749e-01 3.0442680422365612e+01 7.4060305648918012e-01 -1.1066429139489404e+01 -7.7179332516687627e-02 -4.0634549020636754e+01 -4.5231389085512035e+00 1.6538182094127393e+01 -3.5172813224476101e+01 6.4229450924288145e-01 -3.4045661429898644e-01 -5.7053622615090660e-01 -1.9626472374767445e-01 -1.5376857871574430e+00 4.0218498473150248e+00 7.1473508585419040e+01 -1.8335546204809039e-03 -3.2157062906213696e-01 -1.2032298181132319e+01 2.8590962965146538e-01 -4.2380436131798689e+00 -3.3123976577365988e-02 7.2201316521832268e+00 4.5962536584110580e-01 6.7432192888918507e-01 2.6350006739503442e+00 1.0505596932312677e-02 2.4520283589843785e+00 -1.2956783320200644e+00 -2.5717210781114828e+00 2.0207798140517639e+00 -3.1053479703267399e+01 -1.7870665316286704e+01 2.1010657449485209e-01 4.0874579545667489e-01 -6.4486327358736162e-02 2.5539718752997148e-01 -2.1575823372607605e+01 -2.0152750421241583e-01 9.7254073060002000e+01 2.6584893803261460e+00 -1.4096226752060765e+00 -2.2387503126190428e+01 -8.0938143132331297e-01 3.3592569042156022e+00 9.4764341723378331e-02 1.1013440960858292e-01 4.6082307568054526e-01 -8.5546280740429651e+01 -3.2315837234207308e+01 2.4422413100146212e-01 -4.6638664220641890e-01 2.6644547731547128e+01 1.1245185661675006e-01 3.7494929604566185e-01 -6.3237636661960028e-02 1.2451633490814859e+02 -1.0427216897868385e-01 -3.7653111306755989e+01 -1.2664095869212183e+01 2.8850540114421036e-02 1.1014424759662297e-01 -4.1084803376577943e+00 
      </Row>
      <Row Index="163">
        -1.5020151372932555e-02 -8.8537428573690846e-02 3.2449027902105598e-01 -1.5999051634102024e-01 -1.9202370830741984e+00 1.1599186138775697e-02 1.2450216124579023e-02 1.4355708184521987e+00 -4.1618582284239036e-02 1.6004421031368565e-02 4.7636193557768491e-03 7.5674932801182937e-01 1.3323529584143579e-01 -3.0185449207411352e-01 -3.2602147843286140e+00 1.7019384899753087e-01 -1.7192282249390445e-01 5.7642974706390016e-02 -3.8332389271248379e-02 6.6892068906870783e-01 6.7126218422761497e-01 3.4006434190996515e-01 1.1589753882015552e-02 1.9413289565891750e-02 5.0892696772332169e-01 -8.0342159447819306e-03 7.0246973688270486e-03 -4.0964623008929363e-02 9.5542659529940188e-01 -4.4516517571968617e-02 1.6843397836829943e-01 2.0367389358995069e+00 -9.2716456716722087e-02 -1.6496641351232566e-01 -5.6915290763598358e-03 -1.8841851907447804e-02 -1.5813846840831225e-01 -2.2449912553083777e+00 -4.1370803212498686e-01 7.8868248536638763e-03 -3.3321389565284132e-02 3.4875297841290376e-01 -3.4080652403805867e-02 4.0480435751708121e-02 -1.1275032974176241e-01 1.0288140706134890e+00 -2.8713725721179806e-02 -7.2189080370801406e-01 7.9925534024087455e+00 2.2993736831586709e-01 3.2231151281411918e-01 6.6520802738089024e-02 1.0758465585484567e-01 -2.8057950933309428e-02 1.1360035536703990e+00 3.1471138194820014e+00 -7.1692564457989105e-03 2.2231488830006557e-02 7.8368253081549710e-01 -4.9747274092341032e-03 -2.7967068748496082e-02 -2.2206590739966725e-02 7.5463555890303713e-01 1.8916827728768459e-02 -8.9606448960211793e-01 -3.4881981386552070e+00 3.6704521301324372e-02 -2.9269512308270129e-02 -2.2433927273912690e-02 2.8381678738410798e-02 -7.6996894684409511e-02 -1.7998921109037269e-01 1.5730241466999360e+00 -2.2866432743964132e-02 -1.4820622267745505e-02 -4.9760551586719259e-01 -1.0005333239436864e-02 -6.1217137139953692e-02 1.6341859265211200e-02 -2.0043671581642286e-01 -1.6301265495270023e-01 -2.8725194915529673e-01 5.5768913266007090e+00 -1.0715866438165189e-02 2.3486174538126625e-02 -4.3994655251589188e-02 1.0772919481942367e-02 -2.4751968794840362e-01 8.3741178268596173e-01 -2.5036371799687913e+00 -7.3624335450722667e-03 7.0375744288767361e-02 7.0625884526492655e-01 -1.9023207094140904e-02 -4.2440891456564600e-02 2.3343406636829031e-02 4.5307445902590615e-01 7.7380005898453716e-02 2.1464292758904158e-01 -4.6204063690817350e+00 -3.6168173901349016e-01 -2.4136489176563192e-01 -4.6557777435052995e-02 -1.7771358174241958e-01 -1.2082751346000515e+00 -1.6242041325802603e+00 1.3026378558142824e+00 -3.7729387305558110e-02 5.1776972342902489e-02 2.2871521985541339e+00 1.9083726343990234e-02 2.1420828176521334e-01 1.0103575090831417e-01 6.0177375584850168e-01 2.1340916217943651e-01 -8.7412138482993473e-01 -5.4131351969917603e+00 -6.3720416555489101e-02 -1.6656260081697472e-01 -4.8314456108361305e-02 1.9259224855132162e-01 5.9169985811675652e-02 -6.8841660950609285e-02 -3.5304001443055313e+00 4.6280062101282549e-02 -4.8981911263768586e-02 -1.8072111488914828e+00 -9.3443676446850893e-03 -7.9782895898392825e-02 -1.1932684811149510e-01 -2.2790152036269911e+00 1.0894814445931722e-01 -1.2395793760232010e-01 -2.1446377693026282e+00 1.1510365331241328e-03 2.8602376865006462e-01 5.1845824896205928e-02 1.0532924696929635e-01 2.5164767691658696e-01 -8.6910526953766620e-01 2.0350995045682794e+00 -7.8477825448166061e-03 4.6564731091696149e-02 7.5843522819556597e-01 3.2928271137952492e-03 3.2227131133929943e-02 -2.1908500802817293e-02 9.0174523937043638e-01 -3.4972597251723414e-03 -1.0331598433612044e-01 -2.7175311409229437e+00 -7.2636954235679646e-02 1.8695143042517293e-02 -3.7723073433008847e-02 1.2429004796372212e-01 -1.2822525491023411e+00 3.4161102806521626e-01 2.7143762504870210e+00 -3.3171331962335571e-02 -1.7671287902169625e-01 1.5900329245672395e+00 1.5275470371288180e-02 3.8624489810646079e-01 6.6784602999226972e-01 6.8706683932226724e+00 5.0206092525645118e-02 -1.1023545831039421e+00 -4.6689963777084813e+00 7.6881904408042767e-02 6.2261274860584015e-01 -1.6067720442659583e-02 -5.7412067426033664e-02 -1.0684861253723072e+00 -1.0163242248111715e+00 -3.7634927498241666e+00 -4.6052509098914146e-02 7.5401808680177651e-02 -3.0110774094239474e+00 -1.0787187100099954e-01 7.9222410950815947e-02 2.8684234923822144e-01 -2.2071319673608762e+00 -5.0849478279130250e-02 -8.7527852424734931e-01 3.6393962427929978e+00 2.1735215352872467e-01 -3.8324936355742256e-01 5.7098629752012187e-02 -3.1786424758742271e-02 3.8892686260044940e-01 2.6009710922210161e-01 -3.9693055822417591e+00 2.8729665444278560e-02 -7.1424971544244431e-03 -1.0715839459012955e-01 -2.7218769444377067e-03 -1.3071874629951186e-02 -8.1492925586635970e-03 -3.8822600241519467e-01 1.2366129453276509e-01 3.2562458894670954e-01 7.1111888554040092e-01 4.2624777223993937e-02 -2.2500985896222514e-02 6.3045402509414525e-02 -2.6929178461057290e-01 2.4707422296490478e-01 2.3565531748780923e+00 -2.6889416137785815e+00 2.0634313476989533e-02 3.4565464533901906e-02 9.4175596819316212e+00 1.0902491547335191e-01 -8.6909789841239427e-02 -3.5498974712318887e-01 9.0221683251432303e+00 2.3690235228966591e-01 -4.9801371587927887e+00 -2.6424410376515546e+00 -6.2281210310095170e-01 -3.4608417926083845e-01 -5.6253343549400384e-03 -2.7038636536337018e-01 6.0287735320161406e-03 5.9210339794237559e+00 -4.6260700957055434e-01 -2.6187955722908912e-02 1.7199342334368921e-02 9.3512576984483147e+00 -1.3614632513067326e-03 2.5624731089175581e-03 1.7371068299597101e-02 1.5088878902999802e+01 -4.0938479117431292e-01 1.6035880228414943e+01 4.9635408031784500e+00 4.6854464771917820e-02 -4.5521340520123400e-03 1.0516137831840340e-01 
      </Row>
      <Row Index="164">
        -2.1038302330689476e+00 -8.7136196685314644e+00 -7.5478281917748973e+00 8.8699886697984766e+01 -5.2332406013496220e+03 1.9819407469231010e+00 -1.2288548523184915e+00 -6.4143452905840240e+02 -1.3028524314431706e+00 2.3099519390554633e+01 2.2275353511095091e+00 2.8469658777597942e+01 -7.3666478499362711e+00 -3.0634364008321427e+01 -7.1754005693364888e+01 4.1701730826753192e-01 1.6171520268115273e+01 -2.2816651008615736e+00 -6.1238064338213007e+00 2.6606561632710509e+01 6.8344704153714702e+01 -7.6656443744897842e+02 8.5302242357106861e-01 -1.6811375350198432e+00 8.2606262300137314e+02 1.4146011820616877e-01 -2.7604701417381875e+01 2.1773328575363848e-01 -2.9059626162960558e+03 -6.6343498561764136e-01 1.7583247243463120e+01 -4.4328428652137518e+02 -6.8628601963939673e-01 -3.9827091098286473e+01 -6.3704984242249338e+00 6.2824117407435551e+00 2.4060566091095097e+01 2.3154861871711910e+02 -3.1570099559575319e+03 -3.3061438612348866e+00 -4.0282786448751722e+00 -1.4083338633179665e+01 -3.5299072822836024e+00 9.9590829844528344e+00 1.2646036632843334e+00 -8.4735453065246111e+02 1.0935165588627569e+01 3.4512817823095247e+01 -8.5291013648640364e+02 1.9495000415081449e+00 -3.2781017822882859e+01 9.1256418608038636e-01 1.8379496978952375e+01 6.5005650031962432e+00 -7.2680393584072590e+01 -2.4970434576421976e+03 -6.5863115088995983e-01 -1.5636950757364310e-01 -6.1815402018837631e+02 -1.5349510230581398e-01 2.8994469998274610e+01 1.5462080641395914e-01 -1.0377915008882701e+02 -5.1277377702135709e+00 9.2174640805460513e+00 -3.8198393094353378e+01 -3.5623482348478319e-01 5.3511711849259882e+00 6.2365381344952766e+00 3.7207794681671658e+00 -1.1900353266857564e+01 -6.3499573747394606e+01 -1.2694376978874207e+03 4.3355783688502925e-01 -1.4148344586081407e+00 -2.9380456722341478e+01 9.5156263357785065e-01 1.1445610816736007e+01 -7.9306808054752764e-02 2.5568916119320784e+02 -8.8269810728379525e+00 2.0173259487444739e+01 -1.9903604316175915e+01 1.5577622379169043e-01 2.0035326481667653e+01 -1.3010393407348602e+00 -2.4353389705356676e+00 4.3911428312130738e+00 -4.6259411113569513e+01 4.1325324284285307e+02 -8.2591166791644355e-01 -5.8691618782518162e-01 -1.8733678384008817e+02 -9.3928238507942297e-02 2.7273332754877629e+01 -1.2511279504450488e+00 -3.6953361961641349e+01 3.4422538492567583e+00 2.3822273385827430e+01 -1.3921445716219023e+02 -1.5914646253813771e+00 -6.8062378314789385e-01 6.7268110652879045e+00 -4.9035708598885890e+00 -7.0916593555972213e+01 6.8821990926517174e+01 2.5736546378135681e+03 -2.0311908503986587e-01 3.2192130368772771e+00 -9.3003389221454518e+02 -1.8996668056174277e+00 -4.0778248308769776e+00 1.7695807092720672e-01 6.2473492957639974e+02 9.9487595755744920e+00 4.0233002847606826e+01 -2.3257916771915006e+01 -1.1662416779080866e+00 2.5064070406939315e+01 3.5215004388377480e+00 8.4931885885889642e+00 2.1244826840309543e+01 3.4759353892863146e+01 2.0664546256810427e+03 -1.0564536151720700e+00 -4.6398794883180017e-01 4.5436243865429424e+02 -2.2750825428993267e+00 -1.1535332894556632e+01 -2.6119551118231925e+00 -1.5396024251704803e+03 -6.1379140166245634e+00 2.1669455967436079e+01 1.3128183105238713e+02 1.2851536113407747e-01 -3.2274453191194397e-01 -3.9796834821646905e+00 2.1397806186781963e+01 4.5115713794657495e+00 7.5002794148342218e+01 2.6174209107533097e+03 -1.5864850008110807e+00 2.6066106754713152e+00 5.4382248222501948e+02 -8.1756328432584269e-01 -2.5467156461292689e+01 -9.1129708394663567e-01 -5.7641416706558084e+02 1.6389302889176179e+01 2.6827042550547048e+01 -1.0754259605938569e+02 2.9335067152624106e-01 -1.7890099707583431e+01 -9.9528289098634559e+00 7.1305096753989346e+01 -1.0720745951065328e+02 1.7218487624311820e+01 8.9814968757182360e+03 -6.7275780236195715e-01 1.3550271533690224e+00 -2.7950795882334933e+02 -1.0872446789228096e-01 1.5766517832738464e+02 6.8706685982642739e+00 6.9096895315544280e+03 6.4423385288682766e+00 -7.4481701678538229e+01 -1.6360899560848497e+02 -2.6080636910825561e+00 -1.1640957388907395e+01 1.3471730994592463e+01 1.3390515958448304e+01 -2.4058866532591804e+02 -3.9749996909170875e+00 -2.4263894694559276e+03 1.0374415030587910e+01 4.5242386233670064e+00 -2.3172109342848762e+02 3.1671663434306083e+00 -4.5050191894329089e+01 7.9454802227671451e-01 -2.2555041668894492e+03 -7.5024364548703701e+01 -5.0774004278388816e+01 1.6170941659152118e+02 -8.2864679397634156e-01 2.9699937877265434e+01 4.6561146116509917e+00 -5.3020139283034950e-02 1.2372527725645341e+01 -4.0827590681612492e+01 -4.8354395738542080e+03 2.7784789811939277e+00 -6.6476510632946884e-01 -1.4695560909586493e+02 2.0294917079532251e+00 1.3393477654026356e+01 -4.4028483135946317e-02 3.3497915269434452e+02 1.0783105778900790e+00 -1.6346431497484446e+01 1.1808417373802513e+01 -4.4125131268856421e-02 2.8741491888817109e+01 -8.0364839234944228e+00 -4.6641062860104753e+01 1.5082575422749676e+02 6.1094649058305947e+02 -1.7659275580782978e+03 -6.6383968314431385e+00 -4.1307103518742370e+00 -3.9138160974020138e+01 -2.8357389982034995e+00 4.2926449745410395e+01 -1.0913896881654250e+00 -2.8345754447256886e+03 1.1812094570444330e+02 3.5258317911550319e+02 -1.4462844128123897e+03 -2.0616690854378037e+00 -1.8917647052661955e+01 -2.3406247323407570e-01 -2.8201014516594967e+01 9.3348373529741355e+00 9.1265280432206521e+02 1.0437707998725175e+03 -1.1136496336413275e+00 9.7939852535409955e-01 -5.3489268927261446e+02 -2.1321109916470959e-02 -6.1567257697502953e-01 5.6717381609837503e-01 -7.2472490068298803e+03 -1.0193599036836406e+02 -7.1525648491169375e+02 1.5668776793883953e+03 3.7196532959332040e-01 3.5234765277897173e-01 2.5567824579630528e+03 
      </Row>
      <Row Index="165">
        8.5923806245403966e-02 -2.9586394953328181e+00 -2.6189698473162935e+00 2.4503606965037761e+01 -1.8528762882255251e+01 4.8969504121741636e-01 -5.4397676247043503e-02 -4.4791139464250591e+00 1.4096654884313153e-01 -7.3347509582617931e-01 4.1360995176262350e-02 -7.1171974563291940e+00 1.8162747049384507e+01 1.0228688565712218e+00 1.0504976306525532e+02 3.3156153908521446e-02 2.3559541264003201e+00 1.0757451717756794e-01 1.4302099302943532e+00 -1.0748216102225342e+01 3.5137898148768727e+00 1.7100184146733955e+02 5.4196690315595053e-01 2.5928228583708801e-02 1.2910887816794684e+01 1.4994386655882508e-01 -1.1162921257437119e-01 4.0842461593939561e-03 -4.4861350904470783e+00 7.8304585342066275e+00 4.2064707583414531e+00 2.8586759116010944e+02 -7.4037498034817517e-02 -1.6700898866783405e+00 1.7607347235602333e-01 5.5500442926052074e-01 2.8536691964195597e+00 4.5869927927386016e+01 4.8242635154805612e+01 3.2102886535520270e-01 -2.1075488066969683e-02 -2.4343967830514885e+01 -1.6061877232002075e-01 -3.5921772871574831e-01 4.8914943584232873e-02 5.0047040284380273e+00 5.7470629662202555e-01 1.4227480306299185e+00 2.4168935044725004e+02 9.5208470339059659e-02 1.8568219659982788e-01 -5.0213270627315953e-02 2.3783303481242228e+00 1.5195788806504424e+00 -4.7359282714362053e+01 -1.6622319367155433e+02 -5.0981010508508362e-01 1.8044752117767188e-01 -1.2344579231605167e+01 -3.9150264512052363e-01 1.2527614226330286e+00 -2.3840411149794960e-02 5.0039375844241931e+00 -2.0698362999969618e+01 6.1556185555073171e+00 -3.5972752511026192e+02 -9.7971443687967508e-03 -8.4728206187884325e-01 -4.4002951045462169e-01 -1.8023654741994051e+00 -1.3270789718289961e+00 -1.6117028458818822e+01 -1.1657924366090447e+02 -1.7766610473341160e-01 2.7021479401442994e-01 1.0079992372237029e+01 1.8126679614294972e-01 1.6131787459489715e+00 -9.6616694720388807e-02 8.9110502224120864e+00 -2.8662357844714734e+01 3.1182048511415132e+00 -1.6936978069974612e+02 -2.3859202121563783e-01 1.7042487414246317e+00 6.8499468746679781e-02 -3.6924491208446852e-01 3.7682985457875020e+00 -2.7889953463880374e+01 5.7905183739145286e+01 3.4768598741862888e-02 -9.6897468744501225e-02 -3.0823014260449781e+00 3.8248290289743636e-02 3.4103597033072219e-01 -2.4895844595592714e-02 -7.1324607628230297e-01 1.6751034087287213e+01 -8.7839320901589417e+00 1.0275417227995058e+02 9.3060860445817184e-02 -7.9977545987685517e-01 -2.6750309444094067e-01 -5.9999240825779880e+00 1.1465950462059482e+01 4.6472910618831520e+01 1.6586760468780994e+00 3.5582972151686582e-01 2.9019407133557232e-02 5.8351204200733811e+01 -2.8227681441484985e-02 3.1049143947760971e-01 6.4577679631732110e-02 6.7870947341143619e+00 3.1411226736059270e+01 6.2612926929158590e+00 7.6024287105196166e+01 -1.7086256370345343e-01 6.2499298710578710e-01 3.1579738242815147e-01 1.3887075835204769e+01 -7.6871159852034907e+00 2.1085220261316977e+01 7.8891953934449703e+01 4.3264682954366374e-01 -1.4169175246060384e-01 3.1691447225246520e+01 6.2122792466453802e-02 -1.7422174385762901e-01 3.6302647310425762e-02 -1.7659309504665316e+01 2.9192605380152600e+01 1.2534678363438616e+01 2.8229181267325339e+02 2.8961150229195454e-01 -8.0022957079604602e+00 -5.4722832183571768e-02 2.8341250305574022e+00 3.4648175201286904e+00 4.0689541353254754e+01 5.1698976167128421e+01 -7.3272914517639975e-01 1.6344355756110118e-01 -1.4511660212880088e+01 -1.6788462009994021e-01 5.1586055389114449e-01 -7.8002768437443137e-02 1.3890136934781822e+01 1.0201459299929411e+01 -3.6721909186035191e+00 -6.5334356818311790e+01 -6.1559843071300691e-02 6.5715320970753055e-02 2.0590347272860754e-01 -8.4870742997891284e+00 3.7324640895326411e+00 -5.1860903986107587e+00 -3.0702891038730741e+01 -1.5336097156466479e+00 -3.7281370075440812e-01 -3.3499139211366128e+01 -3.4785159289503376e-02 -3.6581045933826317e-01 5.0206105068966167e-02 6.4423374284501165e+00 9.1525971907908570e+01 2.1174423228521846e+00 -1.5826578722364843e+02 -1.6916660324997246e-01 9.2362720610308013e+00 -6.4815581819337176e-01 -5.7589994977532424e+00 4.5011285463024677e+00 2.6411841213350741e+01 -4.1089486929340637e+00 6.2002679290881735e-01 -3.5700126077060704e-03 -8.3854616759398638e+01 3.1682829319141936e-01 1.8545887671648771e+00 -9.7660601627219901e-02 5.6870014385230050e-01 -6.0643924357600554e+01 3.8951355455959735e+00 -7.4780383007726670e+01 -7.1113822200964738e-02 5.7377635322001916e+00 3.3285584013378866e-01 1.1681520276497395e+00 -2.7325774910568725e+00 -3.3777518988645170e+00 2.8509532583411783e+00 4.4982838737518138e-01 -1.3829246624202440e-01 -1.1032706573836549e+01 1.0175592328751071e-01 -3.0758104907249617e-02 5.6613214231009401e-02 -3.9864346838367055e+00 1.9017798099892048e+01 -8.6869625066901790e+00 3.8810924725853693e+02 -1.9374270118593273e-02 6.4334293619856453e-01 4.5850669028942492e-01 -2.6139284488223815e+00 9.1135076134174309e-01 -4.2008640801905997e+01 -6.4079082345683389e+00 1.3109704257483730e+00 9.2684278659247513e-02 1.1938231768322657e+02 -3.9076502748196873e-01 -1.1732384956667086e+00 1.6604676652319117e-01 -1.4086584488851756e+01 6.4484854933977118e+01 3.5909456635955387e+01 1.7630707097014687e+02 -6.6595598320819599e-02 -4.5630000502919623e+00 -2.0196923966285141e-02 -6.7604033360419802e+00 1.4194687124805059e+00 -1.6988772692117288e+02 -4.2874347805068595e+01 1.1639289630945517e+00 -5.3004786653399805e-02 -4.0993955580781360e+01 2.7417949954989140e-02 -2.2060204781127801e-02 1.5279347287819434e-02 -1.6992629835186605e+01 -1.3385339203539453e+02 -1.3094850624842246e+02 2.1339978310749734e+02 1.1829633435505287e-02 1.1299656116170365e-01 -2.8348342627941449e+01 
      </Row>
      <Row Index="166">
        -1.2706621934602254e+00 -9.8790228219731944e+00 1.0098519147841580e+02 -3.7813724527200975e+01 -4.1252051418973133e+02 -1.2810286409039122e+00 1.7109885090012513e+00 3.4272167194390204e+02 1.0334770706463274e+00 2.0084017358276469e+00 -1.8421872032445208e-01 -5.5345427488107362e+00 -6.9619512315657630e+00 2.1689375502102484e+02 1.8241182767306236e+02 -5.1609834865104176e-01 4.7450338018916227e-01 -2.7491759894542156e+00 -7.4652268549516521e-01 6.2956070090804133e+00 1.0317358021654945e+02 8.7422917008772492e+02 2.2739338499298043e+00 -1.1231098604636713e+00 -2.8768301559384781e+02 1.2022530063907482e+00 -6.9024247860215837e+00 -2.1702763077934151e-01 1.6784532879628841e+01 -7.8761546898258530e+00 -4.2444591208826660e+02 5.9747247552363842e+02 1.9237354814901408e-01 5.6843400670049959e+00 9.6123382613768626e-02 -2.2438712575908539e+00 -1.5513678026176785e+02 1.6238046849169768e+02 -5.0072212808392942e+02 6.8930930073884156e-01 -4.1538582806015256e-01 3.5966842868580716e+02 -3.1301177063435262e+00 6.0236504179283656e-01 -2.4020296435671185e-01 -1.9505678443129000e+00 1.1835714626931804e+01 -9.0984262587175181e+01 1.1227786188671598e+02 -8.8160278703571748e-01 -8.3121182649701950e+00 -3.7383470630362616e+00 2.4239591087382905e+01 -8.8404114115313860e+01 2.1698396432795562e+01 8.9155383013188839e+01 -2.2531240566566169e+00 -4.7160227313447569e+00 3.0240316888364032e+02 4.6098393158955382e+00 1.0609020106414846e+00 5.1543430346114860e-02 1.1435973179802204e+01 1.2012249648802026e+01 -2.1009126676295637e+02 1.3043966894678306e+01 2.8948174761382504e+00 -2.1507763093979520e+01 -9.7247452811529911e-01 4.5292150699406193e+00 -1.4614136821891589e+02 -1.4535392363555729e+01 -7.4350765049457550e+01 8.4536060558431814e-01 -1.8227467717030734e+00 1.0435525464368402e+02 5.8183920101173499e+00 -7.0348830577131594e-01 1.2614072815415511e-01 -4.5907869107686565e+00 2.5098743740110876e+01 -2.2766980670186808e+02 5.8473939830582822e+00 6.0121738020313842e-01 4.0136528321260698e+00 1.3341580762763670e+00 -3.0563794890749705e+00 4.1701348544840585e+01 -1.5620743360383494e+02 -7.5500190777331591e+02 1.0097285776112130e-01 9.4976749829075402e-01 1.3981758083694331e+02 1.2738184743195688e+00 -2.2595913642498999e+00 8.8217612994369698e-02 -9.5807250538928201e+00 -1.2317414420134355e+01 1.8961194989626892e+02 -1.6697021262481576e+02 6.8891028301749202e-01 8.5365131486469181e-01 -1.4136193091381895e+00 -3.5969945522320046e+01 -3.5377775661771011e+02 -2.6697536415960349e+02 2.3913104285672307e+02 -2.1693001399096659e+00 -4.9925242629337649e+00 8.9944923560864936e+01 1.2608336827716597e+01 -1.5301184177496580e+01 -7.7575103428065117e-02 -2.5099193662412290e+01 -3.0660126789427864e+01 -2.1602324335482763e+02 -3.7136415287117416e+02 3.2283817490471294e+00 2.7056198548304621e+01 2.9045280937283477e+00 8.4813654791232693e+00 -2.2469989866744072e+01 8.0365025028619129e+01 -1.1974726127739996e+02 -9.5001812406976782e-01 -5.5216186891376395e-01 -5.5682462171943916e+02 -5.3229004859571205e-01 1.1015330839177295e+01 -9.7379638577853456e-01 -1.4379134776499995e+01 -1.4338568364313687e+01 -1.0258887202476399e+02 -5.6141579082981480e+02 9.7260039790183583e-01 3.9122410905736764e+00 -3.5860040674371625e+00 2.3441886952662571e+01 1.7225977070205772e+01 1.6422924080389930e+02 -9.2641247930936515e+01 -1.4919321744412173e-01 1.4314477908927161e+00 -2.2461987392717856e+02 -1.1247227954988830e+00 -5.9309589316318352e+00 3.1617905021260384e-02 -1.0546708646688785e+00 -7.8952528396584967e+00 -3.6139886347547872e+01 -8.6202591385968844e+01 -1.0965143807795812e+00 -2.9981848810803058e-01 3.6673419583120221e+00 -1.6459443008698145e+01 -5.0419275212948014e+02 -5.6843140970736567e+02 2.8817672779969871e+02 -1.0109033117816125e+01 -1.6543840333624686e+00 9.0547909237939166e+01 5.5678205394368590e+00 -1.1602533176601355e+01 -1.1023547884383333e+00 -7.4481723616743693e+01 2.1174426352918090e+00 2.4376588634327418e+03 -1.1021475852546482e+03 6.4204688011056419e+00 -1.1293380192809231e+01 -1.2262540992735602e+01 1.6385749179571881e+01 3.6010404034949488e+02 2.0217445107805736e+02 -3.2966596810828196e+02 5.7830429206874223e+00 7.9287078809956020e+00 -4.4269403405272078e+02 -1.3690628787418818e+01 3.8124242054096833e+01 1.2461672228636473e+00 1.1163394682133480e+02 1.0246198183123605e+01 -4.4959240524672668e+02 8.9600605598848506e+02 -6.2759591140520623e+00 -9.8936109965920309e+00 5.5934262035407301e-01 1.4781395994177728e+00 2.6677754386160814e+01 -5.8659438102040440e+00 2.5663337435945868e+02 2.3621981712505047e+00 3.6080445846002362e-01 3.3355294816341484e+01 1.3763527594296576e-01 1.0146229295760349e+01 1.1772787679561603e-01 7.5992890284396708e-02 -6.3133005790109564e+00 1.4011051504628267e+02 1.8526301332633011e+01 1.0200597998841943e-01 -1.0178136578866997e+01 5.0822454843610796e+00 -4.2399654569873135e+01 -2.9002670765793539e+02 8.9935146069976713e+02 -3.4051135539538336e+02 -3.1999663360186665e+00 -1.2089444112989014e+01 6.3642249549158441e+02 2.3532716615428413e+01 -4.1946222150206069e+01 -4.1171681946150862e-01 5.4019277209511745e+02 -6.2876428120826276e+01 -2.8170526577509445e+03 1.5424596490002409e+02 8.2902543879918689e+00 2.0351017569494161e+01 1.4961983393090250e-01 -4.3784468770071371e+01 -1.7687628795694394e+01 2.3166825872322952e+03 3.7690810154458341e+03 -2.1794015524129029e+00 7.5085303642296708e-02 5.8454165907060042e+02 4.4122983904446755e-01 -5.0595165336602221e-01 1.8395580927659694e-02 1.0447047607747259e+03 9.8887966136443978e+01 6.8883520341893400e+03 1.2810532609583163e+01 -2.6910525201037938e-01 -6.7766590701118190e-01 1.7113501821472278e+02 
      </Row>
      <Row Index="167">
        8.1137137991318014e+00 -4.7468120474222815e+00 3.8392378261778504e+01 -7.5679638530506054e+02 1.9817124661896378e+03 6.9587252476412687e+00 1.8355986513882669e+00 3.0340026569832116e+03 1.2114036111889845e+01 -3.0400002189533552e+01 -7.8162419601367219e+00 -1.1397564613375653e+02 1.1552810233863420e+02 3.7951394941261970e+02 2.2485561780958669e+03 6.8799716800749593e+00 -4.1309642421038006e+00 -6.7999601706469548e-01 -2.7586738290494395e+01 -7.0403267751680687e+00 -2.0212697357404977e+02 4.9606620145440102e+03 -2.2044119961279364e+01 5.5539963874616660e+00 1.8085776933664456e+03 -4.2441624067832890e+00 -2.1334601298498455e+01 1.3951931307001360e+00 2.3482572903541586e+02 2.1740426078262681e+02 2.4353615933221590e+01 5.6079804033620749e+03 3.6679203368175877e+00 -2.6068198403270799e+01 -1.2966015981983219e+01 -3.3848103688535048e+01 -2.8372815511643421e+02 -1.1492442420274019e+03 -6.3898537095710635e+03 -1.8128675816504256e+01 7.7027341618468199e+00 5.2620591329839081e+03 -1.5117885418476362e-01 -2.2627899130602600e+01 -1.5676444705300128e+00 9.7894067181914579e+01 1.4287204452219885e+02 -2.2216206565446919e+02 1.1902863191470737e+04 -1.1987884239493724e+01 -3.8374455865065102e+01 1.6725306122059820e+01 2.6765888708556304e+01 1.9665871102537494e+01 6.8388254297478124e+02 -9.2412586192786694e+03 -2.3941215481605468e+01 -3.7622217108210361e+00 1.1299163547083735e+03 7.7364169237231977e+00 1.1268027649086434e+01 -2.9790608327409700e+00 4.0013701482021133e+01 -4.5048950699195302e+02 -2.4188510847231373e+02 -2.4459570161206648e+03 -7.8399470830293012e+00 1.0573758806754631e+02 -1.6883085871708317e+01 -3.0917446680985449e+01 -2.9116934643441346e+02 2.8930648692138493e+02 -3.8510133957117796e+03 -3.7541705434483902e+01 8.1921304354203812e+00 2.3319667550590821e+03 -2.9839974113529024e+00 -5.6087635719450191e-02 8.6705953064938512e-01 1.3683066902926657e+02 -1.7224866451616981e+02 -5.3202847575263149e+01 6.2308990453613224e+03 9.4062239961403975e+00 -5.4888517993579626e+01 2.7653049995442416e+00 -5.5820685152430087e+00 3.3442112256231485e+02 9.0314573993440717e+02 3.1266709281653166e+03 2.5656750064006701e+01 -2.8399328495809186e+00 9.4316191046428867e+02 1.4790464470133884e+00 -2.7379095535434317e-01 7.3254596633975595e+00 3.1271987267071381e+01 1.3958101723393520e+02 2.9373545592767186e+01 -3.8308333203080110e+02 -3.9949439031315706e+00 8.4219274693168700e-02 -1.8445083387604221e+01 3.7548529016695142e+01 -3.5962730170993018e+02 1.4391309719393030e+02 1.4048029884397984e+03 -4.7905244415902501e+00 -1.0327371069544071e+00 -9.6310042364041328e+02 -6.9443794038772211e-01 -3.7268241382389533e-01 -2.9399897548381371e-01 -4.0498878466396127e+02 1.8221455729239983e+02 -1.1534487752602436e+03 1.0512976449497181e+04 1.1825135987567826e+01 -9.4330558461729154e+01 -9.3468835071220582e+00 -5.8251340977585642e+00 2.8176080364210065e+01 -7.0845114278869005e+01 3.9203329153209925e+03 7.9851319268283021e+00 8.0848955077730125e+00 -1.7560535234740237e+03 9.8214224012685918e+00 6.2089269036005135e+00 -2.3515911990671157e+00 2.4656889891266474e+02 5.2403670748110744e+02 -2.5061048312601633e+02 -2.1649396019601438e+04 -8.7798505903459727e+00 8.7201895151909611e+01 4.7298275347709783e+01 4.5065805371254100e+01 4.9802268736934639e+02 -3.7347649939509574e+02 -7.1160577677190304e+01 2.6913030586511013e+01 -9.9186175690820733e+00 -5.4438991656275466e+03 2.9688385008757905e+00 1.5492331735134940e+01 4.0075910206339245e+00 -2.2992320722201839e+01 -1.9703907080675708e+02 -5.2979316735081375e+02 -1.5960700796251185e+03 -1.0397454971950538e+01 1.0847387176087068e+01 -3.4928651293877920e+01 7.4407220520370174e+01 -3.0183120147555019e+02 7.3864468249678612e+02 9.4286424714326859e+03 1.1256729008519869e+02 -6.7880741198193135e+00 2.1926912679001689e+03 -3.0431949370314541e+01 1.3183548162673833e+02 -4.6689953876793879e+00 -1.6360923382779583e+02 -1.5826579516369384e+02 -1.1021473918963457e+03 6.3713970267022662e+04 -5.1525281376942687e+00 -1.6099386529832498e+02 5.9916939077114275e+00 3.1644433736325027e+01 -1.2160137120191662e+03 -8.8700621351937343e+02 -2.7183932826211676e+03 -2.7292266220573542e+00 -2.2028521352830175e+01 -1.1114540077296358e+03 7.3751957487045630e+00 -8.7392708361950980e+01 5.0438713804062942e+00 6.8463292475820549e+02 -7.2752486935302727e+02 1.9666244613296717e+03 5.3021519010413740e+03 2.2367237680609513e+01 -8.4809103738958157e+01 2.6348303879713058e+00 -2.7141372718615457e+00 1.9779133875074331e+02 2.7104089929908514e+02 -5.6489776601493359e+03 3.8068660729739406e+01 2.9671334331333128e+00 2.2922385553035419e+03 5.9792689785400910e-01 1.4068880393781001e+01 -3.7090467581992925e-01 2.7427914396859705e+01 2.6970300808725369e+02 -2.3910091843456030e+02 2.2351391446506605e+03 -4.4001781819872576e+00 -6.9228221412413404e-01 8.9111042895705701e+00 -1.4362922671332889e+01 9.3461158203050945e+02 -1.9577702019092226e+02 -6.4482392763621465e+02 -2.8459772842910326e+01 1.3341449771978207e+01 8.9873872745619155e+02 5.9088783930535609e+00 2.0332320717751333e+01 -6.3418569983782076e+00 -1.6750696249476464e+03 -9.0725049358648960e+01 -1.3313387706782805e+03 4.1332408595124689e+03 -1.4813176417041376e+00 8.1870884597331155e+01 -8.6508289065517374e-01 -1.3550739113148651e+01 1.5505979738816841e+01 3.8705719917481304e+02 2.4590823103853381e+01 -1.9536014869418960e+01 -4.8308484871643032e+00 4.8663507826604537e+03 6.4687898529768972e-01 -3.7847049347914830e-02 -2.5954495729617975e+00 -9.4802604137260755e+02 3.0688396239780343e+02 2.1123103351595975e+02 8.0821739791692471e+03 -2.6244394157857114e+00 -2.8537939410956792e-01 -2.7507785089032991e+03 
      </Row>
      <Row Index="168">
        -1.4793897659629351e-02 5.4744560790314267e-01 7.2623709652134494e-01 3.0143944761874764e+00 -2.3328203547171142e+01 -5.2513641970403313e-02 1.4740705496649709e-01 5.6298081004988489e+00 -8.0273526100453907e-02 1.5344583740943563e-01 -2.8544279349590695e-01 -1.1134349724759431e+00 -8.9418353092696634e-02 -8.5727131447174543e-01 -6.1303538890615528e-01 -1.1601369808195088e+00 -2.0364813187094910e-01 1.8597550061780055e-01 -1.9191238331612226e-01 -5.5166243192797992e-01 -1.5629138743861404e-01 -1.5427456055418588e+01 1.1607901405972587e-01 -7.7470054658686394e-02 -1.1534452631409522e+00 1.3354077765205119e-01 1.9063233901306376e-04 -4.3296766438116308e-02 1.6089226830933967e-01 -1.3337632786976883e-01 -4.6624503188782285e-01 8.5006861487909191e+00 6.3291083399993386e-01 7.3846602121507487e-01 3.5925782319168320e-03 4.1789854045191532e-02 2.0834237218300586e+00 3.9161137884402706e+00 -5.5680110540270107e+00 -5.8798447038967083e-02 3.1236740196682433e-01 -9.4001675675826846e-02 -1.2256275829882668e-01 -2.3071671491754842e-01 3.0176094192160097e-01 -1.5958738618007828e+00 -1.1119478645571235e-01 1.0407191461176808e+00 1.2678106687169930e+01 -2.3195834045162229e+00 -1.0580140704636278e+00 -3.9308489969805127e-02 -3.4253317664149563e-01 1.0307374424414775e+00 -1.1049198393066035e+00 -2.8930545826267917e+01 -5.0909420250313531e-02 4.5041499144176128e-02 5.7242086678015767e+00 -6.0864653306259897e-02 -1.3014882776749204e-01 1.0082341110050175e-01 -1.7248998210662876e+00 -1.0445806226913845e-01 9.2269112512417450e-01 7.6233239105931716e-02 -6.1849396828129333e-01 -4.7430863462574990e-01 4.2718394360953482e-02 -5.2966550282263825e-02 -1.5319582422748681e+00 -1.3861605032816442e+00 1.8795257586752996e+01 3.9223113301446233e-02 -2.1290151167299154e-02 8.2769533253667760e-02 1.2668017846603163e-01 1.5950815371058980e-01 -1.4746248266398609e-01 1.1674182639053470e+00 1.8996786545449140e-01 2.7945598108387060e-01 9.3385704434531362e+00 4.2991346226308025e-01 5.5954330578424649e-01 -5.5316045202964403e-02 -3.8994365663484132e-02 -5.6810459441078365e-01 -4.0990156468978967e+00 -3.1723378121678252e+00 2.6173171841925580e-02 -3.1697577239813768e-01 4.3261577579922914e+00 1.8096567057428814e-01 1.9676248501093596e-01 1.3809408635882114e-01 -9.3268747699175947e-01 -1.2519107994158674e-02 -8.6113821670642210e-01 -3.6190155262356711e+00 3.0773444646953578e+00 7.9712305034934161e-01 -9.8446323782629408e-03 6.8741406241165093e-01 -2.0138617309869460e+00 2.1063504865833238e-01 7.3306362808216363e-01 -5.5058828380915421e-02 -3.2740367205693802e-02 -2.0155022932048681e+00 -1.8266182336560405e-01 3.3776371557044405e-01 -3.3882728634904224e-01 -2.3301230586337169e+00 2.0956538529383817e-01 3.2770035419334818e+00 -3.4092024455589893e+00 1.2288745742847749e+00 -1.7963042974241494e-01 1.7722434515912738e-01 -9.0611067332241646e-01 -7.2407590522493592e-01 3.9395954782332865e-01 -2.2073613159591332e-01 7.9429176381656474e-02 1.2628076378721342e-01 -3.9937628736975057e+00 7.1006730684048947e-02 2.3094998369995778e-01 2.8178606591653876e-01 4.3028171802012594e+00 -7.6847614991493174e-02 4.9273180674254036e-01 -1.4814012153044132e+01 -5.1169182523339352e-01 3.8640018346630978e-01 1.5013607863409395e-01 -5.5597607711328578e-01 1.1363645002070371e+00 3.0267087913971409e+00 -5.3768891646177508e+00 3.2852400118281722e-02 -1.6154099136574229e-02 -7.3518732562824880e+00 2.4028896745580397e-02 -4.4209550833900835e-01 2.8857606867262819e-01 -2.4861805101165828e+00 -1.6456016712322707e-01 1.5424681263039020e-01 -2.8524679241854756e+00 -6.4695405240208004e-02 -7.3926399987550440e-01 2.8439450722606097e-01 -8.1823629293694466e-02 2.7492581437620629e+00 -1.5282176510208956e-01 -9.6530739072477445e+00 -1.2910146157550528e-01 -3.4994002828475163e-01 8.4092281497232761e+00 -2.8063337406807909e-01 6.1745627251684709e-01 7.6881907608143507e-02 -2.6080644919984479e+00 -1.6916661474328976e-01 6.4204692216560488e+00 -5.1525273129218476e+00 3.6784474326056644e+00 -9.0672253879393683e-01 4.5872104314723799e-02 7.2123365073301526e-01 -1.7567397459206795e+00 5.0237599133010562e+00 4.1926962863872177e+00 -9.2486584163765151e-02 -1.4365064034727204e-01 4.4995534143805571e-01 -3.2823931608930645e-01 5.1050465033432224e-01 -6.1669511895425710e-01 -2.4708945983687158e-01 -4.7373197145603119e-01 -8.8197241379417690e+00 4.0757984373784701e+00 1.5019354037407373e+00 1.4345277015574984e+00 1.7139606031597054e-01 7.8037487745859835e-02 7.5314003655830675e-01 1.0468387087312294e+00 -1.0471022878191434e+01 5.1648577098877824e-02 6.9803738239800239e-02 2.8645759850628565e+00 4.0736947247672628e-03 2.8132935422689798e-02 7.0404884804598056e-02 -2.7778591524474905e-01 -2.0669739914215768e-01 -3.3852937895426294e-01 -2.8103871913135663e+00 -5.9590125433408225e-01 -5.3305165223623874e-01 -2.9696339920101689e-01 5.0680038931000171e-01 -1.3123070108101906e+00 -1.7922458486216266e+00 2.1561572764047128e+00 4.5390861749806125e-02 1.8540003362103100e-01 3.4713705007070530e+00 1.6947207997842217e-01 -2.0353242157657425e-01 -4.7617430939923017e-02 -1.3011158458564534e+01 1.0634092550236547e+00 9.0833631758162916e+00 4.0254990771515553e+00 8.3057836707079002e-01 -1.1230065581130528e+00 -8.2681866980283125e-03 1.1169913858666614e+00 -9.7807603636651211e-02 1.7107971916881080e+00 4.1833165158612839e+00 -1.1463996207862828e-01 -5.3998178474419234e-02 1.9330518902425126e+01 1.2472987717503603e-02 -9.2731253317885898e-03 -1.3741234218412401e-01 -1.9588432102159544e+01 -3.1673290669343868e-01 -8.6742407054137480e+00 1.5785898922804147e+01 -7.4861746747746705e-01 -2.5903200393452338e-03 9.4123570169407706e+00 
      </Row>
      <Row Index="169">
        -9.6193403000452982e-01 7.5089578779729038e-01 -3.8200744606181161e+00 1.1468139298516382e+02 -3.1811935536243254e+01 4.1358751227841495e-02 -4.9072963614979626e-01 -2.0190517265991730e+01 -4.8840502185716206e-01 -2.9901192581247074e+00 -1.8918766574968293e-01 6.3360744502822932e+00 3.0975409895694952e+00 3.8081040997769833e+00 5.6825737767892974e+00 -4.0287836896905471e-01 6.3259989335807418e+00 -2.7200566461169906e+00 -1.6966386003613394e+00 -3.3569909125227468e+00 -2.0195175024022092e+01 4.1886015775497071e+01 -1.5119548873317434e-01 -8.6430303674124520e-02 5.4764907940077023e+00 -5.5008693428251387e-01 8.9968941998102423e+00 -1.6114145229443366e-01 1.8023903635592191e+00 2.4758014239166926e-01 8.7580282220277539e+00 -2.2207873733025053e+01 1.1944077630302539e+00 -8.0284917459749003e+00 6.2410971284062455e-01 8.0626488151118281e-01 8.0497265637766304e+00 1.8536571916107096e+02 6.9466111270281544e+01 -4.6808879498072997e-02 -1.1121671414785244e+00 -5.2078038924439170e+01 7.2765695243999318e-01 5.0094707873661832e+00 1.6426492857098096e-01 -9.4225745072759537e-01 -2.0483317946348905e+00 6.3101178898371586e+00 2.2279084425341352e+01 -1.1307490237735003e+00 -3.3158916611901532e+01 5.5418891500987810e-01 -1.7614984880128830e+00 -1.9884234504200435e+00 -1.9450854566674502e+02 9.2184001562942285e+01 3.7026883133226063e-01 3.9816115503147020e-01 -1.7115059441530320e+01 7.3862961474941580e-01 -3.7456050637587914e+00 1.5312900096764603e-01 7.7173753241839762e+00 -2.1746119905340038e+00 1.5439905883730717e+01 2.6134809550062528e+01 -4.7920825580384385e-01 5.5323113901478695e+00 -1.3457204903461530e+00 -5.9602369820090928e-01 3.6083392702382184e+00 -6.3035737967541536e+01 1.5935859978926601e+01 -3.3549349229281322e-02 3.4658650160636850e-02 -7.3596811808483835e+00 -1.0662385847899607e+00 -5.3065564334376063e+00 -1.8734813093855873e-01 1.2678754979380074e+00 -3.0726379864121895e+00 8.5726979448784739e+00 -7.0084546982696565e+01 6.1425355112371527e-01 1.0049785487685520e+01 -6.1148858420057017e-01 -4.6981902583297597e-01 -1.2359594370527134e+00 -1.2114236253740637e+02 4.3245253276938456e+01 3.1358319465301321e-02 1.1886206235282399e+00 -2.2199278444795993e+00 -4.6015927818419478e-01 -3.1647291287574291e+00 1.6870968836243483e-01 3.1749908996208660e+00 8.2903139617782484e-01 -1.8889107963165486e+01 -1.2487897520884417e+00 1.9458937162355614e+00 3.2319202730951218e+01 1.3443022066985317e+00 5.1111313310367317e+00 -1.2124071156404511e+01 2.3622334705108074e+02 -2.2520066641154699e+01 8.4375582471211752e-01 2.6355010908946164e-01 4.3171531278552322e+01 -2.0479981534741438e+00 -2.6531008217459746e+00 -1.4970010252932170e-01 1.2495391762746237e+01 6.5753204702682293e+00 4.1773469172641285e+01 -2.9258916968916367e+01 7.7324122839198617e-01 -3.9400756826868317e+00 6.2750013153560613e-01 -1.0106799568403204e+00 8.7845712111933096e+00 4.7196996222596070e+01 -7.4825837798023713e+01 -5.8837755251466251e-01 -6.7855790615987588e-01 3.0756028785451463e+01 -6.6678491761425329e-01 -4.4003929875483294e+00 6.6842462596755636e-02 -1.9237605707086033e+01 -4.2231679697862177e+00 -3.1916743873727000e+00 1.6133066636893034e+02 4.6143402052405591e-01 -6.1605822011517169e+01 1.3433177990993819e+00 -4.8769887806382428e-01 -5.2822784892278207e+00 1.6189421291058954e+02 -1.6840254465161706e+01 1.2318508437767051e-02 -2.4619510646717541e-01 1.9674360941563464e+01 -4.3182242487836842e-01 -9.6474275635658913e-02 2.3314430153508781e-01 -6.7333565706400123e-01 3.4552892840789582e+00 1.6744419348885572e+01 6.4982418148331362e+00 -6.8837192887798615e-01 -1.2065462053821207e+01 2.5414969002258658e+00 4.9680113926428930e+00 -1.4821169774712956e+01 4.2254351276309535e+01 -1.0046257356260321e+02 1.0448073051653708e+00 1.0217548883260724e-01 2.6495080165921991e+01 9.0441471198920276e-01 -1.4974089661258432e+01 6.2261275516390846e-01 -1.1640968189662999e+01 9.2362728300399795e+00 -1.1293396858811093e+01 -1.6099384122176457e+02 -9.0672252268599074e-01 8.6938477108270504e+01 -2.2553597621388830e+00 1.5087714156490826e+00 -7.5915274852274717e+00 1.6143056604357503e+02 1.0558956236081940e+00 1.3804976775609332e+00 -5.0428058726654790e-02 5.2089197944620935e+01 -6.6534154264817857e-01 -9.0439121769221948e+00 -6.2255860740407520e-01 -5.8355423586016002e+00 7.0321348647907937e+00 -2.1568582889450340e+01 -4.8811487165513000e+01 8.2290588741861104e-01 2.1798695791187541e+01 -2.0881371078432984e+00 -2.1499639511889086e+00 -1.4242813049456799e+00 1.2997050501402555e+01 1.2664849652067642e+02 -2.6289553075538558e-01 3.9120235048794605e-01 -3.1699074794227045e+00 -2.3301200065244365e-01 -5.0434796552046919e+00 -1.2802582166919069e-01 6.0605972082794324e-01 1.6215958215311126e+00 -7.5584581661678385e+00 -2.3949568237541826e+01 -2.7439676280293046e-01 1.1171395216639223e+01 -9.1416635882559094e-01 1.5674585845953768e+00 -5.3335817053028549e+00 -1.9288653317614347e+02 1.4531393887178865e+01 -7.2948033857429317e-01 1.4294450537536478e+00 4.5674509566060806e+00 -7.2477882268862936e-01 7.1514067762298037e+00 2.1372158009702152e-01 1.1781473478455698e+02 9.5126559155691623e+00 1.6279640097720915e+02 -4.5244170818098283e+01 2.1179893862705272e+00 -1.9636228371476001e+01 1.0822864956543338e-01 7.1656150342857572e+00 1.0922928939787753e+00 -6.9280244442879348e+02 3.2344627109345163e+02 2.0280904235132269e-01 4.4728253512357297e-01 4.4409165809296994e+01 -1.7995186164885180e-01 3.2410042508610459e-01 -1.3030853703988887e-01 1.4547707703806833e+02 -2.6050030429100481e+01 -3.4655170467007451e+02 -4.8747265892913227e+01 -4.6363023287220151e-01 1.7312922806527755e+00 2.8703340350491149e+00 
      </Row>
      <Row Index="170">
        -1.4557521078964442e-01 -9.9364840429279866e-01 -9.8727028776374937e+00 -1.1328740026870946e+01 -3.7351043085887795e+01 4.4386248129231376e-01 -5.0910331712270329e-02 -8.7897438742729719e+00 -2.0113453726930075e-01 1.4103343365195542e-01 2.9443956254322856e-01 -1.7376035852092855e+00 9.4868782237654159e-01 7.8785298804905324e-01 -1.2205749637732879e+00 6.2251278304344737e-02 -1.5128737520683444e+00 2.6572928104787366e+00 2.6322682400663666e-01 -2.3347552589102634e+01 -2.1948956953456218e+00 -5.4863246302586049e+01 -1.1109759331237710e+00 8.4216595403887595e-02 1.0309623039938742e+01 3.3819329480179050e-01 -1.0041154711097988e-01 4.4314911827498804e-03 -2.0973800872605011e+01 -5.6720857091931975e-02 -5.0071676185571334e+00 -2.5998364415547258e+01 -4.1189534651599224e-01 -1.2487650168213804e-01 -3.2004246031408456e-01 9.1133086770798855e-01 1.5953418606579362e+01 -5.5480720194027526e+00 1.8372229758591857e+01 -9.4137065233405792e-01 -1.5221549256125400e-02 -1.4726258616283303e+00 1.7332993329205237e-01 6.5736819676249070e-01 -1.5090766207233486e-02 -1.2709533101539819e+01 -1.1906202420809677e+00 -7.4675288339767576e-01 -5.5684529281061259e+00 2.1401181386272583e-01 2.3277262795977549e+00 2.7234289678160266e+00 1.5212094369597935e+00 -2.2876085133848392e+00 2.1535153176500899e+01 -1.5410338970832527e-01 7.9625047402720384e-01 2.7200329094588538e-01 -1.2246764794341289e+01 3.5810196697743724e-01 1.5072857428384339e+00 -9.7836068207776350e-02 -3.8011235765645779e+00 -1.0338699866433956e+00 -1.2531396760146890e+01 6.6232342395232990e-01 1.0211961916347700e-01 -8.1310643974020991e-01 7.9646311257857860e-01 7.9726931688219338e-01 1.2171040199264098e+01 7.0162510613154154e+00 -8.4632602517027408e+01 -2.7538001898153652e-01 -1.0519349610054007e-01 -1.0600569289643317e+01 -2.4251190324639538e-01 6.2583173138591519e-01 3.5875812076511693e-02 2.4312620617383800e+00 -2.0716605987327057e+00 -6.1069760595285061e+00 -1.8447683710346610e+00 -2.9318052176168408e-01 -9.2231370212700625e-01 -4.0579310076913089e-01 -1.5568970238427937e-01 6.3044587135882466e+00 1.6649040434898779e+01 9.6857016204157844e+00 1.6328466625071769e-01 -1.1624257275146732e-01 -2.6276428385062900e+00 -2.7537903861897917e-01 5.9704680137247124e-01 -2.9098004379262843e-01 -2.3641458933707327e-01 9.6306465540084929e-01 1.1921321346217155e+01 4.5850460023757478e+00 -2.7996477285330457e-01 -2.1432339063740073e+00 -7.5520170444825823e+00 -4.1461239240968801e+00 2.6494689572250991e+01 -3.0986544513451008e+01 1.3660708966199309e+01 1.5876523493117212e+00 7.1821986893684642e-01 -1.3432637800772682e+01 1.2754501362662825e+00 -1.6143156960185223e+00 3.5972024010623782e-01 -1.8397445578964835e+01 -5.7759545062842221e-01 -3.6417798605683856e+01 4.5513755652328314e+01 -8.4474791355789947e-01 5.7688874656466504e+00 -1.4591719810619546e+00 2.0080130730516430e+00 -2.8860223740925903e+00 3.4049247805055529e+00 1.7631412984104827e+01 -8.9916879789643822e-01 -2.5037323927538324e-01 1.2717192734644414e+01 -5.5441893376517726e-02 2.4342601849814400e+00 -2.2434516605969002e-01 -1.5364317802827827e+00 1.7910317981136359e+00 5.7573769526024989e+00 1.1869676288466508e+01 -1.4968484977367424e-01 4.2247645444229107e+00 3.6996045567515665e+00 2.2679930574738592e+00 -3.7688789023641220e+00 -9.6954724428342161e+00 9.4635315929772332e+00 -9.1069385325525332e-02 2.5493262491540047e-01 1.3410606475044915e+01 -3.2307241353424843e-01 -8.5233061337831373e-01 -2.5689848278646821e-01 -8.4493515342610408e+00 2.4023218469483254e-01 -1.6281254861925845e+01 1.4121973170695128e+01 6.4376284875095280e-01 1.0969664207306096e+00 -6.4919564549043685e-01 8.3297137885892880e-02 1.4665768154077341e+00 -4.4679467783971631e+00 2.6935858931392431e+01 -4.7581466222177937e-01 2.4749613776943180e-01 -1.8800349026379990e+01 -1.3477402524896931e-01 3.1020670369980508e-01 -1.6067732189270600e-02 1.3471731934587297e+01 -6.4815569340044021e-01 -1.2262543617286610e+01 5.9916917988375644e+00 4.5872105700794918e-02 -2.2553591670125233e+00 1.6523164276570370e+02 5.3241347030107740e+00 2.0172499581771061e+02 1.7329042548400938e+02 -8.3572007061797194e+01 -6.0376051052424957e+00 -1.2452927817527856e+01 -1.7622235538347468e+01 -1.4532082983596609e+01 1.3245955473349255e+01 -2.7083901666118289e+00 1.8049997307207946e+00 1.4116597497233712e+01 4.5833677662123023e+01 1.0774951683469033e+02 1.1574358184166019e+01 5.0075816602309331e+00 1.7240072902861812e+00 -1.3939135184364204e-01 -1.4773149407676101e+01 -9.0113993989652954e+00 -1.4462079700408503e+02 -1.1037673110286179e+00 1.4754270967088701e-01 4.2719591656314151e+00 1.5027318591251326e-01 -2.7542515647371602e-01 7.8593307353017838e-02 -7.0472812081934535e+00 8.9129546803576432e-02 -2.3244313651812263e+00 -2.8136215361155337e+00 -7.2131917027217440e-02 -8.3679126528971892e-01 -1.5799335201938788e+02 -9.5654920959578984e+00 -1.7407363056621506e+02 -2.0255419637412547e+02 -4.2090766690276723e+01 7.5368954207449015e+00 1.2344048730649536e+01 -3.2348736625135643e-01 1.5039529411622219e+01 -1.3769585403251767e+01 2.9727128487337211e+00 -2.3970575166000572e+00 -1.1818740073894872e+01 -9.5018323370341264e+01 -7.0832897892866015e+01 -1.1970672808433594e+01 -3.1454708329425785e+00 -2.0665429975182992e-01 -2.3542536249718164e+00 2.3100092965568750e+00 7.0904996265435614e+00 9.8726096961264886e+01 1.4055637681326139e+00 9.1614254539706508e-02 -3.3178567760973799e+01 -5.3624330212047155e-02 -4.5715923676817205e-02 1.2031542182205968e-01 1.6142473403425072e+01 -6.5255610508113575e+00 1.3047486939877126e+02 -5.4568293150754855e+01 1.5483997617611128e-01 -1.7163083494248382e-01 3.5178609252686762e+01 
      </Row>
      <Row Index="171">
        -2.3241847638610125e-01 9.6226027247848833e+00 1.8826962093589827e+00 1.1650623763034673e+01 4.2344768673577346e+02 5.1096969998536679e-01 6.5013927938455396e-03 -2.5352025118656456e+01 3.0186535965071926e-02 -2.7942637815795024e-01 -6.6356763148149867e-02 1.0880393308872499e+01 -2.9981364360355656e+00 9.9140485173556954e+00 2.5818763073340961e+01 -3.4369477726693276e-01 -1.0742127560806694e+00 -2.5808917254380503e-01 -3.3854651548174388e+00 -1.2878665148942673e+01 -1.2650568364246283e+01 -4.6984914879873395e+02 -3.3625116235935160e-01 -4.3859001178105927e-02 2.5790551538188083e+01 -2.2305714132812682e-02 -8.7341696426301496e-01 -2.8867013222907190e-02 9.5083134041765334e+00 2.8400470908836724e+00 -1.2967338047872090e+01 2.3907928683183854e+01 1.1519736377552192e-01 1.4135125241800779e+00 -1.3791903775272658e+00 3.3973755711131162e+00 -4.3972731258727435e+00 -1.4395852308953181e+00 8.1168082544626668e+02 -1.1228498603486514e-01 2.1780411085455853e-01 -3.2350065478822216e+01 -1.5961047094469905e-01 5.5188077283673920e-02 6.7125629605044423e-02 2.4540913659242506e+01 -2.3161114218673902e+00 -1.7768892723630415e+01 -1.9230740847007837e+01 -6.4755026141574490e-01 -1.4013174791398342e-01 8.2227509271095967e-01 -1.7245050799852834e+01 7.6291226492321584e-01 -2.6671452167327516e+01 -1.6774113869741559e+03 2.6211338724249345e-01 -3.7307359565239562e-02 -2.0481634252471849e+01 -2.7263662948082656e-01 2.0590414000607780e+00 -4.3908116738919034e-02 1.9785061129987298e+01 -1.2091466714651460e+01 -2.1907701033946068e+01 -3.5724417667719536e+01 2.7030624256929769e-01 3.9220046751631799e+00 4.8414961941170986e-01 -1.2756077410267608e+00 -2.8134307225845987e+00 -9.6219914863759186e+00 1.1015431418083608e+02 -7.8190360053127961e-02 -8.3023239397796544e-02 -3.1215530240820954e+01 1.8902781289739323e-01 6.5027036055835197e-01 -1.1883706399487437e-02 5.4509910048509482e+00 8.0812223708962847e+00 -1.8789607855009990e+01 -2.9279794535614201e+01 1.9768971971052451e-01 4.0235370744915997e+00 9.5117943595607812e-01 -4.3212323823536281e+00 1.3560815847331469e+00 -1.0602574638178339e+01 -1.1763227199064568e+03 1.6309286433715897e-01 -1.7761466346121324e-01 -1.3249015714533016e+01 2.0106247419198553e-01 1.6779017631051829e-01 1.7602532941870874e-01 8.0540074308373732e+00 -3.6263461395293746e+00 1.1472695879667299e+01 3.0154151873925002e+01 2.8296549306298857e-01 1.1464555850034230e+00 -4.1838581423215286e+00 4.4854426511868837e+01 -3.2393374325529294e+01 -1.8111321608375874e+01 -7.1173798412643373e+02 2.2281639066863539e+00 9.1581944767483003e-01 -1.4115687106339396e+02 -4.7830330472762689e-01 -2.5653271527072716e+00 -6.3652008179180736e-02 -2.9041523048064846e+01 -1.6289387358255830e+01 -1.0936095219652634e+02 7.0350438275022725e+01 -2.9398291916294150e-01 4.9760150983235416e+00 7.9133523976880138e-01 -2.3470467807711429e+01 4.6119641105324263e+00 -2.1902074091694885e+01 -4.7028695145435631e+02 -1.1070119273492027e+00 1.4370797931121615e-02 9.8128142870060401e+01 -3.8748714520778549e-01 1.2351897224043569e+00 7.2333268439315646e-02 1.6660259487147414e+01 -6.7538458977669507e+00 -1.2587518028900377e+01 -5.2788148784893565e+01 -1.3070559866137899e-01 4.5763768479188514e+00 4.5654559114947046e-01 1.4579371416888534e+01 5.1010633000987582e-01 -1.0605629416531883e+00 -5.4858129721041769e+02 -1.0899216872132911e-02 1.8301424238936287e-01 9.3614238562877290e+00 -1.1757168355779868e-01 7.6425643764173401e-01 2.1460518272878204e-01 3.3222616953171382e+01 -8.0324979678589443e+00 -3.4396335176134016e+00 -4.0004682004509959e+00 2.7833630046836788e-01 5.9609505690505102e+00 8.8301920350772889e-01 7.8715560387245205e+00 -1.7765282133732399e+00 2.7193931087487726e+01 -3.3323447680100799e+02 1.1059030127398728e-02 -1.1577086257370439e-01 -9.7134961950243451e+01 -1.4215981097760766e-01 1.7955293974009692e+00 -5.7412078048969306e-02 1.3390511527861236e+01 -5.7589990496962855e+00 1.6385740379097115e+01 3.1644433854176896e+01 7.2123363086018344e-01 1.5087717594978329e+00 5.3241345112843064e+00 3.7879868890937735e+02 7.6908860132044381e+01 -1.8831283523161267e+02 1.8808014128322247e+02 9.4931304171843411e+00 -1.5484409045937184e+00 -5.3670557264359488e+01 5.3116712561032386e+00 -4.7777380751095919e+01 2.1502791301211914e+00 4.9892024790947477e+02 -1.1843903967819294e+02 -2.1319619202887793e+02 4.1410310485037564e+02 2.0163008386956882e+00 5.6121843488573255e+01 -3.4777161713691385e-01 -1.2607658901142713e+00 2.2960933064168785e+00 -1.1332650834228843e+01 -6.6638125717081130e+02 -6.8749205183505069e-01 6.8839053259353022e-02 3.6743573008265230e+01 4.1632982461123902e-02 -6.4711389536387287e-01 1.7945328708631081e-02 -1.4885390272538643e+01 -5.8132443942517966e+00 4.6373461086768657e+00 2.5691377362760250e+01 -7.1685442614494832e-02 4.7529818367083863e+00 -8.0702816879912618e+00 -3.0523313586652171e+02 -9.9222967754594777e+01 -1.8109367708616162e+00 7.7491166745711234e+02 -6.4995681695890450e+00 1.9630314639832203e+00 7.2693095836730208e+00 -5.0807632722757177e+00 4.2079999187893733e+01 -2.1775915724351211e+00 -3.5511873735921324e+02 1.0117777280013127e+02 1.3319719076765131e+02 -3.4136896484485442e+02 -2.0103162748925740e+00 -5.4400840665797304e+01 -3.7954678884233317e-04 7.4178687983374743e+01 -5.9483999292924139e-02 -3.9751491714583227e+02 1.6617145900171302e+01 7.4994314529668626e-01 -3.3373024633348791e-02 8.4149174359460886e+01 4.0341748244514974e-02 3.8498456907905876e-02 -5.5289827362997812e-02 2.7702306266632098e+02 1.1994446099794242e+01 7.3035095211837600e+01 6.8871650272630575e+01 -1.2948319084384374e-01 2.3300852102932268e-01 2.5324655667661841e+02 
      </Row>
      <Row Index="172">
        2.7347910496882832e-01 9.4324782840194530e+00 -6.2109154131030664e-01 3.0271772499920917e+02 -6.3987361664697528e+02 -4.6603722367945011e-01 -1.7692167300700206e+00 1.9934982275578659e+02 1.9991767135335294e+00 -1.1549564670858672e+00 2.1894163097904311e+00 4.4688315345252704e+01 8.3157112203916768e+00 5.6008420609513996e+02 -7.8216879395040451e+01 2.3350612970880320e+00 5.4373562230430252e+00 -7.2830963087308191e+00 8.9455686116452853e+00 -1.2130669881092035e+03 -9.2500987517414615e+01 3.8790808722376823e+02 -2.4668925013941461e+01 -6.2372259601215774e-01 -1.7566410218969395e+02 2.8356318566380878e+00 -6.5112362641957588e-01 -1.7500907325479602e+00 8.4953136394433386e+01 8.4471469120617257e+00 1.9117344964776385e+02 -8.0318941240315326e+02 -7.9073451065085010e-02 4.6376264577957045e+00 -2.0032656172897987e+00 1.1127206149092672e+01 3.0102184982068138e+01 1.8352502312138677e+02 -7.3573839773237705e+02 -3.0020237164517312e+00 8.7160379551551159e-01 -1.2429934133496135e+02 -2.7274599846487035e+00 7.4542710427704151e+00 -1.0596918527716070e+00 -1.0357981796929380e+02 -1.5084369341187994e+01 -4.5193857393928920e+02 7.8113931880216114e+01 -1.8943832760705845e+00 -5.4973906761588296e+00 1.3032035446781663e+01 -1.6830335001537605e+01 -2.4341037090754253e+02 -1.0316679682349786e+02 1.3968365252763033e+02 1.5293304816785621e+01 -1.0947803145005714e+00 1.1818130541313440e+02 7.1318173823861564e-01 4.3463498635574069e+00 -9.6256299489414232e-01 5.3228218459262280e+00 1.9948198129893171e+01 -2.9560511056755786e+02 -2.7828072329750285e+01 5.5029368900692930e+00 9.1695383129263064e-01 2.9796417436318734e+00 -4.2458095522342774e+00 3.4617420864058658e+01 2.6743594027473591e+01 -8.9950066306442022e+02 5.1662777084552545e+00 -4.0361993042373001e-01 1.9563504466786981e+01 -2.4577601288674487e+00 4.7942850661056582e+00 4.8885495773265575e-01 -5.7854384692385793e+01 -3.8210200012399582e+00 -5.1749435435884880e+02 -3.2776041393476771e+02 -2.0445124279794982e+00 2.7818617491919895e+00 3.2706628654332235e+00 -4.7822111578279873e+00 2.0011450698145927e+02 -1.5242700698389672e+02 1.9153078668899834e+03 4.5780042837031942e+00 1.3299983992681064e-01 -3.3249880128671066e+01 -8.3841800033405889e-01 8.9952802009065636e-01 -1.1730918465320981e+00 -2.3544045831135008e+01 2.9448998467685215e+00 1.7403080581553513e+02 2.6844538637879305e+02 -3.9448534835355531e-01 -7.2275533368519973e-01 1.8629143989792787e+01 -4.1166952916767514e+01 9.7110133782916819e+02 5.3158244028477930e+02 -3.2044544571638107e+02 3.1510822825290887e+01 -2.7051395188483696e-01 9.0639369763418836e+02 -7.6344613750430828e+00 1.4061583843216390e+01 4.5727073427231293e+00 -9.6938325995608466e+01 -7.9762761305903496e-01 -1.7748764520406839e+03 -7.9538165674583252e+02 4.4133042615877969e+00 -2.4408464880158192e+01 -6.8184737033130318e+00 2.9523414141003741e+00 -4.0505628988314857e+02 5.1622526348190149e+01 1.2437702371105552e+03 -6.6110112241649981e+00 -6.4023580730719232e-01 1.0077143579389667e+02 -1.7977790101012943e+00 1.1568896933422366e+00 -1.6325849910543866e+00 4.6967427291339845e+01 -1.4584301863367727e+01 -1.2820315658804611e+02 5.7223908839203068e+02 3.4909229967820465e-01 9.4386858844291055e-01 7.1220242274441645e+00 -4.2652990617389150e+00 9.1032006290450227e+01 4.0212788140217890e+02 1.7352938763797283e+01 -1.4579699122049988e+01 8.4598472907802691e-01 -4.2694137478480116e+01 -1.0367948274797527e+00 6.2415505231601855e+00 -2.6979698015253177e+00 -2.0147375134198228e+01 3.2475834191427566e-01 1.7848506301455200e+02 1.0477437709248625e+02 2.5694404687733368e+00 -5.7197067133893142e-01 -2.6488051853566503e+00 -1.5519075739925029e+01 2.7021166292730777e+02 9.6987912424956448e+01 1.7499583230391145e+03 -1.9994280396731938e+01 2.8682068814107566e+00 -2.8148839040286839e+02 3.8917572082259930e+00 -6.2053370834182715e+00 -1.0684858903923669e+00 -2.4058873731934000e+02 4.5011280321923550e+00 3.6010404959550942e+02 -1.2160136399401817e+03 -1.7567398182745819e+00 -7.5915327372775891e+00 2.0172499482916282e+02 7.6908859414537233e+01 1.2894775070306190e+04 9.2272464846030925e+02 -9.9449491075053811e+02 -1.3747504772348756e+02 3.6824904408829258e+00 2.8302713036675900e+03 -1.4582807372414795e+01 -7.0777224652020010e+01 -1.2608007992702376e+01 -4.6088041171208511e+02 2.5001967269522908e+02 -4.1112592004201315e+03 1.4091139643733968e+03 3.2467712647524607e+01 -1.0501300078829945e+02 -9.2292567586700898e+00 3.2696054093103157e+00 -3.4864471530466108e+02 -1.1698192715272307e+02 -6.3198960635066032e+02 -2.6905141722818030e+01 4.2879976892572813e-01 4.0478380486136302e+01 7.1988430685541971e-01 3.8431556110008387e+00 -4.1338102576850133e-01 -1.7232487090863287e+01 -9.4219139876331610e+00 3.0599623026046902e+02 3.7435679294355214e+02 -8.1099897638603125e-01 8.9563576476193703e+00 -1.6654456135525106e+02 -8.8637369906059604e+01 -1.1418273106921617e+04 -8.0641654675530799e+02 4.9013532251440120e+02 1.6130185164864790e+02 -6.8656313575374650e+00 -7.7200203713926021e+02 1.2782636805582449e+01 7.6035242947553741e+01 1.7067636645157151e+01 5.9823152286533468e+02 -1.9724331767890652e+02 4.7382234939236841e+03 -2.6958681448223401e+03 -2.4877889693692701e+01 8.4874410008138398e+01 -1.3158911976123022e-01 4.0866714277102112e+01 3.8313430500093496e+01 -8.1539816812544768e+02 -8.0887153719299295e+02 3.7198291255183754e+01 5.2464921520788721e-01 2.3148909153853901e+03 -1.7925846496768827e-01 -2.6272280561592254e-01 8.0909461421219930e-01 6.9192941102045893e+01 -6.7071182266116125e-01 -2.9451823188269586e+03 -2.7029491866193018e+02 -1.4866749904136700e-01 1.2067642774718035e-01 1.2362713165431044e+03 
      </Row>
      <Row Index="173">
        -2.8620230383139642e+00 -2.3790392676717602e+01 -1.0600817880185787e+02 4.2380212252187775e+03 -2.6475701216422021e+02 -3.3464609835459669e+00 -9.7155777217500372e-01 -2.0951019417739008e+02 -3.0707541307403972e+00 7.1636688980070176e+00 -8.2214855685515431e-01 1.4124243386033413e+01 2.7446465319924755e+01 1.1298904269584455e+02 -2.6625652033509687e+02 1.2153078803567041e-01 1.6625660378278553e+01 -1.9856741659137697e+01 -2.2924468236666144e+01 -2.7129285276427981e+02 -1.0954046977168182e+03 9.5866966319084167e+02 -1.6468693656769879e+00 -1.0101183771080287e+00 -3.3887516568410501e+02 -4.3279572986648418e-01 2.2725981194525957e-02 -4.2922752535923792e-01 1.7644733837643071e+02 -1.3428163122771366e+01 -8.9335521260776659e+01 8.1826519085268956e+02 4.7884813358089104e+00 -3.6557747586035475e+01 5.4960095735586947e+00 -1.6424764549832616e+01 1.5108470787745318e+02 5.2868212126744911e+03 -3.3796066893748939e+03 4.6348772333476518e-01 6.3576153366557264e-01 -6.8313250503409654e+02 1.5974807425700419e+00 -1.5054157359991223e+00 7.0761731889240309e-01 1.6748644768181839e+02 -1.6179002332966775e+01 5.9438669938070234e+01 6.0472472757345531e+02 -5.5057584782825870e+00 -1.5103565762311337e+02 1.0015938032200239e+01 5.1923249320570903e+00 -9.6569432777730981e+01 -2.1087977099455893e+03 -1.0843499983400106e+03 -4.0022670289013149e+00 -4.3370681217080804e+00 3.7405853586923331e+02 5.8313096813170091e+00 4.7999094069151397e+01 1.1776844504863675e+00 4.2158105703849287e+01 -1.9547264695447666e+00 9.8012937407940626e+01 1.3624087941087782e+02 1.0131343266427848e+00 -9.5644497703629895e+01 -3.4840667177631985e+00 2.9875993125533569e+00 6.0277724282932468e+01 -1.0244245941145346e+02 -1.3713909037187696e+03 -1.4321728988418272e+00 -9.0474382274101117e-01 -3.8239480987656862e+02 -3.7299451330127340e+00 -3.6681989861244801e+00 -1.8514735452254172e-01 -1.2862459761940408e+02 -3.4750276971390122e+01 -1.8788177396835454e+02 5.1660232835740317e+01 2.0524329194940947e+00 5.3056011066937572e+00 4.4675518764724984e+00 -5.4658976494683884e+00 1.0862633876738255e+02 -2.6190271164843580e+03 -7.3087640406191349e+02 8.9178065443593368e-01 1.0990004722884805e+00 5.1646253709550365e+02 -1.6010694247233914e+00 -3.6253681760499603e+00 3.2042822859744646e+00 9.0487675156386103e+01 8.5037122437574908e-01 -2.0603686921286862e+02 -1.9942536007799208e+02 9.3897723663940269e+00 1.0076760999283579e+02 -2.3008629701917620e+01 -3.8882339794867221e+01 1.5046962251742661e+02 2.3626727804596303e+03 1.8599007884711027e+03 8.9416279493047242e+00 4.9496598118238921e-02 1.6422147305944727e+03 -1.7391666185332006e+00 3.2669864441314786e+01 1.6324003343558715e+00 -4.3210779904961237e+02 -2.9679288463437729e+01 2.7593616548692808e+01 -3.2617170749930665e+02 6.7820491601763191e+00 5.8424956233703199e+01 2.7605062046355336e+01 -2.0007446811046975e+01 3.7459899345398298e+01 4.6695601544099554e+03 -3.0333417557924986e+02 -9.1804272308418522e+00 9.6759633468707307e-01 6.0812080122996122e+00 -7.3407746971761298e+00 -1.3835181741491397e+01 1.1485333789323704e+00 -3.1918557319353567e+01 1.3992171701633197e+01 -3.1564855468884343e+02 1.0283518890009145e+02 -5.1218638486767532e-01 -3.8237985147100449e+02 -1.0431045091799461e+01 3.1031303254836530e+01 6.2436932776530739e+01 2.6401004516282701e+03 7.1626926793158054e+02 2.8118229225078721e+00 -3.0623151299937135e-01 -2.9935370381851681e+02 -1.1570565779102253e+00 1.6593040353531251e+01 -1.3418172433688369e-01 9.4471995762258302e+01 2.4402810013154522e+01 1.3799981856701197e+02 6.0292204177996609e+02 -1.8619014922578572e+00 -5.7437814953609632e+01 -2.1408546934990227e+00 5.5472412455157610e+01 8.2892110908942414e+01 1.0353420906027313e+03 3.1506997228637338e+03 5.1550412211845469e+00 4.0736280340145754e+00 -8.8185400162357837e+01 5.0569422995256872e+00 8.8023903832799988e+00 -1.0163239905368755e+00 -3.9755663555115461e+00 2.6411881474865368e+01 2.0217357783304760e+02 -8.8700504033244215e+02 5.0237606036698708e+00 1.6143057419302812e+02 1.7329039560041247e+02 -1.8831284885147556e+02 9.2272492192190566e+02 5.5272102143042604e+04 -5.0907732245875522e+03 -6.1919103914712409e+01 2.8874700374854939e+01 8.8596339964509079e+03 -8.0515645162093591e+01 1.3504348824299677e+02 7.9891851074064562e+00 7.4035687764422437e+02 -7.2225237217845734e+02 -4.4550422090145803e+03 4.7306258004069159e+03 -5.0194170786866508e+00 -1.8953839366821626e+03 -1.1398298886322664e+01 4.9021357070596423e+00 -3.6757409670972265e+01 2.6301674788445234e+02 -3.7569930006116629e+03 -1.9937754402784549e+00 4.6213695075834949e-01 2.4830406460678205e+01 -2.4632009503984591e+00 -3.0863045898564451e+01 -7.1296404951388581e-01 -1.1012336188834161e+02 1.1487740491138538e+01 -1.9501220865547657e+02 -2.5220798932970501e+02 -1.4266747597823723e+00 -2.6288390568297473e+00 -1.9771250239788370e+02 9.4125748319380818e+01 -9.3212944367900423e+02 -6.7712029226026643e+04 -3.2435597985282948e+03 6.2023196639375051e+01 -3.1468780647499720e+01 -5.8431497666242067e+03 7.9864403337522134e+01 -8.5251636717943796e+01 -5.0305307721851023e+00 3.1157549794451324e+03 6.8373291643302582e+02 1.0067712691925837e+04 -2.6429118310959466e+03 2.0175673678180651e+01 1.9626040594748647e+03 1.1073376408870388e+00 -1.0340665804437424e+02 2.8431364814971914e+01 -3.5033610276337982e+04 1.9221866567279143e+04 -1.4568526954693297e+00 8.5216006827886304e-01 1.9410478645958347e+03 -6.7197730360408059e-01 2.4502302673641907e-01 -8.0777996601182167e-01 7.2483398048102599e+03 -1.2555033654094836e+02 -1.4708154838570617e+04 -2.6928218316230104e+03 -2.4430159382180698e+00 6.6528871748382699e+00 -1.4671041782981190e+03 
      </Row>
      <Row Index="174">
        -1.1861689894638403e+01 -2.6400791557389311e+00 -9.4188462633872405e+01 -2.8713322290935321e+02 -3.3943786777019501e+04 -5.1311506006895797e+00 -2.7772393924485073e-01 6.7978467864776030e+02 5.1100423972575300e+00 -7.8406411767355166e+00 -5.7936400601065543e+00 1.0356932757688774e+03 -1.3111186223430559e+02 -5.2543025609571487e+01 -9.0990796693740413e+02 3.3335947410341760e-01 -5.7810253550298512e+01 -7.8838868789534899e+00 -2.2941053941609425e+01 -4.4799986542901024e+01 9.2270151810999960e+02 3.2330852231979370e+04 -1.1547111925415265e-01 4.5586607676495987e+00 -4.4197411081120954e+03 7.1040706838311962e-01 8.4877807031734847e+00 -5.1277321765883244e-01 2.1670776843858039e+02 5.6826368886075215e+01 2.4579122778575402e+02 3.4177078794734553e+02 2.6606630177977877e+00 -2.5132153905644373e+01 -4.5053416396549437e+00 -6.5876936634202139e+01 -2.8681362206488848e+02 -7.1381471632048488e+02 -8.0428918467991054e+04 5.0883295191597426e+00 2.9696217978707864e+00 4.6184014671295881e+02 2.1464727528182266e+00 -9.8763870614347979e+00 -3.8177139592576168e+00 -1.3176284792774823e+02 5.7885184806247707e+01 4.2588264378905296e+02 1.8478835140848532e+03 -5.6183608183491742e+00 -8.3151300076453481e+01 3.6427738346770582e+00 -3.5345422385558049e+02 9.3184751807712018e+01 9.5990922275325283e+02 -2.5370266044527292e+04 2.3725397938742390e+00 2.0783823738369662e+00 5.3546253306791186e+02 -7.0185669815647111e-01 1.4918889661759749e+01 -1.0202183074150071e+00 5.2860940677116741e+02 5.3774800790451991e+01 6.3139200582669582e+02 4.3263465108163655e+02 -3.6045643827810636e+00 1.0259177028223348e+01 8.4560943006690650e+00 4.1325549347966444e+00 2.0111786678666249e+01 2.5292875870317221e+02 -3.2631144793331623e+04 -9.4567012240077020e-02 1.3634332542751508e+00 5.6918920421507210e+02 -1.4300176316246507e+00 -3.8659690329397563e+01 -1.1274044845804383e+00 -5.9703460791404359e+02 1.4639483114948962e+02 2.9980065802692843e+02 1.0049080663328059e+03 6.0623953451795387e+00 -1.2300589979305641e+01 4.5316320099482255e+00 -6.3908102746179793e+01 -2.2006766492131283e+02 3.5872628745809197e+02 -1.3125697665221989e+05 2.8211000657938712e+00 1.4075709452631600e+00 -6.4446607758605387e+02 4.7335374474569107e+00 -2.0097772807464935e+01 7.0846559691752979e+00 3.5928103606170043e+02 -3.9133717136142877e+01 -3.2454100394283887e+02 -8.8714909225236624e+01 -1.6273805145101505e+00 5.7494204127578996e+00 -1.0510275225777182e+01 1.2891520042270349e+02 6.7150375595956575e+01 2.4958270914666355e+02 1.8318896250393987e+05 -1.6409213284217788e+01 -6.4519677211239674e+00 9.2132186045509770e+03 5.5172925917807092e+00 1.9924158880092733e+01 4.5988369177048085e+00 2.2046978608756326e+03 -1.4558919566719266e+02 1.4779620252300519e+03 -6.1208571496652439e+03 8.5032950601339614e+00 2.6526473804507020e+00 3.2408914677560915e+01 -2.5685989988356596e+01 3.5984812056092778e+02 5.2682755138288485e+01 -8.5386102014392614e+04 -7.9239646304927689e+00 4.7525800789248933e+00 3.4017931382369716e+03 -5.4020726670423755e+00 -4.3755856149320607e+01 6.3019934862268201e-02 -1.4589273951456416e+03 -2.0577017604981665e+02 3.4782870896381792e+02 -1.4142641645892290e+03 -1.3436235492117703e+00 1.9291360328382325e+01 5.6928497102184821e+00 4.2469582507896121e+01 1.9374787921708776e+02 -7.3179240983643103e+02 -9.7738417849838734e+03 -3.5753907346743290e+00 2.7095763796412422e+00 2.5080092436689883e+03 2.9327842302118370e+00 -1.6165547572083597e+01 4.5716456020136320e-01 -1.2635913525712676e+03 -4.8090612697764300e+01 -4.5390727241523564e+01 -7.1196119205141440e+02 -1.0040175226378778e+01 3.7145591525375494e+01 9.4779136978904717e+00 -4.1658666043658741e+01 3.9876162729924545e+02 -5.0107565636932850e+02 -3.5633214919805527e+04 -9.8239463220143080e+00 -2.4735678070734366e+00 3.2493432397227734e+03 -4.9334021200142253e-01 -4.4247633472492453e+01 -3.7634937905168044e+00 -2.4263880494595505e+03 -4.1090144029003568e+00 -3.2966487636999227e+02 -2.7183950073597953e+03 4.1926950791385025e+00 1.0557104605609311e+00 -8.3571976585135559e+01 1.8808006429364252e+02 -9.9449560003593183e+02 -5.0907823374613654e+03 7.4257283622315153e+05 2.1980563718984751e+01 -1.2582856375778476e+01 -2.0174363059382689e+04 -1.2880671988761724e+01 2.0191578766571092e+02 1.2909471153974209e+01 6.5686989435272399e+03 -2.1945545851574371e+02 -1.7799141050725220e+03 9.6484349500304270e+03 1.9277837171459709e+01 -7.9040717045946849e+00 2.6198680631423485e+00 5.3748430380015634e+01 -1.5005713498545811e+02 4.3603193443268538e+02 2.8802885568141937e+04 3.1761741982076046e+00 2.1598206422822841e-02 -1.1182271110289730e+02 -5.2391505464765942e-01 -3.4209591291393735e+01 -9.0181888635777341e-01 -2.8533527786657214e+02 -9.4491537118548877e+01 -3.2232740623503923e+02 -7.2829329604282975e+00 -1.6364160475786775e+00 2.9408542065451911e+01 3.3335004497624958e+01 -1.9088419290382433e+02 5.5590759263728614e+02 1.9641489581574064e+04 -2.5717403764022037e+05 -2.4451396934919725e+01 6.7836205040819015e+00 1.2715687665315811e+04 2.1697059312880526e+01 -1.4083278258763173e+02 -7.0310070790546888e+00 1.0637567353617706e+04 -1.9017728958952353e+02 1.2958640252513593e+04 -5.5809396623211633e+03 -9.2274877176900745e+00 -5.6433188145040035e+01 2.0817061329444186e-01 3.6359547880151399e+02 -4.8156453501801579e+01 2.9968773987486020e+04 -7.4773433396439170e+04 -4.0982297045400600e+00 -6.2652546336403248e-01 -9.6840606872035969e+03 2.5030806778477199e-01 1.4679424821791827e+00 -2.6076890038334568e+00 2.0457189112694603e+04 9.6163216698672511e+02 -2.7412927656623746e+04 -8.7353687565917426e+03 -1.8590675121979450e+00 -1.5907136085337470e-01 -4.6535369687295042e+03 
      </Row>
      <Row Index="175">
        3.3479116029513989e-01 -2.6067791904915794e-01 -9.1629385525229736e+00 -8.3722478490381036e-01 -1.2445662959595211e+01 9.1068668385389628e-01 -1.5417140719798716e-02 4.0669389260292519e+00 5.5287365827851431e-02 -7.3748639495897805e-01 1.2654956396269768e-01 1.0674315667124574e+00 -1.5159214364575746e-01 6.9803224636489176e+00 4.6106418912619120e+01 -8.7853728325058000e-02 -3.8132239943024615e-02 2.2436307272755585e-01 -4.5061667910022152e-01 -2.5341647917004593e+01 -4.4419452306610765e+00 -4.9786262057721615e+01 -1.3196459383661550e+00 7.3543812120249186e-03 6.3816521843164082e+00 4.9295283314350513e-02 1.9101509289612295e-01 -8.1101367645459277e-02 -1.6145441102862378e+01 1.4113901150467427e+00 -1.8292079501322860e+01 -2.4945556369435508e+01 6.9470874135149074e-03 -3.6875060298257267e-01 -4.7850265117972413e-01 5.3007773936815283e-01 1.3667808083122509e+01 4.3006788860657252e+00 5.1918101303279400e+01 -1.3324970232210944e+00 -6.0223351728950547e-02 -1.8071823604987003e+00 -3.4923501231332921e-02 6.4716466667778150e-01 3.8363213509626348e-02 -1.0084747604971199e+01 7.8101250636609620e-01 -6.5129676463002397e+00 -3.1195270262760459e+01 -3.0046391373616643e-02 -6.0562707919962122e-01 1.2820106318223050e+00 2.0161342586636692e+00 -3.8859311969790724e+00 -3.3860105061321519e+00 -4.1421285567805171e+01 1.6398708761893204e+00 6.1007811204312201e-03 6.7713814387097955e+00 1.2271283430839136e-01 -7.4633758170205056e-01 -5.2034866073775277e-02 3.7949912458043400e-01 -1.9279418129892747e+00 -8.3847853106417460e+00 -3.2280501294211717e+01 1.2537486492224303e-01 -2.3280712466453224e-01 2.0460977871039177e-02 3.3711179760439336e-01 8.8518823722552042e+00 -1.7279075335536618e+00 5.2208305211737752e+01 -1.2325218160364670e-01 -4.0110063079794145e-02 -1.3497335066116648e+01 1.1623397674611624e-03 3.6441270596696995e-02 2.3384135922299265e-02 1.7176602069230285e-01 1.4332920835386176e+00 -1.1331897176429720e+01 -1.1562645777410944e+02 -1.6758048095880440e-02 1.7614046720112242e-02 -6.9865731141248943e-02 -2.0627229394449387e-01 9.9098892233760125e+00 -2.2559373818075983e+00 -2.0025956551544368e+01 -8.2668648199046402e-02 1.9798641752700519e-02 1.0072704330830675e+01 -6.7454305041451335e-02 -3.5899177736246202e-01 -1.1481007829604260e-01 1.0299763562361477e+00 -1.0034133127074938e+00 1.3607905028784444e+01 8.3458278973892448e+01 2.3246944391468105e-01 5.7956829496288265e-01 1.4749401458163480e+00 4.8273971315757080e-01 3.3394681891646542e+01 4.6495890244041220e+00 1.1392948207445443e+01 9.0901824357193473e-01 1.1083769562810097e-01 -4.4260760966723012e+01 -5.2879034539681527e-02 -3.1309935389326959e-01 5.7041749814901226e-02 1.4057544979561499e+01 1.2233616652676567e+00 -4.4278623325641092e+01 -3.2649344887613552e-01 3.9296225734509083e-02 2.1292019340587842e-01 -1.0958931073026594e+00 -9.2141490341691679e-01 -7.0361073702060821e+00 -1.0508478696731800e+01 -4.7159549221396446e+01 -9.4885753143966878e-01 -8.1086191717979261e-02 -4.0691333561480860e+00 -2.6343751463542731e-02 -3.2206976801080600e-01 -3.5718326706334125e-02 -8.8435600400862313e+00 -1.3416509820171996e+00 -8.2874223679900751e+00 1.2679769635892444e+02 9.2653147612736575e-02 -6.5971058028317486e-01 4.4300817049675567e-01 1.6814618140065249e+00 -1.2809062438196634e+01 3.3501689509612333e+00 9.4883071612566710e+00 -2.2525543456035280e-01 6.3390370913080085e-03 -2.2246806499344530e+01 -7.9860872379867942e-02 8.3480487095130229e-02 -8.4317954935571038e-03 -2.4124133426557819e+00 -1.8182731044871616e+00 2.9657075186551083e+00 9.0825243492756272e+01 1.6465998656229885e-01 -7.8456638520947308e-02 -6.9484971394240347e-01 5.6180468237653258e-01 -1.2624016259833297e+01 6.5232380360394018e+00 -1.5051122637744993e+02 5.0923128444878785e-02 9.3252867082770807e-02 7.1579510871961247e+00 9.7130027834273269e-02 1.3712152391963173e-01 -4.6052544752456015e-02 1.0374423207351356e+01 6.2002709064654482e-01 5.7830357188031485e+00 -2.7292264096031431e+00 -9.2486554337028792e-02 1.3804986275158697e+00 -6.0376051862305911e+00 9.4931304678971173e+00 -1.3747504490423285e+02 -6.1919057514249289e+01 2.1980498595919926e+01 2.1998273617106399e+01 -1.5292782661398063e+00 -2.9205171099353549e+01 7.5729946248630853e-01 8.7398997883040757e+00 8.2919106225829609e-01 1.2276765983238874e+01 -1.9749483961609073e+01 -7.6972234509638000e+01 7.0437038214289737e+02 -2.0653309263168733e+00 1.0791994468909678e+01 -2.9907002571940211e-01 -4.6181264165352331e-01 -1.1235352310613962e+01 -9.6447683982551098e+00 1.4183064347133040e+01 -2.5201453140997074e+00 1.0415586127464849e-02 1.0264764779887628e+01 1.1513491122741470e-02 2.5161877068285321e-01 2.0844197521732610e-02 -5.8989181363722309e-01 -5.9749817838110175e-01 -3.4733415977098048e-01 8.9236222759558586e+01 -1.6783787427328889e-02 1.2546969654545137e-01 8.5100456509458500e+00 -8.1079650341533345e+00 1.6062246694464014e+02 5.9809212323818045e+01 -3.9046384299471583e+01 -1.8919615591288000e+01 1.5665261564019874e+00 -8.2471317153467680e+01 -6.1371261146847644e-01 -9.4707292410308348e+00 -7.5162926090006543e-01 2.2112195899123954e+01 2.0868860060554017e+01 7.5648255760881852e+01 -6.3870514954398732e+02 2.0321849994866383e+00 -1.0255801031725952e+01 -3.8675192189426610e-02 -1.3623915127210422e+00 2.8816055682312363e+00 -1.7203604793249337e+01 -1.5676661059441226e+01 3.3050629994167315e+00 2.5854597706079119e-02 -1.4773493271418846e+02 -2.6829267445762639e-03 9.6797947308150389e-03 4.4943850932526175e-02 2.7878052880496526e+01 -1.0508812391119893e+00 -2.1153891184475025e+01 -3.0894165178601668e+02 -1.9226646095382466e-02 2.5448007205612064e-02 1.4427828660790234e+02 
      </Row>
      <Row Index="176">
        -5.7905083331057483e-02 -8.8751298131256817e-02 1.5845937072390370e-01 -4.0719974177125096e-01 -3.2043623322511849e+01 6.5971637457618471e-02 -1.1623909823306411e-02 -2.1231275296413514e+00 -8.8877293089224985e-02 -7.6515018220561615e-02 3.5214658940368793e-02 -1.5874302597822378e+00 7.6774896949018512e-02 -1.3100003126114643e+00 1.7501329052779511e+00 1.1162024679537197e-01 -2.9174743792503932e-01 1.6750060437320258e-01 -2.1455714059884201e-01 1.1920990662724762e+00 1.3933139089203905e+00 9.4313577795401216e-01 6.5039864712311157e-02 -3.2445922225917911e-02 -9.3361589563414782e-02 -2.4594009840892994e-02 3.1565369426016332e-01 1.7568146354667746e-02 -2.9167470302074747e+00 -9.0826497271564222e-02 -3.9542063369766254e+00 -7.3388494681148586e-01 -1.9326555332562112e-02 -4.5611196629636197e-02 -8.7410622983696840e-03 -1.7497188703023880e-01 5.4216371281358988e-01 -3.5803498490931815e+00 1.7771709500957513e+00 -3.0690764846355023e-02 -1.1690530149044065e-01 -2.7978020225236833e+00 7.9841236936431415e-02 9.6387178246914118e-02 -3.1960996119095419e-02 -2.2014277803111781e+00 -8.1461653031624337e-02 -1.1248050616518412e-01 1.1340185214248777e-01 1.1433158204899030e-01 4.8381268434513913e-01 2.5547084919548091e-01 -6.0010421545882764e-02 3.3110859518728830e-01 1.3192000285125687e+00 1.2307022622320801e+01 7.4443315500371199e-02 -1.5539445387086737e-02 -8.6963247276435141e-01 1.1180188985312967e-01 -3.1347002399510870e-01 -5.1143319164421719e-03 3.6300653138425787e-01 3.8721599462333955e-01 -7.4062590756852842e-01 3.3276375289860880e+00 -1.2827917211635231e-02 8.1145309666936782e-02 -3.5324496469314681e-02 2.6437590717819148e-02 -3.6957148028841402e-01 1.0859092987957411e+00 7.5482264417223632e+00 3.8670612408663985e-02 -1.1719969181522183e-02 1.4285022069816478e-01 -8.6601487473259908e-02 8.0189515152937929e-02 9.7612583460584545e-03 -5.8412200317161478e-01 -2.5327096788362269e-01 -1.8250417669081003e+00 -4.1996473182894078e+00 4.1881533815278260e-02 -3.2941474411336724e-01 -6.2429043633819958e-02 1.1651925691080578e-01 -2.3723864787672255e-01 2.3172379421066580e+00 1.4153906423278386e+01 -2.3364456310801529e-02 5.5189214607416659e-02 -2.3798593915005313e+00 -4.7238521528328192e-02 -4.1754621250220225e-02 -3.7466107100977863e-02 1.0790387073134298e+00 6.6601500116941992e-02 1.3020667589389632e+00 4.2160146071628333e+00 -2.1691570188079012e-01 -2.8924617997120095e-01 7.3793418353963425e-01 7.7787450347387477e-01 1.7577813027318143e+00 2.1324963526922147e+00 2.3887538233539090e+00 6.5370376378403261e-02 -3.2989838074530820e-01 6.2027848057323318e+00 6.3161525820904707e-01 -1.1899325606809548e+00 1.6391427217507676e-01 -5.0502414403249531e+00 -6.1850911070839487e-01 -1.7128067602843657e+00 2.7927860695917843e+00 1.2429309073721539e-01 8.2041367531160958e-01 -2.9360910796094730e-01 1.2998279464886764e-01 1.0485249698027701e+00 4.0215238909010509e+00 -2.9620209246058948e+00 -4.3087877013645470e-02 -5.0178591152630236e-02 2.0584351865295503e+00 -1.8227957765029146e-01 4.9856573525605086e-01 -3.3505150154316654e-02 -1.3457477798264108e+00 4.6855278105260822e-01 -3.1975182490825773e+00 6.4474476078326006e+00 8.3765471735484542e-02 -2.5789565421779681e-01 2.4162202752611162e-01 1.8573111532103326e-01 1.9066997840843669e-01 -4.7705282177016670e+00 -1.1686090659204638e+01 -8.5757545716983685e-02 5.3935903779969152e-02 5.8524006476000068e-01 4.9588520362604527e-02 -1.9190479874996669e-01 -3.6044414290359317e-02 2.8218211695061655e+00 2.5809712990849221e-02 3.3065844035531882e+00 6.5294634576202952e+00 -1.3019249515477327e-01 7.0580294647569986e-01 3.1097119373195170e-01 4.9427424254872676e-02 4.1237870394218135e-01 -2.0793030720542447e+00 3.2903024963685311e+01 -1.1657724492054555e-01 1.4400322951828071e-01 3.4705726500033052e-01 8.4034517651057961e-02 -9.4095286174513149e-01 7.5401808447153940e-02 4.5242387587031772e+00 -3.5700112088079550e-03 7.9287079080279455e+00 -2.2028521285809802e+01 -1.4365063959444768e-01 -5.0428047815465504e-02 -1.2452927816961589e+01 -1.5484409070898550e+00 3.6824904861427683e+00 2.8874700954593209e+01 -1.2582858536305139e+01 -1.5292782684500106e+00 9.8345859782976497e+00 -4.0995889873880003e+01 -1.1895676867170657e+01 2.0499408339179229e+01 -2.3674154317027605e+00 -2.3376278556553871e+01 6.2878337768842476e+00 -1.9321425680425477e+01 -1.3421539581375058e+01 -1.1997715131599538e+00 -4.0688460624134152e+01 1.3041158341587789e-01 2.6035346512571778e-02 6.9700167226937992e-01 2.1855994470970472e+00 -1.4637556943576783e+01 -7.0771443212528817e-02 -1.0151195687182479e-03 -2.7943879582976479e+00 -7.2262137624576894e-03 3.1860669491294402e-02 -6.4120543846862832e-03 6.0366450977380737e-01 9.4780128087407434e-02 1.4761164371666382e+00 2.4891798118369479e+00 -2.8758791329055455e-03 -1.5436263914999415e-01 1.2364599655456225e+01 1.6332350804412208e+00 -3.3658355303896315e+00 -2.9169716069901440e+01 7.8941399382183590e+00 1.6190811979551114e+00 -9.4915068244290879e+00 4.3111404937732004e+01 1.1669912205886217e+01 -2.0103804663889349e+01 2.3180318815649414e+00 1.4425332904777694e+01 -6.3068829049857911e+00 1.4269711416538380e+01 4.9455077829738485e+00 1.0780649708561301e+00 3.8619631565545433e+01 -1.1891018549546439e-02 -5.1363026374945986e-01 -1.6507407499148030e-02 -3.0921216219150445e+00 -5.0413403666956578e+00 5.2022367667489355e-02 4.9243383298849253e-02 -1.5748507777869407e+00 -9.8837358915293549e-03 4.2712601589516286e-03 9.0283393041898918e-03 -3.5151907775995195e+00 -2.9789113448697369e-01 2.8422807075678693e+00 3.5395837133033936e+00 1.5104801212887264e-02 -1.5022647317522037e-02 9.1245379104769775e+00 
      </Row>
      <Row Index="177">
        -1.1240278031415073e+01 -1.0465978015097789e+01 -6.9686947829555720e+01 -2.2489517655898817e+02 -2.4263825100660324e+03 -3.7408345016447129e+00 -3.1647148936339136e+00 -2.1587694810116664e+03 2.4319101964483707e+00 -2.7563167485408485e+01 1.0729580051283847e+00 -1.8426446898543509e+02 -6.0615288933739066e+01 1.4519384050741792e+02 -5.6306331119779497e+02 3.2739216684058192e+00 4.7688605047762394e+01 -7.5453987604851136e+00 1.1626011551255942e+01 -2.1085118886968121e+02 -9.1592679212801158e+01 -6.2891487653255463e+03 -4.8965427179791732e+00 2.3498493943807262e+00 5.8399709594110027e+02 -3.7474494032721850e-02 9.1356062127742916e+00 -9.4634761903216713e-01 7.9640258858154994e+01 5.9420511931355577e+01 1.7742515908004134e+02 -9.2408803347125649e+02 -1.5839304283113051e+00 7.6753017663868377e+00 1.7388587343884865e+00 -1.1627243330993224e+01 1.8538423697464168e-01 -3.3478037192672491e+02 -4.7119657700061798e+03 1.1436566517470055e+01 -1.0562534483178752e+00 -4.5574251596257091e+03 2.8257436168496497e+00 1.6789578083436936e+01 8.5176355625844735e-01 1.0350274085253477e+02 1.4340897605288774e+00 -2.7235713305464014e+02 -4.4085039616841823e+02 -3.0464342060586205e+00 -5.7895746100693941e+00 -6.5164335381289362e-01 -9.0328953255462693e+01 -5.3121551432646811e+01 8.0881143029965460e+02 -3.7999347292184830e+03 -2.6081081801348773e+00 -1.3500476375748534e+00 -1.4664062722474337e+03 2.0688931792941752e+00 2.4969135279752663e+01 1.1044672838561382e+00 -3.8454684595577419e+01 -1.2023073568998370e+00 -2.1898134411312640e+01 -1.2340475890040398e+02 4.9562496890030161e-01 8.6667447150437511e+01 6.0026029566215584e+00 -2.7592656605236698e+01 -9.2211224026978016e+00 4.1092234545759857e+02 -1.8514296645402908e+04 -2.3614070385829109e+00 9.2388411914316748e-01 -2.8495332607403398e+03 -3.8226151321432553e+00 -4.4479815792292356e+00 -7.6158112273333245e-01 -3.2971061295457184e+02 5.7681213892763481e+01 -1.8103387592957006e+01 -9.0500972916791216e+02 5.8271674976567738e+00 -6.2675277357480809e+01 -3.0478032389146392e+00 -1.2099826443009079e+01 1.3842334203247447e+02 8.2962279487773776e+02 3.4555012029409409e+02 5.5108417140290840e+00 -1.7631035767408321e-02 1.1360392331262119e+03 -4.4154770783643471e-01 8.4426722736097872e+00 2.8138409097658208e+00 -2.1159433529712260e+01 -3.0643237793055960e+01 -1.3436474179849029e+02 -1.2589809083007276e+02 6.2601189940105542e+00 3.6454179843422025e+01 -1.9298175520297036e+00 -2.6920155270927353e+01 -4.4885912479367107e-01 1.5282763733789325e+03 -2.4544059957265854e+03 -9.6804501046563303e+00 -1.1283443234518522e+00 8.9112633981501203e+03 -7.2123944350620235e+00 -1.6317213461146437e+01 4.4103815014974410e+00 2.8586528158839792e+02 -1.3855891752614377e+02 -4.6129415792832151e+02 -5.2254075475935824e+03 7.3563833775871785e+00 -3.7811279905354397e+01 -3.3024579536074157e+00 1.6141362924769055e+01 -2.6589616596582346e+01 -3.9093822969764005e+01 3.9699072173833847e+03 1.0673362795127446e+00 6.3325283506856067e-02 9.6897730297688395e+02 -1.6337637460419501e+00 2.4010744323604740e+01 1.4432967831935457e+00 1.0651047614961863e+02 1.7860751468571834e+01 -7.8395234697032720e+01 3.9117435193830170e+02 -1.3164121353070186e+00 6.3079643373785075e+00 7.0211279222276062e+00 -1.2176918260287493e+01 -6.0608748418977484e+01 -7.7459282075520605e+02 5.8354978724718094e+03 -4.7805983179787290e+00 5.7139441578594485e-01 1.5375000066682696e+02 -5.4201161375203810e+00 4.2179632911575027e+00 1.2942699216646361e+00 6.7483576772268862e+01 3.6658899098169059e+01 7.4972840539645404e+01 -1.0703985375538468e+03 -3.1228835078436532e+00 -6.6746796390856616e+01 7.2630418669214123e+00 -2.5256412861868739e+01 2.0828950021264609e+02 -3.5265858982130885e+02 1.7608789689660072e+04 1.5175201473088237e+01 2.5217611409240561e+00 4.2324058471582830e+03 -6.7243619291282073e+00 3.0442688676179387e+01 -3.0110740521558910e+00 -2.3172205163352191e+02 -8.3854644011938944e+01 -4.4269342978578061e+02 -1.1114539760909975e+03 4.4995215262315469e-01 5.2089129318371306e+01 -1.7622228945774602e+01 -5.3670547153305961e+01 2.8302710521664467e+03 8.8596306854602881e+03 -2.0174357149656862e+04 -2.9205173525733322e+01 -4.0995890471728025e+01 7.3464559133220260e+04 -3.0556079235261080e+01 2.6357103954693611e+02 3.2872792384823697e+01 3.9111523389057975e+03 -1.3918988853021358e+03 -2.0168209016907035e+03 -3.9881386901284714e+04 -1.1303401104206095e+01 2.4365996509570027e+02 -6.1073837890580762e-01 1.6677151268813759e+01 -8.9495888297446072e+01 2.5256295070052147e+02 -1.8176939311385155e+04 5.0708946836705309e+00 5.7074602280408726e-01 6.0062453626515344e+02 5.7165805832482874e-01 1.6267381472804118e+01 -2.7104359001441480e-01 -3.5626146648079157e+01 4.2523775693291100e+01 3.5161350876092911e+01 -1.3124850427582860e+03 -1.4809116028191056e+00 2.9591336132391007e+01 -2.2411761867793629e+00 -8.2915910285372831e+00 -2.7933508622478089e+03 -3.1712735865237755e+03 -1.1017124995880295e+03 5.7627069151801891e+00 3.5303534966348010e+01 -4.8933861439006403e+04 3.1802259248724219e+01 -2.7656294535624812e+02 -2.6132947739039022e+01 -2.6629008474020375e+03 1.0303754385777979e+03 5.1741069011477612e+03 2.8281957261586853e+04 2.2517045560806885e+01 -1.6435530106125884e+02 -3.1258304804850923e-02 2.2849294523644630e+01 2.3200994476880936e+01 9.2206954103609205e+03 1.0280261128042930e+04 -1.4695606651545255e+01 2.9635583716481051e-01 2.2166586022651943e+04 -4.2496933371057821e-01 -8.5486185044305785e-01 -6.8635854493186343e-01 1.4132057000203786e+03 2.8237030354545504e+02 -8.1327552876390555e+03 7.0740577687356708e+03 -1.3703617961590346e+00 -1.6836930312069853e-01 -1.4177431117656550e+04 
      </Row>
      <Row Index="178">
        -6.9378118820335288e-02 -5.0801672329228609e-01 -5.6839290740595061e-01 -4.2596540897159230e-01 6.0273660211445531e+01 -1.2129483183355383e-01 -1.6309061809351197e-01 4.0813090803862906e+00 -2.4343565982351034e-01 -4.1276077445274950e-02 3.0109849180066561e-01 -1.8833839148312137e-01 8.3825914249030120e-01 2.7256962722631215e+00 8.1554826141057220e+00 -7.6019626672916729e-02 -4.2895681116277729e-01 7.4225259233868002e-01 1.8796670291013839e-01 2.1093873347959970e+00 -4.0914128694203100e-01 -2.8457682351581752e+00 4.7958467138089489e-02 -5.3707568453184251e-02 3.5570924017647485e+00 -1.2223703908860006e-01 -4.7574139618836853e-01 2.9407878945930221e-02 -6.9104854761060039e+00 1.6168187580376525e-03 1.0454497818513836e+01 -8.2680471492194556e+00 -3.4219377885630675e-01 2.4299475384978564e-01 -1.5323578849779551e-01 7.6055416632220840e-01 -2.1711582103132514e+00 1.3766216466538026e+01 -2.8772655288688838e+01 2.3124395843729673e-01 5.6160268073206510e-02 1.1506181818755067e+01 7.2097589908068471e-02 6.1150697341673776e-01 -6.2974262461659603e-02 -3.7395249023408041e+00 -7.0451128482665126e-01 3.8424717810335096e-01 6.4087315890801619e+00 4.5309235385766300e-01 7.5416770471838390e-01 1.6378523354492305e-01 -2.5827243937094124e-01 -2.1744147296170695e+00 -6.6957982796989199e+00 -7.6127314228797331e+01 1.3799846490741174e-02 1.9343177850173010e-01 1.2242324348771945e+00 1.0622053500125439e-01 5.0945182582604076e-01 2.7585294207044253e-02 -2.3379261391978332e+00 -2.2611065988026979e-01 2.7492584492174501e+00 6.7634836725028435e+00 1.8759327412167637e-01 -9.1051581019606331e-01 2.0438914347954551e-01 -1.2076928884061999e-01 4.3513649337057814e-01 -6.0737230959521185e+00 1.4285237272590166e+01 -3.9124026251426081e-02 -1.5710864449989403e-01 5.1002405924018603e+00 -3.4782284212312931e-01 2.0045584103456804e-02 6.9042354835488595e-02 1.0781537904051675e+00 -4.1473244965669664e-01 7.1823402386039774e+00 -1.1447974898636858e+01 -3.5513869723673608e-01 -2.7281356491719588e-01 -1.4872134037712215e-01 -5.4902455607202683e-01 4.5761032553571113e-02 -7.9599687011536844e+00 -4.1058057655289304e+01 -1.1774970283112651e-01 -1.0477383440677634e-01 2.8225137903609152e+00 -1.5538558551685000e-01 8.5589231483368167e-02 -4.0374813798278675e-01 -1.8075032830213331e+00 5.0331927697085010e-01 -3.7831133041978546e+00 -6.0550781645042662e-01 -3.8771211954738760e-01 -6.0021761069958757e-01 1.6815684152127872e+00 -1.4764737879381258e+00 -9.5195524459276157e+00 7.2367566676075512e-01 7.0015511359670199e+00 -1.6941020112176908e-01 6.3462004370764458e-01 2.3538349396194462e+00 -2.8072119178746151e+00 9.0464330371489687e-01 2.2623142183412748e-01 1.1583218273647731e+01 1.8516537037204728e-01 2.2273256215325773e+01 -1.8330079129775640e+01 -2.1601676118399871e-01 2.9154114707247913e-01 -4.1174371417943784e-01 -4.2390839825202420e-02 -3.2237102476597101e-01 -6.8061173675583291e+00 -1.7380191043514060e+01 -3.6172623538884077e-03 -3.5612417400097440e-01 -1.3976516828814056e+01 3.8654142526346114e-01 1.2858190226738486e-01 -2.4070723333024624e-01 9.5088355828039539e-01 1.3838675044416959e-01 9.1342310967193043e+00 7.6037180217630294e+00 -1.1184201922265213e-02 1.9634282248569734e+00 3.1012931604175975e-01 5.6155028606593760e-01 -1.0620305143608562e+00 9.3458499182684136e+00 -9.8618192316207569e+00 -1.1154517127268448e-02 1.4285325693458706e-01 -2.8148924680308482e+00 -8.4487479394685039e-02 2.2458750423434992e-01 -3.4819720305105006e-01 -6.4086776287501834e-01 -1.6850676839567313e-01 2.9809208501706053e-01 -1.0417757981468640e+01 2.3084561226005462e-01 -1.9324050662712011e-01 -4.2039348578536817e-01 1.4200686674485041e-01 -2.6140763003701295e-01 8.5993916688162244e+00 -2.9284539040323580e+01 1.9541531211542207e-01 3.8862155651284924e-01 2.5187747612744715e-01 7.4971481754444547e-01 7.4060309355604659e-01 -1.0787187535533960e-01 3.1671661891932672e+00 3.1682836229845179e-01 -1.3690629964795789e+01 7.3751956936266652e+00 -3.2823931355288849e-01 -6.6534113273467188e-01 -1.4532082982175083e+01 5.3116714092881523e+00 -1.4582806566226054e+01 -8.0515624261715857e+01 -1.2880696115436876e+01 7.5729946783412294e-01 -1.1895676869566012e+01 -3.0556078155277078e+01 4.5421367655021172e+01 -3.4334951661428505e+01 -3.1912669972053198e+00 -7.3375456287671682e+01 -3.8278578545380881e+00 7.7149934218853105e+01 4.1998271467779432e+01 -3.0374854170004824e+00 2.7580444779548117e+00 4.5526201251460918e-01 -3.1945182572371777e-02 1.3733533536105824e+00 -4.6229297354730079e+00 -1.0754802897688933e+01 9.6805964416956103e-02 -3.3831078163526485e-04 2.6948950298162799e+00 -7.0208277100348937e-02 1.1023523159420279e-01 1.6271411403490199e-02 7.7866650756186573e-01 8.5971461600337307e-02 -1.3738810818758793e+00 3.7404746139427516e+00 1.3002791518316270e-01 -3.1310429548358343e-01 1.5507764320321080e+01 -6.6809041072473967e+00 8.2878958811247685e+00 9.5086594191841115e+01 -1.3507416962047500e+01 -9.7969383661851095e-01 1.1641064019994820e+01 2.5833444556324139e+01 -4.5089335264641264e+01 3.2383656831760611e+01 3.4541902781043663e+00 6.3902018774578806e+01 6.0381178618385718e+00 -9.5789966359449039e+01 -3.8754242498132825e+01 2.2461206992704064e+00 -3.4082344846319188e+00 -3.4294578472630954e-02 -2.4188687537096243e-01 -6.9622628558038802e-02 2.5098320866572337e+01 1.0904612565814622e+02 -1.3412850229920520e-01 1.0741943434413193e-01 -1.4034666244219533e+01 -7.3686559421652031e-02 -2.0243605864334935e-02 1.3051104395020419e-01 -2.4365286259889274e+01 -4.3161342298346401e+00 8.3558646856343344e+01 -3.0110651938778119e+01 1.9108111910494108e-01 -2.3250384365473213e-02 -5.9263688611971297e+00 
      </Row>
      <Row Index="179">
        1.4051113986511155e-01 2.3080134497413383e+00 1.5158777149918023e+00 -5.6659464956610464e+00 3.7756431728834286e+01 -3.0889529969931573e-01 -2.0999311491667072e-01 -5.4014254211797379e+00 5.3494413920347483e-01 1.3941361306977342e+01 -2.8263412255523690e-01 -6.1461196812701928e+00 4.8699050916548003e-01 3.5039671887352597e+00 1.6784980069591256e+01 -5.9609402125602173e-02 4.3674463447632661e+00 3.3836460179109054e+00 -9.8884045911268004e-01 -1.4562252399045974e+00 -6.9519202405354008e-01 -1.1208273225650191e+02 6.3766167619564840e-01 4.5066250438054567e-01 -4.6074040858693479e+00 -8.4489824508932543e-01 -2.9481638106040919e+01 2.9720423249034411e-01 3.7792165573659076e+01 -1.2153434462334189e+00 -3.1643097160947946e+01 -1.7333260248269653e+01 3.1806069743666399e-01 -4.7095128429273245e+00 1.2469854777696128e+00 -2.5987887555120324e+00 -1.0452243995896424e+00 -7.5079943053424358e-04 -6.9015545398462564e+01 5.2227988714366802e-01 1.6422576171362380e-01 -1.2832710714079440e+01 -7.4486402102752436e-01 -1.4570631547336234e+01 4.6369164585908607e-01 2.5257442560323398e+01 1.3096741091831063e+00 2.0416268227563705e-01 -6.2533786229905672e+01 7.0602418079488416e-02 4.1591376680153189e+00 -1.2612587547267129e-01 4.5040885728963076e+00 4.1234627570956945e+00 2.5291157944593579e-03 7.9594940823316574e+02 -4.2817318611122346e-01 -5.9363353578057332e-01 3.2747842641547322e+00 1.6391236023275724e-01 2.5533273526262747e+01 -2.1157617710379384e-01 7.6477377657301986e+00 -3.1290331117920687e+00 7.8206934238260146e+00 -2.4705354830541182e+01 -4.6797487135289373e-01 -2.2130125979970217e+00 -1.3306618088142841e+00 1.1188559358988641e+00 1.3486968194483779e+00 -1.3796852107363520e+01 -1.5623931459896266e+02 -1.1326056032254428e-01 -9.3541516011264036e-02 -4.7869764184695669e+01 1.2756126432609562e+00 3.7249252652192808e+01 -2.3308547338888275e-01 1.1591963074941305e+01 -4.2053246810355631e+00 4.2268935020811114e+00 -1.3192623345219181e+02 1.4663409105014580e-01 2.4565592638092539e+00 -2.9681968937325109e-01 3.0260939832878648e+00 -2.6132610234362801e+00 -3.3465139939216897e+00 7.5701899955980480e+01 -2.8295745280956908e-01 -7.9347753685340194e-02 3.2791669105281471e+01 5.3157635922048030e-01 8.0719458769453922e+00 1.0623614186101860e-01 9.8601452754519414e+00 1.0872710358888185e+00 1.6182947360255639e+01 5.5334293468331452e+01 5.9518170702619955e-01 -8.3299508391719428e+00 2.8501677661937030e-01 -4.5165384118331531e-01 9.5255485187662998e+00 -3.1988162213383475e+00 1.4185929564386606e+02 -1.9220483263464083e-01 -4.7876114911413525e-01 -8.9415671767729805e+01 1.4307879719327206e+00 -5.2366525180011195e+01 -5.4159495207342001e-01 -2.7623799064931518e+01 5.2056022052654498e+00 -3.0078778028204397e+01 1.0980211129838426e+02 -4.1350695051401098e-01 9.5122921665285602e+00 -2.1024887010030699e+00 -3.6189876203934546e-02 -7.4709402922617301e+00 7.6811092958087102e-01 1.5328262980096042e+02 -5.8706428717407633e-01 -2.9647923562319534e-01 -1.8696566056736629e+01 7.0017939648300853e-01 2.4454473745776340e+01 4.9215014925216849e-02 -4.6988931097475870e+00 1.1596763781650225e+01 2.6782977951443172e+00 8.5418647150370816e+01 1.3196074550680237e-01 1.0614495570018164e+01 2.5178368759966361e+00 2.4144076637003309e-01 5.0046288247649500e+00 2.5480448895541485e-01 2.7998903975170106e+02 1.4429318202491004e-01 7.0667685382448919e-01 2.1925913058978040e+01 -3.6104273983846724e-01 -1.9169687956419693e+01 7.2984201186170594e-01 2.2452372916071909e+01 -8.7606033157499041e-02 -3.3764900632959325e+00 1.2152665706418338e+02 1.1356430373450621e-01 -2.5657205978295679e+00 9.1403328698220321e-01 -1.3511536383884959e+00 3.5477328634660807e+00 -6.9543976506683975e+00 -2.3567222448438406e+02 9.5321903314470546e-02 -5.5296819907704275e-01 8.7212432427913882e+00 4.5806429613446653e-01 -1.1066429369046091e+01 7.9222354878538681e-02 -4.5050176785443909e+01 1.8545891462272266e+00 3.8124231042573228e+01 -8.7392716762871714e+01 5.1050466433366637e-01 -9.0439123760129547e+00 1.3245955317762411e+01 -4.7777381532802792e+01 -7.0777224492325729e+01 1.3504347302760289e+02 2.0191582874138840e+02 8.7399000768887500e+00 2.0499408360687877e+01 2.6357100359378916e+02 -3.4334951702391010e+01 1.0783623483495019e+03 1.0062537428601473e+01 1.2690446629647040e+03 -3.1512891165818626e+00 1.0088239373007241e+01 5.0571910144085109e+02 1.1485712047208395e+01 -2.1111482527658472e+02 3.7246381949535134e-01 6.1964612529845908e-01 -2.5898230269376654e-01 -1.9182449850719422e+01 3.2836143388226628e+02 -5.8320592031317275e-01 -2.3405360709818979e-01 1.3074874318175716e+01 4.6581567204907515e-01 3.1300349659583844e+01 -1.8262313965962917e-01 1.7755221718864050e+01 9.4538483995893330e-01 1.6469555303920060e+00 3.7196154968813062e+01 -1.8540389159340975e-01 -2.5782797145748191e+00 -1.0218882604252819e+01 4.7284245297068338e+01 7.6214155188059976e+01 -3.2439131120474224e+02 -1.6973748506181801e+02 -8.2332004572137603e+00 -1.9655727853019389e+01 -4.5119782183654024e+02 3.2365191952225757e+01 -1.0164333297390810e+03 -1.0173083569561628e+01 -9.8771009467822000e+02 3.5837151681710253e+00 -3.5553323273467413e+01 -5.3519022345623364e+02 -1.0862337936483168e+01 2.0257002453718150e+02 -6.4452847993393902e-02 -4.3995925977224744e+00 -7.7706108222310999e-01 -4.0649772223904421e+02 -5.1134454496930346e+02 4.5801331359468489e-01 -4.3253855185454881e-02 -2.7011069557406563e+02 1.4145537189354229e-01 -1.6415293364732335e+00 -1.1446392900418800e-01 3.7821197582512684e+02 -1.7696055829269959e+01 -1.6558377164914333e+01 -2.1529929349258737e+01 -1.8279835114497001e-01 -3.1822153114536311e-01 2.8515128458183619e+02 
      </Row>
      <Row Index="180">
        4.5140766251144271e-02 -4.2447539246950328e-02 -5.0294937226954062e-01 -2.2220258891952653e+00 8.0604006622888846e-01 4.2858096021866743e-02 2.8829504318833576e-04 -2.3233721751357734e+00 -3.9564187952762175e-02 -2.4641110111588205e-02 4.8559922945392486e-01 -7.7219631233862174e-01 -1.8830829372200242e-01 1.1179950855353127e+00 -4.5638396343679233e-01 3.7644958274096041e-01 -2.4923680258345371e-01 1.8481179134390402e-01 1.9519538356446731e-01 -2.2451145679629008e+00 2.3842113582759339e-01 1.2361966403666884e+01 -1.4705567407837705e-01 -5.4485860327257996e-02 4.9828498756369299e-02 8.1078030315867800e-02 2.5021967385328026e-03 1.5101646594196438e-02 1.3792452922917846e+00 3.1209105172706586e-02 -2.9198558208041732e+00 -3.9912643640800525e+00 -5.1613243177746160e-01 1.5688234077975949e-01 -2.1174999072731282e-01 -5.0864728169699447e-02 -1.2866383135587967e-03 -7.5196639387031610e+00 7.5281059220433235e+00 -8.5503363098808904e-03 -4.9532557005285582e-02 8.9066895126597956e-01 -2.0075230769016628e-02 5.9187685050335404e-01 -1.8582691604111634e-01 1.4643955545000154e+00 1.8478853777799031e-01 -5.2075060633517296e+00 -8.2258388521240704e+00 1.0988218007555872e+00 4.1178379569601020e-01 1.5018920149826265e-01 7.4981314794172249e-02 -2.4833301266469334e+00 3.6180957593996936e+00 1.5995455213589594e+01 2.8275967659267209e-02 2.2931053872048079e-02 -1.7487044689696631e+00 7.9554609726681491e-02 -1.4884842159293754e-01 -1.0598186909895668e-01 1.0710149541756664e-01 9.3865505993946385e-03 -5.9823175407113922e+00 -3.1703318647578271e+00 4.3658070120938364e-01 5.1698605721031754e-01 -1.3900316156885140e-02 -5.2818114027871843e-02 9.3994066414848021e-01 2.9891001989308279e+00 -1.0648333847697359e+01 -4.9423465346524864e-02 -4.1564017671669395e-02 1.4205428324858076e+00 -1.0403930580729082e-01 -2.0825657007367226e-01 2.0672641678543968e-01 1.0706126527707056e+00 5.4234238106755583e-01 -3.7475466194465099e+00 2.2014841157374576e+00 -3.6943675127691478e-01 -3.1644827807547671e-01 2.7657839931542583e-02 7.9069966574252248e-02 9.5203807743860125e-01 5.5553259313301169e+00 2.7288494899985380e+00 4.6404972520889487e-02 -4.0381394379869207e-03 -2.0787942455928032e+00 -1.7155976999755040e-01 -2.9867741722227947e-02 -5.5190940082563067e-01 5.2512193935081086e-01 -4.1210600027523014e-01 3.1543989970848543e+00 -2.9515222017489577e+00 -1.4368663340220600e+00 -2.1585797865475342e-01 3.3642576830195603e-01 -1.8619510465220657e-01 5.2236241460058181e+00 3.1199954355088266e-01 -4.8950763356406242e+00 2.8451625126989011e-02 1.9668819170148977e-01 -4.9222266488029618e+00 5.2306482630767981e-02 -4.2804991351778199e-01 -4.5112451621181848e-01 -7.3955874367106844e-01 -2.5677783680852606e-02 -1.6454720821183400e+01 9.1910434336659819e+00 -1.5749211601440645e+00 -1.3825640903082004e+00 -3.3150076932233324e-01 2.4815810261719662e-01 -2.9515757734247927e-01 -3.1150266352454992e-01 6.2404701155028306e+00 -5.3112714425417318e-03 -1.1594070578275417e-01 3.5998649197213126e+00 -8.7097009337130160e-02 -2.1662496246031537e-01 -2.0279614575485194e-01 -9.2118170623052720e-02 -7.0082664604336742e-01 -4.7706488635585629e+00 -7.3154878835975978e+00 3.0346618225597233e-01 6.3048650320359201e-01 -3.2649850729434604e-02 2.4215829889081419e-01 -1.4013928302949807e+00 -6.6862403312909464e+00 6.4057138149510138e+00 3.4459720753950762e-02 4.9399578203650041e-02 3.1749449724120495e+00 -2.4179068603928755e-01 3.7334138835530695e-01 -4.2924851727258284e-01 -6.3718060778205654e-01 -8.7320097299880217e-02 -2.7921099613727165e+00 -7.0493111322493860e+00 4.1550936872825517e-01 5.5362310956968486e-01 4.5033866014570378e-02 -7.1040445161543175e-02 -6.1066277371458000e-01 -1.8092516527776752e+00 1.5239405838074163e+00 -1.2172374259375118e-02 2.5016229239914534e-01 -4.0386002483228367e+00 4.9172031799820104e-03 -7.7179342137014828e-02 2.8684234896843108e-01 7.9454812604308245e-01 -9.7660629219944894e-02 1.2461676183147574e+00 5.0438696106975840e+00 -6.1669512400131765e-01 -6.2255869907463968e-01 -2.7083901484478048e+00 2.1502791045338938e+00 -1.2608008519859137e+01 7.9891805411493806e+00 1.2909477223591239e+01 8.2919112613086421e-01 -2.3674154303991588e+00 3.2872785676495539e+01 -3.1912669900330837e+00 1.0062537513195604e+01 1.0440658183062396e+01 6.7584330484678617e+01 -6.2981757863266354e+00 -3.5981215042526713e+01 -6.4718601361683341e+01 7.3460568676127336e+00 1.9611040590375655e+01 7.7179095658664210e-02 -7.5360739117513731e-04 4.3350499104781193e-01 9.7299063122773077e-01 1.5359793027630076e+01 -5.5141246557274481e-02 8.8507977887282152e-03 -1.4593786069394810e+00 -4.4759959620449763e-02 -1.3493744219084647e-01 -1.6527902884228229e-02 2.7584722176834475e-01 -8.8462122618167882e-02 2.4137751732050674e+00 -1.3601534264180373e+00 3.3018012803874175e-01 3.1898126477327082e-01 3.3126019315556934e+00 -1.9927647500557173e+00 1.6387008080892031e+01 -1.0171964489976446e+01 1.0326188316726075e+00 -8.0568936086850684e-01 2.3109096589619536e+00 -3.3964440727836518e+01 3.2700015357551919e+00 -1.0101524990038747e+01 -1.0062374004385020e+01 -4.9143206972669901e+01 5.5664248400679792e+00 2.5134216086965623e+01 5.7494445542288432e+01 -9.5945596585156832e+00 -1.9481628559576528e+01 -1.3384636693964280e-02 4.0451440267864314e-01 2.7694277836810050e-01 5.6199920107791035e-01 -2.0877365503299515e+01 5.4823399873926038e-02 4.7527896779909540e-02 -2.7897304561919967e-01 -2.6286750196888420e-02 1.2131628102193259e-02 1.8952383736091516e-01 2.5828658962513682e+01 1.7430389555103094e+00 2.3474316603835554e+01 2.6412630987731809e+01 3.4737171002661960e-01 -9.8394992192798458e-03 -9.6462829284231688e+00 
      </Row>
      <Row Index="181">
        4.0326167852254002e-01 -1.8357344637974165e+01 2.5063826275989413e+01 -1.9379030177101959e+02 5.2993939239382744e+03 1.4304229931130976e+00 -1.5883792027094046e-01 -1.8120934226084501e+02 -7.0698428198420515e-01 3.2641362067079172e-01 2.5466086106553121e-01 -1.6695402139657381e+02 1.6547395857283846e+01 1.2264178022090346e+02 -7.0376869746018201e+01 4.1716873464156379e+00 -2.0515515976003371e+00 1.3678173619780864e+01 3.0153881891543278e+01 -2.7994512975448743e+01 -7.2881101132370532e+01 -6.1456841689348221e+03 -1.0227808308942258e+01 -5.0541336497735756e-01 -6.9558611927495804e+01 -9.4858578422281425e-01 -9.7190259094350040e-01 1.8160506691219780e+00 2.6712794619209308e+02 -5.1842105165298562e+01 -8.6914105179035687e+01 -1.2910694998661056e+03 -2.7414103341366172e+00 -1.9450271778332535e+01 -1.0992172837286489e+00 4.2181406534829875e+01 -2.6172651763539761e+01 -1.3602065277844667e+02 2.4403392348885536e+03 -1.1845052831711655e+01 5.0043224942419329e-01 1.5963825688511133e+02 3.0920273715091753e+00 1.0722741505422164e+01 1.0063707672966302e+00 4.0153805992100388e+01 -4.8057000201370101e+01 -7.2074054818949662e+01 -2.2396273365546949e+03 4.4364581480112975e+00 1.4811711440561339e+00 1.0609742314590473e+01 5.4713040347851347e+01 -3.3753708760021254e+01 3.0828988796100020e+01 6.2990044987201691e+03 -8.2160846573788149e-01 -1.0754949529137940e+00 2.1053116682916880e+01 2.1368354433707282e+00 2.6353202270045585e+01 -1.1387737994691634e+00 -2.0916770172203542e+02 -5.1704332595327287e+00 -2.1709174666390754e+02 -1.6430105096846819e+02 1.4895152856115601e+00 4.2759583961269527e+00 -3.6295367093407549e-01 2.4326119708421174e+00 -3.5194351603975520e+01 -6.4778532472439110e+01 -2.4882312179803848e+03 -8.9640517677980824e-01 4.5414903639198201e-01 -3.6025983814522624e+02 -3.0581268168753013e+00 3.5830766447354108e+01 3.5321734975150321e-01 4.9549634339869954e+02 -2.2225295394833665e+01 -2.0871401754002727e+02 -3.5600000804732554e+02 -1.8964997723996930e+00 -1.7661256601859350e+00 -1.7951335606485372e+00 7.4677775040036067e+00 6.4943481177906506e+00 4.7464557207189500e+01 -1.7795946715176105e+03 -6.1237019897816936e-02 -1.2177055028460018e+00 1.0174428175803041e+02 -2.1352768497708894e+00 -3.0933309425017796e-01 2.8675013753757028e-01 -1.8140497082634829e+02 6.8318169516414855e+00 2.9396067421045154e+02 -1.2169642703142017e+02 -7.2914302744356974e+00 -2.4675054874329362e+01 -1.4675610139506915e+01 -2.1358947093856841e+01 -1.5323893475206569e+02 -7.7829618716612458e+02 -6.1440194416046143e+02 7.2792720198018852e+00 -3.5718582434311017e+00 -6.3339063510262349e+02 3.2722395634568677e+00 -4.4645646831166232e+01 6.8502250032977408e-01 9.0851222461357247e+02 3.0451685045002364e+01 -4.9011522207176313e+02 7.3317591704637744e+02 -4.2229832401844760e+00 6.9364229198233176e+01 -1.8811099642902803e+01 3.0183966381853679e+01 -1.1210297560028266e+01 6.2491539278707933e+00 3.6959396940469742e+02 -2.9024899937494553e+00 1.3514843365539946e+00 -1.0537621283950284e+02 6.6863793526208610e+00 1.4206268082780298e+01 4.4164504027480689e-01 -3.9390316541213542e+02 7.8006222174910363e+01 -1.7045589951332659e+02 4.0980281702918001e+02 -2.3639727616955497e+00 2.4675641222101149e+01 1.1091863673143962e+01 1.1184874060921720e+02 2.2558364908909425e+01 -7.1309480278752744e+01 1.1897651577889919e+03 -1.9208102333195711e+00 6.4101006551923456e-01 3.0623411703482270e+02 -5.3165573819915153e+00 -4.1449036532831087e+00 -3.0612775885401788e-01 -2.1746607352024876e+02 -2.5142710954416543e+01 -7.6121329120360315e+00 -1.6165387011226267e+02 2.1757608267580508e+00 -6.5185764609923353e+00 9.0501820897952712e+00 -1.8114651061478071e+01 6.5626258158008568e+00 1.6079748079180717e+01 -6.3963430948257446e+03 6.6916535646960256e+00 -1.1472179727167742e+00 -4.8590035017486662e+02 -3.4948411798704910e+00 -4.0634551909519359e+01 -2.2071325777105812e+00 -2.2555039462279528e+03 5.6870467250701040e-01 1.1163384752161801e+02 6.8463290313538164e+02 -2.4708883202765719e-01 -5.8355390773938325e+00 1.8049982464537777e+00 4.9892024043542915e+02 -4.6088037400805791e+02 7.4035700078215450e+02 6.5686983434241265e+03 1.2276767033587781e+01 -2.3376278297426168e+01 3.9111522773389770e+03 -7.3375455967737878e+01 1.2690446543102523e+03 6.7584329121938254e+01 2.6303078979962083e+04 1.9220470587749662e+02 -9.2023103235085910e+02 5.6959895873998357e+02 2.3041566275957997e+01 -2.0146075155080513e+02 1.4702799813894671e+00 -9.4927543326048180e+00 -4.0749075134750456e+01 -8.1298591934144497e+01 6.7147168687582016e+03 -2.6527552483876207e+00 1.2040629216617162e+00 9.0816987652331591e+01 8.7991099235659931e-01 1.7491096336074406e+01 2.3739010934957605e-01 5.4940713679417968e+01 2.6573261466866825e+01 1.0517018365487456e+02 -1.2006991777475923e+02 -6.8982032153144246e-03 4.7465180447397870e+00 7.3983287544026455e+00 -4.7304009060151429e+02 3.5667398603889615e+02 -3.7320002518864239e+03 -3.6469596278249810e+02 -1.0976795352892239e+01 1.7614496004220456e+01 -6.3145763898650184e+03 7.0932279587754536e+01 -1.1983730650320251e+03 -6.2099360068736857e+01 -2.2896317032185732e+04 -2.2549016611543419e+02 5.0250366987441453e+02 -3.5638033999802064e+03 -2.8414043977881683e+01 2.2538161643743700e+02 -9.1778530156841498e-01 -3.0494070670363271e+00 -8.6154634491138484e+00 -4.7127344163071348e+03 -7.5098717372885940e+03 1.6169382701754191e+00 -4.8850958666889710e-01 -4.2773484089994845e+03 -3.0659138901228289e-01 -1.3401043685081504e+00 1.7686823709391319e-01 -1.4937541298533688e+02 -1.8045652472019810e+01 1.5533177438574883e+03 3.6946519792725885e+03 2.1518960363713653e+00 -7.9156627174873329e-01 5.9587043756270768e+03 
      </Row>
      <Row Index="182">
        -9.0011669413433992e-01 -1.7412256716488628e-01 1.4418451884732349e+01 -2.9358808571123518e-01 5.9940909369662404e+02 1.1546142862289344e-01 1.6985467782298613e-01 7.5104905510437675e+01 9.8145854467838944e-01 3.6999953901249683e+00 1.4806463050251750e-01 1.6054217598512878e+01 -4.2916440312517807e+01 2.5489757631439716e+01 -1.9442989779535856e+02 7.4109377803915777e-01 -1.4124436240017531e+00 9.8757918554292701e-01 2.4916456747805569e+00 1.9359650628743111e+01 -4.7265064266684931e+01 -7.7673341768980026e+02 -1.5406161415330644e+00 2.7621930823011098e-01 -1.0446597375410784e+02 -4.7064195437883427e-02 1.2688454169401666e+00 7.4844514559572417e-02 9.8669547721437993e+00 -9.7176753445637587e+00 -1.7459027776179937e+01 -7.4620901519607287e+02 7.5665012337481130e-02 1.1666236349929022e+00 2.1780118697370199e-01 1.1312287652581290e+00 -1.3316118705697590e+01 -8.4754834864288568e+00 1.6997175336070359e+02 -1.2878127343465167e+00 -4.7413432696430391e-02 1.9504065575031564e+02 5.9883497058672219e-01 6.0479457230394473e-01 -3.9095994951622970e-01 -1.4186353949407930e+01 1.6219493823882658e+01 -1.6871090566826751e+01 -3.4143292727263179e+02 -1.3759413320804015e-01 2.1448960955603980e-01 1.2499705036570123e+00 -3.3654902100643085e+00 -2.6242331676330650e+00 -2.0824383833096363e+01 2.0575747015327215e+02 1.2355558632885959e+00 -1.1571759646426782e-01 1.7613223121734336e+02 1.0655328215352711e-01 -2.7141217946245888e-01 -1.0766120059997775e-01 -5.2638586708526418e+00 7.4099713317638816e+01 -1.2784181663504569e+01 4.0656955177779309e+02 -1.9841249673109473e-01 -1.5708726524317171e+00 -1.2743466918891500e-01 6.5742206663999241e+00 -9.4042864826915320e+00 1.0774469865253195e+01 -1.8874143501371145e+02 5.5681282745695171e-02 -2.3725996348790090e-01 9.9188246481586248e+01 -6.2164282872163312e-01 -2.5909776549815433e+00 2.1868425948855474e-01 -9.2383175021386705e+00 7.1866741221761913e+01 -6.9493511569135080e+00 1.7367493062009453e+02 7.4590211921213267e-01 -5.6739698558640157e+00 -5.6809661159604730e-01 -1.7320915812888416e+00 -1.8987952881077945e+01 -7.7184566032956354e+00 -4.5965795077010989e+02 -4.4992190206721716e-01 2.3002873022596759e-01 2.7680574231642822e+01 -2.1888592520872407e-01 7.1857013657063362e-01 3.3438069779748059e-02 -4.5611293591209687e+00 -4.9844757601763945e+01 3.7453827956633177e+01 -1.4686796421982581e+02 -8.9759275374854042e-01 2.2930040562350769e+00 1.9151379747833146e+00 -2.4324925038123638e+01 1.4240083273369237e+01 6.3912775873905048e-01 -1.1462582075595856e+02 -1.6693767165643507e+00 -1.5970331172327334e-01 -4.9210920159969191e+00 -1.2432193744627891e+00 3.6169722374652338e+00 5.9165343247430724e-01 2.6832074205187382e+01 -5.4923191020669378e+01 -4.8948120150453178e+01 -3.8043765706926933e+02 6.8427661202940726e-01 -4.9884853720539297e+00 -1.7959943018093583e+00 2.1834140741229930e+00 1.4905274692857347e+01 -7.1680066882287065e+01 -2.1866700530052185e+02 -9.3391134532468456e-01 1.0353055966731119e+00 -5.2660689321486279e+02 -1.2631933383852356e-01 4.5563981820105255e+00 -1.8815529438842304e-01 6.0710945286700735e+00 -1.0217257723495641e+02 -5.4190630130644422e+01 9.9003611326508690e+01 -6.6632322313756731e-01 6.9394046007502084e+00 1.6164259498059437e+00 -7.9474589357487275e+00 -1.6436807009406039e+01 -2.5455976143042790e+01 -2.5165652135387063e+02 -2.3904414043659017e-01 -4.9131369041916884e-01 -4.1151627608458512e+01 1.2870583482481379e-02 -9.9592862799272552e-01 1.5720611754983338e-01 -4.8244367837862228e+01 -2.8828415374358883e+01 2.3102349201013567e+01 -2.6781361112720333e+01 -1.4038895475414392e-01 6.9649791838219244e+00 8.1221449668328205e-01 -1.5977516172046307e+01 1.7371047535802063e+01 8.6980443284730427e+01 8.5901658087596297e+02 -9.6366947438082207e-01 -3.9361268312279218e-01 -1.8384886691928841e+01 -9.4919557056982740e-02 -4.5231390093322261e+00 -5.0849429264417267e-02 -7.5024367840727791e+01 -6.0643924763280666e+01 1.0246211094286991e+01 -7.2752487033896614e+02 -4.7373199953108269e-01 7.0321327786818415e+00 1.4116597671084666e+01 -1.1843904002040108e+02 2.5001966688139987e+02 -7.2225247564955498e+02 -2.1945536305080168e+02 -1.9749483923146713e+01 6.2878337917203915e+00 -1.3918989143960935e+03 -3.8278578087325936e+00 -3.1512886797132822e+00 -6.2981757065940229e+00 1.9220471713276356e+02 1.4856406599711875e+03 -3.9920966762264243e+00 -4.6203581680840489e+03 -3.0711675100628240e+00 1.6791246426038450e+02 1.0012988388134545e+00 -6.1930928335932549e+00 -1.6511407692451030e+00 4.3702379306778312e+00 -6.5901959659159184e+02 -1.8096678175783012e+00 2.3575661619599941e-01 3.2921873935731128e+01 1.2538881599630258e-01 -1.3260286113109032e+00 -1.0615026618683032e-01 -4.2969044018536806e+00 -4.3041362600130014e+01 1.4433718090411276e+01 -4.0745736137893982e+02 -5.0938931728637726e-02 1.7042339871959484e+00 -1.1138097482767359e+01 9.6924924288990155e+01 -2.1667472961886114e+02 6.1483950809517353e+02 -6.2065547464586416e+01 1.8013287784698829e+01 -6.0093637616792002e+00 1.2415664149745135e+03 3.4585958779000801e+00 7.2937447215296212e+00 6.4530986313975198e+00 -2.7674881697753318e+02 -1.5155350398527205e+03 -5.9234124601168304e+01 2.8938522331192057e+03 3.4233319317149968e+00 -1.6819521898182282e+02 -6.7418450888297343e-02 6.8057123901963195e+00 -6.0991212554010907e+00 -1.4995418114657147e+02 -1.2800442886435607e+02 1.8035369674316235e+00 -5.5324071249572171e-02 -3.0066858845991089e+02 -2.5027414594887887e-02 -1.5499912903621293e-02 9.1227711542387624e-03 -3.1776927379569094e+02 4.9672999491406057e+02 2.7511407460513476e+02 8.8611992252971527e+02 1.2596381356404174e-01 1.5003745331924845e-01 -8.1371681931244427e+02 
      </Row>
      <Row Index="183">
        6.3043989702582621e+00 -1.6214612171243061e+00 -7.2539985123439692e+01 -1.2785205751177273e+02 -6.9455457272194326e+02 5.1437892894673496e+00 2.4367116299185909e-01 9.2176439631963149e+01 -2.7487663492779575e+00 1.3251243212405825e+01 5.6616008112041527e-01 5.0327845081032137e+01 -3.6196365953364875e+00 4.9769543764577247e+02 -8.1197636582714040e+01 1.4272266942380156e+00 -2.7501137365252362e+00 3.7922776578416233e+00 -1.1673881565893680e+01 1.8318872099084547e+02 2.6252508765133098e+02 2.7518236044049263e+02 -7.7076588927393459e+00 -1.5511555141983990e-01 -1.4706783664977411e+02 2.1056932972448976e+00 -1.6150737595889950e+01 -3.3971413150447916e-01 5.4075940726837871e+01 1.0252166782265704e+01 -6.1063182369854621e+02 2.8619572496903129e+02 2.8452572264694709e+00 -8.1199011136341142e+00 2.0529634031845490e-02 -1.9281655288345064e+01 -1.6691326642374042e+02 -1.6984637227933854e+02 -7.6250908366218209e+02 -1.4542359445515103e+01 7.6387934763988596e-01 1.7171339961886406e+02 5.1327565075407620e+00 -5.3509541417006403e+00 -1.5676840980152065e+00 1.4465748788672499e+01 1.9626240955782123e+01 7.7166412938339636e+02 -3.2129854579060338e+02 4.8956301902544510e+00 9.6667239238158800e+00 9.1402980309862443e+00 1.9493455217234441e+00 -4.5830979739490431e+01 1.9428749008174054e+02 -2.3375963337719440e+02 -7.0602243611683662e+00 1.1531184916910551e+00 6.7089602950960398e+01 -1.4846378626043588e+00 1.0203144776842237e+01 -1.0765992547687802e+00 1.1289692252787063e+01 1.6824091757243878e+01 -4.0097959695296595e+02 -3.4259326964151114e+02 1.1360679276408291e+01 -8.6730960241711728e+00 -4.6130778677597846e+00 -4.7517037683865055e+00 -2.3538145799131598e+01 -8.9815460260026157e+01 -1.7169751243293285e+02 -1.1312377205910252e+01 3.3444852436281280e-01 1.4373264001635835e+02 -4.1775551418322721e-01 -4.2235110042383894e+00 -3.2296829077040456e-01 -7.5814764984883368e+01 1.0733949450281216e+01 1.5911797669054795e+02 4.1368433030962478e+02 1.3504322643602791e+00 -9.3200222397963444e+00 -9.8748706559490529e-01 4.7393728966417257e+00 -2.3368644109170418e+01 1.0628159023332410e+02 -3.1361663404107094e+02 4.8212247350093094e+00 -5.8183249027774764e-01 1.3803189154108986e+02 -1.1428708540224761e+00 1.4938054390659090e+00 -9.2022674333552068e-01 2.3595476487418637e+01 -1.5945582303101673e+01 2.1706224613485392e+02 -2.4756936103035696e+02 -8.8306497046178265e+00 -1.2617230607400415e+01 -1.0142946459073872e+01 -2.8945841799026311e+01 -5.0578519971217611e+02 -3.5319573453720659e+02 1.7487049662619829e+03 -1.9903460210347472e+01 -3.5638317645692119e-01 2.9847404406101350e+02 2.0899671411127745e+00 -1.7268901394607383e+01 -1.2766546290803742e+00 -1.4980396700091660e+01 3.6427517072686442e+00 7.4713682237057947e+02 -1.5167807380249724e+03 9.1045995571457752e+00 1.5352876369783189e+01 -4.0170130361805008e+00 -1.3982715652542538e+01 1.3798402895181789e+02 -3.0411923291954736e+02 -6.1370659182965755e+02 -7.6718252660693338e+00 2.5435542862373950e-01 -6.7817289832048118e+01 7.0896647092540661e+00 -1.2675735400291160e+01 -2.2621294123393341e+00 -7.1443886186374584e+01 -9.7555735854257364e-01 1.3900058592931600e+02 -1.6756473780904780e+03 2.9824548143990341e+00 3.0802338167858579e+01 7.0080184007383650e-01 9.4494160256217583e+00 1.2571597237538663e+02 -1.7819092465785798e+02 2.3626522334665060e+02 2.9431426357282362e+00 -5.9405784623174895e-01 8.9300702423322946e+01 -2.6905769728036830e+00 2.8974334893482592e+00 -2.3684797709879604e+00 8.7111364300362766e+00 2.4092395330080763e+00 -2.9999265633663163e+02 -5.0034294539201073e+02 -5.9939737538206828e-01 9.2241863044691854e+00 -8.4721377030728036e+00 1.5640559204271995e+01 4.6612832034181338e+01 8.6600916606839746e+00 -2.4652139593660831e+02 6.3140021235794848e+00 1.1201824055548926e-01 2.6444536516675726e+02 -4.0256681486098387e+00 1.6538186850288184e+01 -8.7527926751772611e-01 -5.0774052825057879e+01 3.8951365030370653e+00 -4.4959240332810441e+02 1.9666237831034232e+03 -8.8197255924424098e+00 -2.1568529251140376e+01 4.5833686831340287e+01 -2.1319616379142826e+02 -4.1112592446541103e+03 -4.4550393936039181e+03 -1.7799176832074299e+03 -7.6972209294530543e+01 -1.9321425754891600e+01 -2.0168230966243427e+03 7.7149938306335272e+01 1.0088277611016082e+01 -3.5981216391507985e+01 -9.2023065488241355e+02 -3.9921394396691028e+00 1.5773268126914129e+04 -5.6494225158747449e+03 5.9995477535396965e+01 1.0393099342582502e+01 3.6213162547210231e-01 -4.9672018032288179e-01 9.6742775957565755e+01 -9.6068766579031944e+01 8.1631762057542801e+02 3.4113711877141100e+00 -3.4741863766657843e-01 1.2994050823140424e+02 5.6240410755526682e-01 -1.4132324085512664e+00 4.7273148790213781e-01 -1.0040650016628206e+01 2.6546735606716538e+00 -8.0543918708339334e+01 -3.9749309524660930e+02 -1.2677695374218274e+00 -7.1858921211241977e-01 -3.2462901434523559e+01 1.7562645416484631e+02 3.4046275553987994e+03 8.1806527559531942e+03 -2.1879067757607809e+03 6.0878570018427389e+01 1.8377557991584137e+01 1.7357319153505377e+03 -7.4576414362768460e+01 -1.1501311794206281e+01 3.4845386890569273e+01 3.3982492555378512e+03 -1.4345609284225098e+01 -2.3398894401093428e+04 5.3569425467009769e+03 -4.7902177790104219e+01 -1.5163152782606161e+01 -2.7941804704977358e-01 -1.8852744969085215e+01 -4.6342472492153934e+00 8.0850072842916206e+03 1.4167854376554777e+04 -2.8965882440574151e+00 -6.5054573981387875e-01 1.2872829143380659e+02 -3.3596278816878566e-01 -3.0940925421319676e-01 5.0456901299867241e-01 4.1969309407296578e+03 5.4905055868849516e+01 2.4377921817252161e+04 3.9179533563904874e+02 1.5092660159180475e+00 -6.8378629330101059e-01 -2.4093238970145744e+03 
      </Row>
      <Row Index="184">
        2.3646947205445031e+01 1.3023338941857219e+01 -3.6655253699049354e+02 -3.9530967879854143e+02 -5.7449448892176151e+03 -1.0874891786224907e+01 -3.9572730720658456e+00 -1.7383656440712512e+03 -6.8604881379578728e+00 1.1278299477417022e+01 -6.2752207094017649e+00 -3.1831284922314808e+01 8.5390594547148794e+01 2.7779292657226324e+02 -3.1775456853555515e+03 4.4824882478278596e+00 5.0575506371678784e+00 9.6139591613900848e+00 -1.6675315888365731e+01 -3.0330277119204402e+02 1.1389035547897220e+02 -6.7144926176071167e+03 3.6696483613632154e+00 -2.2401562702434603e+00 -1.4492869262141176e+03 3.0162902432311967e+00 -3.3386323494836688e+01 -9.9172315350733697e-01 -1.5992906849854626e+02 -2.2611392297502607e+02 -5.4401571061450522e+02 1.0660916213706136e+04 4.7383072261436610e+00 7.2910173260606825e-01 4.2925315411994234e+00 1.0800931687001139e+01 5.0508876581303775e+02 1.3252866554260254e+02 6.2854847186803818e+03 1.7372494303039275e+01 3.2148533375584520e+00 -4.4712968914210796e+02 1.8557070039096288e+00 3.3732656012289226e+00 -3.8886649640335236e-01 2.6001488424092531e+02 -1.6550725458143279e+02 -4.6594610120262951e+02 6.7754579267166555e+03 -8.8449150192900561e+00 -9.1636071172077209e+01 2.4281826201929988e+00 7.3268081678776070e+01 -2.8451201085373759e+02 1.2906825906783342e+02 7.5415991256237030e+03 -5.9629415982191858e+01 -1.3580520616673368e+00 -9.3929926615953445e+02 1.8242995565349702e+01 4.4408717367943609e+01 -6.1196975692473643e+00 5.4731427984312177e+01 5.3338467382971430e+01 -4.5886620795726776e+02 5.6642929162830114e+02 4.9935908819315955e-01 2.7709548129118048e+01 -1.5616058594139758e+01 -1.4432126507628709e+01 3.7254088241606951e+00 -9.0291977755725384e+01 2.1725767512083054e+04 -2.9354577688696736e+01 6.2308511540140898e-01 -3.2375017703473568e+03 -7.4892807664582506e+00 2.8288495395332575e+01 1.7540820658468874e+00 -2.2817208932712674e+01 -2.2131595172127709e+02 -1.4221597093576565e+02 8.3021167354471982e+03 2.9700866306957323e+00 4.5168707866207114e+01 1.4122962820285466e+01 2.4367279035504907e+01 2.8496958682639524e+02 -2.5514768094569445e+02 -1.2543767557263374e+04 2.7181392321945168e+01 3.7205426046421053e-01 -1.2169638811205514e+03 -1.8734839634271339e-01 -1.1098527743015438e+00 1.5409353939443626e+00 5.5110113775357604e+01 1.0518964311275340e+02 1.2454206712916493e+02 -5.6361277397237718e+03 -1.1225850392322172e+01 5.7505386034026742e+01 -8.8891751937892991e+00 8.0545893572678324e+01 -3.5323543746769428e+02 -2.1048156455159187e+01 -2.1460569734573364e+03 -4.4566567958930023e+01 3.6449767727521785e+00 -6.8321792259230861e+03 -2.3866827392250187e+01 2.5203115797252394e+01 -1.1227869431419606e+00 3.3391850201319903e+02 1.2434128333348781e+01 -2.5013315100576729e+03 7.4653996370714158e+03 -3.6665080762468278e+00 3.0757188951887656e+01 -8.9108984082629377e+00 1.8648053514771163e+01 4.3698444178816862e+02 2.4914700854965486e+02 -3.0207021448612213e+03 4.0711566143518439e+01 3.1468307429549895e+00 1.4892495168633759e+03 4.0244573701202171e+00 1.5274717787979171e+00 -5.3153713093270198e+00 -3.8160340044880286e+02 4.2430238447105512e+02 -5.2970352195948362e+02 -1.2487476476480253e+04 -5.1661694551185064e+00 -1.5309952727336349e+02 2.7780949399893871e+01 4.2809471067856066e+01 1.6965846577519551e+02 -7.2715040433034301e+02 -3.0819157882928848e+03 8.1676798876607791e+01 -1.2651815663533093e+00 6.4097822164744139e+02 2.4196037742076442e+00 -1.4838216942880535e+01 -6.0157356239678847e+00 1.2999828962609172e+01 -3.6235191874206066e+01 -6.4173286569118500e+02 9.9012718291319907e+03 -1.2953965902139316e+01 -6.8659315763507038e+00 1.6132693618128542e+00 6.9016444723121822e+01 -4.5486773953307420e+01 -3.4988272614404559e+02 -2.5395748489141464e+04 -3.6134552891599014e-01 -1.1143730269690195e+00 -5.7041641084477305e+03 3.2291531550581567e+00 -3.5172826563473791e+01 3.6393871544132708e+00 1.6171156943216920e+02 -7.4780312730930746e+01 8.9600435121078044e+02 5.3021516186110675e+03 4.0758053695317358e+00 -4.8811260626400326e+01 1.0774950077751322e+02 4.1410311113786884e+02 1.4091146025049266e+03 4.7306368723567575e+03 9.6484185398519039e+03 7.0437039464167901e+02 -1.3421538701692031e+01 -3.9881387340888381e+04 4.1998273056061073e+01 5.0571903513302004e+02 -6.4718618213523541e+01 5.6959883720470452e+02 -4.6203582115281642e+03 -5.6494285273344776e+03 2.4529228323622601e+05 -2.4002384784210072e+01 2.4882758015096624e+02 7.0216745944344439e+00 8.1931064417585731e+00 2.8842877225391567e+02 -2.2284501314163208e+02 8.2726175069808960e+03 7.0586304425413800e+01 1.6771543815993937e+00 -1.1738572190199047e+03 1.3188685202330817e+00 1.5178892486030236e+01 -3.5837277128302958e-01 4.0701774865388870e+01 7.4557437731884420e+01 -2.1647304090857506e+02 -6.7041122873350978e+03 -3.2069825709404540e+00 3.0030445981596131e+01 -7.9818173860129349e+01 -3.1162993348501243e+02 -2.1287321727430758e+03 -7.2534419720238811e+03 3.3227640884482857e+03 -7.7829473776883754e+02 7.9017358275924323e+00 1.4514452388882637e+04 -5.0903556401393416e+01 -4.0653949665783381e+02 5.5310172425159820e+01 5.4730279701745576e+03 4.7615546264418163e+03 3.2017164354956853e+03 -1.6897681982277546e+05 2.5403139148297996e+01 -1.1799337068281042e+02 -5.5659166489749623e-01 -1.9097234187050162e+01 7.5093641915308154e+01 -5.7440857944671943e+03 -1.2753462454503800e+04 -1.2253917364926359e+02 2.6453080575447530e-01 -3.7529357795271557e+04 -1.4811297897158511e+00 -1.3705593571628469e+00 -1.2352324256644351e+00 9.9083401210430384e+03 -1.3418124555224792e+03 2.8502032655031171e+03 -6.6289640632694514e+04 -1.0040235986306119e+00 2.3187922324776835e+00 4.1716567283716293e+04 
      </Row>
      <Row Index="185">
        -6.3552530080229985e-02 4.8723305919622817e-02 7.6473698883683028e-01 4.1038075668805050e+00 -1.5571781522507081e+01 -1.9111537435438919e-02 1.1674728108738708e-02 -4.0485807408822438e+00 3.9847365779019484e-02 -1.1613292375966466e-01 -6.2191721053847893e-01 2.8727986000353241e+00 3.1300629210591069e-02 -4.5205397850349982e+00 -1.1574412721863382e+01 -6.7669520758748547e-02 5.2554133640404643e-01 -4.6389284375274542e-01 7.2028787737068001e-02 -4.8416385937798623e-01 6.1992782785728195e-01 -4.7046458348631859e-03 -9.4322049553504428e-02 1.6649744393456345e-02 3.2446944263805335e+00 -6.4175741067929337e-02 3.1468106816419095e-02 -6.3018102811764010e-02 6.3611735962182934e+00 1.8109640006787231e-01 8.6275271597052523e+00 1.0693274040622782e+01 8.4385063021909934e-01 3.3443196052189705e-02 1.5758446829281070e-02 -2.5620846167799982e-01 1.8135265112725847e+00 -9.8356484547548462e-01 5.5694457060890272e+00 1.3224565881922956e-01 -1.8848382195130853e-02 -4.9381220171926543e+00 -8.7693197630798636e-02 5.8053466938054044e-01 3.1336333181404719e-02 3.1948871602214695e+00 -1.3885136747148863e-01 -3.4687655055683990e+00 3.8345425783292740e+01 -1.8578549398226158e+00 -1.0672849438751655e+00 -2.9958898631825015e-01 -3.0215249441778269e-01 1.6783879516815432e+00 -7.9865569391677127e-01 -1.5697309661889449e+01 -1.1441913739150777e-01 -1.8385449948038257e-02 -5.5717928853337071e+00 -2.0379404381941413e-02 -8.4888670533803179e-01 6.7958720165834485e-02 8.6650685640586289e-01 -6.5429130930540680e-01 8.5621248901184117e+00 -4.8499070758662128e+00 -8.7056315756999592e-01 2.8546288317788537e-01 -1.8949817061127305e-01 3.1727641964300801e-01 -2.2542318835207880e+00 -1.2077084195625503e+00 -4.0124508683220483e+00 -9.3821715876567069e-02 4.6843568732549468e-02 4.3776230150742776e+00 3.7236303671477344e-02 -9.2766697826164091e-02 -2.0429630439916124e-01 6.8737515800512483e-01 -2.6969727908794994e-01 4.9872764578660309e+00 2.2437889742104744e+01 8.0485444670632234e-01 3.2989880003396799e-01 1.0505707112321261e-01 -1.9047710010158880e-01 -5.7422981702279685e-01 6.2079715291838511e-01 7.5161142806173302e+00 8.5232788612657373e-02 1.0581212356692760e-01 -5.1654047175013602e+00 2.0360894402377028e-01 -2.6262982329336637e-01 7.0865025239393153e-01 -5.3140143730161071e-01 2.3295600754739532e-01 2.8526145976002226e-02 -2.1109709107606250e+01 1.4241286814392993e+00 5.7556983758229308e-01 -8.8210571969682416e-01 1.6736360397516137e-01 2.6305614319500137e+00 -4.4500633468769593e+00 -4.4981560094747692e+00 -5.1822015066470106e-02 2.2765132802511534e-01 -1.8177295689948778e+00 7.4039029744231266e-02 -8.2243667253902686e-01 -1.1829873526786923e+00 -4.5243874862010216e+00 6.7657374883015109e-01 4.0970719576921510e+00 -3.5207382196335857e+00 -5.6709218855871768e-01 -2.8798109447407683e-02 4.5812567281919381e-01 -1.9534370578600146e-01 1.3968142139806332e+00 -1.6011258982616710e+00 -1.5553855769103393e+00 1.3271518727430021e-01 1.4952986728723250e-02 9.8661041844088686e+00 -8.3039992092441395e-02 -5.1477900082375072e-03 4.0698611863052836e-01 9.7626377855704050e-01 3.2897676471077375e-01 7.4781093365595552e+00 -3.5213211947718264e+01 1.8102029987299595e-02 -8.8611417610232834e-01 1.8879032763498316e-01 9.2634373745568155e-02 3.1530610723925747e+00 -2.8798247873132823e+00 1.2221183208457660e+01 7.5095098428334950e-02 -3.2831647019272145e-02 4.4196947281743633e+00 2.1915720627231039e-01 -2.8757581889504991e-01 7.7932300619338291e-01 -1.7857373475039822e+00 -2.8114025839522583e-01 -3.8342412852612142e+00 -1.0602044440881400e+01 -6.3654613619587863e-01 -1.4431648881043202e-02 -9.0687162148526568e-02 2.2547772337475180e-01 -1.8967658061568500e+00 3.5089085396393784e+00 -2.7586747376364656e+01 -1.0560786118295340e-01 -2.3768650225501453e-02 -5.1684251453534671e+00 -3.3980675332084687e-01 6.4229452304232382e-01 2.1735215205757896e-01 -8.2864732329471735e-01 -7.1113819276888535e-02 -6.2759593102223334e+00 2.2367235555608204e+01 1.5019353967984088e+00 8.2290595330504157e-01 1.1574358200874016e+01 2.0163008786960290e+00 3.2467712330742657e+01 -5.0194136556101512e+00 1.9277838861347846e+01 -2.0653308504773085e+00 -1.1997715130001980e+00 -1.1303408730820593e+01 -3.0374854149435668e+00 1.1485712205559164e+01 7.3460568677422895e+00 2.3041567933526494e+01 -3.0711675992130090e+00 5.9995476969338654e+01 -2.4002365633283745e+01 2.6326990907311618e+01 -9.7075941375180790e+00 -1.9240182683857654e-01 -6.6371123334420190e-02 -5.5696533578702656e-01 3.1366658823826583e+00 1.4060293024755083e+01 3.0075896312883899e-01 -1.6512946491772595e-02 -2.2301109899076437e+00 8.6159550250613393e-02 3.5536423282513852e-01 -1.3913330852386219e-02 -2.3868780476077518e+00 9.4865985737527581e-02 -7.6756382671519532e+00 -3.0329198124745744e+00 -5.3724741877871729e-01 -2.5143525337286121e-01 -1.2207079258393318e+01 -1.6902997274531839e+00 -3.0358522097948025e+01 3.9188812540006381e+00 5.8220145939177428e+00 1.8249170528859280e+00 1.2735906948115425e+00 1.3246075151899277e+01 2.9776271712558122e+00 -1.2228851190341508e+01 -8.3550815595663721e+00 -8.3985275998863642e+00 2.4872421358188994e+00 -8.7800256870407154e+01 4.8805585553992145e+01 -2.4051926217387425e+01 9.6914974562980198e+00 2.0451422511095219e-02 7.7281684181495158e-01 -3.3098738808283179e-02 -3.4236635557057760e-01 3.3868829569613240e+01 -2.3480715619750203e-01 -1.0753442871420660e-02 3.1498267707194785e+00 3.2421066904026574e-02 5.9016431196599051e-03 -2.6942422936014321e-01 2.9050298866169392e+01 4.5248483654127541e-01 6.8869050034032966e+01 2.2301735329858268e+01 -6.4590268267912943e-01 1.8043766255364635e-02 -1.2714987768474115e+01 
      </Row>
      <Row Index="186">
        2.4238827361875792e-01 -7.6622383186759180e-01 -1.8911493702216831e+00 3.7436896155599243e+01 3.9940172270662151e+02 -8.6205300325190137e-02 -4.0242357850036381e-01 8.0817009430400503e+01 -3.3081274193165200e-02 3.4785281170743474e+00 -4.0477756796306608e-02 1.1590157888105637e+01 2.6078930511484941e+00 2.0518655398052942e+01 3.8702006401950712e+01 -6.6402913224283111e-01 4.7209544095376259e+00 2.9072243425092665e+00 9.1539445676312425e-01 -6.0192157142719225e+00 -4.8605634626561368e+01 -2.1817226162180305e+02 -3.8651806592855564e-01 -6.7748555118072318e-03 -2.2795959888012476e+01 -5.6433783900516232e-02 -4.2659296185283893e+00 -3.0665687733318236e-02 -3.2678537801385119e+01 -1.5749392471593637e+00 6.2141544950369507e+00 -2.1582097902486566e+01 3.1396141644502507e-01 -5.8297604166489236e+00 -1.4641665456969122e+00 2.9354796766670006e+00 -7.5057245810949098e+00 1.9284555146639468e+02 2.3090400179452263e+02 6.9127643684851137e-02 2.6465637276123744e-01 5.5726802335557295e+01 -4.8223159163126184e-01 -4.2210280938943470e+00 4.4698227517871203e-01 -3.1340579416526452e+01 2.9497871763078365e+00 1.4529417291778373e+01 6.7817668028314074e+01 -1.3209231265581138e+00 1.0543299636365191e+01 1.2048874721397596e+00 4.0865187934184632e+00 -6.7767530184555653e+00 -2.5743751482966763e+02 -3.4675280851870775e+02 3.5947827415029110e-02 2.3224843162078379e-01 8.9328248875099234e+01 -5.8313132832694237e-01 1.9922818738519936e+00 3.3294993311949383e-01 -9.9494338474323740e+00 2.0382365533137090e+00 9.3186484167090384e+00 -8.7439169883436989e+00 7.4966032030943097e-06 -2.1619227464338167e+01 6.8400942027278688e-01 3.2147736552115020e+00 6.4291930288709409e+00 -1.0187539960764116e+02 -2.1705474056815729e+02 -4.7608696924103810e-01 -3.3969627570274774e-01 -2.8022393663210096e+01 1.9619175988236748e-01 1.3009141003321929e+00 -1.3620980760805423e-01 4.2367219578009099e+00 -1.6565285693341139e+00 1.1072930455520236e+01 -4.0103736402510549e+01 -2.7471617752496513e-02 -2.1595658409006546e+00 5.0121876038423352e-01 -3.2608649768553732e-01 1.6978562931776651e+00 -1.6663317409510637e+02 -6.0303738333517686e+02 -1.9347948549329885e-01 -1.6868080040367772e-01 5.7740737752975292e+01 -5.5973554150455129e-02 1.4282427018224553e-01 -2.1712204358008336e-01 -3.6607996065758925e+00 -1.4038144681694007e+00 -2.2581148881185072e+01 -7.5872415633130004e+00 2.0625025185376842e+00 -1.3846978732159187e+01 6.0730188029030590e+00 4.2547146997241612e+00 -2.5058445968194974e+01 3.3425579057318828e+02 -2.0090615460649133e+02 4.7664561335015776e-01 1.1459216048461354e+00 -9.5859736847458635e+01 7.1486125147182644e-01 1.3831326412304861e+01 -1.2535301066599516e+00 1.1465474406405519e+02 6.2478224596297878e+00 2.2549702545456967e+01 5.0955636664690246e+01 6.1865830022594537e-01 -3.6372772707816580e+01 -3.1904588754274306e+00 1.9234840617255031e+00 1.0857779978705366e+00 -9.7029412953031169e+01 -2.3490651429770514e+02 -1.7448907655949597e-01 -4.2189968739819506e-02 -1.7091309189667663e+02 -3.3390223632778770e-03 6.3597268365424497e-01 4.5149615910518293e-01 -2.9778418519882507e+01 2.2942680679261684e-01 3.4645039013048518e+00 4.8707873544735776e+00 -3.3845716886276023e-02 1.1125757795789738e+01 -1.1013131255594999e-01 2.6216175227500571e-01 -1.0318127325757814e+01 2.1866044092467928e+02 -3.9406316630076617e+01 8.1539474347127339e-01 1.1133387063971170e+00 -3.6161085562562221e+01 -9.4152691388330823e-02 -2.3054518384390121e+00 2.2627947028724904e-01 -4.4382409128644213e+01 2.9025192670542310e+00 -2.3201383051855373e+00 -1.1253074714193644e+01 7.4166954775688509e-01 2.4618382488303723e+01 -1.6533076815410368e+00 1.1949308835883130e+00 -1.2683876669696474e+01 1.2780063696766592e+02 -6.4650329088326544e+01 8.2834005109418740e-01 3.7779288702015279e-01 1.1670567516703159e+02 3.3420277213656391e-01 -3.4045626991974132e-01 -3.8324932575392268e-01 2.9699918155572959e+01 5.7377640949289344e+00 -9.8936229502432980e+00 -8.4809074454999063e+01 1.4345277063135882e+00 2.1798695602306772e+01 5.0075810923370794e+00 5.6121843446504272e+01 -1.0501299583278433e+02 -1.8953839527968521e+03 -7.9038679832301568e+00 1.0791993330967948e+01 -4.0688460643946271e+01 2.4366005349038824e+02 2.7580440471831729e+00 -2.1111482499789568e+02 1.9611040737121542e+01 -2.0146075850686293e+02 1.6791246678438443e+02 1.0393062500635779e+01 2.4882731245449742e+02 -9.7075941317946004e+00 1.0979513689124651e+03 2.0928527032423290e+00 1.7901868380849919e+00 7.3926485236224835e+00 -4.1985594256082550e+01 -9.8880646549165249e+01 -8.2840440075828781e-01 -7.6691333564369302e-02 5.2856131100754283e+01 4.8115830923393332e-02 -7.1789174559398816e-02 4.5285570271314413e-02 2.8133088909875369e+01 -1.9850395897811950e+00 -1.2852034009585623e+01 -1.4485357862635283e+01 -5.2468482021095753e-01 -5.7008669066506172e+00 5.5239710478252118e+00 -4.8778133299408253e+01 9.1710366434492016e+01 1.9423038318534141e+03 9.0946381625872164e+01 -1.0487135177802230e+01 3.8499651882532000e+01 -2.0995117119797214e+02 -2.4004451124188950e+00 2.1280185118729989e+02 -1.9391956602698762e+01 3.2193982399793435e+02 -1.5812889978171509e+02 1.9094549577632714e+02 -1.0480496263642834e+02 1.0862927350325823e+01 -1.0840911146579267e+03 -1.3962809504252682e-01 -1.6961684360959737e+00 -5.6644716943783369e-02 -5.3237435288696145e+02 4.7446265737909437e+02 5.4986502427523742e-01 1.8834526471137281e-01 2.3719716105401653e+02 2.2303886725318023e-02 -8.9196225278080021e-02 -4.3292629870727239e-02 -5.6807787621784200e+00 8.5681148570856607e+00 -4.9973535057519410e+02 -1.1520228298172316e+02 -3.0491596032166335e-01 -1.5737680993609349e-01 -9.5025109796306694e+01 
      </Row>
      <Row Index="187">
        -4.1283516727001057e-01 -2.1684300602667861e-01 1.6394480142510020e+00 -5.6223164363614160e+00 5.8627071635964967e+00 -1.7317048502377475e-02 -4.5990644001590919e-02 3.2130788528070298e+00 -5.9694789613389254e-02 2.0141965463949418e-01 -2.0115896493524410e-03 -2.6640595558927203e+00 -1.8469867719852573e-01 -8.8055497354685031e-01 8.6566431561203672e-01 1.6795074767611951e-01 -8.3161553654817055e-01 3.4669410072796083e+00 -1.2982287424552297e-01 4.0390369641323787e+00 -8.4883105074504783e-01 3.2516432165866718e+00 1.2468131364447643e-01 1.6775740235524772e-01 1.9294856427583795e-01 2.7155061790704638e-01 -1.2678349238707938e+00 6.9806450824935418e-02 -2.1725984350755354e+00 -9.6364052682324086e-01 1.1596152603153449e+00 2.9961224955927719e+00 -4.3746305064449675e-01 1.4096706949721138e+00 -1.9545280821991895e-01 -1.1190700522305974e-02 -2.1777059935584475e+00 -4.6006255416305066e+00 -5.4440253265274805e+00 8.5758540375792336e-02 -3.1278122984373269e-02 4.4029829894116119e+00 -4.4482623237339425e-02 -1.4361678840708691e-01 -3.8229198150024679e-02 1.3444857553964766e+00 -8.3972387589255959e-02 1.0970587725712448e+00 7.2323713708115065e+00 1.5646634098608558e-01 1.6286093560852919e+00 1.6921330573967275e+00 -8.3065889705352447e-02 8.8727805967164386e-01 3.9575954383690259e+00 -9.4561316826438997e+00 -9.1561490723640837e-02 1.6054424027474612e-01 3.9475434136074909e+00 2.0972511321703458e-01 2.4834661452656803e-01 -1.2203134522357217e-03 1.0054920221358543e-01 2.9090684398157407e-01 3.3029660204817901e-01 -1.0583217941166367e-01 -1.3873636912485710e-01 -4.5869194737849384e-01 5.2233381402682966e-01 1.6218962249656954e-01 -2.1580123215018148e+00 1.3858087455537316e-01 -9.4967344043834601e+00 3.9276931661103021e-04 -1.0619339793764615e-02 5.5597891517891185e-01 5.6234475234951731e-02 1.1563795715070455e+00 2.9115970172113315e-02 5.2982798755715521e-01 3.5967967976046111e-01 4.7537883088857313e-02 6.0331882948612474e+00 -1.1821252586452147e-01 -6.7755701728825146e-01 -2.3169587009576276e-01 -9.2619362312802878e-02 -1.1929973681013593e+00 2.6024705367694878e+00 -7.9990828513982706e+00 -2.6853232138478234e-02 -2.5214242871347103e-02 9.7274687643277957e-01 1.0518580141132716e-02 5.4881469525375337e-01 1.1508065216196874e-02 -1.3333589805502015e+00 -4.3579294774968247e-02 7.6654405574379325e-01 -3.6179743131142459e+00 -3.0237364898581731e-01 -1.7797413463027567e+00 1.2740174252245027e+00 -2.3815602487209020e-01 -6.4600857696194112e+00 -7.0964811314911458e+00 -1.5762084549933206e+00 -9.0472050534572773e-02 1.3187316315165715e-01 7.5418171924912816e+00 1.2173149256721366e-01 -1.3156570036173179e+00 2.6527590033504467e-02 -2.3525904904682875e+00 -9.9815944072463481e-01 -3.1845961998891426e+00 5.2993013264199362e-01 -1.9619479640478588e-01 8.8872807786232855e-01 -2.3579632732001583e+00 9.9052041726164930e-01 3.5444928721971394e+00 -2.1703026451280607e+00 -4.5892656482465100e+00 -1.1874236080651279e-01 -9.4180519747613101e-02 -5.9226090849786033e+00 -2.9641670801313857e-02 2.5196581106321077e+00 1.5510502972967966e-02 2.0785236535818967e+00 -4.4430309706089588e-01 3.4575916259095720e+00 -1.3213482223984784e+01 3.0534777151186132e-02 2.8189421099261240e+00 2.8304614290230745e+00 -3.6856941030976031e-03 -7.3947126447103528e-01 -7.2176424717171130e+00 -4.2475172389385989e+00 1.0602562679381311e-01 2.7994862927494990e-01 -7.3244200870612985e-01 1.5410533536127247e-01 -2.0195100942630226e+00 -7.7570719169540725e-02 -7.9315822967714666e-01 -7.8850009052985115e-01 -4.7847522556903641e+00 -2.9424363265902684e+00 -2.0913653211939831e-01 3.5517153267204833e+00 -5.8125507067908089e-01 -1.6524886062961741e-01 5.8351817009929619e-01 2.4341278628744476e+00 1.0189995590830222e+01 1.5168771081360788e-01 -2.2863860919247414e-02 2.0045581080876218e+00 -1.3234452230055282e-01 -5.7053622583049446e-01 5.7098630221842583e-02 4.6561145971336373e+00 3.3285585094336056e-01 5.5934243580179555e-01 2.6348312155646454e+00 1.7139606229819648e-01 -2.0881371197991561e+00 1.7240072782230740e+00 -3.4777163204477546e-01 -9.2292565823633392e+00 -1.1398299617010593e+01 2.6198699122614926e+00 -2.9907005606845938e-01 1.3041158329387606e-01 -6.1073559710121117e-01 4.5526200653068860e-01 3.7246378461863472e-01 7.7179096660983992e-02 1.4702795372349939e+00 1.0012988765273048e+00 3.6213097661461191e-01 7.0216671149832779e+00 -1.9240182780538781e-01 2.0928527125175824e+00 3.3621373090744200e+00 -7.0944025433846036e-02 9.8591168332040979e-01 1.0509322287543910e+00 -1.1907361262041377e+01 2.1594566253587844e-01 6.0738205919288468e-02 -1.3420981992794623e-01 1.5559825661778959e-01 8.9543476188811155e-01 3.7169019865973874e-02 1.2457068431649532e-01 9.1087184601668980e-02 -2.1627662475875695e+00 -2.6060777614102335e+00 -5.3586007104680977e-02 -3.0342728876671998e-01 2.4249520976985699e+00 -6.5840619707311454e-01 2.1745668890921319e+00 -5.6279204351472654e+00 2.3834662611386221e+00 2.3955935859853755e-01 9.3967386361339736e-02 2.9144002911275493e+00 -1.3506513217831684e-01 -9.1933940695508309e-01 -4.0703186598435831e-02 -1.2796944267158299e+01 -1.6015923057512242e+00 1.1953010516625655e+00 2.9950400091597444e+00 -4.1360664015242260e-01 -3.0434519425624265e+00 -1.9004593977454598e-01 -5.3464785442113405e-01 -4.1353067107036395e-01 -1.3017465287656622e+01 -4.0227994814374490e+00 -2.2499938688690860e-01 5.1474780778228979e-02 -3.4128251709578068e+00 -2.4408385158805057e-03 -5.5615989522405707e-02 6.1916955664500506e-03 -1.0418950201880888e+01 4.9220935296683954e-01 -1.1771431981043383e+01 7.0803852394611866e+00 6.9127351238716730e-02 -1.0960779709503360e-01 4.0913887301171226e+00 
      </Row>
      <Row Index="188">
        6.9308814810824515e-02 -6.2245452109829102e-01 -5.0965971452365011e-01 -1.0035003806927989e+00 5.4994846429806785e+01 -1.3927215344413924e-01 2.3078092951746010e-03 -8.4826830211213746e+00 -3.6827833900438200e-02 8.1612756175752565e-01 -1.4135325122516917e-02 -2.4413111382704216e+00 -1.0565609198740731e+00 -1.5944064922227881e+00 -2.4099981053851707e+00 -1.1544077275421216e-01 2.0548815381084751e+00 3.2263280500821168e-02 4.5019031650348040e-02 3.0810887428060596e-01 -6.8810644332188531e-01 -2.7089652142953128e+01 3.2020698914543289e-03 2.2295553739004603e-03 5.1923579724607976e+00 5.6241379074952746e-03 -2.9450861466477818e-01 -1.9835490214974882e-02 5.4936199770889118e+00 -1.0826685132150544e+00 8.8762170761610548e-01 5.0852994553833923e+00 2.2890971460157949e-02 -8.3516420292539806e-04 -4.6617849210520035e-02 -1.4360736492996296e+00 5.2850381674807068e-01 5.2370287551639194e+00 -9.4427255570364650e+01 1.6066415131973599e-02 4.6935873952943297e-02 -1.3855460844439222e+01 -5.0640294850033740e-02 -1.7794281276673019e-01 4.9717713043677669e-02 6.1066825903776589e+00 -2.4812569426762821e-01 3.1975730141150507e+00 -9.6177680285454699e+00 -4.5083444094302649e-03 1.6615264502112268e+00 -2.0144803006399994e-02 -3.0138888124838985e+00 -3.0662296640593922e-01 -1.6272231758475755e+00 -1.3419373816484585e+02 2.5047318980688082e-01 -1.7627270556097585e-02 -1.0803118850446481e+01 4.1252474082948964e-02 -2.1235659065349211e-01 -3.9615530610928040e-03 1.6327043244497759e+00 1.0570229297680243e+00 -2.0461710240037974e+00 1.8503037739646970e+00 5.5401534484879944e-02 -1.3670121196785203e+00 6.7874652285858872e-02 -7.7990708920088991e-01 1.1209663557315253e+00 8.2954517559210217e-01 8.5240351001964882e+01 -1.7134260175318161e-02 -1.1252089018905842e-02 8.4986434096208541e-02 -4.8998504436923440e-02 3.9707013927068147e-01 -4.0947209718044775e-02 -9.6326983050812487e-01 -1.1139631537325840e+00 2.5371261148231383e+00 8.8385492605675609e-01 -5.1724296634745315e-03 -1.2318970685471404e+00 5.1566652257154288e-02 4.1596729003265409e-01 -2.9198967847503354e-01 -2.5986838385942974e+00 -1.1384331462543923e+02 -6.1545278060066266e-02 -3.3012799609995369e-02 -2.3537189136732195e+00 2.6265389294255925e-02 2.8575824970897656e-01 3.1170692559444518e-02 7.6207874367173645e-01 5.9404641356463905e-01 -2.3965420440558773e+00 -4.1141256471264569e+00 6.5354987396528230e-02 -1.4099230515951149e+00 -1.6860298269751411e-01 -1.1082214138642641e+00 2.8963403706615054e+00 9.1402343308354830e+00 -1.5650715503026731e+01 -1.2042795458736999e-01 -2.3115110416533913e-03 1.8605901391242735e+01 -7.8257942696031271e-02 8.6370439023343692e-01 1.6561476845097900e-02 -1.0448857793536263e+01 -4.5647002517255260e+00 4.9713304075091855e+00 2.1607004696178137e+01 -6.0055685031645822e-02 2.8639011487002648e+00 -6.6022744930356925e-02 1.7443006210633882e+00 -1.5409058355032812e+00 4.2422518648961045e+00 1.9792593212448992e+01 2.5279986497601570e-01 3.4599408693692713e-02 1.4175868195962721e+01 3.4379305800140258e-02 -1.0394473303830409e-01 1.5134760328816554e-03 5.9036420943247094e+00 5.8039259067139710e+00 9.8274261390042739e-01 -1.7600486182078271e+01 5.7141372780883604e-02 -4.7100112244285253e-01 -1.0846651048201039e-01 -1.3892831692938898e+00 -6.3320929439487372e-01 6.7516742200830322e+00 2.0853716839250410e+01 1.9121204671940362e-01 -3.2892511144464759e-02 -2.6268614210057422e+00 8.2383733255568359e-02 -6.0425617712410684e-01 1.5314366435301929e-02 3.7104148931143754e+00 2.2131180923356624e+00 -6.4053294318136977e-01 6.6083990919969438e+00 6.7639990997481192e-02 -1.4074538402800556e+00 -6.0830621275684393e-02 1.3569343529012485e+00 -1.6080032576843450e+00 -1.1188386629964953e-01 -1.6610273333499208e+01 3.4806658938890678e-02 -6.3723518017123837e-02 -1.3400236853050956e+01 8.2810533332686731e-02 -1.9626471108495025e-01 -3.1786424714496775e-02 -5.3020660932816099e-02 1.1681520363346181e+00 1.4781393463233599e+00 -2.7141376276358642e+00 7.8037485777098681e-02 -2.1499639053918957e+00 -1.3939135375187572e-01 -1.2607658684103598e+00 3.2696054960577001e+00 4.9021379626829003e+00 5.3748432068492548e+01 -4.6181262889481867e-01 2.6035346267878474e-02 1.6677150567127228e+01 -3.1945187078283588e-02 6.1964617559624457e-01 -7.5360648213518289e-04 -9.4927541479274531e+00 -6.1930928745104037e+00 -4.9672102498371995e-01 8.1931094769513706e+00 -6.6371123473866339e-02 1.7901868705608082e+00 -7.0944025251975518e-02 3.7686608693900325e+00 5.5352657325329346e-01 -3.1116255819724756e+00 -1.2962722017045598e+02 -6.4994300279055284e-02 -9.7505776113049336e-03 2.6879153187319389e+00 -2.5725699777161992e-02 2.0120799964755065e-01 4.0477116797879020e-03 8.4108866338647204e-01 1.4801697812985992e-01 1.7248745546821738e+00 -3.3934217081259703e+00 -3.3188481429381689e-02 -2.1747145516525279e-01 1.5577231576421344e-01 -4.0348869446993803e+00 -7.9778496713346136e-02 -7.2971944754679461e+00 4.3676414248704987e+01 6.1405003443161812e-02 -4.5547685731407557e-02 1.5770455509741623e+01 -6.1119524320833563e-02 9.9357568192615409e-01 2.9669038948221246e-02 -5.2473009509451973e+00 -4.5040298719736445e+00 -1.1381607005247249e+01 8.7533444775940978e+00 -5.1656080214879429e-03 2.6268948349117700e+00 1.0626634656174527e-03 -6.5519402692515341e+00 2.4118563189277265e-01 -1.1658563879422939e+01 1.1708223377855170e+01 1.5862303241366393e-02 -1.1630288154470758e-02 1.1312987582190086e+01 -2.9483629822690816e-03 -1.5826084254533412e-02 -1.0352738683764962e-02 3.2826097813794792e+00 1.1397368748847119e+00 2.3448216197448414e+01 1.6187864533608384e+01 -1.3528751830332170e-02 -9.2062056707464701e-02 7.8543007190503058e+00 
      </Row>
      <Row Index="189">
        4.6871579144225706e+00 8.9864060561637871e-01 1.0512069667615106e+02 -2.3525931948631523e+01 -9.7725663077435456e+01 -2.1164923462623619e-01 -1.1630445028959147e-01 6.4900184248752339e+01 -6.2892703329846533e-01 -2.4843214228453689e+00 -4.8855230382409687e-02 4.9766467085872534e+00 -6.5636102533635494e+00 6.2489099265379991e+01 6.2758315830340962e+01 5.9956303640145592e-01 -2.2339650232909207e+00 1.5092509384975585e+00 4.6314647000412066e+00 2.3903675441253881e+02 -2.7832743065657269e+01 -2.9032241663057357e+02 8.4634643742833617e+00 -5.1778763153277652e-01 -4.7143080691334944e+01 -1.3921146665647441e+00 -3.6318092861199602e+00 9.0950721179371641e-02 2.2177833545474925e+01 3.1015002603187440e+00 4.6908140378569669e+00 9.3543428570361357e+01 2.0707518993380258e+00 7.4304464651061153e-01 -3.1827861127171104e+00 -1.6118056743120519e+00 -1.2084634748602502e+02 -9.4441802467190428e+00 -5.4498687068029540e+01 2.7987259964189377e+00 4.4485441822862981e-01 5.7765391734326840e+01 7.8836816840292556e-01 1.5076309539956583e+00 1.9992593480969134e-01 1.0393049894434625e+01 1.8456777678240996e+00 -3.1196851323239116e+01 7.8758702862880455e+01 -2.1549850665836345e+00 -2.4556348888725097e+00 -4.4038129347732760e+00 5.5567746699133806e+00 -8.6238914553940049e+01 2.8614722182719561e+01 -2.1186054321890697e+02 -3.4651176417096714e+00 -1.0968043229310709e-01 5.1992159541827277e+01 -3.6818304647249533e-01 1.7143568860362990e+00 1.4577639964904865e-01 -9.8379826386693594e+00 4.0530202588127509e+00 -4.2786788039443309e+00 1.0883306103253926e+02 2.0510026404566384e-01 -7.9121164914204201e-01 -4.4794737459020553e+00 -2.1607918560238204e-01 -1.0739541865652927e+02 3.8010843045958609e+01 -8.4001547812600620e+01 -8.7568156077716708e-01 4.0163168199199140e-01 8.5707914411668753e+01 7.7647267625718541e-01 1.9754070764904554e+00 1.6114385322405766e-01 2.3602687590528149e+00 1.2863606062314375e+01 -4.3177200390542538e+01 2.4201149432493366e+01 -3.9195853189137608e-01 2.9068628962436378e+00 -8.0190571850560843e-01 -4.8953096107265992e-01 -2.8997286117098270e+01 1.3047258031579986e+01 6.3208637530100532e+01 -1.9408331725574470e+00 5.5702562356046315e-02 -1.0885852476440050e+01 4.5861640972034934e-02 9.9421758751657308e-01 -1.1487342199025834e-01 -6.4905216088372981e+00 -1.2588718852142620e+01 -1.6333164244556428e+00 -7.2116269572472447e+01 1.3898108111300189e+00 4.9822758798725317e+00 -6.0330133914982929e+00 -4.9405626896924559e+00 -1.7012174389170900e+02 -3.1561146491196268e+01 5.1295430710888468e+01 -1.2956793196812235e+01 4.4322377349569320e-01 -4.9055421628472970e+01 1.8113014834071322e+00 7.6653785811219564e+00 -1.0364427575523720e+00 -2.6172476532652581e+01 -1.2261519866155595e+01 -2.1591743278199283e+02 -2.1395928720259144e+02 -1.3625359937017549e+00 -1.0411984583681573e+00 2.1742962461444346e+00 -1.7247407888969519e+00 3.1455483204981192e+01 -1.4010350526442608e+00 1.5288206468999851e+02 8.2650124102698896e-01 3.7214481843664871e-01 -1.7674701740235651e+02 1.1844279547092285e-01 -2.0551919173912552e+00 -4.4270436176560235e-02 1.5625726001708244e+01 -1.3570516904074680e+01 -3.5487856743203338e+01 -2.7984612554336672e+02 -4.5509586419475845e-01 -3.0491807412918668e+00 -3.2818201070024458e+00 2.4340150393509248e+00 7.1510852165518372e+01 8.5318376628847545e+00 -3.7427165292901918e+00 2.3582387806386151e+00 -3.6948065425854781e-01 -8.4982037466565089e+01 -8.2862407560199358e-02 -8.9707200310193969e-01 -3.4676512028825268e-02 -2.7868728913590530e+00 -9.5674788588303272e-01 -1.7970743247014980e+01 -5.2779346249810260e+01 5.6171462155667484e-02 -7.7130394874317290e+00 3.4028189500736943e+00 2.9322645444062800e-01 4.5303462789817104e+01 -9.1520332508480351e+00 3.1372210804338101e+02 4.8592194160353230e+00 -7.2405481772064384e-01 4.3980122829470929e+01 -1.0531714660487452e+00 -1.5376858308759438e+00 3.8892683319178190e-01 1.2372535155387595e+01 -2.7325774061991979e+00 2.6677752721218440e+01 1.9779133027513490e+02 7.5314004435615090e-01 -1.4242803650242148e+00 -1.4773149291830936e+01 2.2960935666126261e+00 -3.4864471484034004e+02 -3.6757361082010902e+01 -1.5005723368613690e+02 -1.1235351980971808e+01 6.9700167590912154e-01 -8.9495915555005013e+01 1.3733534504977933e+00 -2.5898225052179669e-01 4.3350492497600479e-01 -4.0749071706241125e+01 -1.6511414219360798e+00 9.6742769130704403e+01 2.8842884425421664e+02 -5.5696537092501774e-01 7.3926494224442152e+00 9.8591170636404968e-01 5.5352658203923966e-01 3.2077341345581317e+02 -9.1934489312116057e+00 -3.9408413522783667e+02 5.7245922810324350e+00 -1.7936032727062567e-01 3.3656014566743579e+01 -3.5633663508932045e-01 -1.8917251241982740e+00 2.7662146840452539e-02 9.3325329962681280e-01 -5.6230900086951010e+00 -5.1022484599030577e+01 -5.5275197431914421e+01 3.8941427739843348e-01 -8.4400564283569679e-01 1.1026697762143106e+01 2.4434983625037070e+00 2.3289096124579359e+02 3.4325219815255551e+01 -1.3587309285378615e+02 -1.7085995377671652e+00 -8.4086883582961303e-01 -1.4295492606812331e+01 -1.2349834461441098e+00 5.3449904061081952e+00 -1.3595118046111834e+00 -3.1809360581533710e+00 -1.3504411887360789e+01 -2.3886451721650138e+02 -2.9746865678078336e+01 2.6935698121037825e+00 -5.7437082460608195e+00 2.1171553596906145e-01 2.3925146943912168e+00 -1.9914886093178428e+01 1.4536777362635831e+02 5.8863568823130777e+01 -1.2493761193143506e+01 -1.4240734742375682e-01 -1.6693925352668839e+02 4.2160023966139271e-02 7.5181976306533116e-03 9.9012795360131634e-04 -1.1763359171045572e+01 5.0817430368648502e+01 2.6217981052202686e+02 -1.3612765537218792e+02 -3.8837985021523486e-01 1.1486726916021861e-01 -1.7410619125720888e+01 
      </Row>
      <Row Index="190">
        -2.2829462514200713e+00 2.5587890133883775e+00 3.3241132414535969e+01 -3.4095566653698916e+02 6.7412084358790889e+02 -1.2474150965150557e+00 4.0055660436871499e-01 -1.5321491317445179e+02 -2.0734101889414660e+00 -9.4990252024035726e+00 -4.4959995476790482e-01 -4.6327978531548979e+00 6.5653619550139410e+00 -1.0535625949507812e+02 3.5304865423437150e+01 -3.4125394475927351e-01 -7.8739578827171499e+00 -3.1807904874158339e+00 2.6394434274388914e+00 2.1957529059589433e+01 2.7099816233085585e+02 -6.6164641860127449e+02 1.7839873157304282e+00 -9.5689925699105061e-01 8.9836629390691087e+01 1.0339529521112354e+00 2.6697876717371400e+00 2.0236773380361228e-02 3.4631761556649508e+01 6.3083633140249731e+00 1.3112714701759614e+01 1.2932971931988141e+02 -1.3901523369373763e+00 1.3370329984724322e+01 -1.3136576809406506e+00 -1.7510364180016040e+00 -1.1881224624667084e+00 -1.7733174256845377e+03 4.9582250561844558e+02 -6.4453836748998583e-01 4.0312017541373280e-01 -7.6489041743101552e+01 9.9254355159882834e-01 1.9567443581836415e+00 4.1978888335196984e-01 2.1369336505107640e+01 3.2374061320006149e+00 -1.5466238023676851e+02 4.6931402077607345e+01 -2.0244369502461268e-01 -1.8250501104994328e+01 -3.1003924235522353e+00 -2.7034250269498443e+00 3.1477241006214172e+00 4.7523813315256848e+02 -3.4632935781404376e+02 7.8010545843704904e-01 -8.1513096170604626e-01 -1.2078987398999743e+02 1.1610994655443392e+00 -1.7684149441210593e+01 -1.1799532904270222e+00 2.3795543472531790e+01 -6.8530885767995642e+00 3.3661117561918218e+01 -1.8715503790113144e+02 -3.1536563492504968e+00 6.3808796092756438e+01 5.2661393292873981e-01 -1.3330681088973506e+00 -3.3270703852082079e+01 2.9311614382796688e+02 1.8517208385653794e+02 9.6257702129071276e-01 -4.4369553508646931e-01 4.1940091020136606e+01 -1.3678611782411281e+00 -6.8762478950411605e+00 -6.2379571411815959e-01 8.9165972309128847e+00 -1.7775467588136962e+01 4.7072875397177995e+01 1.3875861251927563e+02 -9.5663915614295547e-02 1.9939976527280919e+01 1.7422263586038298e+00 8.5401085155172041e-01 -1.9012306387594435e+01 1.0059755586112151e+03 2.0940521496906877e+02 1.3630475492550431e+00 1.0014228616034870e-01 -8.7694538791380182e+01 -5.4977413972551403e-01 -5.4163870552238222e+00 2.7307701633122061e-01 1.8061419113713782e+01 6.0358270800338687e+00 3.3861015382863843e+02 1.0625218059314648e+01 1.4696693005570296e+00 2.1663656266166072e+01 -3.2554377057450825e+00 2.5898957919173426e+00 -2.7470600159726018e+01 -4.6419102036426193e+02 -2.5255582045391202e+02 -2.7190520680742338e+00 -1.8275613810980722e+00 3.2190491466044159e+02 -3.6992428897827567e+00 -1.5463336639104455e+01 -1.0927308272619030e-01 -9.6651950367166137e+01 8.1195085232538986e+00 -2.5995621970230422e+02 -2.1348373572847049e+02 -3.7829387616618533e+00 -6.3627068546284136e+00 4.8328225055061935e+00 -9.3050947192750755e-01 2.5077826590772020e+01 3.6591893381273621e+01 3.2133079650998116e+02 1.1142545789400629e+00 6.1171462975954682e-01 9.3343151471926831e+01 3.1232194998989371e-01 -2.7109594128969547e+00 -3.3139420555926336e-02 6.8457927177987585e+01 3.2399507586515028e+01 -7.9404716625271249e+01 -2.4765241581974260e+02 -7.1106301026929941e-01 -4.9632376327416466e+01 -3.5131877678543333e+00 -8.2238438084987138e+00 7.8002395307703409e+00 -1.7053770123935828e+03 3.1682225241325796e+02 -1.4887620546888911e+00 -9.5059422365412605e-01 -7.3778066131169908e+01 -4.0091431196731264e-01 -4.4156056179463121e-01 1.2042758406473411e+00 -2.9589976610855956e+01 1.9692322076371056e+00 -5.4215503868283122e+01 -1.7161668125860160e+02 -6.5545564887145247e-01 -1.5636608237873588e+00 -1.2674226835799800e+00 -3.6537463798740646e+00 3.2523374611850159e+01 -4.1326704403691110e+02 -1.7683874368667603e+02 -1.1282553605506109e+00 8.2745332742541677e-01 2.6751913061813684e+02 -2.2132301167608830e+00 4.0218470787658589e+00 2.6009700643794531e-01 -4.0827458276355173e+01 -3.3777590748577495e+00 -5.8657909108151216e+00 2.7104069404205075e+02 1.0468386838301740e+00 1.2997048573371842e+01 -9.0113940756062139e+00 -1.1332649389145445e+01 -1.1698197475263339e+02 2.6301672314261668e+02 4.3603019158390816e+02 -9.6447602191210535e+00 2.1855995627035760e+00 2.5256236742653709e+02 -4.6229258609680262e+00 -1.9182454506031718e+01 9.7298967257938784e-01 -8.1298575134668909e+01 4.3702198725612149e+00 -9.6068277529117353e+01 -2.2284307982919393e+02 3.1366663450154428e+00 -4.1985596853545843e+01 1.0509321355998509e+00 -3.1116252006831928e+00 -9.1934403115592431e+00 1.3864771037055179e+03 -2.7528086685761809e+02 2.3264562625971550e+00 -1.5274827147493397e-02 7.6500978817857685e+01 -3.5409354432931650e-01 2.2899389455342316e+00 1.4720793234086926e-01 6.8710531014949083e+00 7.1484846403755000e+00 2.4286506372271106e+01 1.0921399145625765e+02 1.8822457284347820e+00 -3.9803954461344802e+00 8.6212723019393633e-01 1.8334055673437248e+01 5.5408849865548333e+01 2.2547656747303508e+03 3.5598615063746149e+02 9.4383925653352012e+00 -4.1455031953066621e+00 -6.5095714258193038e+02 2.4463362885777427e+00 -1.1424501644800040e+01 -2.1595793710668048e+00 -8.6442339113889932e+02 -2.2911553071190490e+01 -7.1121953082955952e+02 4.5921024948436059e+02 -6.1957537094042952e+00 1.0336667299114606e+02 2.4522004341498160e-01 1.2148792027857439e+01 -3.9650537639659804e+00 6.5313679688878219e+03 -3.5422103119232961e+03 -1.4099606581364821e+00 -2.0055590901336018e-02 -1.2295983766157151e+03 -2.3483780953193900e-01 4.9566762521428132e-01 -2.9814192298161402e-01 -1.4337531139938405e+03 -1.7086409203072094e+01 2.3075874487230799e+03 -5.7709984526749054e+01 2.2785495934155259e-01 1.7775540470282181e+00 -3.9382954095746589e+02 
      </Row>
      <Row Index="191">
        3.8112341172618471e+01 6.9436470716958866e+01 3.3399772057309747e+00 -7.1293054383911658e+02 2.2710465991735458e+04 -3.3712557633243705e+00 -2.7323079191740476e+00 -1.6450997519483790e+03 -4.6415412774349534e+00 -1.0641390144446632e+02 -6.7695979900063321e+00 1.4474456724283591e+03 1.9041578099247999e+02 2.5810446349461563e+02 -2.2882078906901297e+03 5.6341843501832045e+00 -1.0041916640708223e+02 1.9004759263090818e+01 -4.0933682795384811e+01 -7.6620782360649901e+02 4.4400241405633278e+02 -1.2463749703812599e+05 -8.2746196544030681e+00 1.6757013784535957e+00 -9.5085067645770032e+03 -9.2016782080145276e-01 -9.9008608129224740e+00 -1.5497567979473388e+00 1.4632984540943289e+03 5.3128677342800074e+01 1.4037960012189797e+02 2.4741254694289528e+03 1.0864555583753258e+01 -1.2000281275909947e+02 8.8650433571216126e+01 8.1360245047399076e+00 2.1358116084506037e+02 -1.3182336366940290e+03 1.5158460643284023e+04 4.3048798089548654e+00 -1.8027886031923117e+00 -4.3135036577321589e+03 -3.6666843568600598e+00 -6.7755219167884206e+01 -4.9130446066392324e+00 2.0556268772576004e+02 7.4673161808343139e+01 1.7591566101234639e+02 -2.9077767087274697e+03 8.5920747532145469e-01 -3.1142789296928095e+02 1.5566983535700381e+01 1.1488002954540570e+02 2.0379784742253833e+01 -1.0266913649812341e+02 -1.8513501282626390e+05 -1.4392860036881302e+01 -2.2192896491458214e+00 1.9272298423983157e+03 4.6775139225010207e+00 -2.5159386230975724e+02 -3.6380318849046489e+00 4.2804506419293466e+02 -9.2337354903716914e+01 -2.5586350872728508e+02 -2.2874476158805192e+03 2.0905355371028236e+00 -8.3475044894366874e+00 -1.2798516925009608e+01 2.7302663397553260e+01 3.2553915775963105e+01 -3.3006831288943067e+02 -2.9837307967722416e+04 6.2534849036906053e+00 1.7096113026400985e+00 -1.8528438979634084e+03 5.4655051730151172e-01 -1.3786556212865980e+02 1.9445539844400628e+00 2.1723893756140023e+02 -2.3191765304544242e+02 -2.1870993742424253e+02 -9.7879424580093473e+02 -4.5196837134935777e+00 1.0280659477095833e+02 2.0279785402635753e+01 3.7596817570680287e+01 4.8366221300399047e+01 -4.1331054713018239e+02 1.1429611042976379e+04 -2.6082103411245043e+00 3.8959678537812579e+00 -5.4395716038679820e+03 -5.8672744175964908e-01 -1.7331947294398560e+02 1.6505798117164856e+00 1.1286374180130661e+03 1.8085416710748814e+02 4.5971883682603948e+02 5.8295729157980531e+01 6.0755251324790152e+00 1.1927276349495514e+02 3.6553359530259591e+01 8.3408530593424075e+01 9.1953312421971350e+02 -1.2054239337148611e+03 -5.0775263845831156e+04 1.6407814278195474e+01 -1.1484310560978615e+01 8.6185804568887434e+03 -2.4301871945646269e+01 1.7764553729267209e+02 6.7836818082560058e-01 2.1913503838485340e+03 2.7425430054782191e+02 -9.3481862917018589e+02 -3.5710505161876790e+03 1.2619535161358726e+01 -9.0383903544381610e+01 -5.8157572849285373e+00 -1.4095849052580888e+01 3.5832665705055115e+02 8.1302901694172760e+01 7.2850402074128389e+04 3.5014749011497770e+00 4.4038886646430910e+00 1.2483324444839731e+04 1.6001316171741564e+00 -1.9633593575398118e+02 1.9031260587828456e+00 -8.9566807660835912e+02 -8.3404594744497444e+01 -3.3337213931372389e+02 3.9299852479756228e+03 -3.2404435962102980e+00 -1.2565510104996565e+02 7.6890253185465554e+00 -1.3737526901780802e+02 1.6667202884372091e+02 3.9148507073207293e+02 4.9393096756890416e+04 -4.7473590964518735e+00 -2.3902751417574564e+00 1.1528427300163079e+04 1.7213257128205441e+00 4.5611933408323239e+01 -6.3911886948403662e-01 -9.1434006873506587e+02 1.0708928495849250e+02 -1.5329079594789073e+02 3.9361011141678318e+02 -5.7067089720330841e+00 -1.0503043455899751e+02 -1.2507240421060487e+01 5.0003577085619327e+01 6.2966081818548264e+02 -1.3434998371279798e+03 5.1808654772400856e+04 4.4265325364176533e-01 -1.0076929281993152e+00 5.3727109045255929e+01 6.4973908350111742e+00 7.1473514894110849e+01 -3.9693065260962612e+00 -4.8354396180552430e+03 2.8509759546723217e+00 2.5663290817069355e+02 -5.6489774206723087e+03 -1.0471022193458339e+01 1.2664855156954536e+02 -1.4462080587364903e+02 -6.6638124696320301e+02 -6.3198942140242070e+02 -3.7569903375878930e+03 2.8802884974269196e+04 1.4183055010296812e+01 -1.4637557232894713e+01 -1.8176938530678046e+04 -1.0754808546893315e+01 3.2836144176849484e+02 1.5359792543026572e+01 6.7147168419966374e+03 -6.5901958177016945e+02 8.1631605230862499e+02 8.2726148694319254e+03 1.4060290660401208e+01 -9.8880586504162068e+01 -1.1907360010467528e+01 -1.2962722051207675e+02 -3.9408416142896749e+02 -2.7528134091570973e+02 6.7401829109340906e+05 2.1333899874396423e+01 2.7190006840692149e-01 -7.3988491383538349e+03 -1.6613872160487517e+00 -4.9217551307126996e+01 -4.7723355905077369e-02 2.3575615549031645e+03 1.5498463792756229e+02 2.0918760036677122e+02 5.0901550455391407e+02 -3.5294565668737050e+00 -1.8289864105528977e+01 1.9581890252755909e+02 8.0462189643123543e+02 7.0526837352996654e+02 -1.9449778615321570e+03 5.5032085224701441e+04 -8.9947290421898671e+00 4.3802310937287521e+00 7.5395280717695132e+03 -1.2095647578134816e+01 -4.1161168968474709e+02 -1.7128569641389795e+01 -2.3266824354124606e+02 2.1769828719334459e+03 -3.7235890182673174e+03 -9.2587104445156983e+03 2.0796563082125196e+01 -3.7921380518622925e+01 3.4277033011835556e-01 1.3892113967724083e+02 -1.3908362625070062e+01 -9.6850370797565356e+03 1.4933588430488906e+04 -4.5491854576320776e+00 -8.4560918650618078e-01 -3.6691927699962262e+03 -9.8795092657837813e-02 1.1824320816183302e+01 -1.2662379997027529e+00 1.4755308002295733e+03 -2.6095742786171127e+03 7.9884237949698445e+03 -3.2249458550018489e+03 -1.1313639465953358e+00 6.7175496772093766e+00 3.5631191916417870e+03 
      </Row>
      <Row Index="192">
        -2.2198130421227802e-01 -1.2817298421720125e-01 5.0445587011377029e+00 -1.5351604361489990e+00 2.2839950902562123e-01 -4.3597767130707155e-01 -2.6884683607857229e-02 -3.1542360363619082e+00 -7.7886683073767671e-02 4.5052170918097545e-02 -5.8786609869610373e-02 -2.7073932288146807e-02 3.3124572508108940e-01 -9.5294513059889141e-01 -1.1839497097306094e+01 1.9972616620627548e-02 4.9896710779592013e-02 -6.7163159775475378e-02 -8.0740290754178545e-02 1.8084100600677630e+01 1.4832248184266064e+00 3.6714267017086968e+01 6.8267556386264516e-01 -5.1034986751119504e-04 -3.7464114673935001e+00 -1.6397927573521542e-02 6.2828705738183999e-02 4.8178610462468185e-02 7.6728737649528966e-01 -1.1228452590592042e-01 2.4680424576955460e+00 2.4083000703110883e+01 -3.5108845837685365e-02 -8.9083173513699876e-03 3.3390486519928686e-01 -1.3301583792542715e-01 -7.1176366834524742e+00 4.3238477361592231e-01 9.4258622482884675e+00 6.5586219748666963e-01 3.0271776132707373e-02 8.6273310913384194e-01 4.9293045200883512e-02 -1.7975999083739680e-01 -3.3353713507526805e-03 1.1684406399585896e+00 1.5987465292914749e-01 1.7800656250255997e-01 2.2252914293980211e+01 1.4138390472226092e-02 -3.0272753710278266e-02 -6.3340057680321737e-01 2.4417764038642531e-01 2.5715906518585143e+00 3.6825232205774228e-01 1.4333743475144729e+00 -1.3069758113990027e+00 -2.4591013597694555e-02 -1.4045587568980409e+00 -3.1936874315306341e-02 1.4284855886756986e-03 -1.5833797880526745e-03 4.1210099225281738e-02 1.7377716814365840e-02 2.6953854519733795e+00 -6.1365762625791831e-01 -4.0262176799599203e-02 -1.7455852259475080e-01 6.4821505483934061e-03 -6.2867037075477583e-02 -5.5524776216307146e+00 -2.3944936814768880e-01 -1.9662116081803106e+01 2.5413085244149869e-02 4.3906293482938175e-03 2.8176451424424158e+00 -4.2756118205289795e-02 -7.1921394158380281e-02 -7.8612412912981711e-03 4.9710523310659482e-01 -8.3730263544907757e-01 2.6752714524969008e+00 5.0775683422977636e+01 2.0501542259452776e-02 -4.0172271145124228e-02 1.2536071031355789e-02 -4.5206258915186481e-02 -5.0149523039129917e+00 -1.1138751268135820e+00 -2.6689325926708989e+00 6.6870423009760316e-02 2.9094950502042138e-03 -2.2469154576392611e+00 1.6679499198644976e-02 8.7386961134257035e-02 4.4775066700219315e-02 -5.3566944647445780e-01 7.2575192634390362e-01 -2.4080742164192088e+00 -3.5851100899019002e+01 -8.4099815157827607e-02 -1.0958963916846187e-01 -7.8088259626668166e-01 6.6662273034268082e-02 -2.3293909781201137e+01 -5.5856846161677822e+00 -7.7041830539237708e+00 -9.8573353836265554e-01 -3.3966459090394925e-02 1.2078388899856236e+00 -1.3705864919816291e-02 -2.9496313287478415e-01 -3.4029780613181515e-02 -1.2695324304286260e+00 -4.8431854564023524e-01 3.8829051295583668e+00 2.8481610657814599e+01 -2.3125020296951959e-02 6.3579556375600532e-02 4.0944836596674039e-01 4.8364202863535866e-01 4.2147573463095114e+00 1.4651638926355872e+00 -1.2550279633724131e+01 5.2364101680954889e-01 2.5001257626733775e-02 -1.3093725509088472e+00 8.2467208766452416e-03 2.8688076219685854e-01 1.8548283163224877e-02 5.5216876401664194e-01 1.3458719671535846e+00 9.0321999302250333e-01 -7.2256001714583363e+01 -4.5777197176753326e-02 1.1576006250653315e-01 -1.8030397186645075e-01 6.3673454710453825e-02 4.1608228255602171e+00 -1.7990944984435373e+00 -1.5373510681791231e+01 3.3451625207079516e-01 2.2411901406354851e-02 1.8628034843277419e-01 -1.8446583027404984e-02 6.4384095999898250e-02 1.6615086872017848e-02 -4.4296782252786215e-03 3.0538355248700100e-01 -2.3490557809618622e+00 -2.8212481085292893e+01 -9.4464053474467846e-02 3.1291688340473911e-01 4.3150372482109844e-01 1.1211282861518157e-01 4.0113207023791801e+00 -1.6414502145216829e+00 1.8353089821874164e+01 4.2017099495082277e-01 -7.9250193745930564e-03 -2.5310794241268013e+00 7.9756365017118469e-03 -1.8335634836148529e-03 2.8729668216669779e-02 2.7784788132739777e+00 4.4982835167297708e-01 2.3621989708958608e+00 3.8068660867309518e+01 5.1648576346735808e-02 -2.6289565648441826e-01 -1.1037673026230166e+00 -6.8749208510325843e-01 -2.6905141994004879e+01 -1.9937816330630085e+00 3.1761787051000283e+00 -2.5201453186552039e+00 -7.0771443051694610e-02 5.0708950673297295e+00 9.6805969251069171e-02 -5.8320594536030512e-01 -5.5141243084726566e-02 -2.6527554208856223e+00 -1.8096678144844380e+00 3.4113738902061961e+00 7.0586304216851062e+01 3.0075896827623982e-01 -8.2840452553345245e-01 2.1594565974049829e-01 -6.4994299360478180e-02 5.7245923170476090e+00 2.3264573482447304e+00 2.1333898706827313e+01 1.8347514839887158e+00 1.0625519998093580e-02 -5.5868008886291136e+00 6.0710466927105244e-03 1.7781177772758383e-01 5.7981228190693290e-03 5.2996861741848988e-01 5.6938642260251981e-01 -2.6994512908058823e+00 -2.5737555394905939e+01 -1.7811149792462899e-02 4.8093307634559324e-02 -4.2743300626362379e-01 6.0806613149924649e-01 6.7655227844309982e+00 -2.4827167660900873e-02 9.1617769267708695e+00 8.0960089744721198e-01 -1.4975465895023528e-02 -5.7122836263806676e-01 -1.6711504012820794e-01 4.0110764813792776e-01 7.9889086503687756e-03 -5.2017728155570095e+00 2.4635376186204927e-02 -1.2053094021794677e+00 3.4325937822762093e+01 -3.2835904607845690e-01 6.1447899929483085e-01 1.4287072826906666e-02 -1.3849173335587378e-01 -1.7516688981031592e+00 6.4570409757807194e+00 -1.4724194357062693e+01 -2.0202234763627471e+00 3.6612703264484736e-03 1.1701737806921919e+00 -8.3712861725144805e-03 -2.5441803787502673e-03 -1.9812566706185919e-02 -8.3708778736573493e+00 -1.0263323265901425e+00 -1.0734349158363342e+01 2.5223795662950778e+01 5.4302179574627222e-03 -9.4559452151517752e-03 -1.6993120152418516e+01 
      </Row>
      <Row Index="193">
        -5.1696533503704789e-02 4.0912219655268700e-02 -6.0369936197865570e-02 3.7572584885771754e-02 -5.5475420708592083e-01 -1.1211288175174389e-02 9.7328467796005663e-03 -1.6473773489318688e-01 1.2783802599882876e-02 3.2432168875342171e-02 8.4766125730732916e-03 -3.0614307366797944e-01 -6.5704444658489791e-02 -4.9966666152268857e-02 -6.0222643281192667e-01 -2.3079779095240893e-02 -2.3410683823626544e-02 1.3988969181528105e-01 -1.9759929622152894e-02 -1.2109391284133686e-01 -3.6123205363260524e-02 7.5274176787024771e-01 -9.4792232640885377e-03 1.2196241098371835e-03 2.1874055324075048e-02 2.3077922394320965e-02 2.3100111703390969e-01 4.4343549691651801e-03 -2.4749860069397966e-01 2.9081192023002522e-02 -6.9318596024514789e-02 -1.3536966980111700e+00 -1.7830408203475416e-02 1.3643331006170656e-02 -2.5106288952911615e-02 -8.0937389993431808e-03 4.3541078352155260e-02 -1.5227584413929662e-01 -1.6735399791252803e+00 4.5206956194571157e-03 1.6116911130120148e-03 -2.6921172710549968e-01 -1.0787587788181285e-02 1.3430771205759662e-01 4.5202380014194715e-03 -5.0924796141967654e-01 2.3364978209496012e-02 -1.5740853919585263e-01 -3.1982531362790212e-01 -1.2454201650911878e-02 -4.0857878996708674e-01 1.0479970323636219e-01 -4.7428919855228902e-02 -1.0325866013447893e-01 1.9627228123491136e-01 1.2794299764186690e+00 -1.2846056011051370e-02 4.4682608107149864e-03 -3.9884577036218616e-02 9.5330223097062627e-03 -9.1852954105672679e-02 5.2553281229413447e-03 -9.6623594604434704e-02 3.9705464947023372e-02 -1.4348957439826471e-01 2.7645546961826994e-01 3.6853275960074643e-03 1.5359934503194073e-01 1.7050289873368429e-02 -2.3485164410700365e-02 6.7436549245199373e-02 8.2107040230411599e-02 1.3787454808807524e+00 -1.2444739961964962e-03 7.1251889162653745e-03 -5.7045691304857371e-02 2.9573029328299749e-02 -1.1808969351541254e-01 2.8041071233343151e-03 2.0906496384526108e-01 1.2596711661121773e-01 -2.6838781095176450e-01 2.2885437942862552e-01 -1.9003549372153927e-02 4.7943483594966009e-02 -1.7317934511161814e-02 3.8981244990150543e-03 7.7845082703276169e-04 1.8515765224712055e-01 1.4462298689522868e-01 1.2696269063894317e-03 -2.2962708270191090e-03 1.8022755562721926e-02 5.6990084916891948e-03 -2.0535328650157059e-02 -1.0716724075158824e-02 -2.6210913684672477e-01 -7.7236169002182636e-02 2.9596798666185364e-01 -1.4358619721497234e-01 2.5586582752467890e-02 3.5736367761081711e-01 1.0499755571103186e-01 6.3602087634738957e-02 -2.1614201609667116e-01 -4.2496484689976910e-01 1.4361425843162579e-02 5.3371819207958804e-03 4.0625571301830688e-03 -2.4171386570291342e-01 -6.3390046105865454e-03 -1.1319299540729322e-01 -7.1239981504310768e-03 -6.6410873752950117e-01 -1.2736493380867930e-01 -2.7708633409952732e-01 8.6213164104711382e-01 -1.1010606605020568e-03 -1.8657025792388260e-02 -1.3937845169534888e-01 -8.6966505332505495e-02 4.7378030382820402e-02 -1.1310880228160491e-01 -5.1039471758485888e-02 -1.0419563417869204e-02 3.7492278826905256e-03 7.7747849275291259e-01 1.0319530926371584e-02 2.4581117658522000e-02 -4.9481294339129497e-03 4.2136874176079786e-01 -8.9553788133832413e-02 -3.1892236541926877e-01 -2.8686491913481875e+00 -2.7535884827300725e-02 -4.3544396597258922e-01 2.3770182421378142e-01 -2.9412112745826668e-02 -2.0218563154521352e-01 -2.6897968772423120e-01 -3.4273557436131341e-01 1.4096280358593546e-02 -9.2712444276719930e-03 2.0621100002418302e-01 -2.1759807793724606e-02 -5.3434667870586594e-02 -9.1406440698903225e-03 -1.0664779409770730e-01 -3.4136799728658573e-02 2.1053605208388682e-01 9.2849756101266223e-02 2.1152225985299811e-02 -8.3457599997257770e-02 5.2890460412864382e-02 2.0332570226253566e-02 1.4414490939425484e-02 -9.1455007486480611e-03 -3.4676368805912716e-01 2.1476511227366185e-02 -1.2863745964605502e-02 -6.1115423176934058e-01 -4.9108840140720852e-02 -3.2157062725169538e-01 -7.1424973641459055e-03 -6.6476511478916933e-01 -1.3829246384846261e-01 3.6080442937472412e-01 2.9671333503455983e+00 6.9803738164186141e-02 3.9120237077928460e-01 1.4754271102136696e-01 6.8839062481346303e-02 4.2879978985213996e-01 4.6213799747171258e-01 2.1596868247826251e-02 1.0415589348276449e-02 -1.0151196314315044e-03 5.7074577433767359e-01 -3.3831015157162470e-04 -2.3405360089125715e-01 8.8507973861166878e-03 1.2040629649548371e+00 2.3575660864192183e-01 -3.4741874396520350e-01 1.6771550781045106e+00 -1.6512946405716690e-02 -7.6691314959705548e-02 6.0738206195177058e-02 -9.7505772844037608e-03 -1.7936032952457026e-01 -1.5275019373518717e-02 2.7190047250724092e-01 1.0625519475885300e-02 4.5335787749813256e-02 -8.8325632573010182e-02 -2.1387986821189864e-02 -1.1732243616434812e-01 -4.0876824669270262e-03 -7.2686537306239529e-02 -4.8005694392252107e-02 6.1815960844882056e-02 -1.0494176336058416e+00 -1.4314038721074993e-02 3.2444796461819414e-02 1.6702106754114852e-02 2.1375921377385337e-02 -5.5235901777741492e-01 2.2329799530140471e-02 -3.2333943699597967e-02 -2.4679501182001691e-02 2.0351480344096270e-02 -1.2260705844851998e+00 2.9247202946426590e-02 1.7539760651541705e-01 -2.5460536264001049e-03 -1.7232909592336725e+00 -3.4925758796067585e-01 -1.8127958848133392e+00 -7.7871973168743835e-01 9.5360186129248743e-03 1.7924515523031853e-01 -9.6288068235043309e-03 1.1537706934203004e-01 4.0070321449268489e-03 1.6026564065443829e+00 4.6720766950005377e+00 -1.2729190811266382e-02 -2.9759107433699819e-04 -5.6703601928870651e-01 1.2387055158539634e-03 4.9528873652198123e-03 2.9230653450958224e-03 -9.1179985857123791e-01 4.5724627293810322e-01 6.0362740914283304e+00 -2.8204815989610199e-01 -1.0434969540965718e-03 9.0688439329005936e-03 5.5207715089589292e-02 
      </Row>
      <Row Index="194">
        3.6261691529944073e-02 -4.2158946386043681e+00 2.3962995543261059e+01 1.7901281615399057e+02 3.1232031120471656e+03 1.0135057804864118e+00 5.9081366243070477e-01 7.3441814062721096e+02 8.0246387743318337e-01 -7.4200240281352308e+00 -6.4479081885338019e-01 -6.2027124764292239e+01 -1.4854043774132151e+01 6.0416170909767970e+01 5.6230639434838668e+02 -4.5253284273348982e-01 4.7123127762461081e+00 2.0729082172292692e+00 -1.8490400607697666e+00 6.1516207427426707e+01 -9.5891329104313627e+01 -7.1684074001312256e+03 -1.2970906102873414e+00 1.0945284127592458e-01 -4.0303749550512293e+01 -1.9967495712035088e-01 -1.5370474406518042e+00 -5.2021463157871040e-02 3.6118842038194998e+00 1.6859346224286128e+01 -3.5457826543875854e+01 7.4288794458657503e+02 7.3689081717395766e-01 -2.7430043358435796e+00 -3.7985782681498677e+00 -2.9225534224242438e+00 -1.7469248735136352e+02 2.9864832624979317e+02 -2.0514567123800516e+03 -7.8108422631266876e+00 9.8891046698372520e-01 1.5782456265576184e+02 -1.0699203261356161e+00 -6.4637687175709289e+00 6.0045930323053653e-01 -1.1093609855364775e+02 -3.2370882568531670e+01 4.5175292961532250e+01 1.9523330241607036e+03 -1.9622287288002553e+00 1.3378748949617147e-01 2.4758841057275625e+00 -5.5150001074653119e+00 3.6399207341019064e+00 -1.4705202097166330e+02 1.5333067700266838e+03 4.0072960047264132e+00 1.1980367117234891e-01 -1.2937488281540573e+02 -1.2074452483466303e-01 7.7927346254145959e+00 1.2927025603289621e-01 -5.7177405558511964e+01 -9.2277135900349094e+01 -2.5006555034895428e+01 4.5506879192125052e+02 -4.2542791913660949e-01 -1.6841977083880920e+01 1.1431847796775401e+00 4.4782764312112704e+00 -4.3874861704418436e+01 -1.0986568368505687e+02 5.1161444675326347e+03 -4.0179914695359003e+00 2.8740090422894582e-01 -2.5831308607850224e+02 5.1797575527234585e-01 8.2391130547621287e+00 -3.1041545935204340e-01 -8.7562630965840071e-01 -8.2639240672870073e+00 -3.9326928142574616e+01 5.4149357348983176e+02 1.1495026356242306e+00 3.1588467786873480e+00 -9.7147398406195862e-01 -3.9967612585169263e+00 -4.4771698541109799e+01 -1.7835161447920837e+02 -3.6137485808134079e+03 8.2672515667218249e-01 -3.7537308309356376e-01 1.0060398932559474e+03 7.9965149846611894e-01 -7.5799044275481720e-01 1.1959785255885778e+00 -4.0393847568193451e+01 -7.1936515577735918e+00 1.0395949667610694e+01 6.7123303456697613e+01 3.6996565034114610e+00 -4.1056435084901750e+00 -3.6166202313743270e+00 -7.6399409856603597e+00 -3.0098211016942514e+01 3.9871796859125607e+02 -2.1759604430198669e+02 -1.3952238257979843e+00 -3.4567203572722249e-02 1.4275901161648653e+03 7.1686648357178906e-01 3.1146955496951705e+00 2.2924134129243612e-01 4.1002299503190443e+01 5.1172615048388252e+01 -1.5831250312505290e+02 -4.2924709572375286e+02 1.9864208404105739e+00 1.0077182113796880e+01 -2.4178244782919762e+00 -2.1246816573329852e+01 -3.6974649161536945e+01 4.7208759890520014e+01 1.5459803902506828e+03 4.2421691854542587e-01 6.3774008143502670e-01 -3.8984311066125520e+02 4.5252676332347619e-01 3.3770733067576657e+00 -1.1767297912706454e-01 9.3808408950513694e+01 3.3628538608303643e+01 -1.7952849264605902e+01 -1.6685387405833462e+03 -1.2710837582490058e+00 -5.4498314308198132e+00 1.8137033341718052e+00 2.4132493865472497e+00 8.8136277119861916e+01 1.9354003124753945e+02 2.6328141110539436e+03 1.0301059942203210e+00 -2.7666783263998695e-01 -1.5197073842468672e+03 7.2751666035401286e-02 -2.1608781154718599e+00 8.0825095625709764e-01 -6.7327536115190014e+00 1.9303794113569893e+01 -3.4861111574340612e+01 -4.3939930545073003e+02 7.1536913207637554e-02 -2.8920539148384705e-01 -1.9668510926730960e+00 7.9497478160192259e+00 -2.7661919661826687e+01 4.6393698555021547e+02 -1.7490619021654129e+02 -5.7649668104786542e+00 -7.5580963662476108e-01 1.3708507783566602e+03 -1.2062269661655591e+00 -1.2032300316001056e+01 -1.0715863539917336e-01 -1.4695548025565222e+02 -1.1032706097001210e+01 3.3355279501178302e+01 2.2922385810324922e+03 2.8645764083976246e+00 -3.1699095904193655e+00 4.2719589797230366e+00 3.6743568715355650e+01 4.0478387508686183e+01 2.4830293988692574e+01 -1.1182314829342067e+02 1.0264764039913416e+01 -2.7943878974097744e+00 6.0062457676802296e+02 2.6948955140608870e+00 1.3074866560880764e+01 -1.4593791689922568e+00 9.0816972550940264e+01 3.2921875522514021e+01 1.2994044003494440e+02 -1.1738574565592053e+03 -2.2301116091395916e+00 5.2856132052234898e+01 -1.3420965645491378e-01 2.6879152716137469e+00 3.3656013995409012e+01 7.6500998169183731e+01 -7.3988491544425488e+03 -5.5868007709539143e+00 -8.8325616335623636e-02 1.9981854494436411e+03 3.3414813987474190e-01 3.2844160013046348e+00 5.1747409203187544e-02 -1.0828052705153823e+01 -1.3904117052523361e+01 -2.0582755977287889e+01 -3.2545709888637066e+02 -3.1085796601678339e-01 -3.4881778981107345e+00 -3.1027861342184311e+00 -4.6566215836107695e+01 -1.2191132631540697e+01 5.0574891627444021e+02 -6.3697361153522070e+02 -2.5101529463819325e+00 2.5260436683717566e+00 -2.6986011433745734e+03 -1.1538936544967342e+00 -4.2966975973089987e+00 1.6848034831890399e+00 -5.7190381819449294e+02 -7.8389521768850273e+01 6.2092806763344043e+01 2.9723809925010241e+03 5.9647763300132493e+00 -5.0866820546941497e+01 -9.6917435155148723e-02 -1.6289774944841625e+01 -1.2789811534944295e+01 5.0237947620790538e+02 -2.8927315226603707e+02 1.0227216037069606e+01 -3.7828514223724596e-01 -4.2677430873026169e+03 1.5720944763552325e-01 -3.6626577546101347e-01 -3.3982248633469680e-01 -9.3158495532864504e+02 2.1702915029630148e+01 -5.3296155340569271e+02 -1.0160470477919605e+03 -9.0851638692104753e-01 -3.5454484363878347e-01 -3.1276248276339415e+03 
      </Row>
      <Row Index="195">
        2.5169494565431272e-02 5.2143849761929317e-02 -2.4456602269877692e-01 -1.0250970432214217e+00 -1.7604633017099331e+00 3.9998011760349339e-03 2.9029774558660969e-02 -3.1359039227328367e-01 1.8469552763164826e-01 -1.3577992711955034e-01 -1.7645206336410646e-02 -2.7088547625934423e-01 -1.6732107172770583e-01 5.4701532112125051e-01 1.2275414838500609e-01 2.2623877965504802e-02 4.2700163788203760e-01 3.2204161540511178e-01 2.6378634081369867e-02 -7.6701521792506355e-01 3.7595805498099821e-01 -1.3315262914620689e+00 -8.4516329477422047e-03 3.4424788605757040e-02 1.0560394174985888e-01 -2.2241979962163261e-02 -2.8744533314494447e-01 1.0099339255491557e-03 -1.1299368979811524e+00 -5.6238345157936465e-02 1.4380761479421800e-02 1.4710468523777536e+00 3.2042946111850573e-02 5.3013775610109004e-02 -4.7740964507862138e-02 -7.0791154024785641e-02 4.0422321049410925e-01 4.1429855896899426e-01 1.7584184033958081e+00 -2.1120636900703538e-02 -1.4752793554813515e-02 -6.2129041435991894e-01 -1.8647216113775533e-01 1.4125784419372422e-01 -7.7935097474568504e-04 -4.3850182722965059e-01 8.9471318322669191e-02 -3.6199993075086212e-01 4.5630556357849628e-02 -1.0006572791311896e-01 -5.3944366118334131e-01 1.0790571014319733e-01 2.6570870346511732e-02 -9.3142869397937034e-02 1.2602713717626557e-01 3.3142373085356667e+00 -1.1331590910644451e-02 -1.4908801460616045e-02 -4.4648786889774783e-01 -8.7932419309099119e-02 4.8538881435881676e-01 -5.8545007021696682e-03 6.0819061722423129e-02 3.7168772219402957e-02 -3.9657366202774824e-01 -9.2540206929834312e-01 -6.2722035316120722e-02 -9.1566409611020916e-02 1.4042368938450700e-01 9.8697480637230939e-03 -1.1217396013483949e-01 -1.0236335934943668e+00 3.7223526136385772e+00 2.6712902291123330e-03 4.6407671554184425e-02 3.2583879441642694e-01 2.0523730349150782e-01 1.9493326876030892e-02 3.0542107592712586e-03 1.2445022990516463e-01 8.3425293592156891e-02 4.5384320794252098e-01 1.5484055772219421e+00 7.5703313155050855e-02 4.1536241814587693e-01 -2.5916039510107458e-02 5.1660418955599141e-02 1.0442177114073381e-01 -3.1176005391012040e-01 -2.9356476118682622e+00 1.3261774469099041e-02 8.7016181396034065e-03 3.7724313765721007e-01 1.3954492985305156e-01 -6.8586479997101435e-02 3.5677450202078964e-02 -3.0777970967704960e-01 -5.4282455221635162e-02 7.4549075549649757e-01 -8.0167854278235495e-01 8.7217416766411371e-02 3.3338968538993896e-01 1.7309316835562105e-01 3.4883072223939493e-02 -2.1535022162295192e-01 -3.1871492265056816e+00 7.5861791581701254e-02 8.5993218535770355e-03 2.5558414020777763e-02 -8.9518747674818933e-01 2.0765144752602274e-01 -6.2514367118275693e-01 4.3914875299106981e-03 -1.9878516770835830e-01 -3.4651491480539676e-01 5.1644134919341411e-01 -1.0828642106520192e-01 6.8861166184580824e-02 6.1250421790162424e-01 -1.4714586142375430e-01 -1.5809265902647418e-01 2.5971685742390704e-01 -3.3852340287860727e-01 -9.2839787261618767e-01 -5.1914836986950430e-03 1.3156052387604228e-02 7.1807679767181298e-01 -3.1582857016683619e-02 3.4727216017024620e-01 1.0840548664573416e-02 -7.2285792203567212e-01 -7.0743826069321614e-03 -3.7946440654189928e-01 -1.9721135134599308e+00 1.1215288304375820e-02 -1.1639812169611341e-01 2.6001754334406701e-01 1.7754252384683689e-01 -1.5831560311490023e-01 -1.8345725770856234e+00 -3.2167098677200556e-01 -2.8778395573533233e-03 1.6480955232193645e-02 -2.0528482250574598e-01 5.4958323733110936e-02 -4.8211157822056716e-01 4.3541698624157410e-02 -6.5482666277962664e-01 -1.3157618317580955e-01 -3.1691133806533855e-01 -4.5746817615872715e-01 -5.4097294592719503e-02 3.5568658863779845e-01 -2.0810181048112830e-01 -1.9217765149846855e-02 -2.7291877952752230e-02 4.1152222350757484e-01 -1.5195435678597278e+00 -2.4648599950390260e-02 -8.4090474075975877e-02 -2.4626142940803675e-02 -1.2464321850655680e-01 2.8590963361158828e-01 -2.7218769819095101e-03 2.0294915825832618e+00 1.0175593097668667e-01 1.3763513961583840e-01 5.9792700230212859e-01 4.0736946691859455e-03 -2.3301198189407926e-01 1.5027318294667585e-01 4.1632989910250551e-02 7.1988436124013644e-01 -2.4632000382547972e+00 -5.2391482327755057e-01 1.1513486932990924e-02 -7.2262139160282606e-03 5.7165832585765486e-01 -7.0208279657180822e-02 4.6581568155843600e-01 -4.4759959087799006e-02 8.7991102000662114e-01 1.2538882481539948e-01 5.6240366225812988e-01 1.3188674971481902e+00 8.6159550116014921e-02 4.8115848513778481e-02 1.5559825690388962e-01 -2.5725699722570994e-02 -3.5633664386836017e-01 -3.5409371039622783e-01 -1.6613872450179770e+00 6.0710471098330485e-03 -2.1387986969718553e-02 3.3414813381925512e-01 2.1186047327890467e-01 6.8633436633657396e-02 -5.3758945804821753e-03 3.9360258242027157e-02 -1.8647919478524067e-02 4.6036000414710543e-01 -2.5812687071129403e-01 -4.0110471626157163e-02 2.3871116823311889e-01 2.5345019920014122e-01 1.5287150142631428e-01 -1.1749756294076836e+00 -1.3859016949458294e+00 -7.7785340154742499e-01 6.5783097327569082e-03 5.0863995722883436e-02 -1.1764826918985705e+00 2.9213658239122609e-01 -8.3194665800899192e-01 2.6237147602609142e-02 -8.2698803425515544e-01 -8.3689136389285157e-01 -3.7030657156494762e-01 1.7903412924405739e+00 5.4340024302736080e-02 3.8997365391062788e-01 -1.7443499610889604e-02 1.7794172861487251e-01 4.5915345923794482e-02 -3.7952885067644857e+00 7.4591486260136204e+00 -7.9425198334436009e-04 -2.2607129371999102e-02 2.9619487397532285e-01 3.5379644737511345e-02 -1.5459178727990498e-02 -1.2339252640043069e-02 -1.4395229911367391e-01 7.9749007459793209e-01 3.7337168764923909e+00 3.1107098468219019e-01 -2.8116296524184046e-02 -9.1516281510393982e-04 -4.0418870645551724e-01 
      </Row>
      <Row Index="196">
        -3.1378691244373158e-01 1.3853000562642137e+00 -3.2845630244901258e-01 -8.0216593009322423e+00 6.6583723388961516e+01 5.3917429704839037e-02 -4.9847485887322573e-02 1.1481745433138713e+01 2.0242948652628812e-01 1.0129161072230545e+01 -7.0231229591229294e-02 -1.7752517311866541e+01 -5.7626423458350473e-01 -1.1514433068587095e+00 3.0995012914327162e+00 5.6260624196113440e-02 2.2986022760115929e+00 2.5662638236842383e+00 -1.5259333484294757e-02 2.0648198021617645e+00 9.9388626521158585e+00 -8.2632974594365805e+01 -2.9356345797502570e-01 2.9124006747299447e-01 -7.3358858316405531e+00 -2.8691236375763296e-01 -1.7836268181662945e+01 1.1370249735557536e-01 -1.3356139625412425e+01 -3.0685844591118894e-01 -6.8202063449234060e+00 4.4686179490236100e-01 -4.7194283927269343e-01 -2.8492180995721128e+00 3.1745844078920982e-01 -1.3778330968398222e-01 -1.9835391033670930e+00 -2.3916373649262823e-01 -1.1365453437168617e+02 -3.7335892464429321e-01 2.8530415671458798e-01 1.3274839953257469e+01 -7.8612191080182470e-01 -1.4486539213968854e+01 1.0684898312799973e-01 -2.3480777517204842e+01 7.0842688906100193e-01 -3.0336910396526946e+00 -1.0851928424763173e+01 -4.5059526095741376e-02 8.7890830500600714e-01 -3.1996268442651399e-01 -1.8333721430718697e-01 6.6657903477425862e-01 3.0848821423460322e+00 1.7977186346426606e+01 1.6668741758270755e-01 -2.3566721408343838e-01 1.0600860202859621e+01 5.2185758856893472e-02 6.2532352135754650e+00 -9.3784898537551342e-02 -1.7028877214175054e+01 6.5794718729091528e-01 1.1027974407061265e+00 4.6280116470152279e+00 1.9808446865621487e-01 1.9225516038531509e-01 -7.2837996331625732e-01 1.7822438073164903e-01 -1.8206283723839078e+00 -4.9170098510658136e+00 -1.7071835143398494e+02 1.3476881754029790e-01 -2.1287015266241882e-01 -9.9955456005409360e-01 7.5666674399172962e-01 2.3081384493830228e+01 -8.3294865680834107e-02 -6.0120396260572306e+00 1.5660864241231138e+00 3.1549976213351556e+00 1.0019811368043520e+01 8.6660462059697352e-02 3.2926543737568110e+00 -1.1541799765727490e-01 8.5247646376819830e-01 -9.2099945638381087e-01 7.0037888468614256e+00 -7.2057596973143518e+01 8.9971030025395748e-02 -2.1687443737074474e-01 1.2328485656594239e+01 2.5149334269035251e-01 1.0348161292490659e+01 3.9916351313023762e-02 -1.5919930929880138e+01 -5.2492354955413134e-01 1.7469596640007694e+00 1.2542378173202451e+00 6.1241360421746549e-03 -2.2905763382761961e+00 3.5536199916354150e-01 1.0782295322559321e-01 -4.0409275065530892e-01 -1.5509329762995549e+01 5.8092430019052699e+01 -9.1484759906926172e-02 1.2133257912915607e-01 5.2614116691104300e+00 3.9776755499489885e-01 -6.8653969819018812e+00 2.8838014848403759e-02 -1.7317626667891091e+00 -1.3235803556699466e-01 5.6566418276670447e+00 -4.4978017324519897e+00 4.6145963180720173e-02 -7.0553677826603689e-01 -1.5733396254116472e+00 -8.5331042726249962e-01 -2.7539209347607994e+00 -4.9471083682981316e+00 -6.0511370452353731e+01 3.6640306877681894e-01 -2.0309435469003212e-01 -3.3533873194723128e+01 2.2797969564948062e-01 2.1745084109290758e+01 4.8790871215113718e-02 -9.8954659286559945e+00 -2.5898847411986026e-01 1.2055124273119873e+00 -6.5328851664171452e+00 2.6778266278607532e-01 8.3686700491789736e+00 2.1516742814170158e+00 -1.1319608390826943e+00 5.3781153856011770e+00 -2.1484791944048993e+00 -6.1227744406787679e+01 -3.7433058857560297e-01 2.8234960936400100e-01 -1.1877743306606135e+01 -2.3582128651882783e-01 -1.7832483743981953e+01 1.3056343622046018e-01 8.0985746012925119e+00 9.8385162362774281e-02 -6.6667106476361369e+00 -1.2305350746279146e+01 -2.0413459556807112e-01 -2.0927819591278194e+00 -5.7782802463675864e-01 -1.1619019659615333e+00 3.6758634112038635e-01 -9.3224107947371522e+00 -3.1577776717022061e+00 -2.0275561027490596e-01 -2.8416351237751214e-01 1.7806266122734087e+01 -3.3437683520674000e-02 -4.2380436185167127e+00 -1.3071871628895337e-02 1.3393478230507753e+01 -3.0758136852455209e-02 1.0146230583661236e+01 1.4068882509189280e+01 2.8132944965008733e-02 -5.0434795737055298e+00 -2.7542514030553855e-01 -6.4711383914175258e-01 3.8431561396710201e+00 -3.0863041116545901e+01 -3.4209615860621852e+01 2.5161870250353147e-01 3.1860668513424784e-02 1.6267390641612110e+01 1.1023525346722074e-01 3.1300349443260586e+01 -1.3493744643313033e-01 1.7491093692769628e+01 -1.3260286246727730e+00 -1.4132284491659597e+00 1.5178874054631706e+01 3.5536424378857806e-01 -7.1788990216788306e-02 8.9543476072881845e-01 2.0120800794802562e-01 -1.8917251613784174e+00 2.2899376781715546e+00 -4.9217548894695938e+01 1.7781177502998835e-01 -1.1732243492546601e-01 3.2844143130514567e+00 6.8633438901599675e-02 3.8475878356417070e+01 -4.1033254197555102e-02 1.3517366198102536e+01 -3.0312784718785224e-01 3.9518922373681562e+00 8.9298724112159107e+00 3.1252046708279835e-01 5.7545707135318480e-01 1.9578898569623453e+00 2.8330550890597106e+00 -3.8046408711211548e+00 4.1637510400527376e+01 -3.3906509183219441e+01 -2.9529017723630502e-01 1.2412647022837715e-01 -1.7979172229832329e+01 5.0269606133686029e-02 -8.0138258046229822e+00 9.5105272799538398e-02 -6.4322576038989908e+01 -1.0850812850995557e+00 7.4616630554345713e+00 -8.8804431097529779e+00 -5.7412103772180012e-01 -3.8915157444611457e+00 -6.4485379308147017e-02 2.9622923207189760e+00 -1.7959757112121308e-01 4.7310964713915133e+01 -1.5953285894531028e+01 7.3845073633746636e-02 -7.6078394559688789e-02 -6.7263951917920686e+00 6.4366996563085976e-02 -1.2894474496591968e+00 -1.3555598429434212e-02 -9.6794008300327448e+01 5.1489709042452994e+00 -1.6497859083143471e+01 1.0044506480573929e+01 4.4171732395685157e-02 -8.8595128956523328e-02 2.8635377445474393e+01 
      </Row>
      <Row Index="197">
        -5.4170826144934736e-03 2.6890366712848390e-03 -2.0150033302854808e-02 -2.3643317801199260e-01 1.3316509666838101e+00 2.7830090983610445e-03 2.2496629998366054e-03 2.6153769372885449e-01 1.7922772857438485e-02 -3.9883420038712813e-02 6.2634301276918714e-03 1.8206622687218399e-02 8.7921933081148040e-02 1.4327566930759872e-01 4.2946522059237680e-01 -7.2046851069900386e-02 -1.6590501065697794e-01 7.2278283655303532e-02 -1.7640215845990515e-02 1.6050204024138282e-01 4.5108815717441075e-02 1.0808412402839167e+00 7.9299905625784817e-03 -5.7355662287041365e-03 -1.5623515176035951e-01 1.4697727061401822e-03 4.4541001884958575e-02 -1.2054787088079277e-02 2.1771046504701719e-01 -1.3114620987586534e-02 -2.5010889406340997e-01 6.7822704834043179e-02 3.2801933514116047e-02 2.0875892498699145e-02 -3.3480982989751329e-02 3.9094988602807135e-02 4.6644444326204848e-03 -6.5377630091484207e-01 -9.6499895524266321e-01 -1.2373579912956512e-02 -2.1319055110187168e-03 7.2128444357440458e-01 -2.1557038565990450e-02 4.0515895232523746e-02 1.8381093492808226e-02 3.2152635185484257e-01 -6.2847247390344307e-02 7.1753722212825721e-02 -1.5907209701979355e+00 -8.3113848380889532e-02 1.6703325803647573e-01 2.0626210012363533e-02 1.4099655253572152e-03 5.1981375417355480e-02 5.0766848221411465e-01 -9.0770523653554847e-01 -6.7794918158129436e-03 8.0130668962567486e-03 3.7787256872684338e-01 -1.9428468465503723e-02 -4.3088110576134042e-02 6.1230903684875437e-03 -3.6105552255316198e-02 -6.9521407785018141e-03 -4.9624796787080072e-01 -7.1325311020473237e-02 -2.3597073182648171e-02 -7.4852180898121734e-02 2.3945865585383252e-02 -1.0340619488342639e-02 -2.2920522426474577e-02 2.9708371407372169e-01 4.4913340507264365e-02 6.1568076462734100e-03 -1.3820880017584927e-03 -5.7379121279041101e-02 2.1011923873758054e-02 -5.0381540646384337e-02 -8.8832728200052280e-03 -1.3765640087584075e-01 -8.2058610735700199e-02 -1.7508930944683154e-01 -2.8342071086825626e-02 9.0766081296438372e-03 -9.6553074106536629e-02 -2.1713975569380484e-02 -6.4939846627254383e-03 1.1153584073231926e-01 3.4940509154483834e-01 8.7983574708232481e-01 -5.8615211182555527e-03 -2.8730714815951575e-03 1.8152446434927683e-01 8.5312800878105666e-03 1.1111366086413454e-01 -1.8550963271898417e-02 7.4743568679139116e-02 6.1712143232853622e-02 6.4409252329049593e-02 2.4655440907915249e-01 1.6227449043202669e-01 -6.5395571783266604e-02 4.1485185047730355e-02 1.6251034773720141e-02 -3.8468085140608821e-01 -1.1898168325330971e-01 5.9051322848608834e-01 -5.2630670936810731e-03 8.3414032824615774e-03 8.7698637166031546e-03 5.1501149701406471e-02 4.4549878585836922e-02 -1.4832055379688014e-02 5.0522722083662330e-01 1.2086020474562531e-01 -7.4645771833594665e-01 -1.4710246714457327e+00 2.4433136023780389e-02 -4.6078740609432067e-03 -3.1754692638060189e-02 2.1085650287274049e-02 4.2470817899729951e-02 -1.8303442853904173e-01 -8.2161769751110114e-01 -2.4347323060573967e-03 -1.9093129206496834e-02 -7.8098823338774537e-01 -2.0159948663763860e-02 -3.8723677880529550e-02 3.8893510424232308e-03 -2.2383381139837866e-01 2.3780768984961398e-02 -7.2000214874918811e-03 9.9064849259909948e-01 1.6061022574853312e-02 3.4216216214563239e-01 1.5262902536525402e-02 -1.8436785886192908e-02 2.7585127601973625e-02 -6.2981507646451007e-01 -1.0073734996767598e+00 -8.4575894139402585e-03 2.9171333948768502e-02 2.1685869738672636e-01 2.5934155347543175e-02 9.6739773483971003e-02 -1.1752902059355558e-03 2.5957947813989790e-01 -1.5160308877810280e-02 -6.7236659144981559e-02 -7.2731766239525086e-01 -8.1827368014897317e-04 1.7286041500877136e-01 -8.6335567857784845e-03 -2.9353624056739136e-02 3.8625403011689485e-02 -3.6690115440512727e-01 1.4095026960840187e+00 3.7237709919901718e-03 1.3308568773727015e-02 4.0840592441742274e-01 6.1635159282541485e-03 -3.3123976824089851e-02 -8.1492927736406262e-03 -4.4028447916900859e-02 5.6613211517998252e-02 1.1772792649851738e-01 -3.7090492419156362e-01 7.0404884362571085e-02 -1.2802581442476665e-01 7.8593311106957595e-02 1.7945333460984259e-02 -4.1338106352223342e-01 -7.1296364227916342e-01 -9.0181988130768787e-01 2.0844206826003103e-02 -6.4120543358180066e-03 -2.7104437680826265e-01 1.6271413515703180e-02 -1.8262313150010367e-01 -1.6527903471256114e-02 2.3739021986680386e-01 -1.0615028201090768e-01 4.7273164967656811e-01 -3.5837053227874094e-01 -1.3913330693603914e-02 4.5285572629542248e-02 3.7169019941351245e-02 4.0477118520172439e-03 2.7662152597315526e-02 1.4720786701354882e-01 -4.7722907118441071e-02 5.7981218875624504e-03 -4.0876823818200014e-03 5.1747440124557897e-02 -5.3758944645596607e-03 -4.1033254389487794e-02 3.8240410942523798e-02 -3.6184284126875355e-02 3.3815231135147172e-02 7.6014665901993794e-02 1.5204367734452262e-01 -7.7338394945439815e-03 -3.1654394563647603e-02 2.0617837518496836e-02 -3.2640286266433477e-02 1.0666950508966311e-01 2.1735401255708862e+00 -8.8127788120233141e-01 -1.9064598202035914e-02 1.0930837839957051e-02 -1.8351907506428233e-02 1.7501871274336368e-02 1.7992479381207141e-01 -3.6587346626225023e-03 1.0664456708600647e+00 3.6983986061521967e-01 -2.7265137330432960e+00 -7.0344734289380284e-01 1.3716849971151707e-01 -2.7618735529957977e-01 -3.9105030763497001e-03 -3.3715162445346766e-02 -6.6553025438771830e-03 3.6454631021814348e+00 9.4722607700805739e-01 -4.9635399720737456e-03 6.6206198392020077e-03 5.3746804871239728e-02 3.9880015799739488e-03 1.6702093064172793e-03 3.3232095530011385e-04 1.8790988181112391e+00 -4.3037887917815082e-01 5.3827974478150624e+00 -2.4879284877506180e-01 -2.4324332696241166e-02 -7.3088790684016263e-03 -4.0526339859568100e-01 
      </Row>
      <Row Index="198">
        6.2985504029165895e-01 -2.5518131898188585e+00 1.0003668863268103e+01 -3.8285877417423762e+01 1.0929728477676399e+03 1.9831783268045911e-02 -1.4598861830643983e-01 -2.6105512212961912e+01 -7.5952794097651122e-01 -3.1944205896579660e+00 -3.1618040861553709e-01 -4.0345091569289252e+01 -5.6377550553806941e+00 3.7619839036196936e+00 -7.2888272690033773e+00 3.2511972362931374e-01 1.3912031416821264e+00 2.8251161175439847e+00 3.5623175789987727e+00 5.7279103346081683e+00 2.5246626696491148e+01 -9.4624771368503571e+02 1.3867582178233988e+00 -5.4182272886021110e-01 -1.8111131368030328e+01 -5.8088195267077936e-01 -4.7166711406462127e+00 4.5685701730121764e-01 -2.6456771636438680e+02 1.2702176628183224e+01 -7.8929748605605710e-01 1.0958068577572703e+01 2.7142351286047983e-01 -1.8738913803871583e+01 4.2300670058984906e+00 5.1372255893584224e+00 -2.0419344078691211e+01 -2.7147387872450054e+01 -7.3452239743620157e+02 1.3258344813534677e+00 -4.4275053605406356e-01 5.6588322381256148e+01 8.4764550844283804e-02 -9.4216904172062641e+00 2.7667223764001392e-01 -2.4197227004065644e+02 1.7974119463528041e+01 1.0489947549154749e+01 -3.3237834519066382e+01 1.3265570481462419e+00 -1.9434155532078876e+01 -2.2615597700041690e-01 9.3086523330330238e+00 6.1536618672835175e-01 3.0056632323190570e+01 6.3087410284578800e+02 -2.5461058934877201e-01 -4.6155678616287332e-02 -2.6206905280705541e+01 6.8325061065002046e-01 -7.0213954072373781e+00 -1.7217467324013569e-01 -1.3515371720835174e+02 2.8260372258923780e+00 -1.0790633228534716e+01 -1.4342909661820158e+01 3.4972232918721602e-01 -1.0160486138784108e-01 -3.4590316823960165e-01 5.7630896347109228e-01 -3.2800999600585783e+00 -3.3734045727760531e+00 -2.3456042887270451e+02 -6.8666087952351518e-02 2.8646262222949304e-02 -8.9664247225737199e+00 1.1747660272976646e-01 -4.9698303119439515e+00 -5.2755890657272175e-01 -3.2049251829565037e+01 9.3539706034425762e+00 4.2643735187066341e+00 6.1406605098454747e+00 -3.9481314965451020e-01 1.8171275136332952e+00 3.9884599136303223e-01 1.2689238222665153e+00 -9.4874122910950973e+00 3.1294678828096949e+01 7.2487022100575268e+02 1.3725468700704369e-01 -4.4564156990787751e-01 -4.8986839551289449e+00 -4.1496266494368683e-01 -7.0186483655088523e+00 1.7223848151746918e-01 -2.1587175598047907e+01 -3.2711885655593278e+00 2.7505526504319278e+01 1.0414700094028376e+01 -1.7727436544555530e-01 -5.8970661500279675e+00 4.8542504545366683e-02 -1.2681052489944250e+01 -7.0758237281261245e+00 -6.5905867788766045e+01 2.4668628836423159e+02 -1.7100239830383543e+00 8.0366708690854827e-02 -1.6797940668216688e+02 -1.2826764540617432e+00 -1.1146860398184799e-01 -4.3105599915361381e-01 3.5496051286449074e+01 -1.4519069563859375e+01 -4.2979319141653832e+01 4.2882671327883145e+01 -1.0619659488543221e-01 3.2734875520131936e+00 -5.0831295125216123e+00 1.0333024042702164e+00 -1.2551449334321660e+01 -1.3203231267296360e+01 -2.6296173367276788e+02 5.7481804461440333e-01 6.4828255538810708e-01 -2.2946161511179525e+01 1.3105137483657927e+00 1.7413320574814861e-01 4.4887836773553147e-01 -5.5387702190404525e+01 -1.3804896425950574e+01 -1.5798983573884470e+01 -9.7927342736220453e+00 -7.4900165494639737e-01 9.2876991183380824e+00 4.7205224094159348e-01 4.6565731875252823e+00 6.9337193411774933e+00 -3.0106475630280329e+01 -5.5801148887909949e+02 3.5782384790627475e-01 -1.7798777482727246e-01 6.4195801910827868e+01 -1.3770845041401572e+00 -9.4168685509839634e-01 3.3247879744547504e-01 -8.1368276912224246e+01 6.6287293326458894e+00 -7.6075475852994714e+00 -3.8924471329431981e+01 6.2173054107188364e-01 -1.0852303948306144e+01 -5.3559595941760563e-01 1.0528631188499276e+00 1.5027249045961071e+01 -3.6028333211899735e+01 6.6043787471950054e+01 -6.3034902851063634e-01 -1.0401451009083829e-01 -1.5998387009021826e+01 -5.8298159015521378e-02 7.2201319730884279e+00 -3.8822593405529915e-01 3.3497915237664711e+02 -3.9864344146772055e+00 7.6002436020644382e-02 2.7427989750402048e+01 -2.7778565712651471e-01 6.0606358047644449e-01 -7.0472814118255016e+00 -1.4885388538614279e+01 -1.7232464005736553e+01 -1.1012315819304786e+02 -2.8533578672772273e+02 -5.8989438202439715e-01 6.0366446203227742e-01 -3.5625842334527988e+01 7.7866661024168415e-01 1.7755216882650529e+01 2.7584718429159949e-01 5.4940642659254991e+01 -4.2969033985916969e+00 -1.0040626284579048e+01 4.0701096031596535e+01 -2.3868778503274917e+00 2.8133095636871076e+01 1.2457068968888052e-01 8.4108884913439397e-01 9.3325094721512869e-01 6.8710061796009541e+00 2.3575615819245577e+03 5.2996864979152747e-01 -7.2686531587578429e-02 -1.0828095929842675e+01 3.9360304795536649e-02 1.3517365979751048e+01 -3.6184295519191778e-02 3.2377262556715868e+02 -4.5902460803226859e+00 5.1142166056670249e+00 6.9057124785613269e+00 1.1370321884447776e-01 1.8461920123854725e+00 1.1040972506273011e+01 4.8352691082184514e+00 1.0326473374681733e+01 2.8632803856468763e+02 -2.3338593469927764e+02 -4.0200777568464119e-01 -1.0628909618790878e+00 -2.1462247092241887e+02 -2.2876956876621612e+00 -1.8490826710133916e+01 -5.3209332372210483e-01 -1.3699106669427122e+03 -1.7290733586031006e+00 6.3804745076817859e+01 -2.6853498854830633e+02 2.4523745639631800e+00 -3.2132492947007037e+01 -5.1110444718091230e-02 -1.6133381217712547e+01 -1.9687263782399531e+00 4.8891316456584269e+02 5.5196924703931109e+02 -5.5142111477498201e-01 -1.2531551140313013e-01 -2.2262895703317753e+02 -1.1244806176352995e-01 1.0844965277736085e-01 -3.9805893507718793e-02 -2.4552166908805366e+03 1.9757175229351802e+01 -1.0436299572361077e+02 4.3382303902909644e+02 2.1160464626632533e-01 -7.2361997731250849e-02 6.1640187512600107e+02 
      </Row>
      <Row Index="199">
        -1.0118463753371998e-01 -1.0356464589297047e+00 -3.5794584866653167e+00 -5.4992797161930866e+00 -7.2368011869955808e+01 2.9391288696444917e-02 -1.2833039110858424e-01 -1.5093810230813688e+01 -1.4101727685817878e-01 -5.4399403543493463e-01 1.9001541411384437e-02 -2.2383629414867414e+00 2.0452996882808293e+01 -4.2135125948952918e+00 5.0629492299185586e+00 9.7182852227120975e-02 -7.6739544243241653e-01 1.0776851585075065e-01 -7.5205387635043053e-01 -4.3950609274679664e+00 6.8131936212230357e+00 2.2308961400017142e+02 3.9096555750916195e-02 -1.8597611154831384e-02 4.1031867169074303e+01 -2.7840578573503194e-02 1.3129461149583221e-01 2.8024318155857486e-02 2.8718178891269872e+00 -1.8275857610162802e+00 4.3235288186384082e+00 1.4173367147487443e+02 -4.5376822018567964e-03 -6.9650171978418030e-01 2.2829425249085489e-02 -4.8963107936810957e-01 5.2115877190490210e+00 -7.8888323053542990e+00 5.9540616030339152e+01 1.1341860750644628e-01 -1.1945556127585633e-01 -5.7115359639574308e+00 -1.2740723147209110e-01 -1.3207895321556862e-02 -1.1195587793046968e-02 1.0397855116149913e+01 -4.6948467088532198e+00 1.8719394169875159e-01 1.5326623376945281e+02 9.5453400357087048e-02 -7.8933181170395983e-01 3.3142064222926138e-01 1.6030343309626005e+00 3.3029508945146517e+00 -3.6908776826858229e+00 -1.8777923075808212e+02 -4.5238349014466195e-01 8.2967375525385023e-02 -2.1833722048584605e+01 1.8560901079496261e-02 1.0667982474086557e-01 -1.8370064292287935e-02 1.0535926381985064e+01 -1.0437957473142035e+01 3.0468156705628644e+00 -1.4080202799377730e+02 -9.3078419206218399e-02 2.2921466626560232e+00 -2.5537770898154122e-02 -1.6677118659345069e+00 5.4370038781526091e+00 -2.5974763021804392e+00 -2.2772588469041511e+02 -3.5194383477858793e-01 1.5207685326635278e-01 -1.3682527181008481e+00 1.8360175894792974e-01 -1.9569061931133547e-01 -8.5326056021884256e-02 8.5029255192494020e+00 -3.0859982174317793e+01 -2.7200304676961196e-01 8.9985504826490796e+00 -1.0166470505816960e-01 2.2001197570181716e+00 1.6940003020380345e-02 2.5803433586861502e-01 1.3565634855194730e+00 5.5162842892059416e+00 2.0536140324966982e+02 3.0639812360305996e-01 6.6121098039062076e-02 -4.4683722031450088e+00 -1.9295471625270011e-02 -1.2076088662729489e-01 5.7877900965052943e-02 1.7399030919368670e+00 1.8792741121115107e+01 -3.9627676370455447e+00 2.4202900970667542e+00 -5.8136347718274806e-02 4.4345720097089725e-01 -2.0820878276968813e-01 -5.9116487646292626e-02 -6.1910743946114053e+00 1.9427718152044690e+01 1.9995638381224126e+01 3.6328294273027950e-01 -2.9934556147924812e-02 3.3622131767789369e+01 -1.7456072336294426e-01 -3.6737219533279131e-01 1.7121491712642012e-01 2.0490342761149805e-02 2.1498146664135675e+01 1.9867656311436804e+01 8.8630183766505070e+01 -8.3658215494892829e-03 -1.6919741836844651e+00 1.6736218486236543e-01 6.8207505893738016e+00 -5.8777674573079821e+00 6.9950855575850710e+00 5.3184750304557383e+01 4.6120978122539213e-01 -3.8081005520826139e-01 -1.6183223995263688e+01 -7.8945381435893580e-02 -3.3558615510196432e-01 9.7635677812505151e-02 -1.3761217039831536e+01 3.8257693499768493e+01 1.2817859060336559e+01 -2.0837214756920730e-01 2.6110524697675785e-01 -4.0019115868005599e+00 6.3930772786252987e-01 9.2529702448609896e-01 -4.2832472095687990e-01 -9.4807726489052584e+00 -5.5827057878952473e+01 1.4352382245292006e-01 5.8905249233912826e-02 3.1980799116252456e+01 1.3674549272143111e-01 3.2987019741290169e-01 -6.0970936561037803e-02 9.4321769070693335e+00 3.0642480166879977e+00 -2.0415314890506124e+00 -4.1956095815636218e+01 -2.3950932288275339e-01 -3.5052910002821136e-01 -4.5430467768170502e-01 1.9744310030882843e+00 -2.3560281795962510e+00 7.1141183704748983e+00 3.2563546305708587e+02 8.9939128323237583e-03 1.6538454218237164e-01 3.0782433237494843e+01 -1.9086417905739950e-02 4.5962533430656549e-01 1.2366130437447964e-01 1.0783093499558163e+00 1.9017797979069655e+01 -6.3132985312204255e+00 2.6970300889317878e+02 -2.0669740322910002e-01 1.6215952748786400e+00 8.9129544613254508e-02 -5.8132446253387116e+00 -9.4219147583976195e+00 1.1487712982190715e+01 -9.4491503526602173e+01 -5.9749821006041159e-01 9.4780127652132853e-02 4.2523781455543940e+01 8.5971461495054580e-02 9.4538470701348842e-01 -8.8462107920376010e-02 2.6573259471356263e+01 -4.3041362621044058e+01 2.6546806695987470e+00 7.4557431574310613e+01 9.4865998566291410e-02 -1.9850400910636949e+00 9.1087172833510976e-02 1.4801697438542760e-01 -5.6230898991743743e+00 7.1484896746696904e+00 1.5498462939448655e+02 5.6938642832203445e-01 -4.8005693621902878e-02 -1.3904116926354618e+01 -1.8647922913885395e-02 -3.0312783509612018e-01 3.3815234519086523e-02 -4.5902463783568237e+00 2.0373549084487138e+01 -1.5826176840928383e+00 7.5051299429171195e+01 5.2577633028612070e-03 -5.7155817860007119e-02 -2.1633752384848998e-01 2.3843979787755050e+00 2.9023924929774569e+00 -1.2153571353422617e+01 -3.4271694007757105e+01 8.6405327935567733e-01 2.2367738372382692e-03 3.9459943652371294e+01 -3.5322716781474761e-01 -1.5845688753115259e+00 1.8343227653901356e-01 -8.4793442570438273e+00 6.5174766726159135e+01 2.3933525284304618e+01 2.3110231709172609e+01 -1.5917823467366352e-01 1.8396318998220869e+00 -1.9094109775042334e-02 -2.2589429702857595e+00 1.1738034388002561e+00 -2.2451679333544458e+01 -7.8878120974028263e+01 -2.1655123688845254e-01 5.8946677803355385e-02 5.2593052180003440e+01 4.4569715259221709e-03 2.9039260593939686e-02 -9.3598248367214865e-03 3.8439943688124124e+01 -1.2007173491313689e+02 -6.1321007993270690e+01 1.2515731957055998e+02 3.0786188783276953e-04 6.8877422734607785e-02 4.8150848889251897e+01 
      </Row>
      <Row Index="200">
        -1.2153309557182865e+00 2.4465898009489138e+00 3.5155665300637338e+01 -1.4576598358610136e+02 1.2195000239403453e+02 -5.9279864596283005e-01 2.0838152628241646e-01 2.2308586918086803e+01 -1.0111701390704013e+00 2.0587096896733783e+00 3.5057929032184632e-01 5.6126926809154156e+00 1.8156498662683589e+00 1.4196152689292649e+02 1.4543555187587117e+01 -1.8107401911876764e+00 -1.0327582526774677e+00 -1.4077400047822266e+00 -7.6886956181851929e-03 -3.9591583969118801e+01 7.9517101976918639e+01 3.2882839448936284e+02 4.7198218677146997e-01 -3.3754920782641307e-01 1.7492610964700361e+00 2.4571913157222980e-01 -1.4825573790676572e+00 -4.4940655905816129e-01 4.1346700044288809e+01 -4.7242792433253271e+00 -1.1298488677817352e+02 -6.1280442424060311e+01 1.8119732166642351e+00 4.6288087036292609e+00 3.0448128247171553e+00 1.0740693166699202e+00 -4.9880707932017685e+01 -3.4834343293774873e+02 -4.2115084573533386e+02 1.4898097973647282e+00 2.1721106671714097e-01 -2.5408333590661641e+01 7.8131952655758141e-01 1.4434674995645764e+00 7.3228605978847838e-02 3.1982669296296081e+01 -3.4577707771277346e+00 -8.5424055044592023e+01 -1.6024128128427401e+02 -1.5466571730279384e+00 -1.2160222714319389e+01 4.0278104476665249e+00 -7.8686106501097584e+00 -6.5172728856778122e+00 2.4504279971977667e+02 1.0470487289596349e+02 2.9596488836402131e+00 -8.3717123008301542e-01 6.5206945343525149e+00 3.6589717547309419e-01 -3.0881037939075213e+00 -8.9555463838195237e-01 -8.3615886237566883e-03 1.9136792446865911e+00 -4.3112541799359315e+02 1.3788002414256334e+02 4.8629484799658016e+00 9.0430377951325909e+00 1.6358563906846939e+00 -2.6424529324503965e-01 -3.7014988382725278e+01 1.2562926361284917e+02 -7.9757559236604720e+01 1.9127455652052561e+00 -4.3024440732392044e-01 -2.4759187066447339e+01 -1.6437104786480177e+00 -1.4147849012024380e+00 -1.2368251954808329e-01 -8.9167993846203899e+00 -1.6749238358206640e+00 -2.0286001117589728e+02 -6.8105116860260750e+01 1.7278347571518111e+00 3.0807486885052668e+00 -8.0921771293770917e-01 2.5211949343247397e-01 2.0438157394552491e+01 2.5662295532297139e+02 -3.9111877942830324e+02 -1.3517417662615117e+00 -7.2565788978664614e-03 2.6441232752109499e+01 -2.9821778311350045e-01 -3.6150555317549333e+00 -3.4617851722196646e-01 7.7114837480403366e+00 1.1769435493257561e+00 1.4842170412181804e+02 4.6724570464197313e+01 1.0671767528988312e+00 6.7867206856544726e+00 4.9006272739030123e+00 -8.7631084594284516e+00 -1.7967569243171511e+02 -2.5761824106993299e+02 2.6000922773033381e+02 -5.0724163617721274e-01 -2.4259102420799401e+00 -9.3229158566829028e+01 -6.6714513092296102e-01 -9.5534319196385695e+00 -2.0885747148914220e+00 -1.3551694502928149e+02 -1.1991334310696402e+01 -6.0959779771328613e+01 -2.1969355448263377e+02 8.4748648717173296e+00 -3.7077229863742787e+00 8.0733248625535392e-01 2.4519976664032583e-01 -5.4445285669294208e+01 -2.7030939977259550e+01 1.9944310877472162e+00 1.9050165181757279e+00 -1.4887521702499384e-01 -8.8419193511726917e+00 2.7031205383924828e-01 -2.5896889894261221e+00 -1.8649587331083595e-01 1.1100324882117093e+01 -8.8316102462072195e+00 -1.9100055370366681e+02 3.1391337957063115e+02 4.5558175645019716e-01 -2.3006667236608109e+00 3.4612501018693820e-01 -6.0602749584440971e+00 4.2499697794173699e+00 -2.7838760974167599e+02 2.6808604061137885e+01 -1.1944337081544063e+00 -6.2737799240782977e-01 -1.7320917805845966e+01 -1.7395114902756745e+00 -4.0667959964446254e-01 7.6768767611739008e-03 9.8822861561966420e+00 2.6519297180620924e+00 7.0349568544716021e+01 8.5067680949796340e+01 2.4753225307941307e-01 -1.1571634568464788e+01 8.7494914793751377e-01 -4.2152447356056655e-01 3.3680685136509965e+01 -1.8168842588787084e+02 -8.5981882171705365e+01 -1.5486643989337381e+00 3.0760036367463561e-01 -2.5741308810509508e+01 5.1650481260736569e-02 6.7432292075591249e-01 3.2562440320265296e-01 -1.6346437629050342e+01 -8.6869628973290673e+00 1.4011052684858078e+02 -2.3910110302807880e+02 -3.3852975737818269e-01 -7.5584453523724484e+00 -2.3244287520956610e+00 4.6373531039419049e+00 3.0599621531094999e+02 -1.9501153082818564e+02 -3.2232837308058515e+02 -3.4732727552379572e-01 1.4761164306707621e+00 3.5160769635054749e+01 -1.3738798042690403e+00 1.6469646858100759e+00 2.4137747758619419e+00 1.0517027501181347e+02 1.4433706008675317e+01 -8.0543881272888029e+01 -2.1647140270871751e+02 -7.6756380925721146e+00 -1.2852025460722757e+01 -2.1627661063828327e+00 1.7248747655703482e+00 -5.1022482178072096e+01 2.4286388934357092e+01 2.0918801507353783e+02 -2.6994520351803448e+00 6.1816000308112962e-02 -2.0582738885896106e+01 4.6036012273270899e-01 3.9518913355968834e+00 7.6014632721609132e-02 5.1142129991494585e+00 -1.5826198212291729e+00 4.9577358145616017e+02 -4.2558948785328539e+01 -3.2107810870928688e-01 2.4720623162141919e+00 4.0825076578184953e+00 -1.2053801589267980e+01 -4.0533993816652685e+02 1.0582683437573187e+03 -3.5498807928480790e+02 -4.4611450979653711e-01 -3.3952152480705347e+00 1.4057950623361103e+02 1.6426381331937367e+00 -8.4472940596308153e+00 -4.4506498387283635e+00 4.4934169559386913e+02 4.6499018444705245e+00 -1.7686891143860471e+03 -2.2599181590075452e+02 1.5707989015003909e+01 2.1684025382626587e+01 4.9983289444831769e-02 7.7449891259738823e+00 -1.2461215565346140e+00 2.3970430113643351e+03 2.6827684633883564e+03 2.3818802221931201e+00 -5.4072277881999753e-02 4.1817838526489413e+02 -2.6954088230937856e-01 -1.4273999554556660e-02 1.3536597446176302e-01 1.1334398516995902e+03 -2.7049905525214342e+01 5.7651978518817723e+03 -9.9747395677091674e+01 -7.0310002933973248e-01 3.0988827930021667e-02 1.0007330813994888e+02 
      </Row>
      <Row Index="201">
        1.5914533163386295e+00 -1.1594453925135895e+01 2.4239913025739952e+01 1.7449731718788826e+02 -2.1122842207988724e+03 1.6614104731308771e+01 3.0317149326764792e-01 3.6346703047532355e+02 -3.8398744818249497e-01 -5.1265941463861964e+00 2.7696267929487135e+00 -6.4953873654730614e+01 6.6521884386733291e+01 -7.9852219845110085e+01 3.6618264481847145e+03 -1.5237300160656559e+00 9.5413182762131328e+00 -2.2162399595881652e+00 -8.7553613359068549e-01 -2.3878362766464124e+02 -4.9689763536734972e+00 -2.2593760368227959e+02 3.7532264726421545e+00 -1.4981845725303629e+00 3.5746002997766846e+02 1.6231260494866433e+00 1.7178555215505185e+00 -2.0968054490026589e-01 3.8103691628348315e+01 2.0853306040155985e+02 5.7758544567539957e+01 9.7817887536686612e+02 -2.0523958704915799e+00 -4.3797118173670242e+00 -4.9157921559390161e-01 4.0798883146198932e+00 1.3860660427984840e+01 -1.3964465580973774e+02 2.0390540558192879e+02 1.5979158566947262e+00 -6.7478148524855897e-01 3.4177374728606082e+02 -1.3655528746030541e+00 9.8557467174687190e+00 -3.8596623734071045e-01 1.6897149896365590e+01 1.4171279170740672e+02 -3.2408446520807047e+01 1.9127457261632662e+03 3.0258337925702108e+00 5.8285922098730225e+00 3.6846872030037048e-01 2.8122950581765508e+01 6.4483978377567837e+01 -9.2593087670102250e+01 -1.3246907643936574e+03 2.0103190264075863e+01 1.5135791370905736e+00 2.8344858788512647e+02 -3.3970290990864669e+00 -1.4861915459209740e+01 1.2947614463143964e-02 -2.8439724323925475e+01 -3.2980060169832723e+02 6.8710857574274996e+01 -5.2138412462747656e+03 2.4221780165875231e+00 5.7137795362473298e+00 8.6381041277945769e-01 1.3970935382283642e+01 -5.8730086614290485e+01 -8.7049999661336187e+01 -2.7036145218648016e+03 1.3362592642061770e+01 -9.4957617235633762e-01 6.5429617493733531e+02 -9.3650356060061313e-01 2.8142904908017954e+00 -3.0601790637751947e-01 2.5046128590009175e+01 -4.9202884523721877e+01 2.1878175495804498e+01 -5.9967306851028115e+03 -2.8507103170627488e+00 -1.7610586802776481e+01 -1.0281311922747136e+00 -1.1639227642503101e+01 6.9674217052639506e+01 8.0190276052919216e+01 -5.6715169676393270e+02 -1.4256031871758296e+01 -1.5549101880424132e-02 -5.0568106834842183e+01 -1.2072509575853019e+00 -2.7530485886090901e+00 -3.1641853756680911e+00 -2.1497155775577994e+01 4.9025001842601569e+01 -4.4419570208847290e+00 4.3785846593403840e+03 1.1643236083232296e+00 -1.3226239645769965e+01 -5.3973606558022311e+00 -2.5440008728489374e+01 3.5138653706082187e+02 -1.3301376319222618e+02 -3.3036406133323908e+02 3.4696951727093051e+01 2.1058501630298201e+00 5.2435153648555752e+02 2.8659117446400160e+00 1.6682595017411586e+01 -9.7091843289547342e-01 1.1057598774932558e+01 1.8906132553976931e+02 -9.6717609582949081e+01 1.6880059077752958e+03 -5.1034618424528162e+00 -2.8409292618219752e+01 2.7160708975867607e+00 -7.7048979141509335e+00 -7.5008460237306281e+01 -1.5038368165023712e+01 -4.5567544298246503e+02 -3.0458865523770328e+01 -2.4487335270271728e+00 5.1363971243263222e+01 -2.2439355616753573e+00 -1.7118405008422997e+00 1.6690164452057843e-01 5.2510892412839894e+01 1.4501078416195742e+02 1.5005377831173246e+02 6.3452993434516247e+03 2.7711669271909756e+00 1.9730134262524871e+01 -1.0209895819568828e+00 1.3524290327406561e+01 -7.6758533677639207e-01 2.8679523354902631e+02 2.0742389174941927e+03 -2.9017782975039836e+01 1.6738164608380828e+00 -1.7643847393119941e+03 -2.9624009524707162e+00 4.5818572752291402e+00 -1.0421719432239769e+00 -5.3844139885834011e+01 -1.3392815988360962e+02 1.0605331733553612e+02 1.3949902296567452e+03 3.3204219704884963e+00 2.6005028353009038e+01 -6.1400828335238202e+00 1.6223019761819160e+00 -2.4180107825463710e+02 -3.2580647669092286e+01 -3.4140643727667630e+03 1.5544036883431545e+01 2.6646785528686223e-01 8.9840806028642692e+02 5.5009291559516669e+00 2.6350007735854888e+00 7.1111916336985814e-01 1.1808363321353681e+01 3.8810924488887395e+02 1.8526357123817434e+01 2.2351391558523756e+03 -2.8103873601221494e+00 -2.3949576665165722e+01 -2.8136211008379846e+00 2.5691376064975884e+01 3.7435677461306113e+02 -2.5220840525731910e+02 -7.2824059574631974e+00 8.9236222323762689e+01 2.4891798084733754e+00 -1.3124850025893538e+03 3.7404746434764320e+00 3.7196155641662699e+01 -1.3601529730964756e+00 -1.2006992523456745e+02 -4.0745736146681224e+02 -3.9749290297487460e+02 -6.7041123062206170e+03 -3.0329192782596692e+00 -1.4485367018018223e+01 -2.6060780053771850e+00 -3.3934216225461569e+00 -5.5275195111084031e+01 1.0921406421903521e+02 5.0901540458202362e+02 -2.5737555387781317e+01 -1.0494176097059835e+00 -3.2545710891799536e+02 -2.5812691126611753e-01 8.9298720655424404e+00 1.5204375094401001e-01 6.9056958447908983e+00 7.5051299355726769e+01 -4.2558895048452541e+01 1.0935879259012756e+04 7.9424185597116548e-01 -7.0508342858938704e+00 -1.7584500478646339e+00 -5.0288631359948717e+01 4.4425767887059919e+00 1.1127471989110705e+02 2.7201860815551845e+02 -9.8097311416583910e+00 7.8843964568947122e-01 2.0750559189934866e+03 -2.0211301882679749e+00 -3.9321584762946053e+01 1.1555528663670849e+00 -2.3398105157459577e+02 9.5590416884182559e+01 1.9383819284223816e+02 9.8534520496807636e+02 -3.6248356666413963e+00 5.0854832880503338e+00 1.9271376854844391e-01 -5.8114077122778490e+01 1.9554904065025852e+01 -2.4562676717117216e+02 -8.1468550577105407e+02 7.4907585290357588e+01 3.5890413077135008e-01 1.1397403512937067e+03 -6.7524659345735927e-02 5.7315992605310839e-02 1.1652427399750422e+00 -5.0492226458697382e+02 -1.2289459070247688e+02 -2.5295788179905682e+02 2.9055676634125412e+03 6.9656233070552465e-01 -1.3038185964095028e-01 -4.4383575639607346e+02 
      </Row>
      <Row Index="202">
        -5.0234583904844143e-02 -4.9911862221080128e-02 4.0237851480543441e-01 -1.4761825884251891e+00 2.9031655124908866e+00 -2.0791049240228787e-02 1.6115992129495979e-02 2.9077904989026138e-01 -3.9320960931309434e-02 1.9201825370251413e-01 1.3485738471285869e-01 -2.6116160058089832e-01 -7.8840780040252412e-03 -9.5638567404819241e-01 3.0778053394479343e-01 3.7885942798709582e-01 -7.1565389877221719e-02 -5.1349524736075125e-03 1.2355533612217506e-01 3.5383292452240767e-01 1.7586939269858703e-01 1.3501418301893864e+00 3.4606946350659307e-02 -1.3554400496524899e-03 -2.4279558810864899e-01 -7.5074790799625202e-03 -4.3916550840106083e-01 6.0056701149677316e-02 -2.5407860941615112e-01 -6.3169226588598804e-02 1.3589971076070437e+00 -4.6516738432478633e-01 -3.7756756938901048e-01 2.0158522003864654e-01 -1.4516823503144138e-01 -1.0870940861146039e-02 -8.8792683691801244e-01 -3.3239887966283277e+00 -1.1587878325372003e+00 -1.1436404505271724e-03 3.3331579432508640e-02 1.5802459284777797e+00 1.0810441663944914e-01 2.4647480454848392e-01 -8.5038392245357919e-02 2.5147415323709765e-01 3.7326909243262207e-02 -1.4519546193391761e+00 -4.8109018792522420e+00 8.4574509081720706e-01 -5.3091704530146444e-02 -1.2472914677537084e-01 1.8609578509316549e-02 -8.3408244262045628e-02 9.6781878518686426e-01 2.4816786953160772e+00 1.2342014382409561e-02 -5.3360847742874862e-03 2.3393789277906762e-01 2.5229721380752856e-02 5.9958554824797616e-02 -4.4079310298435481e-02 7.3551013395828591e-02 8.1779231265098673e-02 1.8042378659912401e+00 3.8875989617508822e-01 2.8355057430237135e-01 4.9153867224615233e-01 1.8560290720106565e-02 -4.6586115548045370e-02 6.9913503984594172e-02 9.9772241660821237e-01 2.6684185833437368e-01 1.9965784327238056e-02 -1.0835460986594325e-03 -3.8105525810715335e-01 -6.1551880896432820e-02 -3.3939186528471055e-02 7.2723264717170277e-02 -1.2981346307753938e-01 8.1780441765801015e-02 1.0867677087513208e+00 -2.2330186454728960e+00 -2.3904136000647114e-01 1.0538312304131425e-01 1.4637485855534127e-01 4.2839795494870714e-02 -1.3638380458917965e-01 3.3479790827366287e+00 3.2486513954791008e+00 1.1767515292309128e-03 -2.5759287845984913e-02 -1.0194502052326015e-01 -9.9185198428220822e-02 -1.6870765602168092e-01 -1.0591681370131448e-01 1.6456490495681919e-01 -4.8985837518924935e-02 1.0096113971666796e+00 2.0313124489273378e+00 -1.1146237350918424e+00 1.9928298601982419e-01 -1.2277777901271536e-01 -8.9817285196780006e-02 8.2376642460096150e-01 -2.7125587439367109e+00 1.1061576755309943e-01 -2.7189342311269904e-02 -3.9096150719505660e-02 1.6161405951685026e-01 -1.0668901903689609e-01 -1.4348808416378489e-01 1.2406077017468631e-01 -1.3137574512011838e+00 -7.4140786717464380e-02 2.0428213095970591e+00 -6.0096085329058724e-01 -4.6077822755457376e-01 -3.6641544252833924e-01 1.1204177642129887e-01 1.4341555068966017e-01 -4.0611699470584028e-01 -9.6137449430341348e-01 3.6636797686805949e+00 1.1479608622730453e-02 2.2269450581231864e-02 -1.2787343331710872e+00 5.7247522837723608e-02 -1.9366874173180548e-01 -7.0145620688606580e-02 2.8281397752738258e-01 -5.8997250107324817e-02 8.2416345514656086e-01 5.7071063075909478e+00 3.5021867552661123e-02 -2.6229810454002966e-01 -2.7173035009400692e-01 8.6588601942523269e-03 5.1429828042614645e-02 -3.2326055661808368e+00 -1.2685513354226714e+00 -1.2731985427262060e-02 -6.4913095160835987e-02 9.9068717821342034e-01 -1.2259199637609397e-01 1.5203946747291397e-01 -1.7927774490116116e-01 4.5690691295817487e-02 2.1528084949920867e-02 -1.0968390076276933e+00 1.2052710457044213e+00 1.8209133235531727e-01 -2.8386190299698200e-01 1.0670858219480106e-01 -6.4255102705743639e-02 1.7184481177307021e-01 -7.8902461002371638e-01 6.8476128975453321e-01 3.0726374348724050e-03 -2.6315512523364580e-02 -1.1411969498819872e+00 3.7479865195302331e-03 1.0505592652847895e-02 4.2624777301963235e-02 -4.4125015294866898e-02 -1.9374275379021810e-02 1.0200606319949657e-01 -4.4001781852962267e+00 -5.9590125419104911e-01 -2.7439679016987806e-01 -7.2131916708080918e-02 -7.1685455303519774e-02 -8.1099902671812174e-01 -1.4266761503047292e+00 -1.6364150995523232e+00 -1.6783787334870737e-02 -2.8758789220125302e-03 -1.4809116459924212e+00 1.3002791614180831e-01 -1.8540390199232704e-01 3.3018012787883977e-01 -6.8982263158847701e-03 -5.0938930557238749e-02 -1.2677692595778467e+00 -3.2069824603684651e+00 -5.3724741905684148e-01 -5.2468484619544142e-01 -5.3586007407247394e-02 -3.3188481807457038e-02 3.8941428420071134e-01 1.8822459857910872e+00 -3.5294568758836249e+00 -1.7811149542462323e-02 -1.4314038643228999e-02 -3.1085793509885207e-01 -4.0110471757508037e-02 3.1252046986789139e-01 -7.7338393755373158e-03 1.1370326192900393e-01 5.2577623582585886e-03 -3.2107802466998692e-01 7.9424185316520379e-01 4.0154874961157616e-01 3.9381498879612487e-01 -7.4755156363013137e-02 2.0390771284730047e-02 1.8680159793502034e+00 -2.0909307385562537e+00 -1.3124499578136977e+00 3.5964627815331870e-03 -3.2683186263174728e-03 2.0415890911715451e+00 -1.9997777581016590e-01 1.4912860054516214e-01 -1.1678844480530276e-01 -5.2499511908244112e-01 -5.8817595829282948e-02 5.0892807665105622e+00 -2.1846987907224351e+00 -6.4940346134808691e-01 6.6730892122088048e-01 9.9190824689713852e-03 3.8355179402235928e-02 -6.7551126568951847e-02 -8.9837872094130813e-02 -1.0515121568544814e+01 1.0213783673949907e-02 -1.6550425751529874e-02 7.3576663951635535e-02 -1.6696374492310539e-02 -2.7091948479400184e-03 6.4382665678427209e-02 1.2933888929337511e+00 2.3115651423958150e-01 -7.8193430914477275e+00 -2.2630876224612739e-01 3.0248113497950657e-01 2.0173668212566019e-02 1.7281055616306005e+00 
      </Row>
      <Row Index="203">
        1.3553548738051546e-01 1.9082274701192432e+00 -2.1415689345571991e+00 1.2376785133752719e+01 2.8746004428016022e+01 -1.7019586033686807e-02 6.7332903849553483e-02 -6.2008566013564632e+00 -3.5893919552382059e-01 -2.9264212045131899e-01 -4.3077752764347110e-02 -1.4658190328258627e+00 -8.3150089482273870e-01 1.0192922042742794e+00 -8.2969995916644166e+00 2.6993438961741134e-01 6.4831666358377618e+00 -3.5282566280271510e-01 9.5940373570273607e-01 -3.0866506689792459e+00 -5.3224122932797400e+00 5.2749537382740527e+01 -6.5822335106883401e-02 9.9219574914325648e-02 -3.4743060190598953e+00 1.9294071794033485e-01 -3.6781134383113567e-01 1.4544419893741889e-02 -1.5977459328278599e+01 -7.5832803987992747e-01 2.1291670234879518e+00 5.1427897349003615e+00 4.4296999919859470e-02 2.8305623980531038e+00 -7.5635615679937018e-01 2.7796090682960539e-01 3.9437617166549899e+00 -4.8456918359079282e+00 -1.3355459373706253e+01 -2.3637229238730129e-01 1.5071008087615212e-01 -5.1138449303398374e+00 3.0252338783897414e-01 -1.6531078070875083e-01 -1.4642053546359612e-02 -8.6347013736740337e+00 -2.7639123581616332e-01 -1.6036265044499487e+00 -7.4450619487315635e+00 3.9642943643185902e-01 -2.7915803338451724e+01 2.5276867146963866e-01 -3.5589822994979272e+00 -1.0270622546554478e+00 -1.3700549873511591e+01 -5.4693419092218392e+01 4.8723318874705157e-02 1.8833454994704724e-01 -1.5771431522080093e+00 5.3341305029729824e-01 1.0557824777744003e+00 -1.4819204731265678e-01 2.6107158361460847e+00 3.3440122052975596e-01 5.8617787872208282e-01 1.9268705352078541e-01 2.9192540734499639e-01 1.7492395085320304e+01 5.4335357772913540e-01 -1.2531462105353626e+00 -2.1376610898823856e-01 2.2148279605462449e+00 -1.2790699476725422e+01 1.0890428673767261e-01 1.3686303821995338e-01 -8.5666850378420349e+00 -4.4939423270399459e-01 -8.3045906880556686e-02 -5.7836045459222163e-02 2.7952792013070393e+00 1.4965113553636229e+00 2.9379648970061396e+00 -1.6578980999393025e+00 -2.4466812169265495e-02 1.3680990939395912e+01 1.2341837309284003e+00 -2.0818833928979075e-01 5.1019945884104345e-01 1.6109364085648849e+01 -3.1247623268282041e+01 1.2352575317886760e-01 9.2044622909206453e-03 -5.2287558254071200e+00 -1.3221762587789954e-01 1.3364134410261954e+00 -1.1900768697109942e-01 2.6880900387368456e-01 -5.4780234590431398e-01 3.2542946771663992e+00 -2.4386575204789551e-01 -8.4161720923469474e-01 2.5371576339018361e+01 -3.0638309811980946e-01 3.3262326437091971e+00 1.5875692855024681e+00 2.8582114565570009e+01 -3.2302731584408320e+01 -3.2463256093794968e-02 -3.2663251075571353e-01 -3.1898781386490782e-01 -1.6673510014291235e+00 -2.5029691484001546e+00 1.8216065328863351e-01 -3.6631878630510073e+00 -9.5238512769174122e-01 -4.0820634511183016e+00 5.7213574624147441e+00 -2.9581975119803872e-01 -6.1616568693586800e+00 -5.3035212021340561e-01 -1.1244382394336867e+00 2.1964368685469253e+00 -1.8638958907176175e+01 -3.6695973968598992e+01 -1.8982411023181101e-01 9.7943423136342744e-02 1.7519334363536473e+01 -1.6813835500638952e-01 -3.6958807675244145e+00 1.0490214802513043e-01 -1.5516378239994310e+01 -2.0529642410505744e+00 1.0175970043337657e-01 1.0080577724424984e+00 -1.0429164761559928e-01 -3.1839271312584494e+01 -1.3524795949624604e+00 -7.0845368847994905e-01 1.6494392959998549e-01 -7.4054935402359661e+00 -3.9198017739981879e+01 -7.8831704183553342e-02 -6.6518712357624210e-01 -3.0871628701424925e-01 -8.2159507449279445e-01 -2.6538856584896777e+00 2.7896680421445152e-01 -7.9111425770151982e+00 -5.8613804258084201e-01 -5.9191057291850484e+00 2.0238535264713391e+01 1.2336508784829547e-01 -2.1572933659185907e+01 6.6106267329291057e-01 -2.0378659442308162e+00 -1.3471610399045630e+00 3.1968834480981968e+01 3.5027835571148898e+01 1.4606114741226861e-01 -4.5364240395021183e-01 -2.4518531158379119e+01 1.9338445432442697e-01 2.4520284363327391e+00 -2.2500983136104935e-02 2.8741488582063539e+01 6.4334316862414198e-01 -1.0178141133298595e+01 -6.9227472981219762e-01 -5.3305164578634390e-01 1.1171395326314521e+01 -8.3679142948905572e-01 4.7529818069268401e+00 8.9563593643231911e+00 -2.6288356139993994e+00 2.9408584431668714e+01 1.2546940457195355e-01 -1.5436264282485901e-01 2.9591357601864729e+01 -3.1310440837013154e-01 -2.5782796678217750e+00 3.1898129116623686e-01 4.7465167805435335e+00 1.7042345906180429e+00 -7.1860390194478896e-01 3.0030376071505543e+01 -2.5143526659875448e-01 -5.7008667343386321e+00 -3.0342728462997570e-01 -2.1747146401548889e-01 -8.4400593847021810e-01 -3.9803960800054483e+00 -1.8289877845789306e+01 4.8093342007009765e-02 3.2444790861390516e-02 -3.4881778553512959e+00 2.3871116402445125e-01 5.7545703822421501e-01 -3.1654396880059998e-02 1.8461908246936218e+00 -5.7155659678571169e-02 2.4720587311821873e+00 -7.0508317540206917e+00 3.9381499571312695e-01 2.1778287058872664e+01 1.6526115426473971e+00 1.0560628347319456e+00 -9.8711032648914987e+00 -5.5594826119842566e+01 3.2953365679449007e+01 -2.8633986327275374e-02 2.6708967916832610e-01 -1.2977738148014396e+01 -3.6127624408389103e-01 4.3021193583311357e+00 -4.4062396356368427e-01 5.2674422325689996e+00 -4.1068555635899120e+00 4.0105833225515632e+01 -2.8945752317051682e+01 -3.3520969881002716e-01 2.4823158041248163e+01 3.0232367319054987e-02 1.0076108765848822e+01 4.4855946318076800e-01 -1.8652148855484114e+02 1.0954885469895244e+02 3.4936559151671875e-02 -1.6029314402904049e-01 1.4071160050638611e+01 -1.1329990871077555e-01 2.3721356993742983e-02 1.5965701035767665e-02 1.0068662208095759e+01 6.1320094289353602e+00 -8.2648882124029541e+01 -1.0139115709636526e+01 1.8130265744510143e-01 1.3589194168350889e+00 1.1835520280003500e+01 
      </Row>
      <Row Index="204">
        1.3239057484257728e+00 -1.6059841706100997e-01 1.9866539243321313e+00 6.0262258992370334e+00 7.2207876711792778e+01 1.5022331576574288e-01 -1.3781277665535629e-01 6.8949497643880022e+00 1.5168271614244588e-01 8.8525703359664476e-01 -1.4378101037151225e-01 -4.1662769480319639e+00 -6.0071278291343333e-01 2.9330512062260823e+00 1.3321493172916234e+00 2.1820661583149104e-01 1.3128921383283796e+00 5.5688743316872547e+00 1.9130707962398219e-01 6.1698767433517787e+00 1.0054082667920738e-03 9.3053136209957302e+01 1.2503553393023026e-01 -3.7317408624112147e-02 -8.9738341460042648e+00 -9.7150920320508760e-02 -1.9935570582638320e+00 1.0054205856241083e-01 1.8408208734442042e+01 -6.2374884749215198e-01 1.6885705675042573e-01 1.6042922531552904e+01 4.4997179811069543e-02 1.8087412222744206e+00 -1.4295788317076585e+00 3.3210439399795177e-01 -6.1407678719142496e+00 4.1805319320992567e+00 7.5207384835230187e+00 -4.0547208258658429e-02 -1.8642060713801811e-02 8.0154605009593070e+00 -3.7031844168444650e-01 -1.0653834850199928e+00 -1.2672058042731749e-02 7.7905291761926492e+00 1.3323826794699016e+00 -2.4256420491819881e+00 -6.2418143830873305e+00 7.3749252650372910e-02 2.1169166381178002e+00 3.2207053030030579e+00 2.1579720784091023e+00 -5.5602194329949270e+00 -2.6878986590301793e+01 8.4728408752009273e+01 4.1419904403794305e-01 -6.7936123002457549e-02 1.1033738940430339e+01 -1.3234381759687608e-01 6.1249734559868330e-01 1.0918652409047880e-01 3.2319815772634684e+00 1.5082221524251054e+00 5.9637092617394956e+00 -3.6487900344509399e+00 -1.8432820326429677e-02 -1.5295307708584005e-02 6.9343079367115479e-02 4.8006444775683121e-01 -4.6823988082833239e+00 -9.8759651008367655e+00 1.5977128168568015e+01 -8.8607166084081257e-02 5.0009141774824961e-02 1.2156176664888335e+01 4.6627482875328496e-01 2.2465504521587718e+00 5.0544384001398157e-02 -1.0670329683671298e+00 2.2343816850607254e+00 1.6730124135026472e+00 -4.7080904327995086e+00 -6.1968427658285918e-02 -2.6673082097917700e-01 4.2541182184189097e-01 -4.0429990411939798e-01 -1.9252394009663476e-01 -1.1220353150754818e+01 -1.7223917677067220e+01 -1.6432007935122783e-02 4.2706777738310109e-02 3.8143044279022433e+00 3.6481602480967013e-01 5.5741406620518319e-01 4.3958590937393183e-02 -3.4961603867632220e+00 -1.0962930913759621e+00 -3.2492948331482694e+00 4.0938350555661600e+00 -2.5039407390477209e-01 -2.3190760588800003e+00 4.9804204587977054e+01 3.3839698889149759e+00 4.2689233898612656e+01 9.0614049702857301e+01 -1.3549808416049927e+01 -2.6437579654683532e+00 -3.7043991248511139e+00 -7.7937001973009501e+00 -3.6457868852222859e+00 2.6546475435259254e+00 -1.0294010904731294e+00 4.8790871158671507e+00 2.2358375958265242e+00 3.2146695478806578e+01 -7.5330009610479465e-01 3.2406873725383605e+00 1.0621967859818824e+00 -8.3376573838579979e+00 -5.5321086735557401e-01 -2.0712359924232260e+00 -6.5760474911739948e+00 -7.5346662311814725e+01 3.0064342542922873e-01 4.3581417842527514e-01 -1.3568593799853261e+01 8.7049381707075213e-02 1.9298749214689224e+00 1.6321909330937245e-01 3.2360595287627802e-02 -3.2372962710960564e+00 -1.3699041415115062e+01 -2.9165142189221115e+01 -9.6565433830093639e-02 -1.5590519382414669e-01 3.5011315389860442e-01 -1.4997199078607082e-02 -3.6087764513113143e+00 -2.3088069157820428e+00 -6.2314485434442759e+01 6.6172672039115810e-02 3.9026299390342345e-01 -3.7979665258026216e+00 7.3112468791541119e-01 -4.1107811407671875e+00 1.8028793769572715e-01 8.8691021313597957e+00 -1.1691353013557091e+00 2.0029397734502709e+01 -1.5505451241078845e+01 -4.0685260221636099e-01 6.1088185761698242e+00 -4.1921773025935067e+00 -3.0903484772989032e-01 -6.8206377703845646e+00 1.2789602458899026e+01 1.8297405219636858e+00 7.4957478728379101e-02 1.6885985328884079e-01 2.3861178393803129e+01 2.7737673381706429e-01 -1.2956783464223918e+00 6.3045407765514483e-02 -8.0364849983598106e+00 4.5850666843489307e-01 5.0822455539018847e+00 8.9111056867186562e+00 -2.9696340300966995e-01 -9.1416676024164190e-01 -1.5799335205637794e+02 -8.0702818626268709e+00 -1.6654456191113513e+02 -1.9771252329445269e+02 3.3335043050930835e+01 8.5100455903614574e+00 1.2364599655780872e+01 -2.2411732659093104e+00 1.5507764291538340e+01 -1.0218882601282303e+01 3.3126019473590507e+00 7.3983289159141350e+00 -1.1138097277724015e+01 -3.2462900756245290e+01 -7.9818185509991963e+01 -1.2207079258981395e+01 5.5239706323815767e+00 2.4249520919880183e+00 1.5577230837880052e-01 1.1026697801869886e+01 8.6213118291925639e-01 1.9581889325147495e+02 -4.2743299368868115e-01 1.6702105976825976e-02 -3.1027853163686814e+00 2.5345019537041935e-01 1.9578898664965436e+00 2.0617839236393820e-02 1.1040972189439344e+01 -2.1633749338855068e-01 4.0825080972863361e+00 -1.7584495425107889e+00 -7.4755153513237360e-02 1.6526114220713453e+00 1.9711582348601533e+02 1.0284881731694956e+01 1.9559000065112184e+02 2.4391274534095061e+02 3.4940633694368444e+00 -9.9935530102772070e+00 -1.4941842527802528e+01 -1.7374646978096280e+01 -1.7728243875458865e+01 1.4619323899600090e+01 -4.0033124588262439e+00 1.8711568861601563e+01 1.2573642635565498e+01 7.9586612649191125e+01 8.6419423885615515e+01 1.4114914088450192e+01 -4.5652201393249925e+00 -1.7701816084115762e-01 -3.9839856946430916e+00 -2.5999238856494200e-01 -6.5255911911613538e+01 -2.4896219583867051e+01 1.4032631834797621e-01 3.3753283407907730e-02 7.4666706853454166e+00 7.0033533331443465e-02 -1.1107395965022682e-01 -3.4814342050211167e-02 3.7327289854261942e+01 5.4994945064787331e+00 -7.3204915783338578e+01 3.5480446082993218e+01 1.3732735697428722e-02 -4.2196111236597500e-02 -5.8292171770545920e+01 
      </Row>
      <Row Index="205">
        3.6792865133065789e-02 3.2104757691691702e+01 1.2728084746195236e+00 -1.3702575032490131e+01 -3.7855160883348435e+02 -5.8340408037213365e-01 -1.2150246026318356e-01 9.6840340266935527e+00 1.7384118665512460e-01 1.6492678643335239e+00 2.1968908875749094e-01 -1.4496760063999773e+01 -1.9374350425641751e+00 -3.1682481624593493e+00 -3.3714731435647991e+01 -5.2399816807405841e-01 -3.9386844359860333e+00 -9.2714541619307056e-01 2.7807804936264802e+00 7.4426097900868626e+00 1.9429671246442012e+01 3.1601215870678425e+02 2.8878938104708141e-01 -9.1787658140276562e-02 -2.1168513436969079e+01 -2.6304636650547764e-01 5.3294903260393767e-01 5.2115984628699152e-02 3.9743002282027192e+01 -2.6791068153452215e+00 3.1866447537670410e+01 6.5304874448338524e+00 3.3377120449814868e-01 6.9768672422151212e-01 3.5836298838967195e-01 -1.2112918270482623e+01 5.9853096718143206e-02 -3.8636869904585183e+01 -5.7698226822447032e+02 1.0827775599864253e-02 6.2065825181434775e-02 2.5265585288289003e+01 -9.5366689638603930e-01 -2.2684644480832503e+00 1.4299407889734539e-01 1.4551023724263359e+01 2.6251053517080436e+00 1.2996849952367484e+01 -4.3272662337607471e+01 -2.5988106831164259e-01 -5.0481913808689569e+00 -7.6830296501793782e-01 -1.7345868392009834e+01 -3.9736051578365732e+00 3.9604033617040841e+01 1.6658315422274172e+03 -6.2301745681679677e-02 1.9260460593224593e-01 3.0828545412048697e+01 -1.1098419516588365e-01 -4.0268458760974681e+00 4.4851248642714836e-02 7.3601043555900105e+00 1.0212337324066539e+01 3.0858222041235422e+01 3.8806576939765364e+01 -3.9336658599603425e-01 4.6329005589029748e+00 -1.8829000482355696e-01 -1.2365298401828113e+01 -3.1520167814160232e+00 1.2629017376806587e+01 -2.8377994068153203e+02 2.9113465612977052e-01 2.5138718821347794e-01 5.8751042949734256e+00 1.5738185634863839e+00 -8.8344967659213580e-01 3.3417640003790439e-02 -3.8577918517839862e+00 -7.5105975182668772e-01 1.7195839933099251e+01 4.9108447169826832e+01 -1.8222152115231438e-01 3.3909836016877648e+00 4.0975016796664931e-01 1.2438749646418728e+01 6.0713154984532594e+00 3.5537506328691961e+01 1.1265221846308559e+03 -4.3849858661133112e-02 -1.6622100046390642e-01 1.8056282457655470e+01 5.0210370202603372e-01 1.7554362072532967e+00 -4.5203127928316178e-01 -2.2819867980433628e+00 -1.3283663421896108e-01 -2.4418532842828427e+01 -5.0947181903902674e+01 1.4182771261264406e+00 3.1130242797444225e+00 3.3950301976861965e+00 9.6334280992148706e+01 2.0873077616517548e+01 -4.0983114299160661e+01 4.9052324675396085e+02 1.0527124469817863e+00 -1.5613372003446342e+00 -9.7909805650815542e+00 1.9830536716698930e+00 -7.1702346103666059e+00 7.0104837296582900e-01 1.0018494254998222e+02 -2.1286703726484120e+01 4.7917097856290638e+01 7.7515539841333521e+01 8.2505936849179307e-01 2.5016504263703609e+00 1.0835279113485772e+00 -3.3209316668686370e+01 -1.0324530852718453e+01 -7.9137655655686103e+00 3.1245463125966489e+02 7.7608019716217314e-01 3.7653888595643537e-01 -5.3708913299080450e+01 4.2172143044081167e-01 -1.8826358330461517e+00 3.0509693101521407e-02 3.6451998757365800e+00 -2.4705575145981129e+00 1.7319723105567391e+01 -2.1713847592924139e+01 -2.4485581192728034e-01 2.0109033892821344e+00 -2.8232521902077679e-01 -4.8043656810257744e+01 9.8778034846618539e+00 -4.5471316683629993e+01 4.6297500657103956e+02 2.1627254827387787e-01 1.6101071384142074e-01 5.3011361157754436e+01 1.1629517740899473e+00 -5.2432395186808662e+00 -1.5705571520156525e-01 3.6716573037338094e+00 1.5558533370494843e-02 -2.4458975675152033e+01 1.7538456054055132e+01 3.6020191312024963e-01 2.4151893202815700e+00 -1.8005151412285159e-01 -1.3927797595089942e+01 2.9164251148795302e+00 -3.6234605242992984e+01 1.5078790689446032e+02 3.1021253861740661e-01 -2.8424590065029065e-02 8.0396317006670870e+01 3.1372565991239298e-01 -2.5717212242052483e+00 -2.6929175272448447e-01 -4.6641060709371231e+01 -2.6139288930862676e+00 -4.2399641760202940e+01 -1.4362915708567016e+01 5.0680040707447915e-01 1.5674575365894583e+00 -9.5654919095320103e+00 -3.0523313592755767e+02 -8.8637373137069517e+01 9.4125699771117070e+01 -1.9088423665263690e+02 -8.1079652733526473e+00 1.6332350777929179e+00 -8.2915761551121250e+00 -6.6809039693424097e+00 4.7284244550063249e+01 -1.9927647192370159e+00 -4.7304009491845500e+02 9.6924925004819784e+01 1.7562649753748701e+02 -3.1162998317033635e+02 -1.6902996303040254e+00 -4.8778134200918430e+01 -6.5840622320911280e-01 -4.0348869115623529e+00 2.4434987436980009e+00 1.8334063102491200e+01 8.0462189672142267e+02 6.0806612432837426e-01 2.1375932672356157e-02 -4.6566220098669874e+01 1.5287150650920012e-01 2.8330551382387057e+00 -3.2640276275408553e-02 4.8352701603434980e+00 2.3843978122517910e+00 -1.2053790773730725e+01 -5.0288630444149021e+01 2.0390757807717819e-02 1.0560626068772763e+00 1.0284881540382777e+01 4.3575757378471133e+02 1.0847868881613999e+02 7.5534467752872445e+01 -7.3695880432464764e+02 7.5091916452996612e+00 -3.0577755331244774e+00 -1.1351210520643508e+02 6.4470573193523535e+00 -4.3577769624030672e+01 2.4682798868998899e+00 3.7337698119387107e+02 -9.8963936437588188e+01 -4.9595792577086229e+01 4.2495884916644462e+02 3.0705827556743044e+00 4.3978015554464264e+01 9.7455115963043681e-02 1.2495201659911503e+02 -2.4154176953239226e-01 4.1303401214020511e+02 1.5721005442657003e+01 -9.2511644197022225e-01 -3.9555016320690584e-02 -1.1791188765586378e+02 1.7765410549108651e-01 -8.0108736708517370e-02 4.5714376840720661e-02 -2.3924960450481368e+02 -1.7170446621697977e-02 -2.7583169490468839e+02 -8.3967900947226781e+01 -1.4004115042659915e-01 1.0839956823185837e-01 -3.7410395380418589e+02 
      </Row>
      <Row Index="206">
        6.6235145299015130e+00 -9.2761236534497584e+00 -6.8383903783804271e+01 -4.1966126590053318e+02 1.3964589839233086e+03 2.4394090598161711e+00 1.4113366451369984e+00 -7.4806399540510029e+01 -2.9053273006422842e+00 -1.0873085311031900e+00 -4.4820341930903851e-01 -6.1711714478233262e+01 -1.4214479494854459e+01 -7.2810075743717607e+02 1.3892485685108113e+02 -5.3113489947782000e-01 -1.0963243737089215e+01 3.7485346773846686e+00 4.4021965755910060e+00 8.0411273500885000e+02 -7.5059241198934615e+01 1.3023188945651054e+02 8.9585099127216381e+00 5.7576414337904680e-01 2.5705511052656220e+01 -3.4119034336322329e+00 -2.7918833356525283e+00 9.5115543403244374e-01 -9.6708348595238931e+01 -4.1352378036899609e+00 -3.3025368638070177e+02 7.4595614520634990e+02 -1.2740531111110158e+00 -3.5904482403748261e+00 -3.5775032385572558e+00 -1.0126065848351573e+01 1.5884456181214773e+02 -1.9183292523119599e+02 6.3190263562649488e+02 -2.0933449772746826e+00 -1.1534809678041711e+00 1.6615219544060528e+02 4.2302098455566011e+00 -2.3525749628606718e-01 7.5910545351155179e-01 9.5023421562305884e+01 2.0469914278975921e+01 5.8270522321874159e+02 -1.0554127641755622e+02 3.3599750500325172e+00 1.2527554463042179e+01 -1.1917505311555942e+01 2.9504299638494558e+01 2.4262419236521237e+02 1.6013263981603086e+02 -8.4338371105492115e+02 -3.7972225562944004e+00 1.3047630130523657e+00 -2.2841503358446062e+01 -5.9044748268433978e-01 -9.1658331164944684e+00 4.7942697061262152e-01 -4.4831829539223691e+01 -1.1948221062839366e+01 3.4676381599257002e+02 -1.4283232063753530e+02 -3.2667885592392167e+00 -3.6363524939106355e+00 -7.8709203703438106e+00 4.6868877589913609e+00 1.6628188860625960e+02 1.7453917495207861e+02 4.9039191652089357e+02 -4.9379087907784651e+00 1.3103897434794476e-01 4.2566900292877108e+00 2.5152900326847885e+00 -3.6682566674135160e+00 1.9350925590788393e-01 6.3353489632077981e+01 1.6242258229118306e+01 6.3678323141017427e+02 -2.7342384399729781e+01 1.2132441381963872e+00 -6.8076532045583917e+00 -1.0693609178242696e+00 2.0447915887343697e+00 -3.1065848917394760e+01 2.7467651066416875e+02 -1.1367239655479789e+03 -2.9394444353874860e+00 -4.8331937328669028e-01 -1.7045530757440429e+02 -7.4204703051964316e-01 -2.5400650682786363e+00 -1.6636316823974084e-01 4.0816059028729796e+01 -9.0601471130496520e+00 -2.0524232797636068e+02 -3.6282440004637465e+01 -9.4919245671235331e-01 9.0150547522353008e-01 3.5649706457239972e+01 1.8658730711275894e+01 3.1480060355005699e+03 -1.8382450041978154e+02 2.2516598704457283e+02 -7.0290198129205237e+01 -1.7486600570677666e+00 7.3556407833985577e+02 1.1629040733255579e+01 -3.4701263378992735e+01 -9.7965483616985694e+00 -2.9884191218609340e+02 7.5644557657244150e+01 5.2504440718767000e+02 1.2473078575331601e+03 4.3476633042146204e+00 5.6545958156839333e+00 -4.0556330593143031e-01 -7.6334419210834312e+00 5.4194987647570088e+01 -6.5962501462927321e+01 -7.7240503251552582e+02 6.3037777551044201e+00 1.1548755906969745e+00 -1.5164167044742499e+02 1.7715008669072176e+00 -6.1892526377705508e+00 5.8121418105750422e-01 -4.2313174326875014e+01 9.4538411934045143e+00 2.6792992239733576e+02 -5.2421223165051197e+02 -9.6316579443498540e-01 -3.0646290644281180e+00 -1.1438703301116220e+01 2.0795264804677572e+01 -2.6135559631108481e+02 -3.6787215225450927e+02 -4.0826669062674046e+02 1.0261473970111183e+01 -1.1038230313425856e+00 -3.1546705662505701e+01 1.4962426304964538e-01 1.2617476730174531e+00 1.0685915704588922e+00 4.2005935140681686e+01 -1.1513565761095379e+01 -1.3258239403372863e+02 1.3305063000472728e+02 -1.1294584909096557e+00 -3.7808808954578126e+00 -4.3704315301511087e-01 5.0743952095508575e+00 -5.3440957950755546e+02 -1.1420279426337220e+02 -6.1964425893127918e+02 1.1265102761898561e+01 -1.2079057395283854e+00 1.6843597419653088e+02 -2.9232958347561180e+00 2.0207789410924306e+00 2.4707392896834790e-01 1.5082584109576419e+02 9.1135161565034650e-01 -2.9002672531345161e+02 9.3461149180051871e+02 -1.3123069438379389e+00 -5.3335760654491651e+00 -1.7407362954326447e+02 -9.9222967411267746e+01 -1.1418273107864348e+04 -9.3212915339402389e+02 5.5590688626887277e+02 1.6062247042805620e+02 -3.3658354636356762e+00 -2.7933511864024913e+03 8.2878967278486471e+00 7.6214155937363103e+01 1.6387007458081115e+01 3.5667404000180250e+02 -2.1667473663405553e+02 3.4046274806915317e+03 -2.1287313731844188e+03 -3.0358522546035601e+01 9.1710371434546687e+01 2.1745671064436465e+00 -7.9778427898418158e-02 2.3289096182363573e+02 5.5408801013603806e+01 7.0526857538521290e+02 6.7655224924208426e+00 -5.5235899970739410e-01 -1.2191118429356720e+01 -1.1749755777054816e+00 -3.8046401837927988e+00 1.0666945893643742e-01 1.0326501085422933e+01 2.9023917590020574e+00 -4.0533996067941189e+02 4.4425551029853523e+00 1.8680159332814128e+00 -9.8711014390610217e+00 1.9559000003923833e+02 1.0847868532162457e+02 1.3551608682466014e+04 6.6465141042186497e+02 -8.3977512528887019e+02 -2.0584527809587078e+02 4.1139669786561743e+00 1.7184578818936134e+03 -5.1529305675857060e+00 -1.0475278336532472e+02 -2.3368605092492160e+01 -6.3998970830099108e+02 2.0063868044662985e+02 -5.6339183811257153e+03 3.1752252441037926e+03 2.9222222964563421e+01 -7.9020526572213271e+01 3.6087910952497282e-01 -4.7702588380777684e+01 -1.8639737626920336e+01 5.0130943012531122e+02 6.7059550272049864e+02 -8.0780710370147801e+00 -4.1877141708539511e-01 -2.7963961054364809e+03 6.1967279273289932e-02 3.2962529514929884e-01 -1.4689768631308198e-01 2.1111068373958557e+02 6.3602879620147519e+01 3.5263692879134446e+03 5.8139456425428955e+02 8.2213680258360045e-01 -5.4783418893844527e-02 -1.3547018399916094e+03 
      </Row>
      <Row Index="207">
        3.6406957252256689e+00 5.4088941070222063e+01 1.8428780362848192e+02 -5.0296745624311734e+03 5.2605469760112464e+03 4.8275324098904093e-01 1.3249921881891566e+00 -7.1516080403793603e+02 -4.7156096954313398e+00 -1.4231039618200157e+01 4.3212012218909877e+00 -2.1412579338612704e+02 -3.4949109888519160e+01 5.5727636588271707e+01 9.3539889704785310e+02 -6.3156381177632284e+00 -1.5301614338687796e+02 -4.9535520049539628e+00 3.1199440596639761e+01 5.6774022825411521e+01 6.9575087017561309e+03 -4.8158927092552185e+03 -3.3276458424115845e+00 -1.1938463428450632e+00 6.9186573233251693e+02 1.0113275787052771e+00 2.0975639756245073e+01 -2.5900100112758082e+00 -1.0150174022839637e+03 6.7705331126053352e+00 -8.0558994531406643e+02 4.8050997358188033e+02 7.1730012513212387e+00 -2.4752209253289038e+01 1.2503163342116750e+00 1.8306241999642225e+01 9.0636267447844148e+00 -7.7582807384394109e+03 9.0600944265872240e+03 -3.3662829751483514e+00 1.9001291589411267e+00 -8.1295914204604924e+02 -4.6693352208458236e+00 1.0320561201428063e+01 6.5474566901320941e-01 -8.4025716730370186e+02 1.3175956593768205e+01 -5.7308912045648322e+02 1.0448941042828374e+03 -2.7557205098928534e+00 1.2315347517566988e+02 -1.1147672697101370e+01 -5.1487311211356428e+01 7.0386841257917695e+01 7.6966266989219002e+03 7.9869364917278290e+01 8.0495485952169474e+00 -1.2894339923359439e+00 -3.5510958803817630e+02 -4.2654092704651703e+00 -1.2614570504018047e+01 -3.8673497271779524e+00 -3.5271227957194787e+02 -4.9009242488536984e+00 -1.8422059867503121e+03 -2.2698813930433244e+02 9.7481106907296180e+00 2.5961974831925545e+02 1.1111186868001823e+00 -2.0599429965339368e+01 -6.3063623280613683e+01 2.7531604836070910e+03 5.3552461165785789e+03 1.9730675020327908e+00 2.5017808889174376e-01 1.0266600417895243e+03 1.9873505186842522e+00 3.1014431384392083e+01 -2.2834207938449254e+00 1.8456839204579592e+02 2.1097431603819132e+01 -5.5962535958861554e+02 8.9461469068191946e+00 -9.6464968301734189e-01 -1.9819749951616359e+01 2.4443894329269824e+00 1.5229227514355443e+01 -2.7353897657740163e+01 7.0932753275549039e+03 8.1674280962795019e+03 7.1689747727941722e-01 -8.9421766617533649e-01 -6.0132973506872077e+02 -4.1139342108472192e+00 1.9903320229379460e+01 -2.2472180021236454e+00 -4.5212361486488953e+02 -2.6260008545922574e+01 6.1979561551974621e+02 1.4315828860830516e+02 -2.1262122820753575e+00 -1.7283907998999348e+02 6.2091917515981550e+01 -4.2644732535260118e+01 -2.1686839164455887e+02 2.5804677897907794e+04 -1.4545903873383999e+04 -3.9086715981824455e+01 1.2511965176900791e+01 -4.3485042676905869e+02 -4.2931861758415835e+01 1.0359938929157215e+02 2.6354048166958819e+00 1.9248904695052188e+03 -3.0915622734295903e+02 -5.1884407271123491e+03 5.4504713501364458e+03 7.9045285849133506e-02 -1.0620228575844158e+03 -2.2179476279403360e+01 -2.2739917838101974e+01 -6.0989885146234883e+01 -4.0123261217772088e+03 4.8397024751603603e+03 1.7071971970763116e+01 1.3504513090092587e+00 5.3068393025058322e+02 1.2803522352743130e+01 4.1744744155468652e+01 -2.6263124242741469e+00 1.0503510987589834e+02 2.4740117395645939e+01 -5.0267078313627280e+02 -9.6943139291321859e+02 -2.1150592422645786e+00 4.6797283433680150e+02 -5.4787969324461301e+00 -7.2034208100056276e+01 -6.6326936674886383e+00 -8.2552838031640276e+03 8.3347649596631527e+02 -4.8725368063660426e+00 -2.7317392625514003e+00 -1.4076800463795662e+03 4.4176717306982027e-02 -2.7277706620945537e+01 -3.3514432009394568e-01 -1.2021384141023736e+02 -2.2401040005381219e+01 -5.7326016865670681e+01 -9.5727784243877977e+01 3.7906731973725982e+00 3.6128176828031428e+01 9.5814678703754907e-01 -7.8153641610173509e+01 2.2165473755332641e+01 -8.6039437176128849e+03 3.6031472047269344e+03 -7.3378038664450287e+00 -3.9364017343550586e+00 1.5704229565914720e+03 -7.5354868577924208e+00 -3.1053565413632896e+01 2.3565524387013284e+00 6.1095014990493655e+02 -4.2008918667794205e+01 8.9935741343023255e+02 -1.9578461388871074e+02 -1.7922505516617093e+00 -1.9288663076996158e+02 -2.0255399904488274e+02 -1.8108586342277704e+00 -8.0641843140820856e+02 -6.7712031424007146e+04 1.9641431736346334e+04 5.9809512868719594e+01 -2.9169712323907788e+01 -3.1712949155478273e+03 9.5086732100288827e+01 -3.2439142408548651e+02 -1.0171993250845844e+01 -3.7319995765861240e+03 6.1483884781147754e+02 8.1806720184746664e+03 -7.2533701030898374e+03 3.9189049907436129e+00 1.9423036843487280e+03 -5.6279261868476169e+00 -7.2971801362000406e+00 3.4325550312874839e+01 2.2547659061253071e+03 -1.9449609978795052e+03 -2.4867455928870186e-02 2.2336823464684130e-02 5.0574817923433147e+02 -1.3858958666096441e+00 4.1637543349061161e+01 2.1735430797674553e+00 2.8632936616055667e+02 -1.2153755778090272e+01 1.0582730075418949e+03 1.1127199653442949e+02 -2.0909398880671688e+00 -5.5594814841271727e+01 2.4391260432670316e+02 7.5534170239202581e+01 6.6465340926265344e+02 2.0031127357585475e+05 2.0522291180256754e+04 -8.9451744802632618e+01 3.6572277786474480e+01 -8.7529518636735156e+02 -1.3240981180635981e+02 3.9337415296078825e+02 1.0556572472575851e+01 -2.2313603105627917e+04 -9.5305953981831851e+02 -4.1788775127096349e+04 5.9597737797809341e+03 1.0724221835525967e+00 -2.7278606849235093e+03 1.2215687398736463e-01 2.0618844643074044e+02 -1.2878353754712286e+01 2.3670057501063732e+05 -1.3237678721391226e+05 3.2005563472534959e-01 -9.4281383906673000e-01 -7.0066097157465992e+03 3.0219419173727147e-01 -1.0906873350205615e+00 1.0008637826135782e+00 -4.6558326795047076e+04 2.8518718824171083e+02 7.9324162991636927e+04 9.1072045496445353e+03 -7.6155647119695224e-01 -1.1535615919518250e+01 5.3605512816295386e+03 
      </Row>
      <Row Index="208">
        -3.0702154679529485e+00 -1.4765259328065440e+01 3.4492472158744931e+00 -5.1086014528106898e+02 -3.7452088340207934e+04 -6.3608642408253218e+00 -1.2592953593817811e+00 1.1022547250539064e+03 5.2831622644735035e+00 -2.7521007751463912e+01 -5.1523881003377028e+00 6.9308470606415358e+02 -3.7275320665910840e+01 1.4081263708882034e+01 -4.9341491530975327e+02 7.2666873705748003e-01 -7.5668740798806539e+01 -2.4761214354512049e+00 -3.9782764726012829e+01 7.8616135178366676e+01 1.1726825005402789e+03 3.3014197119474411e+04 5.2461706627364038e+00 4.8410719651255931e+00 -6.1970558945611119e+03 -1.9393492905874155e-01 1.6858016390586272e+01 -1.0195868224909646e+00 2.2799283101016772e+02 -1.4192147977417335e+01 2.9847516266387538e+02 9.4080237575899810e+02 2.0869625344839733e+00 -3.6578993296556291e+01 3.4418377501569921e+00 -6.5355884190241341e+01 -3.9597188166412525e+02 -9.3276871613413095e+02 -9.4257676350712776e+04 8.9806555491813924e+00 2.1769126006547594e+00 6.5877514450252056e+02 8.4594441822264344e-01 -5.0924922962440178e+00 -3.8000368655903003e+00 -1.2005647465400398e+02 1.9338756843819283e+01 3.7176925494801253e+02 2.0688056047456339e+03 -4.3126273710222449e+00 -1.2062752456846647e+02 1.3783346316195093e+00 -3.1974816620230558e+02 8.0814311784924939e+01 1.3232309733517468e+03 -4.4559091613292694e+03 -2.0149922795353632e+00 1.7204472794182948e+00 8.9146442221105099e+02 4.8715453169279499e-01 9.7585329468711279e+00 -1.0338921799666423e-01 6.2423646379960701e+02 6.0166446447532508e+01 7.2699261947581545e+02 3.3666824421286583e+02 -4.1750212323968299e+00 3.0560581969584746e+01 3.0814085693127709e+00 -1.9958588684967253e+01 -2.7331590256188065e+01 3.9179202409461141e+02 -1.2428180063188076e+04 8.5456692247134924e-01 1.7544300332037892e+00 1.4154331285320222e+03 1.6574341790692415e-01 -3.3036988647771068e+01 -4.1211801223471412e-01 -3.6422241430217400e+02 2.7368065538466908e+01 2.3587102474986750e+02 2.8057974354503676e+02 3.3317659843887668e+00 2.9477714542128524e+01 7.7094230534785311e+00 -4.6938364418223500e+01 -2.6370282322203275e+02 6.3531252214033157e+02 -1.4360167986232042e+05 2.7876639128226088e+00 1.0730936364852823e+00 -5.6761320528050419e+02 5.1042043319030199e+00 -2.4288243956165388e+01 5.3419480974689577e+00 3.2171515344968066e+02 4.1888131106597939e+01 -3.7998066372936592e+02 2.4422699738014489e+02 1.0232221381302224e+00 2.4124771883245558e+01 -8.4635242622462101e+00 2.1230070066985354e+02 -1.0292463193624280e+02 -3.2333786429651082e+02 1.9833977379000187e+05 -5.6971928562052199e-01 -6.9900359069705269e+00 1.2951593802130374e+04 5.2076989271099592e+00 1.1242971154511906e+01 4.4368517882539891e+00 2.0838855197078083e+03 -2.5441889657406136e+01 1.2271312175015919e+03 -5.1993650463605300e+03 7.5720312542252941e+00 6.8200414740626002e+01 3.2786500797975123e+01 1.0749249095271807e+01 2.7322505359386560e+02 -1.7506794266635552e+01 -9.3868201210081577e+04 -9.6911365979758557e+00 2.9357476510590459e+00 2.6867020278777927e+03 -5.3127832033460436e+00 -6.5487543782568537e+01 -2.8114310709952406e-01 -1.7028069003837882e+03 3.3698418050771579e+00 4.6100952025130391e+02 -2.0044360256888904e+03 -6.0854283847174884e-01 1.4082022673957908e+01 6.7699227513367077e+00 9.5632337037532125e+01 3.4782669100118801e+02 -8.4681980585539714e+02 -8.3193992649316788e+03 -4.1191318953860900e+00 3.3391671798408424e+00 2.4137295554094017e+03 9.5830443952581845e-01 -1.9728687178598193e+01 -4.1121864346996517e-01 -1.1537260958268307e+03 -3.9269793989136815e+01 -1.8615224929153919e+02 -4.7446409157756716e+02 -8.7519222785085731e+00 1.0782745232136222e+01 7.6460204182076268e+00 3.6170638588489965e+01 3.3631397659622598e+02 -1.3807844696426764e+03 -6.9420385814666748e+04 1.5778458311324357e+00 -3.2116924133203497e+00 3.8270924978349358e+03 1.8326081208724645e+00 -1.7870710356743075e+01 -2.6889424654946197e+00 -1.7659259806778282e+03 -6.4079802138730884e+00 -3.4051011734968051e+02 -6.4482549880072474e+02 2.1561569238692755e+00 1.4531194484366097e+01 -4.2090734422544678e+01 7.7491158462903695e+02 4.9013462646806147e+02 -3.2435695798234083e+03 -2.5717403881945834e+05 -3.9046324087387802e+01 7.8941420761743757e+00 -1.1017178650298156e+03 -1.3507390592551019e+01 -1.6973754937783815e+02 1.0326123911095237e+00 -3.6469553486118093e+02 -6.2065636041377729e+01 -2.1879027311361860e+03 3.3227792344908230e+03 5.8220133891009027e+00 9.0946172627809574e+01 2.3834641933062812e+00 4.3676412913249806e+01 -1.3587299161590636e+02 3.5598799093067646e+02 5.5032085766792297e+04 9.1617724322354661e+00 -3.2332450444300775e-02 -6.3697326083807275e+02 -7.7785355235391762e-01 -3.3906482233724091e+01 -8.8127679863487174e-01 -2.3338536799699068e+02 -3.4271730026521254e+01 -3.5498699428886175e+02 2.7201810724101961e+02 -1.3124511182368224e+00 3.2953320803324459e+01 3.4940216622495210e+00 -7.3695875418259016e+02 -8.3977442436944693e+02 2.0522353268134524e+04 7.2153701554945856e+05 3.9189308276165171e+01 -1.2106967343092396e+01 -6.5263420367650688e+03 2.2109482059656045e+01 1.8904863370803585e+02 3.9443339886669353e+00 1.3081322999444381e+04 -7.7438344530372291e+01 1.4996134505302749e+04 2.1200372619504346e+03 4.2800595398790904e+00 -1.1243662253434718e+02 2.1311279436963559e-01 3.1534326303674766e+02 -7.7292070337233341e+01 3.5962701404663610e+04 -7.5032700785986526e+04 -1.3856184873784713e+01 -3.2650356133308378e-01 -1.5139629275388865e+04 3.3214677971955098e-01 1.8166503074497768e+00 -2.1325910361820206e+00 1.4429424269932868e+04 2.8160849333461215e+02 -3.1942101444274176e+04 -1.0369819977355679e+04 -1.6587471372947831e+00 6.6878309817394666e-01 -1.2099181271650021e+04 
      </Row>
      <Row Index="209">
        -2.7668409996010723e-01 -1.7720594142247137e-01 3.5940546531564905e+00 -8.6459937625477323e-02 -6.9440163304796442e+01 -1.5024417509170007e-01 3.6406049537887064e-02 -2.6365132058854215e+00 7.4139442720564830e-02 1.9639091812314291e-01 -7.5463075723831707e-02 -1.5497074889237865e+00 5.0544804481614847e-01 -7.3998049766523764e+00 -1.8369090690044686e+01 4.3427606292198107e-02 -2.0818226489609515e-01 8.8857132909652137e-03 -8.5812872511496607e-02 5.1798628763208399e+00 5.1101646895258455e+00 2.2090578760951757e+01 5.9153473123251388e-01 1.1478860974108329e-02 -2.9001303698460106e+00 4.3299842155363422e-02 9.4961482027429156e-03 4.8724730335038657e-02 1.3568113355171590e+01 -3.6905473159185931e-01 1.5770761809201986e+01 1.3480178958969191e+01 -2.1093820034693067e-02 2.7824103061834649e-01 2.1670987340598913e-01 -5.1760662978267646e-01 -6.7452350655403279e+00 -2.2906884652329609e+00 1.9127033432014287e+00 4.4802961067580327e-01 -4.5060343646809997e-03 5.1026471225777641e+00 -4.0368956964812241e-02 -9.6630043561162893e-02 -4.1427559523242508e-02 1.0236151015495125e+01 -4.0542552945044008e-01 7.5121729996353679e+00 2.0123517701620585e+01 3.5425919832050567e-02 1.0123803890346608e+00 -2.0695818909121044e-01 -6.4100418732232356e-01 5.0338280735377339e+00 2.8058145926916040e+00 5.7645509839057922e+01 -2.3384579401624705e-01 4.1465912741955435e-02 -1.2477270132396370e+01 -1.5125352832762928e-01 1.8277144233093168e-01 5.7218838026273033e-02 1.5940431905219157e+00 -1.3285394920035287e-01 7.5513736642678850e+00 -1.3594689156161621e+00 -9.4390280898778656e-02 1.4385892132611389e-01 1.9872202129272409e-01 -1.9891440883839095e-01 -3.5011659805386444e+00 5.0398314799531363e-01 -4.4756905683316290e+01 7.2024640545350849e-02 2.4826499814576408e-02 5.5393287201295607e+00 2.6206420946664366e-02 -9.5057347944020876e-02 -2.9564040968239169e-02 1.8470455783244688e-02 -1.9838684921724052e+00 9.5685361397781890e+00 4.3895952152044629e+01 1.0077648348669754e-02 2.7285240599152871e-01 7.2436398683407788e-02 -9.0969879456679337e-02 -5.9442109991387042e+00 -9.7248556773411110e-01 2.7318912338465452e+01 7.7331379811994339e-02 -1.6773365453843780e-02 -6.5259730261150253e+00 6.1503153380726872e-02 1.3689359492127551e-01 8.4095734052006321e-02 -5.6127343789557926e-01 1.2038970889670395e+00 -1.2228217335996305e+01 -2.8903027981432388e+01 -1.4868864133302395e-01 -6.4254244664880389e-01 -2.7538802704722798e+00 2.9368278961032956e+00 -6.1776007143844254e+01 -3.8232852640052442e+01 3.5481655020266771e+00 5.9686094300025729e+00 -4.6531366411478725e-01 4.7179718168058571e+01 2.7053214276222093e-01 2.8085767534530532e+00 8.8765390211790418e-02 -7.3567900354137237e+00 -7.1341367157056084e+00 3.2783702297529089e+00 2.7760125942371087e+02 -5.6142180185418056e-01 2.4251891756271107e+00 7.2372338111250301e-01 8.2518435498695908e-01 5.4706616479816148e+00 1.1676137489688699e+01 1.9161331581883132e+01 -3.7070296593833518e-01 6.3081826530790863e-02 8.7562026539089857e+00 -3.6521767331095134e-02 3.1934370910676080e-02 5.5626913156942237e-02 8.2343952047885978e+00 2.9438437764792980e+00 1.4800272629203391e+01 -5.7236486634250468e+01 4.7992370382203831e-02 2.7856678811082247e-01 5.0379241279415510e-02 -9.0505046229191066e-01 8.2738634158849891e+00 3.1342007457642467e+00 -6.0570318531244993e+00 -2.6341078336497503e-01 7.5155476471735483e-03 2.4134907044528518e+01 1.3873655365483728e-01 1.5799872377442625e-02 -3.5720021160656756e-03 1.9135921333981969e+00 8.7284103231650079e-01 1.1998726282763528e-01 -4.3544341091721435e+01 -9.6234001587902185e-02 4.2087520215545737e-01 1.1148380658414681e-01 -2.7568229953976697e-01 5.9473746098265110e+00 -2.3807268790405942e+00 1.2842525930423290e+02 -5.8208539941199433e-01 -1.0218863215186483e-01 3.6563612824247684e+00 -6.1996834487899832e-02 2.1010662287881132e-01 2.0634353382547488e-02 -6.6384059917181730e+00 1.3109701001812937e+00 -3.1999584228469757e+00 -2.8459772884845734e+01 4.5390828778522518e-02 -7.2948140193921063e-01 7.5368955077309856e+00 -6.4995682322532957e+00 1.6130184855403968e+02 6.2023144648315792e+01 -2.4451322737208102e+01 -1.8919615598159425e+01 1.6190811951829360e+00 5.7627045184199233e+00 -9.7969383439254898e-01 -8.2332001299037074e+00 -8.0568928849929766e-01 -1.0976794074984355e+01 1.8013287840667886e+01 6.0878597705966968e+01 -7.7829472530224302e+02 1.8249171371184048e+00 -1.0487136447614603e+01 2.3955932496483001e-01 6.1405018150253454e-02 -1.7085991782223573e+00 9.4384017230477184e+00 -8.9947398789227009e+00 8.0960089324976536e-01 -2.4679497754135582e-02 -2.5101537999726133e+00 6.5783048753473850e-03 -2.9529025375177298e-01 -1.9064587869372929e-02 -4.0201065852306783e-01 8.6405324935458339e-01 -4.4610692653805017e-01 -9.8097315451595932e+00 3.5964631082521237e-03 -2.8634314554437879e-02 -9.9935530757211186e+00 7.5091913683916687e+00 -2.0584527425973647e+02 -8.9451407726786783e+01 3.9189376978843939e+01 2.3096598484450599e+01 -1.8244352936025419e+00 9.9489030633994844e+01 1.0854054449351231e+00 9.8442831968547502e+00 8.5183087140647640e-01 -2.4252220287119044e+01 -2.4825818695901290e+01 -1.0318830011143568e+02 7.7961849559990367e+02 -2.2424629546362116e+00 1.1427467157361860e+01 1.8127677064221359e-03 -3.6785678040118541e-01 -8.7677554013060988e-01 1.1734690675677600e+01 4.2234494806492748e+01 -4.7685661330913615e-01 -2.4799357395522748e-02 1.4723253412591532e+02 1.4221639026217758e-02 6.8941271248363911e-03 -3.1945071348403076e-02 -3.6622800829450540e+01 -2.3176549923573075e+00 4.1862120259111883e+01 3.6350820624080166e+02 1.7209883933329062e-02 -1.7526296887871273e-02 -1.9013353297337588e+02 
      </Row>
      <Row Index="210">
        -9.2894596645272998e-02 -6.6424284159580793e-02 2.8148609752406628e-02 8.2862384712575476e-01 4.7231056733289734e+01 2.8760322993655052e-03 1.6866015405041157e-01 1.8839826296662068e+00 1.8844391554041806e-01 1.6967423775781754e-01 -4.3267412665203508e-02 4.6804095951932823e-01 -2.0059168555008000e-02 1.6987873667267195e+00 -1.9556575723936476e-01 -5.0748379947215483e-02 -1.1085614352907669e-02 3.4397675122107785e-02 -1.7579871624405996e-01 -3.9178238890121975e-01 -1.7960793309202927e+00 1.0707257022149861e+00 -6.2939427474791643e-02 1.4268587803110577e-01 1.7830437853942840e+00 -7.2037884715712153e-03 -1.0859349887539338e-01 -3.0025553835272945e-02 4.5772161104940210e+00 1.1759189222470923e-01 5.7308416090958616e+00 3.4502297434846696e-01 -3.1932808879433949e-02 -3.1641467888115926e-01 8.7410390672260974e-02 -1.8772121414403387e-01 -4.0510213949937679e-01 4.6863206162561255e+00 6.2326360750594176e+00 -2.7742515967958070e-02 -1.8446167284409398e-03 3.4991071650147205e+00 -1.4374797466891209e-01 -8.4486728923877763e-02 3.6632581319016033e-02 3.9309546928027430e+00 -4.1955664079068811e-02 1.0969899544988948e+00 7.7306516075732361e+00 -6.7477659423175851e-02 -8.9068186923009307e-01 -9.8386299135270860e-02 -1.6177933443174197e-02 7.1764375604107045e-01 -2.0447286818562134e+00 -1.5918412572995294e+01 1.7209993975241034e-02 8.7903188253614317e-02 1.1570966723738820e+00 -3.2041024035905252e-01 3.6086600304149385e-01 -8.3103823855945613e-03 -9.1826621213044746e-03 -2.2209723255538449e-01 1.9127071381510632e+00 -3.4661420360644115e+00 -1.0254008691302108e-02 -6.2156946538557634e-02 5.5424546168424627e-02 -3.0475612722426604e-02 1.1457831956477094e-01 -2.5811927464201290e+00 1.0456679882889148e+01 -3.8928452933081559e-02 5.0673931727428512e-02 1.0655208898915589e+00 3.6207315724088573e-01 -4.2190854381146892e-02 1.2650310263811804e-02 7.6439908599468254e-01 1.3472890084108258e-01 3.6198625182018276e+00 3.8695091836689244e+00 -5.7225117505204537e-02 4.4784742472081529e-01 -6.2885447111554527e-02 9.4652670725395183e-02 7.9351239833272302e-02 -4.5318121831014651e+00 -1.4451926745648962e+01 1.3344611450214927e-02 -3.7184530081050049e-02 2.6001961982570947e+00 1.5027282349764448e-01 1.6507227354475162e-01 1.3826328947704969e-02 -8.2370409584245863e-01 -9.1082870632442692e-02 -3.9535537630549697e+00 -5.9234387785363651e+00 1.2753822870614329e-02 1.0060355019458029e+00 -3.8201537771799821e+00 -1.0333765896354450e+00 -3.8052463297799477e+00 1.4922897348290462e+01 -4.1320785210700706e+00 -3.8270320046582995e-01 2.8304148390983430e+00 -2.0523687692206067e+01 -3.3951116165894817e+00 5.5049576145861749e+00 -7.6619953978840982e-01 -5.5716869855389177e+00 2.1035802591213724e+00 -4.2662263961306053e+00 -7.7807015190369384e+00 -4.7808080278452536e-01 -1.1066646265393508e+01 4.6802552757593069e-01 6.1973666100811897e-03 7.5338785513878292e-01 -4.3223238622156259e+00 4.8280468451557681e+00 1.4345833844018330e-02 -2.6210137604801931e-01 -4.5623689577059849e+00 5.4945164264634450e-01 -7.5548594293545079e-01 1.2995786432340428e-01 3.8390167549634953e+00 -3.5177978897905859e-01 5.9989432390527782e+00 1.2269413648691625e+00 -3.0837155603386623e-02 8.5720679346273343e-01 3.7581324969002594e-01 4.5666416114784170e-02 -6.8405802512290848e-01 9.5359392517420929e+00 7.1610039421648253e+00 8.7219742927015176e-02 -1.5505509395755013e-01 2.0164759678846167e-01 1.2216631389213717e-01 -1.9954980191640459e-01 -3.1137680399693446e-02 -1.4057280665849703e+00 -2.0730149414634980e-01 -3.8765942829390951e+00 -6.6706543100308409e+00 -1.2330272487304228e-03 -4.6998446866621180e-01 -6.4395021071490532e-02 3.7092626203752843e-01 -1.2317772120845802e+00 4.7845861211390002e+00 -4.3967572284629568e+01 8.7224096009812513e-02 -4.2109792604025298e-01 1.5639484597595583e+00 -1.7627433655952274e-01 4.0874579101330255e-01 3.4565465248935112e-02 -4.1307104423094643e+00 9.2684278248270857e-02 -1.2089444267885938e+01 1.3341450217008060e+01 1.8540003351887435e-01 1.4294449646601133e+00 1.2344048717978122e+01 1.9630314232959734e+00 -6.8656314220262971e+00 -3.1468785375910556e+01 6.7836297333742550e+00 1.5665261386512555e+00 -9.4915068241352873e+00 3.5303535774285137e+01 1.1641064010865907e+01 -1.9655727853956208e+01 2.3109096620637262e+00 1.7614496129673626e+01 -6.0093637006127061e+00 1.8377557524397389e+01 7.9017321801068192e+00 1.2735906928058824e+00 3.8499651792882588e+01 9.3967385571588125e-02 -4.5547687934913483e-02 -8.4086883387408307e-01 -4.1455023051967146e+00 4.3802286720601842e+00 -1.4975462352816438e-02 2.0351480040865511e-02 2.5260438475283991e+00 5.0863994762828213e-02 1.2412647478964800e-01 1.0930838079751481e-02 -1.0628909881634172e+00 2.2367826768032728e-03 -3.3952152938873041e+00 7.8843981716454437e-01 -3.2683177825392207e-03 2.6708965298809062e-01 -1.4941842526580450e+01 -3.0577754786104760e+00 4.1139670447989829e+00 3.6572309853889919e+01 -1.2106957271604188e+01 -1.8244352746696046e+00 1.1566221900607765e+01 -4.7683693367563137e+01 -1.3862709037496730e+01 2.3239008388155803e+01 -2.8518544111613338e+00 -1.7209942098982449e+01 7.3291147147923112e+00 -1.0356491895634470e+01 -6.8528942644300912e+00 -1.5661022796019486e+00 -4.5579976444828162e+01 -8.3272756509165102e-03 -4.4983828174012475e-01 -2.7213713624880453e-02 -1.2294396782877440e+01 -1.3717483444739205e+01 2.4001131191887959e-02 -7.1227839643045243e-02 1.1376514840595426e+00 4.6712937575096980e-02 -8.3540806526190003e-03 -9.0075199516679305e-03 9.3688048002656679e+00 6.8012279592353231e-03 -3.0030950171429403e+01 -2.9671908037569192e+00 7.1036476366591605e-03 2.7158232919709036e-02 -9.8156363354287155e+00 
      </Row>
      <Row Index="211">
        2.6749780264217407e+00 -5.1114193879999220e+01 2.5441239351034164e+02 -8.0809073393978179e+02 -1.0842448164224625e+03 -9.3593848465243354e+00 1.0440524449313671e-01 1.2475398087769747e+04 -2.0414372148952680e+00 -3.0789746200665832e+01 -6.8931666245043743e-01 2.2424539091996849e+01 3.3391263047233224e+01 4.4088641300797462e+01 -1.1670691746082157e+03 -1.0701663716463372e-01 -1.2655134514858946e+02 -3.8487809598445892e+00 -1.0626155320787802e+00 3.2042161319404840e+02 4.5227449242770672e+02 5.0844051361083984e+02 7.6939512593671679e+00 1.3771939385333098e-01 -5.4854077507816255e+03 -2.3151297809672542e+00 -8.1637788098305464e+00 -7.8059468930587173e-01 1.1190845419969410e+03 -9.1380942726507783e+01 -1.3939490754471626e+02 2.5887087629735470e+03 2.4604656572046224e-01 3.4599021690664813e+01 -2.6304141175933182e-01 7.3442361629568040e+00 -4.0619025712087750e+02 -1.8330585509538651e+02 2.8598300693035126e+03 -1.7977426694706082e+00 -2.8200080118840560e+00 7.1984498006105423e+03 -4.6345220332732424e+00 -1.5112032534554601e+01 -1.0500430752290413e-01 7.4374156360700727e+02 6.1791936080902815e+01 2.2417067132517695e+02 3.2088013740479946e+03 2.6990936321672052e+00 -1.5226582617312670e+02 -6.5913559014443308e+00 -7.3179303769022226e+01 8.3419700063765049e+01 -7.0569803020358086e+02 8.4584366092681885e+03 -1.1623774249455892e+00 3.5370071388024371e-01 6.5736693580150604e+03 -5.3942719714250416e+00 7.3707813653163612e+00 -2.7568911405978724e-02 8.0565875647589564e+01 5.2193447803612798e+01 -1.5911459849402308e+02 -1.2535618878602982e+03 4.1478474914983963e+00 -1.3574650761799421e+02 -1.1530714984866790e+01 -2.3738202249165624e+01 -8.6592691488564014e+01 -2.5381507009267807e+02 1.7056180332183838e+04 2.8443039562553167e+00 -4.6342980318804621e+00 -7.3977595584094524e+02 2.9310511711519212e+00 1.6652779333293438e+01 1.7261255450430326e+00 7.0036491379141808e+00 -7.7290650349110365e+01 -9.9579296353971586e+01 1.8342834997698665e+03 1.6745111675700173e+00 1.2794753768053488e+02 2.3938045802642591e+00 -5.9562150686979294e+00 -1.4943725950550288e+02 -8.3716283482313156e+02 5.8212195110321045e+02 -5.4046668248483911e+00 3.4047987096273573e+00 4.2402603809628636e+03 2.7692185718333349e+00 -1.9855101053602993e+01 1.4210211804529536e+00 3.3116625034064054e+02 2.2746478736458812e+01 5.0241637762635946e+01 -1.1170990131497383e+03 7.7067204624763690e+00 4.0984477464109659e+01 -5.1331193067017011e+00 2.2259915908798575e+00 8.1506425585411489e+02 -6.2380674221366644e+02 -5.6255908727645874e+03 3.3048300096823368e+01 -1.5308147649004241e+01 2.4535799818740226e+04 7.1155500655440846e+00 7.1873295939061791e+01 5.0809058351442218e+00 2.3615665962174535e+02 -5.5156889342702925e+02 -1.0648317276388407e+03 1.5079915320947766e+03 -1.0728222579346038e+00 6.3553680162644014e+01 2.7171909344273445e+01 2.1954722725786269e+01 7.4826434990391135e+01 3.4602891829516739e+02 -1.6463386671066284e+04 3.6780090406537056e+00 -3.8613343051838456e-01 -1.0262683119706810e+04 -7.4155655285285320e+00 9.8908449057489634e-02 -3.7925452514646167e+00 -2.4264159749727696e+02 1.1523542879335582e+02 -4.4221760965883732e+01 -7.1585861857980490e+02 2.2347272555489326e+00 -1.1084755189977295e+02 -2.1132953568594530e+00 4.3917848912067711e+01 1.8397536114789546e+02 1.3230530645921826e+03 -1.0030810614109039e+04 6.9852094245725311e+00 2.5439807512811967e+00 3.4262200750112534e+03 2.3204264235682786e+00 4.5602654177928343e+01 -1.9558792659991013e+00 6.1629579818621278e+02 4.3664571741595864e+01 -7.6381111048161983e+01 -1.6788506117016077e+03 -8.7584564004209824e+00 5.5085480601526797e+01 -5.0884183158632368e+00 4.5718663970008492e+01 -4.4667176368646324e+02 -8.0181108094751835e+02 -1.0722048941612244e+04 -4.4133093212731183e+00 -4.0621781157046684e+00 7.2509238366633654e+03 8.2886090577812865e+00 -6.4389372244477272e-02 9.4175765470135957e+00 -3.9145156115293503e+01 1.1938222900778055e+02 6.3642465753853321e+02 8.9873725439608097e+02 3.4713463641237468e+00 4.5673608471042826e+00 -3.2345961922513311e-01 7.2694868394173682e+00 -7.7200290602724999e+02 -5.8431537247151136e+03 1.2715717283308506e+04 -8.2471272809212678e+01 4.3111402210357483e+01 -4.8933864054858685e+04 2.5833429200298269e+01 -4.5119744313019328e+02 -3.3964406271052439e+01 -6.3145757109075785e+03 1.2415663195922389e+03 1.7357400849387050e+03 1.4514467668626457e+04 1.3246116034220904e+01 -2.0995142848347314e+02 2.9143871790729463e+00 1.5770459286868572e+01 -1.4295394740998745e+01 -6.5095641493797302e+02 7.5395274810791016e+03 -5.7123568289716786e-01 -1.2260704820218962e+00 -2.6986012722477317e+03 -1.1764835870126262e+00 -1.7979256213176996e+01 -1.8348755318584153e-02 -2.1462477880716324e+02 3.9459935623453930e+01 1.4058165782690048e+02 2.0750552771985531e+03 2.0415902170934714e+00 -1.2977790157077834e+01 -1.7374627009849956e+01 -1.1351232287544553e+02 1.7184591738823801e+03 -8.7527006412856281e+02 -6.5263170332312584e+03 9.9488978101721614e+01 -4.7683690226962135e+01 1.8129094298678637e+05 -2.2412394549043341e+01 4.2193241766340913e+02 3.4771654324329575e+01 2.7772492612173235e+04 -1.5396172437667312e+03 -6.8204379425538682e+03 -6.9602545970116873e+04 -7.5640484182387340e+00 1.1807989229770629e+02 7.9273228229794768e-01 -6.4979805542089366e+01 -7.6269517041860041e+01 -1.1981256386107136e+04 -1.4548737645856751e+04 4.8923472675637072e+00 1.0525323390829726e+00 2.2955845388054103e+05 2.5621212877013022e-01 6.4518229502925806e-01 -1.4082069165306166e-01 3.8261842280264507e+04 -3.7183276559348906e+02 1.0710745316124086e+04 9.0228040304786235e+04 -1.7766688671262223e+00 4.0934206769641825e+00 1.3853038030467718e+05 
      </Row>
      <Row Index="212">
        1.9560305805758915e-01 -3.0364694089341526e-01 9.4335345510512525e-01 8.4976871383224761e-01 -3.6380320488562575e+01 1.6319732063917414e-01 3.1021520448967421e-01 -9.7100283922168273e-01 1.7183734198983838e+00 -7.7031675418695045e-01 -1.3277257908256557e-01 4.4603408790552379e-01 -1.0273529872343943e+00 -6.7620456628144439e+00 -7.1513310793478126e+00 -1.2238795278061332e-01 1.1411587103087442e+00 -3.5353901761300577e-01 -2.9806711756189941e-01 -6.2206523681709314e-01 -1.7456540578609747e-01 4.2601783739519306e+00 -3.5917385590858331e-02 2.9631724478431209e-02 -5.0001026360603191e+00 5.2909258570209383e-01 1.2563218902812423e-02 -7.6367685341539371e-02 8.3054082473874331e+00 -1.3985071774385460e-02 -1.2879635438391393e+01 7.1188074384626816e+00 3.4242406285701665e-01 -3.1059880103941140e-01 -1.0044626955213687e-01 -3.3079398701829632e-04 2.1511244695681739e+00 -5.0684920170388068e+00 1.9078415679905447e+01 -1.9471142992640367e-01 -1.2089039386366274e-01 -8.0028394218606991e+00 -1.6056333795971014e+00 -6.5789859425345298e-01 9.8569893731721425e-03 6.8690576506188563e+00 4.6395709048366029e-01 1.2678426833418257e+00 -3.8308533734380035e-02 -3.1988816353205607e-01 -7.3213284108106791e-01 -3.3637012552456724e-01 8.1716904857825057e-01 2.8612445878550261e+00 5.4838630583033137e+00 5.1153253275697352e+01 1.0171286094516319e-01 -4.4285666678393221e-01 1.4101971758918808e+00 -5.4815272872713372e-01 -4.8804239563246199e-01 -1.2794291713053463e-02 2.3409392828682343e+00 1.1386979724544943e-01 -1.9179077565423768e+00 -3.7539961540487639e+00 -1.6457151011290261e-01 -1.2088678090444702e+00 1.9294335018023290e-01 -7.8700851555055351e-02 -1.3006420642783496e+00 3.8176973355821247e+00 -1.1747562392847613e+00 -2.7927968901502620e-02 4.2667744238691030e-01 -1.2196623576533057e+00 1.5641892463850446e+00 4.7997688060536348e-01 1.9665039761345149e-02 -1.7920790949101502e+00 1.1287569436364606e+00 -1.1565033659220333e+01 6.1626961910957334e+00 3.2789946444057527e-01 1.2524848917184443e+00 9.3875506510132212e-02 -3.1427568820191709e-01 -3.7331485818779697e-01 1.1349820147283936e+00 5.5679374901985284e+01 6.0662047529362439e-02 1.4038114181953665e-01 -2.7798445485371701e+00 1.0023267333861057e+00 4.1504294718427559e-01 2.4952356685079780e-01 2.3778821981961755e+00 -6.2139638219269111e-01 1.5980129128504359e+00 -8.3379061544178512e-01 5.3294810661073022e-01 1.4083720593416160e-01 -3.8815537057322649e+00 2.1545871856838055e+00 1.0021064321965923e+01 -3.8926371211585547e+01 -2.5380097606306663e+01 2.7700242968386135e-01 -3.3478277481456553e+00 -5.6248431963876584e+00 1.5176136078200795e+01 -1.0379329018207414e+01 -9.7168338865478354e-01 -3.1573959342558794e+01 -1.6192987107530143e-01 5.4830573466366559e+00 2.1977898910238991e+01 -4.2194147505247237e-01 2.7729200128711682e+00 2.7992829886107184e-01 1.8123346184597722e-01 3.5163253136832395e-01 8.4413585472174901e+00 2.2709052399120992e+01 -5.8717559347721604e-02 6.8247190078080822e-01 1.4227461174757536e+01 -1.8039234154409898e+00 2.1714299262293508e+00 2.3910762578460198e-01 1.0303759357632032e+00 -6.8971921442482653e-01 -1.2916554784023219e+01 -1.4246410997202020e+01 1.7223741685300087e-01 1.7973810312159388e-01 4.9646721566998586e-01 -2.5020295983756569e-01 1.4851330766157389e-01 -6.5628503832766683e+00 2.2672634915026720e+01 -6.9324915567188228e-02 1.6346683021029396e-01 -2.0136756648075789e+00 -7.9465709507027249e-02 6.1809800881530208e-02 2.6553745281697205e-01 -7.6877512253219038e-01 -1.2007618106514428e-01 -1.2201511091205930e+00 8.4973998135221791e+00 -2.0922113361811068e-01 2.6203426111237960e+00 2.2527236319178634e-01 4.1492251723411755e-02 -2.9694161668544439e-01 -1.1873324676990023e+01 3.8587327315675793e+01 -2.9984773581747781e-01 -5.1045683550837140e-01 -3.1290566456591478e+00 -2.1394365921469074e+00 2.5539714595055329e-01 1.0902492111857853e-01 -2.8357393533215145e+00 -3.9076511027570859e-01 2.3532717813219392e+01 5.9088778134091626e+00 1.6947207252189500e-01 -7.2477939230023636e-01 1.5039529404177301e+01 -5.0807634833634836e+00 1.2782635551609474e+01 7.9864374100486316e+01 2.1697100844638044e+01 -6.1371259820351010e-01 1.1669912209168293e+01 3.1802255016128584e+01 -4.5089335273638291e+01 3.2365191986326835e+01 3.2700015485610101e+00 7.0932280877540279e+01 3.4585959466393650e+00 -7.4576409996943880e+01 -5.0903548536728636e+01 2.9776271723066543e+00 -2.4004457496673801e+00 -1.3506514028798478e-01 -6.1119532804411847e-02 -1.2349833052483064e+00 2.4463418281047780e+00 -1.2095655968529172e+01 -1.6711503287257290e-01 2.9247203326801419e-02 -1.1538924884406470e+00 2.9213657821153305e-01 5.0269630545528798e-02 1.7501874124651484e-02 -2.2876957467342436e+00 -3.5322716287414124e-01 1.6426395961298113e+00 -2.0211302590487321e+00 -1.9997777352894719e-01 -3.6127640594663646e-01 -1.7728243908151047e+01 6.4470575087188839e+00 -5.1529291897683720e+00 -1.3240961838806453e+02 2.2109527098778926e+01 1.0854054249616487e+00 -1.3862709047632306e+01 -2.2412440726026034e+01 5.6145043809723148e+01 -3.9474439983688619e+01 -4.0561748779114515e+00 -5.6464192851422922e+01 -6.4336199849584403e+00 1.1818186715310308e+02 4.4714936572329691e+01 -2.7129126353712039e+00 3.0831015624617066e+00 6.5509589214680641e-03 -1.0221938949111049e+00 -6.0838344262263977e-02 -5.0278737116820182e+01 -1.3664344861254193e+02 2.0845724444392816e-01 -1.8927759278371825e-01 3.2254363885100219e+01 2.9296743012679993e-01 1.1652095286358577e-02 -8.1121383719642504e-02 6.3297644504223513e+01 6.9162410869499382e+00 -1.0502624796173951e+02 3.9400924016586991e+01 -2.0200303468341296e-01 -4.6989496820788845e-02 3.1732161450662462e+00 
      </Row>
      <Row Index="213">
        -2.8652329838632795e-01 3.3115173817550385e+00 9.0910045010969043e-01 2.8681384710114799e+01 -4.1215355551009998e+02 -4.2683028684120927e-01 2.1364858573467060e-01 2.6413388004351873e+01 -1.3714695952786542e+00 2.3709534963523765e+01 3.4887897335971729e-01 -1.4758827308506625e+01 -1.8469011696433881e+00 5.9709193132584915e+00 -7.3129043242952321e+00 -3.6163482361143906e-01 -7.1230793962877215e-01 -2.3085544639520776e+00 -1.4062617244644571e-01 -8.2197394964168780e-01 2.2873315316101070e+00 1.3249343617260456e+02 1.2797829508735958e-01 -5.2686950603742844e-01 -2.8029765797888103e+01 9.4915889048070312e-01 7.6264635268162237e+00 -1.6543150453742328e-01 -6.6375100010491224e+01 4.9138577730445832e-01 3.0099873392965947e+01 7.2547007749963086e+01 2.6856009629916855e-01 -7.0941970160174606e-01 -6.5662963745444358e-01 1.1913096992866485e+00 -8.1990706956567010e+00 4.2318836200051010e+01 2.3131373278796673e+01 3.6189725829672170e-01 1.5898510595661719e-02 4.3028762999922037e+01 5.8200048743174193e-01 -1.1164263808830583e+01 -2.8247467894934175e-01 -7.6320525818155147e+01 -1.4370482215999800e+00 5.0297729463054566e+00 7.8924773532926338e+01 -4.7632729217093583e-01 -5.0263544382032705e+00 -5.6754868758662269e-01 -3.7593944658447072e+00 -5.6106666431660415e+00 -6.1666928470367566e+00 -5.0320807708427310e+02 -6.1854302347222756e-01 5.3632340604070805e-01 1.1982103721238673e+01 -8.8838031351156133e-01 1.9122623732787360e+01 3.2925223269756998e-01 -2.3803324200764109e+01 4.6262708876438410e+00 -1.4494397583941463e+01 1.0484781957697123e+01 6.9183012178527292e-01 4.1571633714529526e+00 -1.0458677093765800e-01 6.6343366951332428e-01 -2.1245527207138366e+00 2.2822006702190265e+00 -1.6385971238277853e+02 -3.7336445410602437e-01 -4.4768328377550404e-02 1.3567713855358306e+01 -1.2545239475671224e+00 -3.7300518449919764e+00 3.5880505907584848e-02 -2.4725280673257657e+01 6.6058164841524558e+00 -6.5144757338343879e+00 8.8210167455355986e+01 -3.7693409062057981e-01 8.9435672022682411e-01 5.0712806449155323e-02 1.0931496643534047e+00 -7.3046703560066817e-01 -3.1469565013307147e+01 -3.4132972552441061e+02 -5.1383453925609501e-02 2.0674257505390869e-02 -2.3909842129614844e+00 -7.4883790284343377e-01 1.3424473082783152e+01 -3.0061517941862803e-01 -3.9519257704640040e+01 -3.8357140429700962e+00 -3.0987066883979423e+01 -4.0499316694797017e+01 -1.9988085319937454e-03 6.8428173190877715e+00 3.0016972218214732e+00 -7.8954587940222609e+00 -3.5304240892946837e+01 4.9997135054465616e+01 9.7120265763252974e+01 2.0415517653331108e+00 5.3788174918989284e+00 1.7662034552387922e+02 -1.0685055820030925e+01 2.8107258699235172e+02 3.1253569738072429e+00 3.7139322026028822e+02 -5.2266906988079427e+00 -1.6138171926577343e+00 7.6544453703012550e+01 3.2037267927962603e+00 -5.6070753785310444e+01 4.3892802171804490e-01 -1.1631709007106110e+00 1.4008914135552914e+01 1.6235779789203661e+00 -1.9198060181736946e+02 -2.1679836328371493e-01 -3.6654103354652534e-01 -1.0625602558429819e+01 4.5908729755643662e-01 -2.7123235031785953e+01 -3.2993820315495270e-01 -5.6612213072094164e+01 -1.2217648208355968e+01 -1.5123770406367839e+01 -1.7093974651429016e+02 -3.1577745894834663e-01 1.0183442398040370e+00 -3.3191387005774686e+00 -9.0125063958639657e+00 6.9555511533690151e-01 3.9928447737402166e+01 -2.8593948923982680e+02 7.4997908933823965e-01 -7.1511184573688524e-01 2.1066230966534931e+01 1.2924172142786574e+00 -1.1374062740156660e+01 -6.4751021084022398e-01 -1.3222108072317496e+01 -3.0211655505263479e-01 4.2954350614745636e+00 -5.8525972433330026e+01 2.4018077738355714e-01 -1.1902361735137674e+00 -2.7337899111671504e-02 -7.5365150711149909e-02 -8.8838742206280585e-01 4.5440819509676658e+00 1.4624617970921099e+02 4.7660399457618041e-01 3.6717494910856807e-01 3.1802051531150937e+01 5.3072836423439185e-01 -2.1575823036979273e+01 -8.6909719645518635e-02 4.2926432531618048e+01 -1.1732387556257891e+00 -4.1946210709575098e+01 2.0332344962458592e+01 -2.0353239088126429e-01 7.1514078118697171e+00 -1.3769585316919361e+01 4.2080000372377981e+01 7.6035247162844826e+01 -8.5251577842747793e+01 -1.4083290652069263e+02 -9.4707300829867620e+00 -2.0103804698887359e+01 -2.7656285081458918e+02 3.2383656852808542e+01 -1.0164333304812953e+03 -1.0101524895153204e+01 -1.1983730856421462e+03 7.2937457476721193e+00 -1.1501273022404348e+01 -4.0653970613003185e+02 -1.2228850991424679e+01 2.1280185279883381e+02 -9.1933943866524714e-01 9.9357576611510012e-01 5.3449899497209117e+00 -1.1424516021739691e+01 -4.1161167919263244e+02 4.0110763757355983e-01 1.7539761226100836e-01 -4.2967129265598487e+00 -8.3194664021311837e-01 -8.0138260902531329e+00 1.7992479903634262e-01 -1.8490832257783040e+01 -1.5845689333355040e+00 -8.4472853364422917e+00 -3.9321580340270884e+01 1.4912858397755713e-01 4.3021196491058618e+00 1.4619324001561889e+01 -4.3577770572647069e+01 -1.0475278766109113e+02 3.9337375584511756e+02 1.8904847533779684e+02 9.8442841508036736e+00 2.3239008405380645e+01 4.2193321445537731e+02 -3.9474439878057332e+01 1.2256060055199237e+03 1.2390636260510178e+01 9.8797950569553325e+02 -8.7058441941528315e+00 1.6676936714861768e+01 6.3572113382448538e+02 1.4452810318918313e+01 -2.4459856070509949e+02 1.0903084714414746e-01 7.3828364646733107e+00 -1.0679399544810231e-02 5.1345107595698494e+02 8.6262976035021143e+02 -8.2787659935824587e-01 6.5014272358240532e-02 1.7603816690301784e+02 -1.4250980003228619e-01 1.3596503439418228e-01 1.1986492152973938e-01 -8.1459302940723785e+02 2.3588981592273093e+01 2.6477500991039008e+01 1.7026964880397429e+01 5.9388076203553464e-02 2.4362363278383836e-01 -3.9154284997320883e+02 
      </Row>
      <Row Index="214">
        -1.0700451362023244e-01 -1.5756522218623559e-02 5.5746311495977352e-01 3.5320577328946001e+00 -5.0400568486584234e+00 -7.2011140601397017e-02 -6.7170754155507550e-02 1.1702112121829487e+00 7.4769257265923095e-02 5.3052653589929832e-02 -1.7314947563103367e-01 3.1606666120455884e-01 3.5734087841831297e-01 -4.3579223328470107e-01 7.1864393500936785e-01 -1.6333886115274865e-01 -7.6173317163181764e-03 -5.5391398907289613e-02 7.4027614962560051e-02 7.8692829328838343e-01 3.3490907877876452e-01 -1.7021487835096195e+01 8.4764723387866781e-02 -7.9237462623336086e-03 1.0609924690614889e+00 -1.1157830949690961e-01 1.5190620797511656e-04 7.6516033102549841e-02 -3.6410735655613280e+00 -1.1986035993948008e-01 2.8410647561868245e+00 -2.7893099447674103e+00 2.2774667683092842e-01 -1.6395158775087282e-01 3.5918665961716556e-02 8.2818759565299160e-02 4.0524720814346438e-02 1.1135982093619532e+01 -7.7790879787644371e+00 3.2507646738650919e-03 -1.6030142118559354e-02 -2.3180399892953574e+00 -6.0563203127749432e-02 -4.0060777497234312e-01 3.5164420915148042e-03 -4.3332110052363078e+00 -2.8009126015626862e-01 5.8424714487621259e+00 4.0275162519583318e+00 -3.9240500741492212e-01 -5.2721830376526668e-02 -1.4186775473656610e-01 3.6016497827205285e-02 1.9309511839521747e+00 -6.4419200473894307e+00 -9.4720015281345695e+00 -5.0510480906940103e-03 -1.9309290583471750e-02 5.7156406125432113e-01 -6.6682855081189985e-02 2.4311191532690657e-01 1.3310601622121965e-01 2.6073507040717914e-01 -7.3944956390882055e-02 8.7805277937429764e+00 4.2237024399546499e+00 -1.6056430148641754e-01 -6.7566230942103545e-01 6.3547851470090677e-02 6.2262075602887990e-02 2.2770276932374145e-01 -4.4743932693163515e+00 3.1395393011043780e+00 4.4977488968738655e-02 2.5549086751858185e-02 -1.9957679344115604e+00 1.0231725115403378e-01 1.0315383161309910e-01 -1.2415095278776178e-01 -1.3348670130339997e+00 -7.3983634825742683e-01 4.2878546328403928e+00 -5.5780250910506766e+00 1.0354357111668833e-01 -1.6792309476736733e-01 -8.8346328279129693e-03 -8.1139969716105043e-02 -1.4179654059533391e+00 -8.2752107053966029e+00 -3.0161667414358817e+00 -2.5241350263733864e-02 4.5513617686567365e-02 2.5294696263378000e+00 1.1545970257821381e-01 4.5049524339503932e-02 3.3349014825252699e-01 5.1182049647422900e-01 5.0547654082039628e-01 -4.6691986969053687e+00 5.2977309360339859e+00 7.5545840280837950e-01 1.7362104462506522e-01 -1.0427106957910333e+00 5.0747683895455964e-01 -1.0212239293884181e+01 8.1641574758223214e+00 9.6413248906610534e+00 1.5059059101058381e-01 -7.3987500487934454e-01 1.8475269208502937e+01 -7.4835118492872965e-01 3.0997169804166447e+00 2.9552091291337490e+00 2.4915101142943513e+01 -1.2874154294929667e+00 7.6708176004344750e+00 -3.7673525618210078e+01 3.1846049218124435e+00 6.2131001449904915e+00 2.3169967335449437e-01 -1.8963556325900299e-02 -7.0341771458714675e-01 1.7081912440772840e+00 -5.3988474518409930e+00 -1.5505721235200554e-03 7.9700050753073626e-02 -1.2683657142324591e+00 5.8751617016721269e-02 4.6778876397155500e-02 -2.1278418947292366e-01 -3.9958953391773093e+00 8.9821044370933123e-01 5.9523260836010650e+00 1.1972956225697089e+01 -3.0638349945284071e-01 -8.2575508036479306e-01 1.1532087120306755e-01 -2.3510757216564571e-01 1.5212392113255646e-01 9.4604742908545632e+00 1.4251770999107976e+00 -3.8551434035813514e-02 5.0146709919810739e-02 -9.7996401327327476e-01 2.5952587168493935e-01 -3.8049303528320166e-01 8.6991857521738769e-02 8.8471055625586814e-01 2.7040955197594485e-01 4.4245753245486412e+00 4.4779466759782736e+00 -2.6349199939808088e-01 1.7331850918753844e-01 4.2369804438997960e-02 -1.4954254458643845e-02 8.5081545751768317e-01 2.9297656815051596e+00 -5.3092541641090065e+00 1.5524199323664334e-02 7.6603537034168667e-02 3.4911990141827118e+00 1.4570671175456695e-01 -2.0152749256646985e-01 -3.5498974686822038e-01 -1.0913897887112398e+00 1.6604681385933873e-01 -4.1171760558245296e-01 -6.3418541601040488e+00 -4.7617423271539394e-02 2.1372168277960002e-01 2.9727128138765018e+00 -2.1775915561647139e+00 1.7067637419065477e+01 -5.0305258260327719e+00 -7.0310118763190985e+00 -7.5162936452134765e-01 2.3180318798563149e+00 -2.6132937534343455e+01 3.4541902623158851e+00 -1.0173083694642997e+01 -1.0062374003467550e+01 -6.2099361966650122e+01 6.4530987818180030e+00 3.4845384241198190e+01 5.5310145557057240e+01 -8.3550815614131295e+00 -1.9391956418672478e+01 -4.0703185027396671e-02 2.9669039072814485e-02 -1.3595119058868477e+00 -2.1595804352546111e+00 -1.7128571490640752e+01 7.9889158443644526e-03 -2.5460544499900095e-03 1.6848027823989469e+00 2.6237147917157699e-02 9.5105269513510393e-02 -3.6587355393797871e-03 -5.3209336272993824e-01 1.8343230470837568e-01 -4.4506505620229291e+00 1.1555536362466228e+00 -1.1678844457208459e-01 -4.4062393449749493e-01 -4.0033124334197403e+00 2.4682799604908841e+00 -2.3368606011117436e+01 1.0556542374724245e+01 3.9443291657662485e+00 8.5183098842824201e-01 -2.8518544062214346e+00 3.4771701788585233e+01 -4.0561748533811066e+00 1.2390636397294941e+01 1.2089253640502413e+01 6.1461008133712838e+01 -6.5481695147099046e+00 -2.6343369215106293e+01 -6.8826038720871153e+01 1.1193206527048535e+01 2.2833929594238487e+01 6.9403812363493245e-03 -2.1421320869939775e-01 -2.6131669604633856e-01 -1.0981547937141849e+01 2.6527529937352767e+01 2.5788376258378598e-02 7.9710126495822209e-03 -3.7047376615654208e+00 2.2265083844644096e-02 -1.1337853558744782e-02 -8.0668552905744484e-02 -3.3011210167661837e+01 -2.6163999159935063e+00 -4.4141750184917690e+01 -3.8886485164925318e+01 -1.3575522255120998e-01 -5.0649130838167356e-03 1.0545655184570498e+01 
      </Row>
      <Row Index="215">
        1.3301166569814086e+01 -1.3319198800949380e+01 4.5497318152338266e+01 8.6814257298596203e+02 -7.0853459271192551e+03 1.0797514043515548e+00 -2.3676546777442127e+00 1.8846310843005776e+03 8.1825233412455418e+00 -5.3137287016026676e+01 6.0759356337221107e+00 2.9529851207092870e+03 3.8761549015529454e+01 2.0457479359582067e+02 1.1828899894654751e+02 -1.8404917261796072e+00 3.6640412718057632e+01 7.3824470967520028e-01 2.1693202175199986e+01 1.4345858069136739e+01 -1.0390875331610441e+03 -7.6221163291931152e+03 -1.1952339986455627e+00 7.4548744645289844e+00 4.6426823354233056e+02 3.3674900216574315e+00 -2.2401636335998774e+01 -8.5413859222608153e+00 5.9183539298335090e+03 -3.2526586344465613e-01 -2.6656101152673364e+02 -2.0642655441910028e+02 -1.7634460172412219e+00 -4.7453051198972389e+00 1.7327377014793456e+01 6.8582972719566897e+01 -5.0147788213565946e+01 2.0660778923630714e+03 -5.6107659138441086e+03 5.8532194693107158e+00 9.6784683183068410e-01 1.0267041764259338e+03 -2.7158015762688592e+00 -6.1253742245957255e+01 -5.7679936019922025e+00 3.9484081993214786e+03 -1.4766941086389124e+01 -1.4552215301804245e+02 3.2325281153619289e+02 -5.7724514977307990e+00 -8.3789407853037119e+01 -1.0801281108288094e+00 3.3530289634130895e+01 2.9722476696595550e+01 -2.2083889686092734e+03 9.6978418812751770e+03 1.2977938021795126e+00 -1.9160659944755025e+00 8.0278457665443420e+02 -3.8741941097541712e+00 -7.2912110576929990e+01 -4.2829405692464206e-01 1.3499180490910076e+03 -4.8928134238230996e+00 -9.2797694667428732e+02 8.9204125124216080e+02 1.3670156896369008e+00 -8.1089321402716450e+01 -1.0139823633129708e+01 8.9284434702713042e+00 1.1240396816283464e+00 -8.5270293062925339e+02 -4.0541314287185669e+03 -1.4745812950131949e+00 -1.6460001934665343e+00 -6.3618297268450260e+02 5.6406515131238848e+00 -6.8965635720640421e+01 1.5244103485019878e-01 -2.0361428205333650e+03 -3.8820472318679094e+01 -3.5283405888464767e+02 -4.5342743800207973e+02 3.6736168662901036e+00 1.8155502100089507e+01 8.6048891051323153e+00 -8.7610171269625425e-01 1.5011229251977056e+01 -1.6880486743003130e+03 5.0738668775558472e+02 -1.1081451491918415e-02 9.1463217877899297e+00 9.7175984851643443e+02 7.8319966025883332e+00 -5.6293080003932118e+01 -5.3708655956470466e+00 3.1528502428308129e+03 1.6682809818361420e+01 4.3019253426603973e+02 2.0505036921799183e+02 -1.0704755181504879e+00 6.7033830646425486e+01 1.3789248114655493e+01 3.8810591414337978e+01 -1.1167939627729356e+02 -4.2110340788960457e+01 -3.0622425403594971e+03 -2.3335058352968190e+00 -5.1528747009360814e+00 -2.6573552932823077e+02 -4.6368482247344218e+00 2.4930608561937697e+02 1.8092452000331832e+01 2.2011359639205039e+03 1.1472699854616076e+02 -2.0717726209685206e+03 -2.3119376615658402e+03 7.4714840578380972e+00 -6.0789733619894832e+00 1.8943908912830466e+01 -1.5836014697328210e+01 1.5758537951903418e+02 1.2953723430028185e+02 1.2934267723083496e+04 -4.5469400560250506e-01 -5.6796736833675823e+00 -1.4410031572803855e+03 -1.5023668248293689e+01 -1.2006480252440087e+02 -1.2201812584171421e+01 -1.9919488096563146e+03 -6.4735042252112180e+01 -4.8715826581232250e+02 1.1648393299356103e+03 1.0323338963200513e+01 -1.3176214343358879e+02 -4.0247175533440895e+00 -1.5320005502318963e+01 -4.8216512359678745e+01 2.1333872762974352e+03 1.6756232969760895e+03 1.2969952425919473e-02 7.0642895658711495e+00 1.3880258612781763e+03 8.0783209521614481e+00 5.9335457011533435e+01 -3.4576977270589850e+00 7.4524115605279803e+02 5.9721095198765397e+01 2.9193033556640148e+02 3.7312603460252285e+02 -1.1779075093654683e+01 5.4755995096638799e+01 -2.0273718226293568e+01 1.9456576634198427e+01 -9.7082589633762836e+01 1.3190595506876707e+03 3.0268792657852173e+03 5.9066401285235770e-01 6.7533664338992718e+00 1.2742585674375296e+03 1.1891115044738399e+01 9.7254038249142468e+01 9.0221598781936336e+00 -2.8345758187249303e+03 -1.4086644591763616e+01 5.4019201723858714e+02 -1.6750807615369558e+03 -1.3011196116276551e+01 1.1781426358568569e+02 -2.3970085982218734e+00 -3.5511891989759170e+02 5.9822826180886477e+02 3.1157303280420601e+03 1.0637630314022303e+04 2.2112579475025996e+01 1.4425339014906058e+01 -2.6629443886987865e+03 6.3902015476363886e+01 -9.8770939841109794e+02 -4.9143202231098485e+01 -2.2896307263779454e+04 -2.7674902975745499e+02 3.3982478553429246e+03 5.4731284822747111e+03 -8.3985487284953706e+00 3.2193894402286969e+02 -1.2796945803216659e+01 -5.2473238669335842e+00 -3.1805922947824001e+00 -8.6441758978366852e+02 -2.3266947841644287e+02 -5.2017825590755820e+00 -1.7232912030740408e+00 -5.7189809371531010e+02 -8.2699348509777337e-01 -6.4322555804159492e+01 1.0664474336608691e+00 -1.3699108031690121e+03 -8.4794034882215783e+00 4.4934161621332169e+02 -2.3398364350199699e+02 -5.2499011371401139e-01 5.2672963208751753e+00 1.8711519816445829e+01 3.7337705158141762e+02 -6.3998576968535781e+02 -2.2313444125285372e+04 1.3081392577081919e+04 -2.4252650530412211e+01 -1.7209946595721267e+01 2.7772178444147110e+04 -5.6464211798962282e+01 9.8797869822915527e+02 6.1461003525939304e+01 2.1623165654839730e+05 7.6527927026607949e+02 -1.8981251245526586e+04 3.0640739283795068e+04 1.5823493353346805e+01 -3.4316867000205093e+02 9.6749490270849492e-01 -4.5605194241828485e+01 -6.2414611358605496e+00 -4.0816375790630074e+04 -6.5193002457693001e+04 2.9020723288812995e+00 2.9513057088624919e+00 4.7978268771233212e+04 1.0227718379392172e+00 4.5999488820141323e+00 1.1235333075528615e+00 3.2794167369711440e+05 -6.6140331215467450e+02 3.7928358701944766e+04 -5.7234121944496801e+04 -1.6813156651730168e+00 3.4096818906013233e+00 -7.8183347174581751e+04 
      </Row>
      <Row Index="216">
        1.0886742574275559e+00 3.3819187530170893e+00 -2.0520396631327458e+00 -6.7394722692552023e-01 -5.3726973060145974e+02 -7.6743309467838117e-01 -5.0784604451051507e-01 9.0388255349127576e+01 -2.2624315250559448e+00 -7.2991791876556817e+00 6.9575521808246776e-02 1.0388982376773129e+01 1.7239695549965836e+02 -1.5559540085610934e+01 -1.6293125863355817e+02 -7.1570517735472095e-01 -5.6163715234288247e+00 -1.5418192291144805e-01 -9.2366041405039141e+00 -5.1048659648979083e+01 2.7589678625692613e+01 2.2038094572722912e+03 8.6551280352978210e-02 -6.5676070812719445e-01 3.4722315869311569e+02 -1.5500539950608072e-03 1.1881830097700004e+00 1.5204034801718080e-01 -1.3884202893252223e+01 -1.3647670057034702e+00 5.6475102106542181e+01 2.3835111827403307e+02 3.3790618122850447e-01 -3.9574178567345371e+00 8.6821812303969637e-01 8.4295850976122892e+00 3.6427857135946397e+01 8.6706933287903666e+01 -6.4511260370537639e+02 -9.6953809255865053e-02 -5.5287166800371779e-01 -1.5052004623319954e+02 -1.1247280171919556e+00 -2.7980401051754598e+00 6.0112499257843410e-01 8.4355388197582215e+00 -9.1871674270369112e+01 1.7496039682126138e+01 2.8723493954935111e+02 -9.8094962151662912e-02 -1.4808166684088064e+01 7.4664884143021482e-01 5.8670299137920665e+00 6.1416705687297508e+00 -2.0625952984904870e+01 -7.9321493953466415e+01 3.8515233816838190e-01 6.5843658223161583e-01 1.5511262636631727e+01 1.2430850022519735e-01 -3.2746891616206995e+00 3.7702335703556855e-02 1.9815961316679022e+01 -7.0881859122097012e+01 1.2414935329928994e+01 -8.3367272210307419e+00 -5.4752727866684836e-03 -5.7756842126764241e-01 -3.9990934790148458e-01 7.3224442796054063e+00 3.0237194358021952e+01 -1.4894568745046854e+01 -1.5755560735911131e+03 2.4197596788985720e-01 9.9655381984754854e-01 -1.5146043487126008e+02 3.2321876604528370e+00 2.2999636476743035e-01 -7.1474796320353562e-01 9.7699456212576479e+00 -2.0929212603007909e+02 -4.6358031608540841e+01 2.4070594204962254e+02 -1.8466045933109854e+00 1.7951785575343820e+01 -2.6464274127647514e-02 -7.3567125023691915e-01 5.4216687100641138e+01 -5.3785611937986687e+01 2.0196824726983905e+03 -2.3639798411750235e-01 -3.4261845747823827e-01 -9.7022707430878654e+00 3.1347901488243224e-01 -1.8906469899229705e+00 2.4385939582430183e-02 2.5180244450690225e+01 1.3501549134789457e+02 -5.8725118047790602e+01 -8.4227944753831252e+01 2.6454407933169932e+00 4.2565702574502211e+00 3.1805260513347093e+00 1.4588333815681835e+00 1.3389162565435981e+01 -3.0026907011796720e+02 4.4178895331919193e+02 -6.0090075930143030e+00 1.5703111766697475e+00 -8.3818332090124750e+02 3.4986706601421247e-01 -8.7184168110252358e-01 -1.6172084129675568e+00 8.2126496405282523e+01 6.3351540519497939e+02 1.1813267068081768e+02 -2.3950555444604252e+03 -1.3103279328970530e-01 4.9067587353516501e+01 3.4996952654327345e+00 -1.2561667707748711e+01 -4.8382221337524243e+01 1.0062041782975575e+02 5.6289163810014725e+02 2.5037763864584122e+00 -2.7340927556159613e+00 3.5892656645958778e+02 -1.4223496304357468e+00 -8.9461105353730090e+00 8.3244165167621986e-01 -4.9780074835231062e+01 9.3310889724365552e+01 9.2329174972604960e+01 2.8436686339124572e+02 1.9241990553385904e+00 -3.4590103473876070e+01 1.0494563964130066e-01 -1.9039070979983080e+01 6.8062135188665707e+00 1.1272263137268601e+02 4.1163020861893892e+02 -2.2814790132633789e-01 1.2711444288694338e+00 1.5577302258322015e+02 -2.9788392715727241e-01 3.5330514917131950e+00 -6.0096605650653601e-01 1.8292787110840436e+01 6.8018120113294572e+01 -1.1116311636171304e+01 -1.5106187200918794e+02 -5.6820251312274195e-01 -2.4507427081989590e+00 -2.3015091199386006e+00 2.3332165931467898e+01 2.7278522399341455e+01 -7.2863015683484264e+01 1.4596344471871853e+03 -1.7414660014064793e+00 1.4180453162648321e+00 2.8698933967924677e+02 -3.5967857489140442e-02 2.6584893817052944e+00 2.3690223732501181e-01 1.1812095985468477e+02 6.4484855964808958e+01 -6.2876461593783461e+01 -9.0725038021104410e+01 1.0634093491744352e+00 9.5126589992084973e+00 -1.1818740725120961e+01 1.0117777212862711e+02 -1.9724330359730811e+02 6.8373306404845789e+02 -1.9017737837135792e+02 2.0868859627499205e+01 -6.3068829351204272e+00 1.0303755405354314e+03 6.0381176569494528e+00 3.5837132099113660e+00 5.5664246597638254e+00 -2.2549019914190285e+02 -1.5155350397370507e+03 -1.4345721282996237e+01 4.7615544408085989e+03 2.4872418608010776e+00 -1.5812889520448516e+02 -1.6015922269125440e+00 -4.5040299954707734e+00 -1.3504413489252329e+01 -2.2911577513441443e+01 2.1769828618913889e+03 2.4635452659225621e-02 -3.4925761094427799e-01 -7.8389515576767735e+01 -8.3689136241446249e-01 -1.0850811354466714e+00 3.6983982705777407e-01 -1.7290686648339033e+00 6.5174766942989663e+01 4.6498720971867442e+00 9.5590420121792704e+01 -5.8817581440280264e-02 -4.1068546897622582e+00 1.2573643101911355e+01 -9.8963933756864435e+01 2.0063866248831619e+02 -9.5306043183855945e+02 -7.7438393754884601e+01 -2.4825818195872444e+01 7.3291148505154258e+00 -1.5396174748414196e+03 -6.4336197586514601e+00 -8.7058406137801967e+00 -6.5481691913323630e+00 7.6527849956768114e+02 2.6672813505207414e+03 2.5530115530403990e+02 -5.2169008135957565e+03 -1.4266888783941809e+00 1.8988715322432608e+02 -6.9388427618832793e-04 -3.3429077991780645e+00 8.4418945542836870e+00 -1.4584658263588599e+02 1.2924083972884245e+02 4.1234247129496104e-01 3.2447467664587748e-01 3.5590532658385462e+02 1.0715450844827501e-01 1.6936716800102403e-01 1.1437860173373338e-03 9.0953144519351770e+02 -1.7307940938712593e+03 -5.7828776364522832e+02 -1.2908272253047119e+03 -4.0163514627341645e-01 3.7120382668798713e-01 1.9100649278628830e+03 
      </Row>
      <Row Index="217">
        -1.3996849341368943e+01 4.0961477548116818e+01 -3.1906153906160034e+02 1.5504591572090285e+03 2.0266967677474022e+03 -1.3305012401106069e+01 -3.3710577133776951e+00 -3.0216355204582214e+02 1.1197650908578908e+01 1.2514374415739439e+01 -6.8589162609650884e+00 -1.3586152551816485e+02 4.3679024029173888e+01 -5.3539112482313067e+02 -4.2063395050656982e+02 -1.2020862134304480e+00 8.1227110113482922e+01 -1.4035946385411080e+00 3.7311028288931993e+01 -4.4187735825777054e+02 -1.7509068502001464e+03 -1.5612700880765915e+03 7.4750621052844508e+00 3.5939588713990815e+00 5.7710578195744893e+02 -8.6561066077874784e+00 8.2510208558524027e+00 5.7645896130197798e+00 -6.2913523961840838e+02 5.5629733579989988e+00 2.5162220008920704e+03 3.4253973864950240e+01 -5.4935744180061192e+00 -3.3400363982393174e+01 -8.9117562876926968e+00 1.6447395631286781e+01 2.2815478689293377e+02 2.4827887514419854e+03 5.9846790153533220e+03 8.8855148098009522e+00 -1.5594930219449452e+00 -3.9430717528983951e+02 -7.4679719475388993e+00 -1.9904193561291322e+01 1.8332565851160325e+00 -5.3994244028860703e+02 -4.7320328973117284e+01 6.4358191300439648e+02 8.7483644508756697e+01 -2.7476888941018842e+00 -7.3283839294454083e+00 -1.3179776754739578e+01 -3.4591723727382487e+01 -1.0133779727621004e+02 -3.4444452667692676e+03 -1.2104381083846092e+03 1.0879168803767243e+00 9.7681444445506713e+00 -1.7384338063746691e+02 -6.3465721045831742e+00 -5.9776694328247686e+01 9.3131532572601827e+00 -1.0240629104350228e+02 -3.3226403514592675e+01 4.2958106212092098e+03 3.7108044998720288e+01 -2.2384316176319089e+01 -6.7143757406796794e+01 1.3936116206132283e+01 -1.8680057422025129e+00 2.1204663213947788e+02 -1.5530387090826407e+03 1.4214297274947166e+03 1.2641457701523905e+01 3.8142260262293348e+00 -3.8252747933194041e+02 4.1180537153995829e+00 -2.8728417626116425e+01 3.2131063144443033e+00 1.8620645701745525e+02 -7.0704726470634341e+01 1.2449605004320620e+03 -5.4189114291220903e+00 -8.4316334018512862e-01 3.1233146371594557e+01 -3.6734127483941847e+00 9.3227848755195737e+00 5.5969962567411130e+01 -2.2433243116158992e+03 8.3376931717395782e+03 -4.0760132641298696e+00 -2.2363128917222639e+00 2.8713954679726157e+02 5.6746648069856747e+00 8.8795942448196001e+00 9.0772841664875159e-01 -1.7749026913288981e+02 6.5907612832863379e+01 -1.9654125477001071e+03 3.2933369455859065e+00 2.2521885762991587e+01 6.4099658849416301e+01 3.2885167954435019e+01 -3.0527563038340304e+00 -1.2311166934529319e+03 1.8349452104791999e+02 -1.1213890649557114e+04 -2.5323744918234297e+01 -1.5078371685003731e+00 -3.1473059493618784e+03 4.1273970966424713e+01 -2.2981950432731537e+01 -2.9957166670792503e+00 4.4857840399374254e+02 1.6529474425280932e+02 1.3503049603506923e+04 -2.6313344971076585e+03 2.4501805947907997e+01 -7.1364182418961718e+01 3.0772074287560258e+01 -2.7756091014482081e+01 -1.8978908302512718e+02 3.6370316346746404e+02 3.8994983264207840e+03 1.2637102721822885e+01 -1.1485127569449105e+00 1.7832399180857465e+02 -1.1293501860587639e+01 -1.8067742022569291e+01 8.1293328572262453e+00 -1.1421785947633907e+01 2.9518730033014435e+01 1.4251430759278592e+03 1.7147595403122250e+03 -8.4356008827217011e-01 -1.5180501322300461e+02 -1.4702223904161656e+01 -6.6779397577571217e+01 -2.7435873483773321e+00 3.0543395156506449e+03 1.7520511000454426e+03 1.0964892382362450e+00 4.5024076488771243e+00 1.1369908820837736e+02 7.2551635965319292e+00 3.4050774733041180e+00 4.4478011377620987e+00 -8.6001348850782961e+01 2.4763660869561136e+01 -2.8568731884798035e+02 3.4769946373067796e+01 8.2901405956363305e-02 -8.7456031567126047e+00 -8.5021366704459069e+00 -3.1344213416683488e+01 3.5685277401655912e+02 3.0844468689630739e+03 2.3066453986763954e+03 -3.6811790360043233e+00 -1.6616409113816530e+00 -1.7942802972998470e+02 8.1076534263775102e+00 -1.4096570657566190e+00 -4.9801304561660800e+00 3.5258328258339316e+02 3.5909448641352355e+01 -2.8170526359395590e+03 -1.3313332976885140e+03 9.0833738846304186e+00 1.6279595791012389e+02 -9.5018397513433229e+01 1.3319696646304510e+02 4.7382238005223917e+03 1.0067689456341323e+04 1.2958671393271536e+04 7.5648051617688907e+01 1.4269711838821422e+01 5.1741243492090143e+03 -9.5790001638729336e+01 -3.5553609787864843e+01 2.5134229079581871e+01 5.0250079574028496e+02 -5.9233769035698060e+01 -2.3398894232837483e+04 3.2016681497015525e+03 -8.7800259982519492e+01 1.9094517916844052e+02 1.1952953997533768e+00 -1.1381613591569476e+01 -2.3886456938181072e+02 -7.1121548567712307e+02 -3.7236019183397293e+03 -1.2052873706758191e+00 -1.8127968001608679e+00 6.2092285601422191e+01 -3.7031031116202939e-01 7.4616917544917669e+00 -2.7265123013901302e+00 6.3804839380085468e+01 2.3933584422513377e+01 -1.7686887610703707e+03 1.9383975439704955e+02 5.0892831721612311e+00 4.0105710187228397e+01 7.9586619493070643e+01 -4.9595453497084691e+01 -5.6339189077496994e+03 -4.1788616314415936e+04 1.4996169282879680e+04 -1.0318807588504023e+02 -1.0356495214032734e+01 -6.8203729668855667e+03 1.1818190633806367e+02 1.6677206531918273e+01 -2.6343393468692739e+01 -1.8981249480505998e+04 2.5530023942564003e+02 1.0438072334270859e+05 -8.9807289037618375e+03 1.0063255434023975e+02 -2.3627255826216697e+02 8.6289587359601683e-01 1.5624828229992661e+02 5.0350389373266374e+01 -6.7562285411489240e+04 -1.0295089110197319e+05 -1.3948588165511326e+00 5.4696570741361938e-01 -2.8883250734911417e+02 1.4387602339475052e+00 8.1359992121386426e-01 -1.5815179122928384e+00 -3.2192606561443114e+04 -2.9052036101764213e+02 -1.8994603757927293e+05 4.4855528467237464e+03 -2.1907900598467656e+00 6.5466740524489797e+00 8.4789406021034647e+03 
      </Row>
      <Row Index="218">
        -9.7860732850385830e+00 2.4911979096941650e+00 9.4954927414655685e+01 9.0778790760226548e+02 -2.6729618251323700e+03 3.5768645157804713e+00 1.7406568286960464e+00 -1.2455549401789904e+03 -2.5328410900256131e+00 1.2301366636529565e+01 -2.1499688684707507e-01 5.9606684066425078e+02 -1.6728570233471692e+02 -8.1759605474770069e+01 8.3262973998785019e+03 -8.8417082163505256e-01 5.2869526956230402e+01 4.8745214079972357e+00 3.2833923404221423e+01 5.4860057704150677e+01 -4.4341291774809361e+02 2.4289180126190186e+03 3.6839590384042822e+00 9.5579056756105274e-01 2.3162010900359601e+03 6.2436908039089758e+00 4.7800817862153053e+00 -1.5251447946939152e+00 9.9662880080495961e+02 1.2348830512911081e+02 3.0115217905899044e+02 2.1984381321817636e+03 -2.8644298439976410e+00 -3.0518367263488472e+01 1.4600879328791052e+00 -1.0781222906894982e+01 -2.8232324853911996e+02 5.3258592253923416e+02 -5.8915966129302979e+02 -2.0491819967282936e+00 1.9007237146142870e+00 2.4740501277446747e+03 9.0412994528887793e+00 -3.5369469706900418e+01 -3.0056060123024508e+00 4.3433252855017781e+02 1.7688493043929338e+02 3.6771797320619226e+02 1.7748893969208002e+03 -4.7330355858430266e+00 1.3821796544641256e+02 -6.1781771719688550e+00 -2.3343056235462427e+00 5.0523615367710590e+00 -5.4653873178362846e+02 -9.0291502437591553e+03 -1.9715826459025266e+01 1.6607689583906904e+00 -7.0593119442462921e+02 -1.0986167742463294e+01 -3.6789366287761368e+01 4.8818166587952874e+00 3.1609488542471081e+02 -1.3398474147438537e+02 2.2869968210533261e+02 1.2102785941064358e+03 -2.8182476917827444e+00 -4.6244264242704958e+00 4.4955800864845514e+00 1.5752575715072453e+01 -2.1944140608981252e+02 -2.1714519169926643e+02 -2.1056936250686646e+04 1.4992428856203333e-02 1.4116376060592302e+00 4.5836938159167767e+03 -5.0479940786026418e+00 -4.8970815034583211e+01 -3.0963772978575435e+00 -4.0438222175836563e+02 1.5052383778616786e+02 2.7757918896549381e+02 8.5860779773443937e+02 1.5101668261922896e-01 -1.2116293397847039e+02 2.8201975704869255e+00 -1.7852536050602794e+01 4.2144567315466702e+01 -1.4439208753407001e+02 4.5061021676063538e+03 9.8901592338224873e+00 -2.6314080506563187e-01 -3.9320605957321823e+02 -7.3083541321102530e-01 4.4080168008804321e-03 9.0483962809958030e-01 5.4463956616818905e+02 -5.6066619798250031e+01 -1.1004680263251066e+02 1.3035662677586079e+03 -1.1690360092907213e+00 -8.2094332948327065e+01 2.1653245897847228e+01 1.1113598272448871e+02 3.8870886201225221e+02 3.7464854040816426e+03 1.6736195907592773e+03 2.1406347940547857e+02 -2.3845982300699688e+00 -9.7580236279740930e+03 2.4189805286063347e+01 1.6018468536389992e+02 -2.3176248013449367e+01 6.2870458722859621e+02 -1.6019182639159262e+03 -1.0267694982886314e+03 6.9791196352005005e+04 -1.6047719725640491e+01 -4.0977452117251232e+01 -8.4327616293121537e+00 1.1583060720004141e+01 -3.9548209867533296e+02 -2.6977457506954670e+02 8.3233439626693726e+03 -2.1275484940386377e+01 -4.8823603762575658e+00 -7.0919629366695881e+02 4.0810830092814285e+00 -3.9268341584596783e+01 3.2219089534373779e+00 -1.5324492919631302e+02 1.4918387120589614e+02 7.1626651688292623e+02 -1.8358640946339816e+04 1.6125638372977846e+00 1.6236606899381150e+02 -1.4237710615969263e+01 -3.0616320042405277e+01 3.3068687077611685e+00 5.5893576758727431e+02 -1.6932663102149963e+03 -5.3706551482027862e+00 3.9172925781604135e+00 -5.3321400528252125e+03 -2.6343604916473851e-01 2.9639889330370352e+01 2.6796509747255186e+00 -1.2082808623462915e+02 -1.0543329901993275e+02 6.8897394835948944e+00 -6.4016209677606821e+03 -1.3530126041150652e+00 8.5867737700231373e+01 -3.7209995143348351e+00 -1.0954071704298258e+01 -1.9659132352098823e+02 1.0399798135012388e+03 2.0276052540779114e+04 -2.1393410329765175e+01 9.6730881500291410e+00 4.6039325266480446e+03 3.7777562738046981e+00 -2.2387511294335127e+01 -2.6424673184519634e+00 -1.4462793817371130e+03 1.7630729012563825e+02 1.5424062962457538e+02 4.1332397089451551e+03 4.0255155322956853e+00 -4.5243362617264211e+01 -7.0832944401743589e+01 -3.4136885129520670e+02 -2.6958661886919290e+03 -2.6428720183521509e+03 -5.5809897741675377e+03 -6.3870510350704717e+02 4.9455088751674339e+00 2.8281955328211188e+04 -3.8754244258598192e+01 -5.3519032096560113e+02 5.7494399684489281e+01 -3.5638035434503108e+03 2.8938521400585305e+03 5.3569240481480956e+03 -1.6897681789277866e+05 4.8805533587117679e+01 -1.0480406572413631e+02 2.9950624287594110e+00 8.7533352933824062e+00 -2.9747094653546810e+01 4.5920327425003052e+02 -9.2587010536193848e+03 3.4325936420267681e+01 -7.7872212810325436e-01 2.9723817701339722e+03 1.7903450283920392e+00 -8.8804105902090669e+00 -7.0345434926821326e-01 -2.6853343948721886e+02 2.3110242719063535e+01 -2.2599694085121155e+02 9.8534513056278229e+02 -2.1846989616897190e+00 -2.8945510569959879e+01 8.6419474819487931e+01 4.2495895392146485e+02 3.1752228934727609e+03 5.9595143926851451e+03 2.1199897143840790e+03 7.7961844991156249e+02 -6.8528787324522682e+00 -6.9602598690181971e+04 4.4714928895997261e+01 6.3572159005263529e+02 -6.8825961883077980e+01 3.0640498278970248e+04 -5.2169003057022346e+03 -8.9805791220841929e+03 3.9581549559699273e+05 -6.0092583413794927e+01 3.0657062565675005e+01 -1.0108101330843056e-02 4.1772215621224404e+00 7.3513719225651570e+00 8.9088632976955853e+02 4.5434758118596073e+02 -3.4904499163449756e+01 1.0409639004647033e+00 -6.4143617383417783e+04 -6.9411620337632485e-02 1.4579181910921761e+00 -6.0568748236983083e-01 4.4440221984141041e+04 1.9118423811293233e+03 5.8937888223907748e+03 -2.4883064506729649e+05 -3.0853123259479176e-01 -4.6788273864417596e+00 1.4293609973958365e+05 
      </Row>
      <Row Index="219">
        2.5630204662516576e-01 4.2162119835143130e-01 -5.0439290551184968e-01 4.3407210768873483e+00 5.6758046080358326e-01 4.4521793099789875e-02 -6.3750425746266659e-02 1.0085891538812575e+01 1.2378572491621753e-01 -6.1019662573471578e-02 -1.2579437417895534e-01 -2.2300093705587187e-01 1.3719754200064926e-01 1.1412475034772797e+01 7.4702403858864272e+00 -1.4051304954572004e+00 -1.8260715518920279e-01 -3.0936495062650238e-01 -2.6067244467108708e-01 -2.8911337233821541e+00 1.4699276260580518e-01 -2.8741635797545314e+01 1.7525895973719230e-02 -9.2849431713339925e-02 -2.6580459367223739e+00 -1.9919494369894153e-01 3.4313526892310620e-01 -1.7274040200128837e-01 -3.4503053707854860e+00 -4.6026475868302441e-02 -1.7835342330922032e+01 3.6296049732845859e-01 1.3637561930387569e+00 -3.1071724350363183e-01 1.8691929474641711e-02 3.0669556843167811e-01 2.0153795847481888e+00 1.1551832776865922e+01 2.8236957053013612e+01 -1.6344658582045213e-01 -3.7016619934902906e-02 6.5200953575549647e-01 6.0708592276000672e-02 -9.5788607546023741e-01 4.5038789739135510e-01 -1.0362535238709825e+00 -5.2143018479910097e-02 9.1481895060596798e+00 -1.6206646390517562e+01 -2.5053730529459131e+00 -1.6281601541327291e+00 8.3549012233959274e-02 3.5343536020718602e-01 -2.3104210871615578e+00 -5.8673127252768609e+00 -1.5637226408114657e+01 1.3561034962904728e-01 -2.1249459285805017e-02 1.1021456322894664e+01 -7.4658366337075677e-02 8.9168455898285970e-01 2.1944222703916694e-01 -1.3967883027080461e+00 2.2977586278304329e-01 -1.7761677413947837e+01 7.0740974614382139e+00 -1.2024354050761765e-01 -7.6182803572379498e-01 -2.2629036554334903e-01 -7.6225509203368347e-02 1.5307284694890768e+00 -2.5393698210646107e+00 -2.9336076618637890e+00 3.1196875982729466e-02 -6.0077078366005843e-02 -4.9880792712792754e+00 1.0774448951764271e-01 1.1532212219526627e-01 -2.9082764666503635e-01 -1.8366207816834503e+00 1.9416854747305479e-02 -9.3741294567126374e+00 -9.6061945781366376e+00 4.4624002992225087e-01 7.0433046063574167e-01 -8.6992959043342921e-02 4.0902293086674035e-02 1.0425915802163672e+00 -1.0877848628559150e+01 -3.9899393915198743e+01 -4.0348305082233082e-02 -1.1826199938276716e-02 1.0679675405569014e+01 -9.0821519666434369e-02 1.6659786868535775e-01 -1.1076551900982778e-02 5.0560502495500259e-03 -3.5918697886106798e-02 -2.4981356476682777e+00 1.3516379176744522e+01 4.4373849168620723e+00 1.7501786890261428e+00 3.7474654470464230e+00 6.3811932895504242e-01 4.5824802772885960e+00 1.7502549841688960e+01 3.5814154308754951e+00 -4.7913347290335651e-01 -5.5750846748569671e-01 -3.7016075981364338e-01 -4.6884622546394183e-01 3.8175188534976314e+00 2.5541916172682591e+00 1.4043593401230282e+01 -1.9704552575785783e-01 1.1001025957354614e+01 -3.6288220856120461e+01 9.1163496536086086e+00 -2.1608857323178086e+00 -7.5121742659398638e-03 -5.4247936917590778e-01 -3.6168858719136097e+00 6.9985405890229231e+00 -9.9351591311860830e+00 3.3722573602332773e-02 -1.1778922870718134e-02 -1.1800223204434587e+01 -1.6258910618132916e-01 -2.4606091471935088e-01 -1.4720911771333434e-01 -1.4701245062926773e+00 -3.9118736754357997e-01 -1.7331522393786145e+01 1.4816636750217185e+01 -8.0659928753885346e-01 -1.6411570742209172e+00 -5.0317447140935201e-01 -3.7040283032195020e-01 -1.3623833756896602e+00 1.6954502461164338e+01 -1.2360558832297102e+01 -6.8390759847602567e-02 1.4505081575396872e-01 -1.0988044526820886e+01 2.1273124383061770e-01 -5.3806401354717082e-01 2.0604271266745311e-01 4.7317485155508621e-01 3.4111423074637059e-01 8.6370271789619437e+00 3.4006205743135069e+00 -2.6218019902296419e-01 -1.7559687402188047e+00 4.3764364529863542e-03 -2.7869898235212531e-01 -7.0493828231110456e-01 -1.0729937099476956e+00 7.9469752905424684e+00 2.1369593915238738e-02 7.4038512065238926e-02 1.8671516276946932e+01 2.5725593052689533e-01 -8.0938142135255475e-01 -6.2281209708291385e-01 -2.0616701368962822e+00 -6.6595619453892141e-02 8.2902551373608731e+00 -1.4813149665278615e+00 8.3057837119442013e-01 2.1179893217818790e+00 -1.1970672822848687e+01 -2.0103162632174190e+00 -2.4877889379007456e+01 2.0175670516035098e+01 -9.2274862365302397e+00 2.0321849027145831e+00 1.0780649694458893e+00 2.2517055780535884e+01 2.2461206929197637e+00 -1.0862338058664875e+01 -9.5945596503564641e+00 -2.8414046140489972e+01 3.4233320416234818e+00 -4.7902175199558769e+01 2.5403115498112129e+01 -2.4051926206450844e+01 1.0862927347883101e+01 -4.1360664410899517e-01 -5.1656061027642863e-03 2.6935697766057274e+00 -6.1957533824024722e+00 2.0796560377813876e+01 -3.2835904143817185e-01 9.5360187524491380e-03 5.9647753148783522e+00 5.4340024298937806e-02 -5.7412104666786945e-01 1.3716850050112717e-01 2.4523742432793370e+00 -1.5917822113817692e-01 1.5707989700356848e+01 -3.6248350690730149e+00 -6.4940346167555774e-01 -3.3520971612591666e-01 1.4114914095246801e+01 3.0705828114347522e+00 2.9222222574363514e+01 1.0724441809434211e+00 4.2800600890332134e+00 -2.2424628473969008e+00 -1.5661022804984110e+00 -7.5639865117591398e+00 -2.7129126213901849e+00 1.4452810393707043e+01 1.1193206513607063e+01 1.5823544058444028e+01 -1.4266892256366646e+00 1.0063253613573886e+02 -6.0092643882216635e+01 3.4007987279272406e+01 -1.1951611361520911e+01 2.8357247360784044e-02 2.8769030726011247e-01 3.3293865583197513e-01 7.2002043563261768e+00 -2.1819138031712455e+01 2.6038457131091053e-01 4.1818322571900879e-02 4.2649668193759396e+01 1.6674882536738878e-02 -3.3698043853043480e-03 -9.2058470435805617e-02 -3.8762724893784664e+01 -2.3386606646580805e+00 -7.8429048316928146e+01 -1.4418791833890154e+01 -6.8655939050756620e-01 4.7301842017145268e-02 3.4132578620553168e+01 
      </Row>
      <Row Index="220">
        1.1982852874418626e+00 -5.1085814054525258e+00 4.5422893614131681e+00 -6.0433353891997058e+01 -4.5932718927800306e+02 -1.3591908461419422e-01 3.1948656990585733e-01 -1.2439646244576579e+02 -3.9847044085060546e-01 -3.3190098252869120e+00 -9.6101585987796057e-02 -1.1018888733259672e+01 -2.7646874453055261e+00 -3.0756561730045178e+01 -5.5392962055831504e+01 3.4279702745464391e-01 1.9398282987820096e+01 -5.1864880433690530e+00 -1.2602789021029679e+00 4.6261574181089600e+00 1.2146340440045606e+01 1.5111781686870381e+02 3.1434252178155475e-01 -1.9211440528158619e-01 1.5336539862267614e+01 1.5840605911058780e-01 4.2565997416338632e+00 4.8673771638586771e-02 2.8486856135549402e+01 1.4442735779169311e+00 -1.3250507816549458e+01 3.7883004397586774e+01 -1.5438155725175218e-01 1.8103420727113530e+01 7.7279564799763989e-01 -4.0129899583378119e+00 1.2997700641084066e+01 -2.7263562134635140e+02 -5.2965615822758991e+00 4.1230931277920035e-01 2.2285012143890270e-01 -9.8914273486232560e+01 1.8334465216328510e-01 7.5662633803783592e+00 -5.2522850096453411e-02 5.2049940867032547e+01 -3.4433956938180472e+00 -3.5305500833697806e+01 -1.0163192197921489e+02 1.0217698438231650e+00 -5.7369778284254153e+01 -3.1556503169511956e+00 3.7218775606563952e+00 6.8376818887186346e+00 3.0677200616224945e+02 2.4441775023436639e+02 -2.7223199263884013e-01 -2.0342249145518743e-01 -1.3222632643167162e+02 9.9940746862326080e-01 -1.5318209394951765e+00 -4.9421229768801656e-01 1.2091008716375313e+01 -3.7480847646333473e+00 -1.0234737367676189e+01 -1.4745171767637657e+01 -1.9208900710730736e-01 4.1924215754135076e+01 -9.1046920423461586e-01 -8.5608781776215892e-02 -7.9194151795463767e+00 1.4784277553723769e+02 -8.0008692763047293e+01 2.3536054928655759e-01 5.9392774429286188e-01 -1.2792906195591058e+00 -4.2453535462053082e-01 -5.1499940808878364e+00 -2.8510680761432994e-01 -9.8868851110128162e+00 1.5334562310567890e+00 -2.6485293150142439e+00 4.7564487153866139e+01 8.7700735803821317e-02 1.3897070407397807e+01 6.1008918825592673e-01 -4.6557096987135083e-01 -1.4488818143322533e+00 2.4589106187556536e+02 4.8673928808968049e+02 6.6712966204420354e-02 2.9916158822604721e-01 -8.2517361398226058e+01 2.6893126023132652e-01 -2.3108613595957195e+00 8.2276663600770128e-02 1.9005848233009601e+00 1.1869192798136119e+00 5.7129679510787355e+01 9.4173898209883191e+00 -1.3442583819038134e+00 4.9505900657317625e+01 -3.4086334903383104e+00 3.8757642182634697e+00 7.9773470049101434e+00 -1.2690869504544289e+03 1.7992460603336804e+02 2.3134907334812809e+00 -1.2059710931888091e+01 2.4983170824590690e+02 -2.3130753836088207e+00 -6.3365931490680907e+01 5.9852075296548719e+00 -1.6022717071036413e+02 3.9691897967618388e+01 -1.6825125222821043e+01 -1.0931295504943955e+02 -2.3744504971958023e+00 3.0688349779365785e+02 2.6676737388017293e+00 9.6996239171733123e-01 -5.2882569217395030e+00 6.4733254894873767e+01 2.6642037923634052e+02 5.1510587307929256e-01 1.6231573625524369e+00 2.4953599252275399e+02 -6.7633248603356932e-01 -2.5253328538456685e+00 -6.9346656791211592e-01 2.4638584111024556e+01 6.9598676542295834e-01 -9.1443376422635083e+00 -3.7616621141385622e+01 2.6042624284247928e-01 -8.7828616363401594e+01 -3.6999887876098967e+00 2.9972388451673737e+00 8.7670617521173426e+00 -3.0138960919557121e+02 6.7383769607928116e+01 -4.7770251571672162e-01 -1.8540982262747994e+00 3.7769687689531565e+01 -1.2831294744705062e+00 2.4844568348711960e+00 5.4851695184159066e-01 4.2842651434182244e+01 -1.0452909252121572e+00 -3.2659525589824625e+00 2.6407224437658442e+01 -1.3662967041557295e-01 -6.7531572469035211e+01 2.6095894065636429e+00 2.4965520154539718e+00 1.0192221554433445e+01 -6.4155069803807237e+01 1.5643558707239572e+02 -7.9472083595127430e-01 -5.8840491766041136e-01 -1.4198756980181315e+02 -2.8101273318917208e-02 3.3592564279033468e+00 -3.4608425360149653e-01 -1.8917616579736205e+01 -4.5630005267723845e+00 2.0351026202373760e+01 8.1870846511848868e+01 -1.1230065508119225e+00 -1.9636227751820137e+01 -3.1454702028002508e+00 -5.4400840751524441e+01 8.4874405147701623e+01 1.9626040970178483e+03 -5.6433450410746445e+01 -1.0255799555651327e+01 3.8619631592991958e+01 -1.6435541913644738e+02 -3.4082339814093157e+00 2.0257002417357046e+02 -1.9481628780376326e+01 2.2538162762794377e+02 -1.6819522211268381e+02 -1.5163128549627345e+01 -1.1799302844666590e+02 9.6914973794422394e+00 -1.0840911142208454e+03 -3.0434519094043253e+00 2.6268948590275158e+00 -5.7437073025630525e+00 1.0336666715580213e+02 -3.7921305278199725e+01 6.1447885337690056e-01 1.7924517480167879e-01 -5.0866817091267876e+01 3.8997367483939627e-01 -3.8915154498110951e+00 -2.7618735847884679e-01 -3.2132482729255571e+01 1.8396313194841127e+00 2.1684030475458712e+01 5.0854720632996759e+00 6.6730889247289404e-01 2.4823158369547457e+01 -4.5652206204387706e+00 4.3978014653141706e+01 -7.9020521982481569e+01 -2.7278609776314179e+03 -1.1243688440968253e+02 1.1427465512666448e+01 -4.5579976540991709e+01 1.1807946122654175e+02 3.0831007880365924e+00 -2.4459855836198486e+02 2.2833929886674113e+01 -3.4317004364228393e+02 1.8988715925950385e+02 -2.3627278258687522e+02 3.0658171845800751e+01 -1.1951611298182495e+01 1.3556489923689614e+03 3.0157643752631369e-01 -2.8954636902184141e+01 -6.3256869621122647e-02 5.8376791158453989e+02 -4.9230136237389735e+02 -6.6979016943874070e-01 -4.3331122314570081e-01 -5.0658120295961345e+02 -1.4479302453394638e-01 2.2001349602121678e-01 -4.7868805786814406e-02 8.8984567298783105e+01 -1.0628907918019664e+01 7.0092810754508912e+02 1.1147052258421752e+01 2.0668159384541562e-01 2.1633624835266536e+00 -1.6248307648131568e+01 
      </Row>
      <Row Index="221">
        2.9289537438160318e-02 2.4183367511399823e-02 1.1534161701437995e-01 4.9216181609346066e-01 -8.2277363397224690e-01 -1.0287437668559662e-02 4.7988552884513109e-03 4.7457978924015265e-02 4.6442718027954188e-03 -2.0633123198969372e-02 -4.0394784378028348e-03 2.9477313368838121e-01 -2.4505376584155414e-02 -6.8861582885190842e-02 8.6721532569011828e-02 -1.6562310578177697e-02 6.0521193406688489e-02 -2.8625016777855938e-01 1.0755048286107849e-02 2.3129808093498383e-01 -8.4774083940004630e-03 -1.5757370878418442e-01 1.2497929094105298e-02 -1.2045452572561705e-02 -2.0913626948583364e-01 -1.4890620691135836e-02 6.5441995875012537e-02 -4.2107270638849781e-03 2.2941601430164216e-01 3.5807154408151298e-02 -2.7359869204666376e-02 4.1161643658907110e-01 3.3371535291104815e-02 -1.4839613113377226e-02 2.1850731607474749e-02 -5.0553967637281261e-03 -1.2937000056881587e-01 1.9268275851595718e-01 1.0119844202690729e+00 1.7479463948741669e-02 2.8127237061117416e-03 -2.1388307337997503e-01 -6.7454194839289272e-04 -7.2230593231807916e-03 3.9303499316994395e-03 1.8484092704564858e-01 3.8588086461366800e-02 -1.0277013869227858e-02 -2.4839182119211500e-01 -1.5857903553210040e-02 -1.5238521848690567e-01 -1.7687146209376525e-01 -1.3143741149459043e-02 5.5296914398660135e-02 -2.3881075863769752e-01 -1.5773781590578437e+00 -1.7825405218287460e-02 -1.4697071575085333e-02 8.1157494584658707e-02 -2.2523404575994554e-02 -7.6886459864478507e-02 2.4988183681948217e-05 -6.0695710034206485e-03 -2.6164859548611918e-03 2.3575842413873005e-01 1.4355087133907318e-01 5.2654129419728093e-03 7.6118971593317042e-02 -4.9275306865872226e-02 -1.2318220787966183e-02 -9.5021269030119981e-02 1.0662892117153433e-01 1.8608306097121385e-01 8.7387123641062825e-03 2.6337695882462167e-03 5.5783988203302215e-02 -1.1376280866892685e-05 -1.0080058360516020e-01 -4.0298057389395736e-03 -9.6100705020390365e-02 3.7121151873812153e-02 1.0481611990821071e-01 -3.4791466948202299e-01 9.7429043593779685e-03 7.6443753307263856e-02 2.8178452166968793e-02 6.5221323173325629e-03 -5.8111207843301926e-02 -1.4166826881805150e-01 6.3147627226317127e-01 -1.6083396893245006e-03 2.1953396485082100e-03 -3.6784793157828233e-02 1.2159306220093091e-03 -5.0667399863243645e-02 7.6923566579599478e-04 1.7569966867851861e-01 -3.4443489750475065e-02 -1.5708082754234454e-01 1.1415983940071328e-01 3.4637827081859029e-02 1.5447845753359957e-01 -1.3497013792820867e-01 3.2218764449011061e-02 5.2236846826115624e-02 4.0184991025977013e-01 -4.2696700600572512e-02 -2.0976351492594414e-02 -1.1746875127799900e-02 -7.3971642264649695e-02 -9.4251238948716565e-03 1.4992995834152545e-01 -2.8391839604543501e-03 1.6681082648887013e-01 1.5579167964997254e-02 3.5714187710696876e-01 -7.5629519154091440e-02 9.2310307659023705e-03 -8.6423018506514682e-02 2.1163210449758948e-01 -5.4548910894465230e-02 -1.6696089089733412e-01 1.0793977085349571e-01 1.2720281679885375e+00 2.2721341906553061e-02 9.4555335680311658e-03 2.5397235335177015e-02 -2.7503171974374574e-04 -2.4898858849054006e-01 2.4275816474040590e-03 -3.1436622059930031e-02 -3.3876497807952433e-02 -1.2463018392351444e-01 9.0003473707535164e-01 2.8423829224827474e-03 -2.5783304504445836e-01 -2.6148263642138403e-01 -3.6782531818962738e-02 1.8927940768686469e-01 5.1965939479187995e-01 1.0232947255644831e+00 -5.4038635429485837e-03 -2.1616964142470566e-02 -2.9102471973931188e-01 -5.0054134555084229e-03 1.6957251634391102e-01 7.9233294227519166e-03 -7.7702965082124820e-03 3.4312578202218447e-02 1.7029573401121922e-01 3.4840223308736995e-01 3.8626392548419819e-03 -3.1880052150286176e-01 5.8225929893307438e-02 -7.9085514150243341e-03 -3.7328875787096649e-02 -3.3811516623883620e-01 -6.3384032944850333e-01 1.8009064525877916e-03 -2.2232919261542528e-03 -3.2805370164624037e-02 8.0007271539571656e-03 9.4764341102822058e-02 -5.6253341681840041e-03 -2.3406248859134848e-01 -2.0196927208488091e-02 1.4961990113031476e-01 -8.6508291200601661e-01 -8.2681868359152366e-03 1.0822864113619596e-01 -2.0665429869938515e-01 -3.7954806449524980e-04 -1.3158914661117294e-01 1.1073372309028855e+00 2.0817084535406138e-01 -3.8675191394732772e-02 -1.1891018523115894e-02 -3.1258368853812613e-02 -3.4294577858216491e-02 -6.4452848679120933e-02 -1.3384636492922139e-02 -9.1778530475461295e-01 -6.7418451707113247e-02 -2.7941781627327344e-01 -5.5659140987886957e-01 2.0451422943204012e-02 -1.3962810433387696e-01 -1.9004593999080344e-01 1.0626634898507348e-03 2.1171553958188838e-01 2.4522011658632437e-01 3.4277029819713789e-01 1.4287072712151780e-02 -9.6288067719980941e-03 -9.6917437202321821e-02 -1.7443499624447689e-02 -6.4485379176330682e-02 -3.9105030053344335e-03 -5.1110447936764558e-02 -1.9094110820745414e-02 4.9983350762204282e-02 1.9271375736076379e-01 9.9190824364498997e-03 3.0232365122720317e-02 -1.7701816195958520e-01 9.7455116588457277e-02 3.6087913937353377e-01 1.2215949730749642e-01 2.1311301784589887e-01 1.8127667541974479e-03 -8.3272759635013849e-03 7.9273227756507936e-01 6.5509580435944986e-03 1.0903084698582570e-01 6.9403807940318640e-03 9.6749568427336818e-01 -6.9388833434896879e-04 8.6289398945178331e-01 -1.0107147354911916e-02 2.8357246843978001e-02 3.0157644909139503e-01 1.7114509078447179e-02 9.3245704732925982e-02 -2.4715762534657747e-02 1.2307366434264346e+00 -2.3015776795996574e+00 -1.9942084223080560e-02 -5.2567667971744197e-03 1.3843329287720589e+00 7.5502965691803814e-04 5.9596722640585624e-03 -1.9505090672324588e-03 4.8165422651640144e-02 2.0718993501736191e-01 -1.8451361564006734e+00 1.9279008994992797e-01 -7.9250283130163721e-03 1.0645373507094002e-02 2.4006343485672613e-01 
      </Row>
      <Row Index="222">
        -1.8692103068632520e+00 6.1943169490055595e+01 1.3290218289739641e+00 9.5563954556314457e+00 -4.5482142167369602e+01 -4.2260672573966218e-01 -2.9833700174804645e-01 -1.8139875368640787e+01 2.4836078183524002e-01 -1.7516663307900444e+00 3.2322682332327446e-01 1.8676969569208367e+01 -7.4558616962362976e+00 3.4652265693339359e+00 -2.6046403791922330e+01 -8.1874009847217621e-01 -8.0197926515936047e+00 -1.8755405793235127e+00 1.3843387144056337e+01 -1.4132589638129957e+01 1.9091433800992490e+01 -8.2001619124086574e+01 -1.1561757460658129e-01 -5.4762112719838996e-02 2.3900722181929268e+00 -2.7036177211730994e-01 -7.6137122831414672e-01 5.7392900590695461e-02 6.0695735480796856e+01 -2.4936060137992513e+00 3.2507739394475706e+01 -1.7183914946310324e+01 5.3913064563180235e-01 2.6711230090661076e+00 -9.9597736357941358e-01 -6.0707726557510000e+00 -2.9655165155966188e+00 -7.3794633300349233e+01 -4.8585435805129237e+02 6.9928749027653225e-02 2.5159523638296122e-01 -3.1774727776704822e+01 -8.7038731554478943e-01 -1.7422969065491998e+00 1.0249633471866737e-01 4.1467218904638685e+01 -3.2103664855640091e-01 -2.2409909420971417e+00 -1.0282107857139090e+02 -1.0086495512517786e+00 -5.8206238048196610e+00 8.7362442906909621e-01 -7.4363360838454213e+01 -7.0924793142764884e+00 1.2992785037538852e+01 -6.9502879085717723e+01 6.0801617918013129e-01 1.8269266232278270e-01 -2.5366528874656069e+00 -1.4871198607138325e-01 -1.5926910489806403e+00 -1.5025901260826835e-01 4.9710828310400075e+00 9.5931572114176191e+00 1.7985646921879379e+00 1.8035140241328918e+01 -1.1693041138452376e-01 1.6996121582300106e+01 8.2590174034930897e-01 -2.1141916189948120e+01 -5.8125274280619124e+00 2.2829826728448097e+00 -2.3197131988976616e+02 5.6938048785090345e-01 2.7603541004829824e-01 9.8771464693927555e+00 1.4726560708655114e+00 -5.6991575448137155e-02 7.8571474180218814e-02 -3.7542354659308330e-02 6.5302916040227501e+00 -7.0708192556521823e+00 5.1826140579045386e+01 1.0893676670871599e-01 9.8984545050601778e+00 1.3687736667142971e+00 1.1888735252387505e+01 5.3885046165396489e+00 5.0671850715983965e+01 -1.8264549265836831e+02 -5.5948514012811756e-02 -3.5560495310725315e-01 -1.5385703146787364e+01 5.0296199605290326e-01 1.9165123630726839e+00 -2.5442960398279890e-01 8.9254572077979901e+00 -1.9062010611078808e+00 -4.9020613238337774e+00 -3.1032740016351454e+01 1.7341254531246335e+00 7.5524755816067000e+00 -2.7248062780557163e+00 6.1397663125380099e+01 -1.1817703625774129e+01 8.6038592034449721e+01 -2.4862717602460179e+02 -8.2579712919078219e-01 -4.1135341859640917e-01 -6.9012221403265926e+01 -1.6183373281468327e-01 -5.8414501855503431e-01 2.1844076428794779e-01 -1.9938847996488676e+01 -2.0715629920100810e+01 2.5351850065655071e+01 -5.1023996884165172e+01 1.3102669519528121e-01 -2.2880737333694995e+01 3.3178336051408017e+00 -5.1125971162872474e+01 -1.0103705378938002e+01 -4.9795822617140686e+01 -7.3985976419644430e+01 6.7115394712988774e-01 2.6216898939309718e-01 5.7196313274135719e+01 3.8559541682300846e-01 -1.5103459717105068e+00 9.2091784851923819e-02 3.8236847561055129e+01 -1.7218982003234828e+01 -6.9268094457952429e+00 -1.0661225287978755e+02 -3.4223430951463385e-01 9.6479152616788308e+00 1.2934402251426604e+00 -4.9671167820182177e+01 5.5385077901971727e+00 -9.2097277293717525e+01 -5.5621187821787316e+01 6.9318240310441936e-01 3.9176587617667824e-01 3.2849920871136419e+01 9.5817260976908614e-01 -4.3827493679966665e+00 4.3081477742573426e-02 2.4753965554757087e+01 -6.7530532036491877e+00 -3.0304775322690148e+01 1.4560238678343012e+01 7.2182478990745835e-01 1.1781756072580322e+01 2.2835022753988525e+00 -2.6726797548803688e+01 1.2488434836332203e+01 -2.0101058791489777e+01 -8.5941582373052370e+01 3.0994880083014209e-01 -9.1154920151154784e-02 -5.1880828292267324e+01 1.6414994517149850e-01 1.1013448758967570e-01 -2.7038632875543556e-01 -2.8201021689752451e+01 -6.7604031840173775e+00 -4.3784463718974166e+01 -1.3550725616416457e+01 1.1169913823947368e+00 7.1656145774697633e+00 -2.3542536541109875e+00 7.4178688223489928e+01 4.0866711723914250e+01 -1.0340667982472905e+02 3.6359550426202986e+02 -1.3623920581907383e+00 -5.1363026824634028e-01 2.2849310729024182e+01 -2.4188692106125309e-01 -4.3995923799216712e+00 4.0451450097714314e-01 -3.0494030771492362e+00 6.8057140733016226e+00 -1.8852725222422805e+01 -1.9097345323484205e+01 7.7281695182364984e-01 -1.6961691494588678e+00 -5.3464786731042580e-01 -6.5519402382824410e+00 2.3925146875799328e+00 1.2148795080502168e+01 1.3892113090842031e+02 -1.3849169402508199e-01 1.1537707091503613e-01 -1.6289776505883765e+01 1.7794172841698241e-01 2.9622922318013138e+00 -3.3715156440123017e-02 -1.6133383582167880e+01 -2.2589428127810152e+00 7.7449937527053407e+00 -5.8114073008287960e+01 3.8355177394066686e-02 1.0076108616720703e+01 -3.9839856392467237e+00 1.2495201637115828e+02 -4.7702584759376350e+01 2.0618857296852593e+02 3.1534328138770070e+02 -3.6785613990016586e-01 -4.4983828598178377e-01 -6.4979663451684246e+01 -1.0221938020293351e+00 7.3828357494987698e+00 -2.1421335436225597e-01 -4.5604857573314717e+01 -3.3429106279723868e+00 1.5624814117824269e+02 4.1768183945067676e+00 2.8769018783227551e-01 -2.8954636104414757e+01 9.3245705161837833e-02 3.5377604538408946e+02 5.4046882360101378e-01 -1.0027372743103598e+01 1.6116461605221986e+02 -9.4338991781079073e-02 -3.8202801485068605e-02 3.3091078123534864e+01 1.8322373524909885e-01 -2.0295268764098040e-02 1.4849278989418124e-02 4.7325441907894543e+00 1.2817237140414667e+01 -2.0565014278512365e+02 2.5599213008303153e+01 -2.6802972095364358e-01 5.5456819253722500e-01 -1.3448805678974512e+01 
      </Row>
      <Row Index="223">
        3.3444197613562210e-02 8.3734362411632901e-02 -5.2505273023654809e+01 9.6158790080935432e+00 -2.9654261796677019e+01 2.9554743356823110e-01 -6.8944139144371031e-02 -3.5921134118802001e+01 -5.6592604642403899e-02 -4.0069213224978739e-01 2.6687052614761342e-02 -4.2745944271105714e+00 6.8904638769072335e-01 -2.0010162668088014e+01 -8.6409226370233227e-01 2.0228957638943257e-01 -7.7471668987527664e-04 -2.8722283299509854e-01 -5.1519965539557688e-01 -9.2044389948584467e+01 -1.1165493418666301e+00 -2.3145387229789048e+02 -1.4605838624237606e+00 -7.5362261063162350e-02 4.8163955185212671e+01 8.2314285958027256e-02 -4.3130493226271938e-02 -1.2302414359440661e-01 -7.2530751304124124e+00 -8.4338157119464086e-01 3.7826818850800237e-01 1.1536829839150596e+02 1.3363709609081909e-01 -9.8445097028917417e-01 -1.2170355145389067e-01 8.0537991145320120e-02 6.6797462665787862e+01 1.4745148540096125e+01 1.3799112091714051e+02 -5.7000311292080141e-01 -2.7090258401671008e-02 -3.6910560001473641e+01 -5.0134864503093013e-02 6.2667611437882442e-01 2.2179888737930753e-02 9.2361463294582791e+00 -5.0386897090311322e-01 1.0737001500653605e+01 2.2179303371118294e+01 -1.6337337725303769e-01 1.5425111446711526e-01 1.2569889897280291e+00 -1.9644572139413867e+00 -2.5332740640422344e+01 -9.8990492011653259e+00 -5.7679999991785735e+01 1.1654884323719301e+00 -3.6337019514800062e-02 -2.6617040747398278e+01 1.4283725275021197e-02 1.2388984230369715e-02 -1.1325801654798795e-01 5.2440952417191511e-01 -2.2114731807694170e+00 3.8808592322038749e+00 -1.0853759595265728e+01 2.9445007059538675e-01 3.0473972030279128e-02 1.1480831306664641e-01 -1.2137614087077964e-01 3.7398143879365307e+01 -3.6955347790208180e+00 1.3107294247671962e+02 -2.2863665948605671e-02 4.0731634550290607e-03 -1.9130851617752342e+01 -1.1036857529308008e-01 -3.1328158010592233e-01 1.1171304688062378e-01 2.8568905586798792e+00 -2.1688470275785221e+00 1.6688276399383881e+01 1.0559451385115608e+01 -7.8787634035933252e-02 6.1552577395474373e-01 1.5665639882925575e-01 6.5701184005774849e-02 3.5175116018207746e+01 -5.4330959647304553e+00 1.2472373864054680e+02 2.6577564122806052e-01 2.0253857833154143e-02 -2.9544034121824552e+01 1.1296288789708342e-02 -2.3799741183415790e-01 -6.8961969455820338e-02 4.5107222709339112e+00 1.3297121564887107e+00 -1.4395821147757488e+01 -3.5426227958349045e+01 -1.1590199060410100e-01 8.2460314809441115e-01 1.3472209896887932e+00 1.4682676038083571e+00 9.0817172696613852e+01 3.1056080698479491e+01 3.3634983097203076e+01 1.9910393499488777e+00 1.1481968997967584e-01 -3.6278609662593453e+01 -2.5131666282563003e-01 1.4609448832970884e-01 1.5134331142907342e-01 3.5883388154361455e+00 2.4793544948661292e+00 5.4939859921945754e+01 -3.5420958897313540e+01 1.0313348494833008e-02 4.9017058787626411e-01 -2.9118925422467590e-01 -2.3805737465909260e-01 3.8505527886800337e+00 5.9528360633817101e+00 -8.4745943730231375e+01 -4.7482151068265921e-02 -7.6743423203131655e-02 6.3597133077615581e+01 -2.6534473922573909e-02 -3.5175861551851995e-01 -9.5546761973945848e-02 -2.2814975854089425e+00 2.4946796400245148e+00 2.2428743235650472e-01 -4.4288051403364079e+00 -1.4051560080689640e-02 -1.3412091428832866e+00 6.2115035278523578e-01 -7.8291716599937899e-01 -1.2580719355936708e+01 7.8855683243909880e+00 -7.8545621051918715e+01 -2.9708906061337359e-01 2.9609598912749391e-02 1.2190770053821325e+01 -3.7989873320526613e-02 5.7263921508672411e-01 -1.2615207918561389e-01 1.0918044805184763e+00 2.1731929208817746e-01 8.4260880368674407e-02 3.1115658738563070e+01 -5.9141866834920620e-02 2.6820275636123370e-01 -8.5205905983357866e-01 2.3330397964127769e-01 -2.1371243116128426e+01 3.4961129359980987e+00 -2.6180334098404273e+01 -9.5091000763304123e-01 1.8131448745834433e-01 -4.7086660043933080e+00 1.6206786336523749e-01 4.6082300751777439e-01 6.0287683695605665e-03 9.3348408631063648e+00 1.4194687495692051e+00 -1.7687629857118736e+01 1.5505982635055261e+01 -9.7807588258120859e-02 1.0922926751749227e+00 2.3100092479982948e+00 -5.9484211312792468e-02 3.8313430903969447e+01 2.8431352941188379e+01 -4.8156448098510737e+01 2.8816054636597279e+00 -1.6507405289180710e-02 2.3201002113250070e+01 -6.9622639499336003e-02 -7.7706137350475046e-01 2.7694276854242617e-01 -8.6154646165150552e+00 -6.0991210553907962e+00 -4.6342511829807336e+00 7.5093615646746912e+01 -3.3098761252659870e-02 -5.6644815026402284e-02 -4.1353066768607505e-01 2.4118562537205435e-01 -1.9914886147744255e+01 -3.9650516358087771e+00 -1.3908369076903909e+01 -1.7516688836891445e+00 4.0070316172631237e-03 -1.2789811461047066e+01 4.5915344057618768e-02 -1.7959751313446759e-01 -6.6553032074931906e-03 -1.9687251930299681e+00 1.1738034732460392e+00 -1.2461224020516966e+00 1.9554905040386075e+01 -6.7551125554338398e-02 4.4855941480807360e-01 -2.5999239915412176e-01 -2.4154148582644908e-01 -1.8639738316566763e+01 -1.2878272354319961e+01 -7.7292060484032845e+01 -8.7677542449662837e-01 -2.7213717649786417e-02 -7.6269499089299643e+01 -6.0838347947241189e-02 -1.0678919812683318e-02 -2.6131668582121392e-01 -6.2416157154676881e+00 8.4418940673411385e+00 5.0350420432158103e+01 7.3512838474828186e+00 3.3293869251691888e-01 -6.3256877179028947e-02 -2.4715761596568520e-02 5.4046894851871863e-01 1.7138684549263033e+01 -3.3131165297220463e+01 -5.2578270574795070e+01 2.2815277751245637e+00 3.8913603259182139e-02 -1.1001339034796484e+02 -1.0462218774385690e-02 1.9082098045490881e-02 3.2894775155604350e-02 -4.3539414640824532e+00 -1.1434856110770884e+01 -1.0122284960479143e+02 -4.4815587610872818e+01 -2.5332603493346539e-02 4.1643726764740041e-02 -4.9602829315476946e+01 
      </Row>
      <Row Index="224">
        4.1653862357197795e+00 1.4123452475119848e+01 4.7439685087883845e+02 -9.7581301135153044e+03 3.2976007802933455e+03 -1.9906090133154066e+00 2.5745657521657677e+00 -9.2221452016662806e+02 -2.1851725435937624e+01 -1.9612522329669446e+01 7.5416911153770343e+00 -3.3910292269074125e+02 -7.5607320260023698e+01 -2.6397818771190941e+01 1.2260123737163376e+03 -9.3331900973571464e+00 -5.0080326966167195e+02 -3.1040798723202897e+01 3.8762597143679159e+01 2.6946752719325013e+02 1.1930363827520981e+04 -3.3956094856262207e+03 -5.3716229717974784e-01 -6.5340748854177946e+00 1.4859282687455416e+03 6.7404205335624283e+00 4.8075433095684275e+01 -7.4315905096700590e+00 -2.0492871459777234e+03 3.7556575122638606e+01 -1.7969601067390759e+03 1.0863915505260229e+03 7.6853564949055908e+00 1.2354122285713675e+02 2.0104959082877031e+01 -2.6007211738033220e+00 3.9656795464688912e+01 -1.5142425015866756e+04 1.3494753176033497e+04 -1.0375183311931323e+01 3.4696930974096176e+00 -1.2294518390297890e+02 -6.5283163082203828e+00 2.9650934142409824e+01 4.3261184063157998e+00 -1.5417162305358797e+03 -1.7649710045661777e+01 -2.1055691939392127e+03 2.2083303812472150e+03 -2.6146251196623780e+00 -1.2827130258618854e+02 -1.9303105204642634e+01 5.0810292334790574e+01 6.0056340545881540e+01 2.1916082722131163e+04 -4.0092651619911194e+03 6.8369720534465159e+00 -8.5952517975010778e+00 -2.7793323302268982e+02 7.2211303237418178e+00 2.1718303653120529e+01 -1.2068284858351944e+01 -6.5443569907045458e+02 3.9551350040797843e+01 -3.9835739857996814e+03 -1.9146872641891241e+02 1.2233082294643282e+01 5.7771157928877801e+02 -3.3760995198099408e+00 -2.1677693769976031e+01 -3.1408593631070107e+02 9.3308816865570843e+03 7.5387204086780548e+03 -7.4801566042151535e-01 -2.7611857807007709e+00 2.0404555208235979e+02 -5.7586234777118079e+00 3.4476391862379387e+01 -5.5010573016588751e+00 1.3274227351881564e+02 5.2778582984348759e+01 -1.6617512863750890e+03 2.1163939122762531e+02 -7.5721023013466038e-01 -8.0369724591928389e+01 3.8955042565430631e+00 2.3806586154503748e+01 9.9226968553615734e+01 1.5701125406684354e+04 1.7097924118816853e+04 2.8843241512222448e+00 2.7527075209345639e+00 -7.2262876024702564e+01 -1.0516302711279423e+01 2.2335326976142824e+01 -4.6460937768915755e-01 -7.6514613761007786e+02 -6.5191221256076460e+01 2.5365924082219135e+03 8.4643501155078411e+01 4.0797897648662911e+00 -2.0889112420566380e+02 -4.2571726701131411e+01 -6.6487750966829481e+01 -5.6060924660635646e+02 -1.1771422626814805e+04 -2.4739809555053711e+04 -1.1249677498042729e+01 -1.3321664611861706e+01 -3.9933750755796791e+03 -2.9684198685157753e+01 1.1573446707939729e+02 -6.4340844844118692e+00 3.2871611477467231e+03 -7.0598747236188501e+01 -8.7511617600740865e+03 3.1928582673920318e+03 -6.4288875969650690e+00 -1.2638951709534740e+02 -9.4994007560691216e+00 1.7299458662804682e+01 -1.2450681019923650e+01 -1.3151537959121051e+03 1.0323652285456657e+04 1.8084654979145853e+01 5.6145867669383733e+00 -7.3062750837020576e+02 1.4356433360724623e+01 7.3411108138534473e+01 -5.2723970086603913e+00 4.3951668952591717e+01 5.3973336583934724e+01 -1.9805963572659530e+03 -1.6055363177070394e+03 -5.6165216794088337e+00 6.3926926245862160e+02 -4.9667405139625771e+00 -3.4510943441535346e+01 3.2572529821190983e+00 -1.9856112128893845e+04 3.0775140388011932e+03 -1.1955126391629165e+01 -8.2614349085815775e+00 -9.9224529780633748e+02 -9.9469223694795801e+00 -4.3259890881046886e+01 2.3081439182815302e+00 -1.6450862544146366e+02 -6.1031830853084102e+01 -2.3235107721807435e+02 -7.2758469207212329e+01 4.3836539390395046e-01 -1.4522677925816970e+02 2.0893659036839381e+01 -1.1046457644784823e+02 2.4991606275201775e+01 -1.8586309807971120e+04 1.0766549322247505e+04 -8.8805830927522038e+00 9.0788485644975481e-01 1.8752347120773047e+03 -1.0313337802679598e+01 -8.5546437229844742e+01 5.9210329357229057e+00 9.1265939666144550e+02 -1.6988824870134704e+02 2.3166937294048257e+03 3.8704286631569266e+02 1.7107872915439657e+00 -6.9280262573144682e+02 7.0908691847471346e+00 -3.9751476369088050e+02 -8.1540173210960347e+02 -3.5033614322300535e+04 2.9968667159941047e+04 -1.7203038532735263e+01 -3.0921147507633577e+00 9.2206551540633664e+03 2.5098577677212234e+01 -4.0649791411843034e+02 5.6194650179713790e-01 -4.7127330699507147e+03 -1.4995541529521870e+02 8.0850433932661545e+03 -5.7439502601800486e+03 -3.4232108286960283e-01 -5.3237463591468986e+02 -1.3017476358538261e+01 -1.1658537413459271e+01 1.4536839543469250e+02 6.5313684051781893e+03 -9.6850054837465286e+03 6.4569653628964261e+00 1.6026695077725890e+00 5.0237815634161234e+02 -3.7952776502934285e+00 4.7311023352667689e+01 3.6454686853123803e+00 4.8891556369885802e+02 -2.2452025508624502e+01 2.3970517543479800e+03 -2.4563190269097686e+02 -8.9854875963283121e-02 -1.8652146803203505e+02 -6.5256174395486596e+01 4.1303345312224246e+02 5.0131322623812594e+02 2.3670057458856190e+05 3.5962586561083794e+04 1.1734055568755139e+01 -1.2294456363873906e+01 -1.1981306764818728e+04 -5.0279096612097419e+01 5.1345178508011759e+02 -1.0981492936272844e+01 -4.0816662316679984e+04 -1.4584491330753372e+02 -6.7562583113853529e+04 8.9137444874149514e+02 7.2001609457329323e+00 5.8376847422815990e+02 1.2307317305726428e+00 -1.0027606121217104e+01 -3.3131315660126802e+01 4.4349150404362503e+05 -2.4639840786704706e+05 -2.9978957260137236e+00 -2.7256817726083682e-02 -3.3248752320893400e+03 -1.4284363006936474e+00 -1.2932869409785326e+00 7.9210196186613757e-01 -8.1743459027159523e+04 5.9600024048354862e+02 1.4628515107478772e+05 1.2832243291237701e+04 -1.5520487971862167e+00 -2.7783286505962678e+01 1.4163761378464040e+04 
      </Row>
      <Row Index="225">
        -5.0347406756918645e+00 -1.0841313775163144e+00 3.9435607662796974e+02 5.0598569023525342e+03 -2.1975098779976368e+04 2.0090705751958012e+01 2.1367451413818799e+00 4.7786199254915118e+01 -3.2455047445873788e+00 1.4414237744640559e+01 3.9334176057673176e+00 -3.0542372911103303e+02 -1.0229574700864032e+02 6.6968149019591510e+02 -2.5196414157096297e+02 4.9918770015210612e+00 2.8213797892758157e+02 7.8108853954763617e+00 -1.9229899678844959e+01 1.8949343293253332e+02 -6.9204047861248255e+03 1.8357673522949219e+04 -1.7271585053757008e+01 -5.5082943390480068e+00 -1.2743544207101222e+03 1.0353588246398431e+00 -9.1383675690740347e+00 -5.2705907290292089e+00 -3.5138185920564574e+03 4.0202029360574670e+01 -1.9746282914129843e+03 6.1078614441491663e+02 4.2564191075753115e+00 -4.9133507316961186e+01 -3.0592639153182972e+00 5.0349303270922974e+01 -1.2585860763862729e+02 7.4126875065416098e+03 -2.1866499641120434e+04 5.3510352643497754e+00 2.5508285143150715e+00 1.7503065551817417e+02 7.8601564880227670e+00 -1.0507183219073340e+01 -4.0011270411469013e+00 -2.8590284805842675e+03 1.0791305121895857e+02 -2.2050376644381322e+03 7.5021015847660601e+02 -1.2626766761881299e+01 4.6542273915372789e+01 4.9561791867919965e+01 -5.2409487067488953e+01 1.5156500136060640e+02 -1.1292728554096073e+04 -2.4382514312267303e+03 8.7239917037804844e+00 -1.5740353323357340e+01 -3.2212678922712803e+02 4.5015020834252937e+00 1.3037049700898933e+02 -6.7374692068678996e+00 8.5250190006336197e+01 -3.9852309882408008e+00 -5.1559127822043374e+03 5.6766208180785179e+02 8.9976213123100024e+00 -2.7603942707538954e+02 -2.1651790478208568e+00 3.4749188821413554e+01 -2.9819078636076301e+02 -4.3081828076802194e+03 -3.0545650643110275e+03 -7.5261318243356072e+00 -6.1406433159886546e+00 -4.7180901810154319e+02 -1.0940342828136636e+01 3.9781066034687683e+01 -2.1665885882539442e+00 4.6974550961423665e+02 1.9728548082546331e+02 -1.8796768037910806e+03 3.3574049415625632e+02 3.4885966964648105e+00 9.0799317470155074e+00 -4.5072026893903967e+00 -2.3670878940261900e+01 7.0162166384514421e+01 -7.8920029748808593e+03 -3.9861119932532310e+04 -2.3527962070511421e+00 2.9648794392051059e-01 -3.1331556470040232e+02 -3.9603182923019631e+00 3.4945671031018719e+00 3.7917847649832765e+00 -1.0875811505354941e+03 -9.4883306385254400e+01 1.9307757019386627e+03 -4.2599899612367153e+01 -9.6576543918708921e+00 9.6047703296178952e+01 2.0317472821239789e+01 2.8945740736715379e+01 -4.2153063955856487e+02 5.9548806586917490e+03 5.5439441856861115e+04 3.3319531830537017e+01 -6.5666237413352064e+00 -1.7050300558083691e+03 -6.2225898980232159e+01 3.7096122415328864e+02 7.6566010220631142e+00 6.7349444606644101e+03 -7.1017289281822741e+01 -1.0793165608679876e+04 4.0641131038917229e+03 3.7981638059573015e+00 8.1062057509348961e+01 -6.0039158986375014e+01 -2.4605385529110208e+01 2.2642479892796837e+02 7.3146901715104468e+02 -2.6068895762205124e+04 -1.2512372927158140e+01 1.5487091171162319e+00 2.2116369057185948e+03 -1.1647702221853251e+00 2.4846029995824210e+00 -2.0414344093842374e+00 -7.2372373708500527e+02 -3.3830854876677040e+02 -2.5471451469352469e+03 -1.3175524163264781e+03 -1.4460097041757763e+01 -2.2675327860624748e+02 3.3540096182754496e+01 9.2343819229281507e+01 -5.3781871603103355e+01 9.4961853297566995e+03 -1.3077257006168365e+03 -3.0533699849984259e+00 -2.7911374190807692e-01 1.5475492951646447e+03 -7.6274058220587904e+00 -2.2942908366327174e+01 -4.2442087456620357e+00 -1.2316438228162006e+03 -1.2224164505023509e+01 1.2530896489303559e+03 -6.6294812147319317e+02 4.4246311563547351e+00 1.0658868386980612e+02 2.4292914680234389e+01 2.5503625660203397e+01 -3.3596298373164609e+02 9.2936772794984281e+03 -1.3247235995173454e+04 7.0539781223924365e+00 6.9239257229799023e+00 2.3467769462987781e+02 1.7697543033282273e+00 -3.2315559610491619e+01 -4.6260862496274058e-01 1.0437628778368235e+03 -4.2873785945121199e+01 3.7690711628561839e+03 2.4603346377611160e+01 4.1833323580649449e+00 3.2344776711834766e+02 9.8725850543702109e+01 1.6617666900623590e+01 -8.0886601338803302e+02 1.9221939818294719e+04 -7.4773442537605762e+04 -1.5677133619687083e+01 -5.0413546843064978e+00 1.0280302777966484e+04 1.0904594464064212e+02 -5.1134429766327958e+02 -2.0877335904471693e+01 -7.5098755448395386e+03 -1.2800372167358728e+02 1.4167821648804937e+04 -1.2753583415453322e+04 3.3868819963230635e+01 4.7446431870342349e+02 -4.0227782477159053e+00 1.1708232101052999e+01 5.8862781893461943e+01 -3.5422241379618645e+03 1.4933584982395172e+04 -1.4724158061500475e+01 4.6720659985840030e+00 -2.8927584309410304e+02 7.4591504625859670e+00 -1.5953439695062116e+01 9.4721672494097220e-01 5.5196630323678255e+02 -7.8877857262821635e+01 2.6827596750855446e+03 -8.1468147786706686e+02 -1.0515114091422220e+01 1.0954920914248214e+02 -2.4895928003919835e+01 1.5720751928642130e+01 6.7058971819700673e+02 -1.3237725255672052e+05 -7.5032716464422643e+04 4.2235034939621983e+01 -1.3717412675166997e+01 -1.4548545178227127e+04 -1.3664314774060404e+02 8.6262904708158385e+02 2.6527518109349330e+01 -6.5192655294954267e+04 1.2924030675905669e+02 -1.0295061135200929e+05 4.5396841631887946e+02 -2.1819102732799365e+01 -4.9230350843836277e+02 -2.3015760665794005e+00 1.6116484693890379e+02 -5.2578198299655924e+01 -2.4639927029655967e+05 5.4658674725638540e+05 8.9734611350683053e+00 -2.1042694706011389e-01 -2.1743509995928471e+03 -2.1390469235138880e+00 -1.6574505759726890e+00 4.5558341066498542e-01 -1.3553179060364299e+05 4.8967163178324336e+02 2.1483381310908197e+05 2.3598826433550435e+04 -1.1807740696349356e+00 1.2090926570111606e+01 2.3996522925349062e+04 
      </Row>
      <Row Index="226">
        1.2039708877065891e-01 4.3522832603315464e-02 -5.6274245770191555e+00 5.7437284544789691e-02 -2.9729180092836032e+00 6.1566736752552842e-01 2.4445905617879238e-02 4.4932556615294743e+00 8.8252185931219529e-02 -2.4775348761556870e-01 7.2075643002764700e-02 4.1667740907016082e-02 2.6607328356590187e-01 4.7299419215369198e-01 1.7464466315286131e+01 -5.7686465269242149e-03 -2.8564078362563805e-02 6.0491050169687810e-02 -1.0526858164539021e-02 -2.3573080862269762e+01 -6.1778136140128481e-01 -3.9133592747384682e+01 -9.4304635159527805e-01 1.7973898781175279e-02 8.5103084670637372e+00 4.8426263572275197e-02 1.1225076247842480e-01 -4.0156775933859024e-02 -2.7183224360666998e+00 9.6697940302752272e-01 -3.4024653109344243e+00 -2.3688510208066873e+01 -2.8063548650842485e-02 -3.9656832185130497e-02 -2.4942641261142739e-01 1.3947904875487893e-01 7.9432454189084183e+00 -1.3683743711590068e-01 1.5957503975369036e+00 -8.6980430775603423e-01 -3.3965117927476030e-02 1.3514828654624580e+00 -7.6033855565206920e-02 3.5878227610601243e-01 -1.0878742147648168e-02 -2.3947026386213111e+00 2.1089131518408522e-01 5.3658429415008868e-01 -1.5132487059143386e+01 3.7154023306840145e-02 1.3835609240561553e-01 7.7414158487633244e-01 -1.3787725603836520e-01 2.8597075827519802e-01 -7.8993499553871516e-01 -6.0312617975869216e+00 1.5351139293294587e+00 2.4262036173015034e-02 -2.1499955852705170e+00 1.7910063368951512e-02 -4.4248967999939737e-01 -4.5392557666157352e-03 2.5783099269733611e-01 -1.3519656676672938e+00 -2.8577916774204368e+00 -2.8280900470066626e+01 8.2888555306254830e-02 1.0903967078126442e-01 8.5391918952559820e-02 6.1648101754428808e-02 6.6196032052184819e+00 5.9287625819979439e-01 3.0095430477755144e+01 -3.6316924907687564e-02 -8.9830195372606614e-03 -5.5866756792711385e+00 2.0820174703601424e-02 2.6094151513916586e-02 -9.2136001149079050e-04 -2.4416021481920325e-01 9.8215878654286826e-02 -2.3694717795864761e+00 -7.5307136581430768e+01 -2.8480752521502950e-02 8.4506114859886239e-02 -1.2853617758779023e-03 -2.9760668816720681e-02 6.1026317758841060e+00 1.8783956054867303e+00 1.9005646468343912e+01 -6.4329819941953303e-02 -6.9849307446139264e-03 3.5523775094615075e+00 -2.3825945151443761e-02 -1.6776529806060125e-01 -4.0429128164424011e-02 5.0022630830790149e-01 -1.8884494069409996e-01 3.6232371624384996e+00 5.5854600910119188e+01 3.9820688551667871e-02 -1.5161258234797970e-02 8.1841585263087779e-01 -2.9335796833867533e-01 3.3048117776293452e+01 1.8994295927009262e+00 8.9312403873191215e+00 1.4404700404095365e+00 1.2162544913347340e-02 5.4025989411966862e+00 -1.1034791460954096e-02 2.2667242333480431e-01 5.4198874969902278e-02 2.3566819936665979e+00 2.4503658877855514e+00 -7.4263871103200927e+00 -4.2025732244534993e+01 6.6590353300991723e-02 -2.6772416357261619e-01 -4.4012481919261676e-01 -4.2993753163000292e-01 -6.5518470291793278e+00 -8.0559376027008511e-01 4.5858365313033573e+00 -7.2213158659948817e-01 -2.6739675949930319e-02 3.9768176846828283e+00 -1.1132014130177836e-02 -2.9431265982373134e-01 -1.7221775560547270e-02 -1.3584809981318813e+00 -1.9274718549178260e-01 8.4942194366476542e-02 1.0732489297073312e+02 6.0171690919634369e-02 -8.5433509388487927e-02 2.9643901002487638e-01 1.3680542150373753e-01 -5.2524890401966786e+00 1.7471380626232076e+00 2.3878627389814937e+01 -5.2841772414547528e-01 -1.4989835323407696e-02 2.0473086333367974e-03 1.0598034792426603e-02 6.3903705411419764e-02 -2.2461160545863113e-02 -3.3728928759001064e-01 -7.9855674422333323e-01 2.4904243133546515e+00 3.9937297065128405e+01 8.6921531226135329e-02 -6.2511129677204735e-02 -5.2355587807109316e-01 -1.6914151833952928e-01 -7.2465291032892765e+00 2.7262904698882267e+00 -3.9750074097886682e+01 -4.8787886938142933e-01 6.4741643050509889e-03 3.6811992339007702e+00 8.1951906301895860e-03 2.4422413001377663e-01 -2.6187959160829166e-02 -1.1136489217296912e+00 1.1639289955669483e+00 -2.1794022895460330e+00 -1.9536014854515997e+01 -1.1463995929932835e-01 2.0280915274216937e-01 1.4055637606994766e+00 7.4994315924925559e-01 3.7198291561820952e+01 -1.4568472576065687e+00 -4.0982367335091112e+00 3.3050629998253882e+00 5.2022367766800359e-02 -1.4695606478417176e+01 -1.3412850345851179e-01 4.5801329470950236e-01 5.4823393963087108e-02 1.6169382228163158e+00 1.8035369602415514e+00 -2.8965908313443833e+00 -1.2253917475821231e+02 -2.3480716304150206e-01 5.4986515161870386e-01 -2.2499938373962891e-01 1.5862302545770035e-02 -1.2493761229539359e+01 -1.4099616291787243e+00 -4.5491843061754480e+00 -2.0202234761899045e+00 -1.2729191168320497e-02 1.0227216070705254e+01 -7.9425148423695191e-04 7.3845078147769527e-02 -4.9635409424771959e-03 -5.5142089656874305e-01 -2.1655123286053879e-01 2.3818795112747466e+00 7.4907585335031399e+01 1.0213783652116781e-02 3.4936591876757461e-02 1.4032632589460015e-01 -9.2511643436588153e-01 -8.0780714027147269e+00 3.2002026331053912e-01 -1.3856191633592971e+01 -4.7685661295927595e-01 2.4001133445993084e-02 4.8923445073050971e+00 2.0845724476916239e-01 -8.2787653250369875e-01 2.5788386198155600e-02 2.9020388565251132e+00 4.1234253049408665e-01 -1.3948377916082677e+00 -3.4904503194583839e+01 2.6038458019301558e-01 -6.6979033078785211e-01 -1.9942084328389287e-02 -9.4338949750705170e-02 2.2815277854818419e+00 -2.9979621854493548e+00 8.9735124974816642e+00 3.1367433952447752e+00 -4.7474436372390016e-03 -1.7419120640515629e+01 7.3594831638961189e-03 6.1372782109994084e-03 2.1833697709341848e-02 2.9087392606245821e-01 -1.7744854076839975e+00 8.8772617830719369e+00 -2.2691999553537762e+01 8.3466127200075846e-03 8.8182030898305008e-03 8.7267996074809435e+00 
      </Row>
      <Row Index="227">
        -4.3205529130890596e-02 -1.0098912274266070e-02 -1.9195870028164563e-01 -1.3511899286569928e-01 -5.9593939179449080e+00 -1.2840564436094493e-02 -7.8959983392526675e-02 -5.8347043116555142e-02 -1.2157740699734565e-01 2.7137294970032144e-02 3.3534580625844801e-02 -1.1198247009573237e-01 1.3258694376294500e-01 1.5385429694993036e-01 1.4974362341544634e+00 -3.8502616026167225e-02 -2.3167576402744317e-01 4.2029079594999352e-02 -1.0043188640081802e-02 -2.4484500950543975e-01 2.7357946698316482e-03 -2.0602435932960361e-01 -6.8340480322128805e-03 -3.8260494657277211e-02 4.9491393325382660e-02 -3.6902756274305615e-02 1.2201249771162281e-01 -1.0987820842407459e-02 -6.3261814285114149e-01 -1.2417741052850317e-02 1.5686263420841406e-01 -1.4764770512369978e+00 3.2054987972653437e-02 -1.2836368820344468e-01 -5.7347609790316056e-02 2.7305121186767423e-02 2.9902517578855736e-01 1.0141228466536631e+00 -1.2168613352732791e+00 8.4266371875481028e-03 -7.5154627663312823e-02 4.3501435253710952e-01 3.0550566788836164e-02 9.4747341631034487e-02 -8.3929498394993418e-03 -1.5196710136214620e-01 -3.1884664924191952e-02 -2.4242594067899859e-01 -1.6937968930484431e+00 -5.8589360262031320e-03 4.1259446371626041e-02 6.3607069599382449e-02 4.7705000832927169e-03 -1.9231910246870143e-01 -3.8225521364347514e-01 1.8100811157564749e+00 -6.7947472339914272e-03 4.5196258330380323e-02 6.6548210788823781e-02 8.3203255757402950e-02 -3.9147416594594198e-02 1.1743197285702334e-02 2.3567880146287479e-01 -6.3905567956030751e-03 1.0734109784277734e-01 7.9075022332267508e-01 -1.8616496771827695e-02 -1.2157506483267877e-01 -2.0696856627736793e-02 1.4143453032733788e-02 2.3352078651350894e-01 -3.4155865782372530e-01 -5.3074641763960244e+00 5.0490271576508761e-03 -6.3339546534507934e-02 6.8042447779930626e-02 -1.5075175921487904e-01 1.7748508974122501e-02 -1.3326658597929697e-03 1.1627642202824973e-02 -1.1119836149281070e-01 8.5402453062428663e-02 -1.5789765236092421e+00 6.0743042006712322e-03 -2.0539460302345192e-01 -3.2580703292262037e-03 -1.3782591753354723e-02 1.4058827543799524e-01 -5.9123659547549323e-01 1.7941095788191888e+00 -6.4289612583934286e-04 5.8474397902170461e-02 8.3196098081998571e-02 -3.9404422810568551e-02 -4.2702102201516823e-02 -4.7333749662754887e-02 2.7276588012563252e-01 6.1169897470673917e-02 -1.3575110758655740e-01 6.6387597460573033e-01 8.1767845112083570e-02 -2.5498620976051711e-02 1.4234813487170150e-01 -8.2770278425652322e-03 3.8088351125338704e-02 -2.4028463803472278e-01 3.3313239137351047e-01 2.2521803541422525e-02 2.7129451253777304e-02 8.1464931483685987e-01 -5.8086496589402237e-02 -5.9537613611738038e-02 3.2479742772977716e-02 9.9188336142540834e-01 1.0120970928142015e-02 7.4934403376818182e-01 1.7840221279421939e+00 -2.4114191138735031e-02 2.2844891783223265e-01 -1.3802784599421997e-01 8.3023857341554930e-02 2.1541501655353557e-01 3.7436268013338392e-01 -3.7233715423135436e+00 -1.1526255235771554e-02 -1.1714237833619423e-01 -1.3042450566003367e+00 -8.6962532848423812e-02 1.4317592353438613e-01 -5.5574864844544353e-02 -1.0989083019420391e+00 5.3610584387165261e-02 -1.7335438865586639e-03 2.2602324623118619e+00 6.1066495233548013e-02 -1.0883516114298830e-01 1.7152021579764298e-01 1.3093565161952370e-03 -3.5331575049889352e-01 -1.9617193253307619e-01 1.2694495748582995e+00 -6.8827841900691578e-03 9.4927791433630504e-02 6.0686873489498794e-01 3.2648099333030700e-02 -9.3247191997034129e-02 -1.2394251725101557e-02 4.3476855916037493e-01 -3.7709433793850167e-02 5.4904077214621338e-01 -1.1063655178453473e+00 -2.6315862485844388e-02 5.9178849422974977e-01 1.7376750853065115e-01 -6.6593046797009947e-03 -2.9234855785678349e-01 5.3916105044288543e-01 3.0556040060837404e+00 2.7286583013700572e-02 2.4837465982462287e-01 1.2071834203579783e+00 2.5409410803301369e-01 -4.6638664200993674e-01 1.7199342205548085e-02 9.7939851367516439e-01 -5.3004786626104305e-02 7.5085283156511196e-02 -4.8308485957472840e+00 -5.3998178809296249e-02 4.4728253606773699e-01 9.1614254995681543e-02 -3.3373024388881234e-02 5.2464919629072426e-01 8.5216011068240505e-01 -6.2652518164804860e-01 2.5854601490006401e-02 4.9243383324100720e-02 2.9635547421088404e-01 1.0741943436145451e-01 -4.3253848685592899e-02 4.7527896704904968e-02 -4.8850951660543274e-01 -5.5324074897723285e-02 -6.5054579824823122e-01 2.6453173561034760e-01 -1.0753443082101022e-02 1.8834526234737137e-01 5.1474780816846533e-02 -1.1630288353643436e-02 -1.4240734537389699e-01 -2.0055586724993191e-02 -8.4560912515007658e-01 3.6612701550802484e-03 -2.9759108394133982e-04 -3.7828509486661233e-01 -2.2607129389243141e-02 -7.6078394696416751e-02 6.6206198304985808e-03 -1.2531551574738842e-01 5.8946677134750658e-02 -5.4072293247372727e-02 3.5890410340493872e-01 -1.6550425718271256e-02 -1.6029314391097849e-01 3.3753283343545215e-02 -3.9555016575769375e-02 -4.1877139321692880e-01 -9.4281413458489283e-01 -3.2650324191081381e-01 -2.4799361613131232e-02 -7.1227839576223251e-02 1.0525295688595406e+00 -1.8927759289548673e-01 6.5014265109413882e-02 7.9710128482551879e-03 2.9513059956816141e+00 3.2447468791357048e-01 5.4696608811820902e-01 1.0409663212188622e+00 4.1818322170918742e-02 -4.3331121719544574e-01 -5.2567668114846533e-03 -3.8202802715422715e-02 3.8913604808361896e-02 -2.7257445945260361e-02 -2.1042789136015205e-01 -4.7474433035471497e-03 7.2403707373900839e-02 1.2313471486392344e+00 -2.2700298672532038e-02 1.8845438738205531e-03 1.1231258561213209e-02 3.0695762500188337e+00 -5.3076438570912787e-01 7.3517718915874386e-01 -1.3075246919157939e+00 -1.4513725518137122e-02 -1.1249881889132396e-02 9.6676090928077008e-01 
      </Row>
      <Row Index="228">
        -8.8577728806994855e+00 -2.2888220350258052e+01 3.9082251434028149e+02 -2.3065264912247658e+03 -9.2384961028099060e+03 -1.5386772183468565e+01 -3.2491323732938326e+00 2.0872893823444843e+04 2.7816766824689694e+00 -6.2362450083717704e+01 3.0118139876867644e-01 1.7953086554771289e+02 -8.5594024766236544e+01 6.7482968099415302e+02 -1.1821446932144463e+03 5.2136442158371210e-02 -1.8513125111907721e+02 -1.2754286373499781e+01 1.6926102223806083e-01 4.9762983195483685e+02 1.0056226571351290e+03 -1.2472002727508545e+04 4.0018491981318220e+00 7.8320209908997640e-01 -4.8133080309070647e+03 -6.0323712712852284e-01 -1.3101132161915302e+01 -2.9122515391791239e+00 1.8155103177321143e+03 -4.4155228668823838e+00 -8.6157706235535443e+00 4.9312366383075714e+03 2.6150474116002442e-01 1.0236661579296924e+02 6.4085889481939375e+00 3.6182795722037554e+01 -7.6998348669335246e+02 -1.6183567690849304e+02 5.1862257480621338e+02 -3.8612197902984917e+00 -5.1468067311216146e+00 1.0248457836747169e+04 -6.9770095522981137e+00 -5.3927157694473863e+01 2.3555340302409604e+00 1.1237828000523150e+03 1.8847246664389968e+02 -4.1522458193451166e+02 5.9104793919324875e+03 -6.8159390774089843e+00 -3.3058994748443365e+02 -1.0757588621228933e+01 -6.4185326398350298e+01 2.9189687531441450e+01 2.9613195154070854e+02 1.0973046413421631e+04 -7.5295750268851407e+00 -2.8272568251704797e+00 1.2076283920526505e+04 -6.2334087605122477e+00 1.6049839419778436e+01 3.2636261465813732e+00 2.7388396227918565e+02 7.3882856417447329e+01 -3.5483062849938869e+02 -1.5238290846347809e+03 5.8016860157076735e+00 -1.4037361331284046e+02 -1.4374144183238968e+01 -2.7079354501329362e+01 -4.1297139056771994e+02 3.2031856620311737e+02 7.0965358448028564e+03 -3.4651715415529907e+00 -4.5365239878410648e+00 -4.2571735402643681e+03 2.8800691347569227e+00 1.4660312984138727e+01 2.2182840270106681e+00 -3.3431667582690716e+02 7.7453335035592318e+01 -5.1394681636034511e+02 2.9268159989789128e+03 1.5406604990828782e+01 1.4013875279919012e+02 3.3431353475898504e+00 -1.6617689453065395e+01 3.5560832154471427e+02 -2.8472250297665596e+02 5.2880353479385376e+03 4.3059444357641041e-01 3.2145989598648157e+00 1.1174604391677305e+04 5.7189656005939469e+00 -2.9772035928443074e+01 7.7742757144005736e+00 6.2696911802887917e+02 -2.9965216492884792e+01 -2.5638502054288983e+02 -2.3742318978011608e+03 4.0230952000478283e+01 1.5607700771652162e+02 1.5222625474561937e+00 -1.4634736276697367e+01 -1.8811530787553638e+03 -3.7620697619318962e+03 6.6283983936309814e+03 3.9057835083222017e+01 -5.0615322284284048e-01 3.7316551122395322e+03 1.6588324750773609e+01 -9.2418750533834100e+00 -6.4258912943187170e+00 -3.6451493136584759e+02 -1.2620033434405923e+02 -1.1464504504278302e+03 1.7797912644416094e+04 2.0705157437012531e+01 -2.1404490022198297e+02 2.6491308910636690e+01 -3.4996024993248284e+01 -2.2359135385602713e+01 6.0439428071212023e+02 -1.6387543617248535e+04 5.2615766942035407e+00 4.7071126701484900e-01 -1.6491182136431336e+04 -1.2918325459992047e+01 1.1429261527955532e+00 -3.2080532793479506e+00 -2.4533857117034495e+02 -1.2793890381604433e+02 -2.8935262118279934e+02 -7.9349186070673168e+03 -2.3665327866256121e+00 -1.2728010374450241e+02 -6.8970560096204281e-01 1.4695582682266831e+01 1.8382458911836147e+02 1.4933074023574591e+03 -2.2021199541091919e+03 7.0672062496887520e+00 4.2442277149966685e+00 6.1612407709062099e+03 -1.5373853040509857e+00 6.1859898897353560e+01 6.2641798879485577e-01 9.8337777679786086e+02 6.2349460717290640e+01 7.9343579582870007e+01 -5.7482977283000946e+03 -2.0905315942945890e+01 -1.2797893406823277e+00 -1.2660225085797720e+01 6.9598872624337673e+01 -1.9223389847762883e+02 -3.3446401655972004e+03 -2.5684825839996338e+03 4.4850887104403228e+00 -4.2341631724266335e+00 2.0677861873567104e+04 3.1986664235009812e+00 2.6644748371094465e+01 9.3512969837756827e+00 -5.3490800991654396e+02 -4.0994182299822569e+01 5.8454704687744379e+02 4.8663481380641460e+03 1.9330466317012906e+01 4.4408834933623439e+01 -3.3178502313909121e+01 8.4149526501540095e+01 2.3148887079972774e+03 1.9410325916185975e+03 -9.6839907385110855e+03 -1.4773485708366206e+02 -1.5748572596712620e+00 2.2166581156820059e+04 -1.4034698761999607e+01 -2.7010990125127137e+02 -2.7889276975702160e-01 -4.2773469587787986e+03 -3.0066869224183029e+02 1.2874847975745797e+02 -3.7529328554183245e+04 3.1499205422587693e+00 2.3719647076702677e+02 -3.4128560917451978e+00 1.1312996026128531e+01 -1.6693900878727436e+02 -1.2295956213474274e+03 -3.6691958999633789e+03 1.1701596029597567e+00 -5.6703531407401897e-01 -4.2677433885112405e+03 2.9619249119423330e-01 -6.7265734383836389e+00 5.3754508197016548e-02 -2.2263398516178131e+02 5.2593025345820934e+01 4.1818371510505676e+02 1.1397390764355659e+03 7.3578975716372952e-02 1.4071011774009094e+01 7.4667021795758046e+00 -1.1791232496641169e+02 -2.7963929369263351e+03 -7.0065118873231113e+03 -1.5139569130778313e+04 1.4723244333057664e+02 1.1376557085604873e+00 2.2955845885124803e+05 3.2254461663309485e+01 1.7603645266257809e+02 -3.7048504147678614e+00 4.7978957919908193e+04 3.5590551268419949e+02 -2.8899305833829567e+02 -6.4143516131654382e+04 4.2649528810929041e+01 -5.0658011820679531e+02 1.3843331108218990e+00 3.3090774459209115e+01 -1.1001344027362939e+02 -3.3246851423346939e+03 -2.1748138037044337e+03 -1.7419116104891145e+01 1.2313531583640724e+00 4.7992621240421268e+05 6.5495048384764232e-01 5.1352955616357576e-01 -1.9992826133093331e+00 7.6705783610934799e+04 -2.0254985522377865e+02 3.7533628794984452e+02 1.8460818411647496e+05 -8.4532478666224051e+00 6.0730400892134639e+00 2.2461916369078698e+05 
      </Row>
      <Row Index="229">
        3.1789584285916050e-02 6.2445630756826631e-02 7.1595077091316739e-02 2.9983092560671309e-01 2.0616675213066173e+00 4.2432772845428790e-03 4.6471564442102202e-02 6.0421090957191836e-02 1.8664022197247943e-01 -2.5513261926661812e-03 -3.1154735033095404e-03 1.7731877301558163e-01 2.2991294668521789e-03 -2.2217510351907777e-01 -1.5298099249251962e-01 -2.7986174164786548e-02 5.5490448383554547e-02 -1.1917691602233660e-02 -1.2367694474604285e-03 5.3241167437658277e-02 1.2884960728182193e-01 1.3796064215493971e+00 2.5942158675850702e-03 1.0239759452651126e-02 9.6249781427371062e-02 1.3000576138432030e-02 -8.5694914991275795e-02 -2.5714633283328014e-03 1.8171072422214074e-01 -1.2805922175546769e-02 5.2644528493952070e-02 2.1875910005547894e-01 3.0888145947468096e-02 -2.5756689372951502e-02 -2.8784127216184618e-02 -2.0910720920166881e-02 1.0611500151519238e-02 4.9924064686274505e-01 -5.0947031063742543e-01 -5.3118291233931192e-03 -1.8298734756573509e-02 -1.9690056878039286e-01 -1.9137757097102803e-01 -7.6960883848953721e-02 1.0678867204882980e-03 7.8340938184936704e-02 -1.6367421646512170e-02 1.6334590588279596e-01 6.6334863476453165e-01 -2.6955531723317661e-02 1.5175616360820854e-01 -3.8639673692025367e-02 -2.1653691474395664e-02 7.0468746322287501e-02 -2.3387769146778226e-01 7.5635158017757931e-01 8.0483478007802589e-03 -3.6709173371280809e-02 -1.5102638315511285e-02 -1.4243348037694065e-01 1.6958158036125770e-02 5.5203255235388438e-03 3.7409644177074597e-02 1.5912411938557192e-02 4.3428910818003530e-01 3.3984734449586540e-01 -1.5145289706251834e-02 -2.2653394214943523e-01 3.4168444211260418e-02 -3.8728312663267594e-02 -1.0233560203046466e-01 -2.1133056727003918e-01 4.1374415441505334e+00 3.7813645866363321e-03 4.9441871145225955e-02 4.3015538499861350e-01 2.3581298939027739e-01 7.7536335974150106e-02 1.1359677883837627e-04 3.4608513731441803e-02 -1.9357708729419443e-02 -8.2910901665949277e-02 -3.8517291670331133e-01 1.1335840086647342e-02 5.9289078458245076e-02 1.0429953305148731e-02 2.3769596638921087e-02 -5.2295927534318665e-02 -6.5497801072115180e-01 1.8181035359530142e+00 2.8595625937422042e-04 6.3854306269743172e-03 9.5353003388606083e-02 1.2427540798269521e-01 7.6042918599371845e-02 1.0650801705010655e-02 1.2787206684883756e-01 1.0031009057111434e-02 -4.4344412037061431e-01 -3.4458361891825007e-01 5.9368233242050483e-02 -1.6662189693269447e-01 4.2405457428160986e-02 1.0747209177556682e-01 -3.0826716965175471e-01 -2.1310331424221829e-01 1.4519547845520719e-01 2.1102615282854176e-03 3.7410738962137036e-02 -3.4490546398078870e-01 2.4752890582646678e-01 -3.5619641363444199e-02 -1.1479247558814909e-03 4.4700348983887039e-01 4.0259647909842045e-02 6.1555573751530090e-01 -1.9307720064894625e+00 -2.9702164604016312e-03 2.6226980803266131e-01 2.6308518428564400e-03 -1.2738699086416894e-01 4.2225096844344279e-02 1.1492356912139812e-01 1.8069421374320882e+00 1.1017201680567634e-03 1.7387309562702943e-02 1.7598044689145809e-01 -1.2243048897845082e-02 1.0339081506998982e-01 8.3246734169802467e-03 -1.2951577943205272e-01 -6.8723113028017480e-03 -2.0936161441767354e-02 -1.5565003435410674e-01 1.5133973366696980e-02 3.8737721008404757e-01 1.8884138994905264e-02 -6.4172442748183123e-02 -3.7910292828982506e-02 5.3011155103173024e-01 2.0881214904366061e+00 -3.5949264899534650e-03 1.1522456814132734e-02 5.8135368191216230e-02 7.2536237704265760e-02 -6.9995421646196099e-02 6.2600677690525970e-03 7.0970600397416206e-02 -1.9616882637240707e-02 6.3889970904824622e-02 1.2742553085024610e-01 -2.2223328514569374e-02 3.1655404961427980e-01 -4.2369871407185733e-02 -7.6974967718292930e-03 -2.2663760019523060e-01 -4.6651735236888214e-01 -6.3952066840647603e-01 -1.3048443366644902e-02 -7.9008410477978408e-02 -3.0700902038660161e-02 -1.5918993727892949e-01 1.1245185598052032e-01 -1.3614630780278691e-03 -2.1321129196962829e-02 2.7417949236824057e-02 4.4122984786616826e-01 6.4687905761199715e-01 1.2472987725891116e-02 -1.7995187372331894e-01 -5.3624331441142592e-02 4.0341743319780132e-02 -1.7925847695136987e-01 -6.7197793151644447e-01 2.5030906305977396e-01 -2.6829296113336648e-03 -9.8837358690935725e-03 -4.2496915078784525e-01 -7.3686560199224871e-02 1.4145536974086825e-01 -2.6286749755895206e-02 -3.0659140367816562e-01 -2.5027407087918951e-02 -3.3596274814370020e-01 -1.4811304025835810e+00 3.2421066933356002e-02 2.2303875058397482e-02 -2.4408386858472131e-03 -2.9483631810585109e-03 4.2160024698368659e-02 -2.3483769440463220e-01 -9.8795374804467428e-02 -8.3712857540254627e-03 1.2387055001418790e-03 1.5720945874248571e-01 3.5379644635173957e-02 6.4366997017720529e-02 3.9880016310620443e-03 -1.1244806682441322e-01 4.4569724989318438e-03 -2.6954086450780324e-01 -6.7524636885963218e-02 -1.6696374422516924e-02 -1.1329991218364399e-01 7.0033533280067339e-02 1.7765411219283128e-01 6.1967291277518655e-02 3.0219841505459399e-01 3.3214786174625033e-01 1.4221642152450253e-02 4.6712937478797539e-02 2.5621228734438262e-01 2.9296743097685196e-01 -1.4250979993573371e-01 2.2265083098747224e-02 1.0227727822284560e+00 1.0715449048319281e-01 1.4387598979944793e+00 -6.9413829728219856e-02 1.6674882471742425e-02 -1.4479301221643215e-01 7.5502969308614831e-04 1.8322373643258136e-01 -1.0462218952824412e-02 -1.4284284270810366e+00 -2.1390547865087948e+00 7.3594828510004304e-03 -2.2700298674509192e-02 6.5495117338874365e-01 3.9438733673199444e-02 -3.2581839012451319e-03 -4.3910028325648692e-03 7.6330196741121437e-01 -8.6862621582752805e-02 -3.8882413130636806e+00 -1.4506133014336509e-02 -1.6005011960921717e-02 -1.1065175788354753e-02 -1.6869702057106803e-01 
      </Row>
      <Row Index="230">
        2.3757902331558611e-02 -4.3069118088183700e-02 -2.9516325243321262e-02 -8.1199845745913990e-02 -1.1494623764519929e-02 7.1061984943669998e-03 5.2422831526816663e-03 -5.1069135171837843e-01 -1.3627121535601416e-02 -8.2132547359823604e-01 2.2933199757035894e-04 1.3531723501837369e+00 4.7531713551961730e-02 -1.1866239664300338e-01 -8.3974895556735873e-02 2.4121332235438331e-04 -1.4207958741671689e-01 -1.7448066678634788e-01 -1.0323929220366068e-03 1.7777592471304615e-02 -3.5461703619876062e-01 3.7994774170219898e+00 -8.4298149030495040e-03 -1.4781746326099299e-02 7.5397500144070762e-01 2.5840538229150001e-02 9.8814168965265026e-01 -7.7123799485994127e-03 5.7319202486246823e-01 1.0972278914145761e-02 3.7782003524774588e-01 -8.0277445269121017e-01 1.3346346729837477e-02 1.1160922208782154e-01 -2.2788942621716046e-02 1.7233113436830649e-02 2.7495126635477618e-01 -8.2215735242516530e-01 6.3967500971702975e+00 -6.4232449573324857e-03 -1.3530763799886714e-02 -1.0670280226895557e-01 4.4035726527468455e-02 7.7296646438917094e-01 -6.4372293528737190e-03 1.1020887436321232e+00 -2.9048938032104843e-02 3.5889759494068585e-02 -1.0092848616807260e-01 2.1768400248003417e-03 -2.0490719070826913e-01 -1.2709978261096211e-02 -3.3291658015802028e-02 1.1583684048531495e-02 4.6275692400513435e-02 -1.2077620299969567e+00 1.0401498546839916e-02 1.0678542859685392e-02 -3.6304736388137826e-01 -4.8421058732106559e-03 -1.2658800056510149e+00 1.6962401849567321e-03 1.0204864785588370e+00 -1.8225430010350152e-03 1.2784704666267999e-01 3.2613018759548140e-02 -3.7487893318643994e-03 6.6631695082921993e-02 2.2627227891733881e-02 -2.6814365129240514e-02 1.5213134648661253e-01 3.7819878227696790e-01 1.2757528240319516e+01 4.4992463661865933e-03 8.8324042323510710e-03 4.1882751186085443e-01 -3.5260906787129898e-02 -1.4418147030319801e+00 1.2451729458278216e-03 5.0667523112929302e-01 -5.9786131484230509e-02 1.1627155438311831e-02 3.1502949703610739e-01 -3.2309981243283659e-04 -8.4890382057270841e-02 1.9152277732127132e-02 -3.4534895958074685e-02 8.8254376651924815e-02 3.7403953359216757e-01 9.2163240413865424e+00 1.8836338962735510e-03 1.0943663577228646e-02 -8.1327339394371734e-01 -1.4050819221743005e-02 -6.6441233396459154e-01 -2.2359241728245882e-03 1.3668194512551963e+00 5.2078831010331950e-02 7.9421810664968007e-02 -1.3573480585375819e-01 -4.4762009936314406e-03 2.1306147191027947e-01 -4.6355481037246626e-02 4.1809171985931926e-02 -1.2033122435610721e-03 3.4523223783139656e-01 -4.2914444645430194e+00 1.8686293256342523e-02 -8.9081227525105167e-03 -1.3488104887657713e+00 -2.7752753580622125e-02 3.3670128481708161e-01 3.1138587628829484e-03 6.8041438023314527e-01 3.6503673647956703e-02 1.2974027670401256e-01 6.2959681086175578e-01 -5.7129459484404066e-03 -8.3584503925486331e-02 1.4051495368292452e-01 3.0539582905774409e-02 3.8374940579487316e-02 6.0096008417701796e-02 2.2093003493500873e+00 3.2254610544937279e-03 9.5487182702376217e-03 9.2565027078398998e-01 -2.6403264100307577e-02 -1.2438185514993521e+00 -6.5105436916779169e-04 3.4999961102880661e-01 2.8584432251939518e-02 1.3740586127164534e-01 1.3329900029441433e+00 -1.3527550984583359e-03 -4.9837926257231135e-01 -1.4985096337566084e-01 2.1650851588859155e-02 -2.0818043952857579e-01 -4.1265202493946163e-01 3.0380089861137094e+00 -3.2535643871693942e-03 -2.0293527335342287e-02 4.0666042230486710e-01 1.6861887444343804e-02 1.0686241989392702e+00 -5.7424632582473989e-03 -6.2093634673678366e-01 2.4947354486158702e-02 1.6071268056333565e-01 -6.4319052270900556e-01 -1.1835615486961437e-03 -4.9271459223092506e-02 2.9133521167772791e-02 5.0978589579784739e-02 -1.1008680612403055e-01 1.8636684890475408e-01 3.2596555948839523e-01 -2.7233287839578679e-03 8.7619620389012276e-03 -7.6351721357900715e-01 2.3460178126968323e-03 3.7494929509728081e-01 2.5624730108075866e-03 -6.1567257847877954e-01 -2.2060205677263411e-02 -5.0595167228470928e-01 -3.7847183620669966e-02 -9.2731258499263447e-03 3.2410041302795056e-01 -4.5715923675262227e-02 3.8498451434644920e-02 -2.6272285604420631e-01 2.4502239265245862e-01 1.4679438648458927e+00 9.6797992053285764e-03 4.2712602597057558e-03 -8.5486241424558784e-01 -2.0243606326303842e-02 -1.6415293275673566e+00 1.2131628290700025e-02 -1.3401042306076647e+00 -1.5499912926594028e-02 -3.0940929821568375e-01 -1.3705581398402273e+00 5.9016426716365089e-03 -8.9196242854161056e-02 -5.5615989586820902e-02 -1.5826084724579914e-02 7.5182027123901207e-03 4.9566776153915271e-01 1.1824320662897662e+01 -2.5441803120342388e-03 4.9528873475483959e-03 -3.6626568200375687e-01 -1.5459178859639877e-02 -1.2894474489858752e+00 1.6702093449460498e-03 1.0844965256956129e-01 2.9039260235695252e-02 -1.4274002889578696e-02 5.7315964770396022e-02 -2.7091947344359824e-03 2.3721353385768751e-02 -1.1107396036616213e-01 -8.0108731906613828e-02 3.2962535449328811e-01 -1.0906831484319639e+00 1.8166518445773363e+00 6.8941220588396579e-03 -8.3540807336519585e-03 6.4517754951907591e-01 1.1652095411778474e-02 1.3596502363145369e-01 -1.1337853836653755e-02 4.5999487165515216e+00 1.6936717207584806e-01 8.1360006448658240e-01 1.4579207444101705e+00 -3.3698050016370829e-03 2.2001352089822346e-01 5.9596722702739136e-03 -2.0295273012117934e-02 1.9082100471904395e-02 -1.2932792908939694e+00 -1.6574592875113479e+00 6.1372785655796347e-03 1.8845438628126709e-03 5.1351934948383016e-01 -3.2581839110942257e-03 9.6777611136600550e-02 3.0012622204556028e-04 5.3486257911173309e+00 -2.9316035325693751e-01 -1.0634218243267310e+00 -9.7760315586519519e-01 -5.2248364461027208e-04 1.0682677790403272e-02 -1.5998868117836331e+00 
      </Row>
      <Row Index="231">
        7.4875269351153406e-03 -1.4879420685076639e-03 -1.9612843733102636e-01 -3.8332250594264394e-01 -3.8243862160879871e-01 2.9459266473010892e-03 2.8032471461372430e-04 -9.3857413582384197e-02 1.8941153656996668e-03 4.4644870849950280e-03 1.1284536061329897e-01 -3.9951374667259287e-01 9.6548089032850726e-03 1.6470564155298462e-01 1.2460044180691057e+00 1.8337331663680123e-02 -7.6602343615318702e-02 3.8312924365806467e-02 2.1850440285712480e-02 -1.9336266472596719e-01 -2.1330637141261377e-02 2.2207029486889951e+00 -1.1224139955919421e-02 -1.2630243061647062e-02 -1.1047161221121371e-01 4.6651450773054215e-03 2.9209352653012388e-03 7.2812951584688701e-03 -7.8637921548127299e-01 1.2872481280897574e-02 -1.3219659233094827e-01 -1.9419673156352246e+00 -1.0546306212060655e-01 7.1152273158183732e-03 -3.3390736180117564e-02 1.8702819317013564e-02 4.1428518169240647e-02 -2.5105529693246353e-01 -1.3270749728690134e-02 -5.0260984299477229e-04 -6.1502606796226544e-03 6.8979470975818913e-01 -1.0029105904375335e-02 3.7430256896858083e-02 -2.2546612484276751e-02 -4.9820018935292865e-01 -2.2770859415146560e-03 -8.0552467493504309e-02 -2.7072548930481730e+00 2.1308558581901327e-01 1.4078146809639946e-01 2.1626311296357059e-02 1.6125983701552826e-02 -3.4143324177422585e-01 2.5197427744814149e-01 3.2104197854059748e+00 9.8077358247926627e-03 9.0581811081958397e-03 7.1144999403259135e-02 2.2601800206620837e-03 2.1402609432519704e-02 -1.1329932063666781e-02 -1.0631061332696845e-01 5.3505456142284746e-02 -2.5729193038667120e-01 1.9915075929600334e-01 8.7040434634376773e-02 1.6452644544475703e-03 1.6261523782182596e-02 -3.6667672012296038e-02 3.1104211583736685e-01 2.3384008499618858e-01 -1.5273677791592490e+00 8.7108183975439513e-03 -9.4023352502188573e-03 2.5408333961252083e-01 -8.9675162288900268e-03 -9.9228616946049897e-03 3.8428289220274525e-02 6.9871658197342867e-02 4.8660442394286463e-02 -8.4537698300059638e-02 -2.1768504853035608e+00 -9.2348099215923352e-02 -6.1397788673505538e-02 -1.4007820489715606e-02 3.8813374220950436e-02 1.2155260558197512e-01 4.1745657739534181e-01 2.7450908238442935e+00 -9.7028534505518849e-03 -1.4731335596364858e-02 -1.2072431737267664e-01 -3.4920977701840439e-02 3.9578639894756407e-02 -1.3907843119147231e-01 3.0482185372326853e-01 -4.7152198593977235e-02 -1.4786148496284568e-02 1.2249031027777164e+00 -1.9692131906405907e-01 -5.7376855484562839e-02 2.3674955333638392e-02 -3.7689867000924249e-02 6.2913826589867483e-01 2.4240147060385198e-01 1.3360280130000319e+00 1.1610509019920334e-02 7.7217301465358767e-03 2.3699280047324223e-01 2.8285328583109171e-02 -2.8939171202502223e-04 6.3322303777906042e-02 9.8611398414305995e-02 -6.3649870204621095e-02 -1.3468714343332522e-01 7.8313332551050507e-01 -1.4101816482752771e-01 -2.2253830400929431e-02 -4.9913513226869974e-02 2.1708585020100202e-02 -7.9730404505504282e-02 -1.0653228884793720e-01 7.1957118419595645e-01 -1.3480319209643987e-02 -2.6490364605917249e-02 -3.6849227429510734e-01 -2.0188879430486084e-02 1.2409879408735947e-02 -5.9852837870311232e-02 -2.1932117473747326e-01 -7.7649633544567109e-02 -1.7705500647200267e-01 2.6779424103075939e+00 4.2449817197070305e-02 1.8070917780635509e-01 -7.6586678256171936e-03 1.1442094687794224e-02 -2.6864060904097897e-01 -4.7750518520516039e-02 -1.9524570295834565e-01 -1.2868461924741004e-02 1.5260501520761693e-02 1.5364255193208010e-01 -4.2789578016054541e-02 5.7669387330196109e-02 -1.1103615154670476e-01 2.0203063218660589e-01 8.1068204730172511e-04 -7.1294692509667357e-02 3.0560265701001299e-01 1.0844148713340429e-01 6.7058503998076446e-03 2.6791893252939403e-02 -4.3479493076773679e-02 1.0803721620931128e-01 -1.5942842559462633e-01 2.4177098588625086e+00 2.9839003156517663e-04 4.3366838497412408e-02 -4.1487057277265649e-01 4.2244279428257370e-02 -6.3237637421742932e-02 1.7371067876433388e-02 5.6717390435801462e-01 1.5279348547196037e-02 1.8395541203730659e-02 -2.5954497325361672e+00 -1.3741234230567789e-01 -1.3030852934746132e-01 1.2031542306598519e-01 -5.5289826270907838e-02 8.0909460268717481e-01 -8.0777957753747387e-01 -2.6076896231020328e+00 4.4943856814845917e-02 9.0283393893784147e-03 -6.8635911649116110e-01 1.3051104479311637e-01 -1.1446392400162164e-01 1.8952383662982542e-01 1.7686834173326105e-01 9.1227628751717749e-03 5.0456887175639054e-01 -1.2352310439319751e+00 -2.6942423002192939e-01 -4.3292625035991072e-02 6.1916958520864540e-03 -1.0352738772894554e-02 9.9012953376131918e-04 -2.9814198166423012e-01 -1.2662377406304586e+00 -1.9812567100727846e-02 2.9230653545254670e-03 -3.3982243896849695e-01 -1.2339252589918193e-02 -1.3555597767549443e-02 3.3232089096708883e-04 -3.9805865873631774e-02 -9.3598260599891958e-03 1.3536593344315406e-01 1.1652427012744511e+00 6.4382665652773952e-02 1.5965703414450694e-02 -3.4814342627991324e-02 4.5714373729128066e-02 -1.4689767258123254e-01 1.0008611157742777e+00 -2.1325916222117485e+00 -3.1945077836204039e-02 -9.0075199521157945e-03 -1.4082391936665317e-01 -8.1121385171604499e-02 1.1986492172247659e-01 -8.0668551750432083e-02 1.1235291135781120e+00 1.1438094659881326e-03 -1.5815168988012882e+00 -6.0568368786808691e-01 -9.2058470232068368e-02 -4.7868808270448149e-02 -1.9505091085692955e-03 1.4849276627896951e-02 3.2894777023837057e-02 7.9209685293448873e-01 4.5558933823841530e-01 2.1833698290691039e-02 1.1231258531284094e-02 -1.9992899631006404e+00 -4.3910028393494283e-03 3.0012616461932984e-04 4.5573150436545307e-02 2.2930522572835743e+00 1.0139293281318681e-01 3.4408515840653560e+00 -1.5137626295825535e+00 6.9977857502964369e-02 -2.4492108595194906e-03 -6.2721185095424570e-01 
      </Row>
      <Row Index="232">
        1.6609819071949460e+01 5.4542404282838106e+00 1.0006501247361302e+02 1.2600719066113234e+03 1.0464929042339325e+04 3.4049057321972214e+00 -5.9767392967569322e-01 2.6733111947700381e+03 1.1101673530996777e+01 -9.2823583178222179e+01 1.0152883236878552e+01 3.4175356568784919e+03 8.2536454098299146e+01 4.8783856959640980e+02 -3.9133771777153015e+01 3.6681592554668896e+00 6.4310201467014849e+01 2.6338607422192581e+01 -4.7978838278679177e+01 -1.0497685549780726e+02 -2.0831220105737448e+03 -2.2325037368774414e+04 3.5038273656973615e+00 8.8282787994394312e+00 8.1628692096285522e+02 9.6057704517297680e+00 -2.4654757527634501e+01 -1.0400739835720742e+01 1.3086799021604704e+04 -7.0385656730271876e+01 -5.6427407003357075e+02 -2.6902216999679804e+03 -8.0350811200114549e+00 5.3647263597697020e+01 2.8247006609104574e+01 1.9994463325943798e+01 -9.5349714977666736e+01 2.8592577804923058e+03 -1.2116323583126068e+04 1.6137875137268566e+01 -7.1773432911140844e-01 1.1875223155617714e+03 7.9326191891450435e+00 -3.2250192076899111e+01 -4.7983323588705389e+00 9.3982641300819814e+03 -6.5141581562347710e+01 -3.8774995626509190e+02 -3.1224828544333577e+03 3.3797477569896728e-01 -6.2672589385882020e+01 1.6135238610440865e+01 4.6052371391560882e+00 -1.1150249652564526e+01 -3.6792976657152176e+03 2.0693506198883057e+04 1.0265766995144077e-01 -5.0364969472793746e+00 1.4630927984714508e+03 1.1618969158153050e+00 -9.6531756136333570e+01 -2.4575587868166622e+00 1.9055414964687079e+03 -3.4975642635836266e+01 -2.1139307908490300e+03 1.2187644374966621e+03 7.4333547447131423e+00 -9.9479312919662334e+01 -1.6625015956349671e+01 -1.3453309833072126e+01 -7.3818861201405525e+01 -1.3824267449378967e+03 -1.3281605502128601e+04 -4.0969421614863677e+00 -1.7952044850626407e+00 -1.4922208959162235e+03 4.9832795758266002e-01 -6.1347233107313514e+01 2.1900600999360904e+00 -2.6807894753143191e+03 -1.0833622035197914e+02 -9.2827728321228642e+02 -1.2199164238348603e+03 3.7701906948932447e+00 2.5746124496858101e+01 1.5309418298129458e+01 1.8266712930053473e+00 9.4419615702237934e+01 -2.5509967301636934e+03 5.2770729441642761e+03 2.9128933724714443e+00 1.0696244856371777e+01 1.6083284382671118e+03 9.0275139094446786e+00 -9.7446479761041701e+01 -9.2532585472581559e+00 4.9728188852071762e+03 5.3096072493499378e+01 1.2267523393444717e+03 -1.4494975675642490e+02 -1.6949515853135381e+01 1.0527164895646274e+02 2.3507010651577730e+01 6.0877573837758973e+01 3.6472499181888998e+02 -4.9165260771661997e+02 -7.5888587188720703e+03 -9.7970614552032202e+00 4.6154199029406300e+00 -2.5577736600418575e+03 2.7261151062644785e+01 -2.9762154471641406e+02 -1.0044135526055470e+01 -1.0744663817457855e+04 1.0053496995382011e+02 -3.8509710416086018e+03 -3.7211379914283752e+03 -7.8809125200496055e+00 1.1539231057686266e+02 9.0722457841357027e+00 -2.6289712591096759e+00 2.3687209502886981e+02 1.6963395816367120e+02 2.2915385898590088e+04 -3.2517745786462910e+00 -8.4112478835377260e+00 -2.2155760587602854e+03 -1.7159978595795110e+01 -1.1999089687666856e+02 -1.5885826510202605e+01 -3.8446240844391286e+02 5.1170772130601108e+01 -1.2701557127162814e+03 3.0788754402548075e+03 1.4266990734940919e+01 -2.0291461506491760e+02 1.9241688292822801e+01 -5.5345775633584708e+01 -1.2182946159318089e+02 3.1404427622407675e+03 3.5224010181427002e+02 5.5670106610632502e+00 5.2448603162993095e+00 1.8396114508509636e+03 5.0396053401636891e+00 9.3280137720983475e+01 -3.9670859688812925e+00 2.3942045614309609e+03 6.5807037960737944e+01 3.9365600039809942e+02 4.4874230578541756e+02 -1.3291775146150030e+01 8.1984984211623669e+01 -2.7144306134199724e+01 8.2469097249209881e+01 -1.5056043472886086e+02 2.5217583584338427e+03 1.9866889476776123e+02 3.9150439974036999e+00 5.2554251855763141e+00 1.2689465164542198e+03 5.0570918002631515e+00 1.2451626684796065e+02 1.5088862816337496e+01 -7.2472491737604141e+03 -1.6992728104814887e+01 1.0447032786123455e+03 -9.4804571996629238e+02 -1.9588496999815106e+01 1.4547625280818465e+02 1.6142557570652571e+01 2.7702272540936247e+02 6.9187277691438794e+01 7.2482966026812792e+03 2.0457298196732998e+04 2.7878731626246008e+01 -3.5151793929180712e+00 1.4131289193369448e+03 -2.4365290267029195e+01 3.7821317968983203e+02 2.5828664162196219e+01 -1.4935825516469777e+02 -3.1776968166205916e+02 4.1969278529994190e+03 9.9085176133699715e+03 2.9050258428207599e+01 -5.6823139936896041e+00 -1.0418952070758678e+01 3.2825692147016525e+00 -1.1762759469449520e+01 -1.4337429289817810e+03 1.4755288429260254e+03 -8.3708949349074828e+00 -9.1180032702686731e-01 -9.3157487579435110e+02 -1.4396191702689976e-01 -9.6793966839089990e+01 1.8791017219227797e+00 -2.4552167716026306e+03 3.8439843098632991e+01 1.1334395637512207e+03 -5.0492682537436485e+02 1.2933976795175113e+00 1.0068407715298235e+01 3.7327202221145853e+01 -2.3924947436686489e+02 2.1111750255152583e+02 -4.6558047982951626e+04 1.4429545322358608e+04 -3.6623562463239068e+01 9.3687962837284431e+00 3.8261288934096694e+04 6.3297606912849005e+01 -8.1459440186253050e+02 -3.3011214035796002e+01 3.2794165214527422e+05 9.0953288897220045e+02 -3.2192605030004634e+04 4.4440648090894334e+04 -3.8762809551786631e+01 8.8986962425886304e+01 4.8164041880227160e-02 4.7319402479506607e+00 -4.3536683266138425e+00 -8.1742956712570900e+04 -1.3553239042313548e+05 2.9093310534517514e-01 3.0695756118002464e+00 7.6704569500114623e+04 7.6330030199460452e-01 5.3486257611002657e+00 2.2930594289355213e+00 5.7552669950760645e+05 -1.1303449412866248e+03 7.0307270338026356e+04 -8.9830166665257217e+04 1.8793152549187653e+00 5.4693363081605639e+00 -1.2027457949356099e+05 
      </Row>
      <Row Index="233">
        3.4942598298221128e-01 3.0075787664100062e-01 -1.6514735523960553e+00 4.3304254343092907e+00 -6.5199624908901751e+02 6.2346359678986119e-01 1.1993487933815530e+00 1.0601463322085328e+02 2.7042663958527555e+00 8.7555232294107554e+00 -1.2737849638574517e-01 -5.4812746060701102e+01 -2.6284742022250430e+02 1.0099885792587884e+01 3.2787567045391188e+02 -2.2347802099739056e-01 9.6368608234988642e+00 -2.0108412520949059e+00 7.9504241165759595e+00 7.0475269858754473e+01 -2.9697491955594160e+01 -3.5376147160828114e+03 1.0765634547856280e+00 5.6413470040024549e-01 -8.4429455251057516e+02 -9.6715223953651730e-03 -1.5496662037330680e+00 -4.2908869255370519e-01 -2.3127177198668505e+01 2.5747745664950344e+01 -8.2294646574735452e+01 -4.5389580052229576e+01 -1.5759026682718513e-01 8.1027294030591293e+00 -1.7064683725802752e+00 -6.2393910098762717e+00 -4.5876068932877388e+01 -6.6088075876235962e+01 9.2193276650086045e+02 1.2428980660424713e+00 8.5754537673528830e-01 3.7904750585416332e+02 1.2669241719340789e+00 3.2175871013459982e+00 -3.7937913701682646e-01 -2.8483095565577969e+01 1.3773950117643108e+02 -1.5487981321814004e+01 -3.3413440491247457e+02 -2.5253370623249793e-01 1.6897904333338374e+01 -3.2522492870393762e+00 -4.0718428009276977e+00 -2.2131823648756836e+01 1.0804591215448454e+02 7.6656603938341141e+02 -3.0337916696430511e-01 -1.0930138744132591e+00 3.0409168020356447e+02 -2.4534851970156524e-01 2.4428262497913238e+00 -3.8045938274535729e-02 -5.7685913219705981e+01 1.0800064266211120e+02 4.7648712421068922e+00 1.3939820842817426e+02 3.0793518088393057e-01 -7.1794360270396282e+00 -7.5818021585655515e-01 -7.4915275665916852e+00 -5.1481633992516436e+01 5.4675909692188725e+01 2.7961554085686803e+03 7.1537896601148532e-01 -1.7163590563062030e+00 4.0629723503091373e+02 -3.5001903498341562e+00 -1.2070712445420213e+00 1.0011454527380010e+00 -2.7369904512015637e+01 3.8339212085570034e+02 8.1685405893238567e+01 -4.0461066397122340e+02 2.1903673185079242e+00 -3.4063376767593581e+01 6.7720937871126807e-01 -2.8799655041075312e-01 -5.1555453318163927e+01 6.3180560740991496e+01 -2.9192157701775432e+03 -4.3291070587656577e-02 2.0886450614352725e-01 -3.9812750311990385e+01 -2.2281812808796531e-01 3.7147386654396541e+00 -6.8858982154102932e-01 -4.1243410817347467e+01 -2.2689833397607072e+02 4.1853806337981950e+01 2.6557261047651991e+02 -2.3715336768468660e+00 -5.4116973172349390e+00 -2.1741607233434479e+00 -1.0145125598949562e+01 9.2436606427290826e+01 -1.6558477028412744e+02 -4.2404108197987080e+02 -4.7221741538874085e+00 5.1847949502553092e-01 3.8099273310321587e+02 1.8184476765084128e+00 1.7568017691519344e-01 -8.9746259321827893e-01 -3.9255093873856822e+01 -3.3361573851088178e+02 -1.2808881970198127e+02 2.9557279204344377e+02 -1.2859079567497247e+00 1.0540014750620685e+01 -2.9753232975481509e+00 -1.5161934250478225e+01 9.0993556451823679e+01 -9.6044048516145267e+01 -3.9311952601373196e+02 -3.6558640986140745e+00 3.8795031817193149e+00 -3.9701696271530818e+02 1.8301110559066274e+00 1.0211203122875304e+01 -1.1390299091467568e+00 5.3772350180370267e+01 -2.9497457646072871e+02 -1.3018563035136322e+02 -4.2983600294840289e+02 -2.8576969714988536e+00 6.4795923133387760e+01 -4.0920059915388265e+00 2.4679315680223226e+01 1.7176256357677630e+01 -1.1906996915157652e+02 -7.0704513683915138e+01 -5.5021768160258944e-01 -1.5782772589139995e+00 -4.5171738765412010e+02 -4.9436312353009271e-02 -4.0472068129483887e+00 9.3228495928883603e-01 -6.4240310771856457e+00 -1.1316869951828266e+02 -3.5337679575313814e+00 2.4337250396877062e+02 1.7604639813971517e+00 2.8600090013169392e+00 3.4770098222152228e+00 -2.5047576740995282e+01 -4.4999152276068344e+01 -6.9201978627825156e+00 -4.7177878194972873e+03 2.6911608380905818e+00 -1.5200315153151678e+00 -2.4659061072976328e+02 -8.7551091006207571e-01 -1.0427170999173541e-01 -4.0938477091276582e-01 -1.0193599938647822e+02 -1.3385339187903446e+02 9.8887976397993043e+01 3.0688395072240382e+02 -3.1673295121527190e-01 -2.6050027235675770e+01 -6.5255605023780845e+00 1.1994449434980197e+01 -6.7071491667593364e-01 -1.2555016827193322e+02 9.6163189553003758e+02 -1.0508807807419771e+00 -2.9789111662330470e-01 2.8237019577389583e+02 -4.3161340702138205e+00 -1.7696053048490285e+01 1.7430389922528775e+00 -1.8045615203649504e+01 4.9672999547170184e+02 5.4905089666106505e+01 -1.3418122994141304e+03 4.5248499841181911e-01 8.5681164719881053e+00 4.9220938590406149e-01 1.1397370061313268e+00 5.0817430535680614e+01 -1.7086442697793245e+01 -2.6095741855651140e+03 -1.0263324496900168e+00 4.5724628541688617e-01 2.1702905872545671e+01 7.9749011222338595e-01 5.1489705452113412e+00 -4.3037888301577709e-01 1.9757171304430813e+01 -1.2007173518648597e+02 -2.7049899620003998e+01 -1.2289459380740300e+02 2.3115649039834807e-01 6.1320103763810039e+00 5.4994944852608114e+00 -1.7173998039766047e-02 6.3602886268956354e+01 2.8518598349280364e+02 2.8160815813997760e+02 -2.3176554665201365e+00 6.8012107924459997e-03 -3.7183251062873751e+02 6.9162410083954455e+00 2.3588977885073973e+01 -2.6163999466159567e+00 -6.6140285226152059e+02 -1.7307940934085877e+03 -2.9052061108202543e+02 1.9118427979827575e+03 -2.3386608645109845e+00 -1.0628909299737643e+01 2.0718992193329200e-01 1.2817237714017288e+01 -1.1434856266423367e+01 5.9599798531571514e+02 4.8967386667316941e+02 -1.7744853380252152e+00 -5.3076438017239980e-01 -2.0254961786743570e+02 -8.6862625538287830e-02 -2.9316034747159847e-01 1.0139294165719548e-01 -1.1303440488944261e+03 2.5965995945711356e+03 4.9374405233105654e+02 -7.6197850955006766e+02 3.7249764817920550e-01 -8.4986807818177112e-01 -1.4942571767929755e+03 
      </Row>
      <Row Index="234">
        9.6582303833711194e+00 -5.8252381539903581e+01 1.0101481169187464e+03 -3.6531457285454962e+03 -2.0022430818527937e+03 2.0269404411475989e+01 7.0075177018821933e+00 2.3759141389187425e+02 -2.3159532158651928e+01 -5.1518745163455606e+01 1.7116332073101148e+01 2.1130338407817180e+02 -8.5831601637881249e+01 7.9503306770138443e+02 9.3196116904821247e+02 1.2797608069377020e+00 -1.7686517432617256e+02 2.5382407322176732e+00 -6.6034671624598559e+01 4.0822069817106239e+02 3.6759510580869392e+03 3.8541060640811920e+03 -9.7258529099417501e+00 -9.9871664349520870e+00 -5.7796656632958911e+02 1.3900982267879954e+01 2.4463393793441355e+01 -1.5232575467951392e+01 1.3572455554187181e+03 -2.5929564291611314e+01 -4.1883154154436197e+03 -1.1476962707974017e+03 4.9287934073568067e+00 1.0299515685925144e+02 2.7973515207428136e+01 3.4733400369877927e+00 -1.6027702654059976e+02 -6.5094076719209552e+03 -1.4448796016454697e+04 7.7789398502645781e+00 2.8597108311878401e+00 4.2583701437711716e+02 1.1578228995145764e+01 5.0899479077546857e+01 2.5584493704354827e-01 1.2353649194336031e+03 5.5354516339837573e+01 -4.3244131783372723e+03 3.7784534661285579e+02 -4.4107712716941023e+00 -5.7493892043828964e+01 4.4269976297000539e+01 8.8708345376071520e+00 2.2323992528417148e+02 8.3353628320796415e+03 4.2688406572341919e+03 1.4902939960906224e+01 -2.7352862034498685e+01 1.3648599863797426e+02 1.4702357104324619e+01 1.1592109617301321e+02 -2.1348780417104535e+01 1.3347188465821091e+02 5.9082319641238428e+01 -1.0432063923483714e+04 7.8557108244672418e+02 2.8425234922332947e+01 2.2844934991048649e+02 -1.3918271539834677e+01 3.8097983825718984e+00 -6.1599075757153332e+02 4.1398947016149759e+03 -1.7348667601346970e+03 -6.9207799492669437e+00 -1.0956616562479894e+01 6.9442071793600917e+02 -2.0268049049846013e+01 6.7646610678639263e+01 -5.9653552304043842e+00 -3.1480918625369668e+02 1.4080163474031724e+02 -4.0813167397055513e+03 -4.3493224838655442e+02 -7.6933346825535409e-01 -4.3402389813796617e+01 6.1293624374884530e+00 -1.2192566182697192e+01 4.8137348368123639e+01 6.2803157952539623e+03 -1.8004636213719845e+04 -5.8313081839878578e-01 6.4627417290139419e+00 -1.0529868755418574e+03 -1.2868208500869514e+01 -2.1877387096290477e+01 -3.3709576460523749e+00 4.4022849349677563e+02 -1.1173337542713307e+02 5.4457182687537279e+03 1.4380945017002523e+02 -3.0484151400443807e+01 -9.9512413597549312e+01 -7.1213327946170466e+00 -6.6002037547928921e+01 4.7478593277512118e+02 -5.1652128293178976e+03 2.3015110959887505e+04 1.7486668345263752e+01 -1.7184581680432530e+01 3.8839783129065763e+03 -6.2036199812635459e+01 2.7259479793719947e+01 -1.9928589867435221e+01 -2.0669872599844821e+03 -4.0104064610786736e+02 -2.1924782447045203e+04 1.2724036116576754e+03 -2.3670858080266044e+01 1.9673425071597740e+02 -6.9295231872665681e+01 8.4057271544472314e+01 3.5963775183469988e+02 -5.3915061727300053e+02 -7.6273976675271988e+03 9.3694605100608896e-01 2.5354049305933586e+00 3.1516404318623245e+01 6.7625855705173308e+00 6.0271381979924627e+01 -1.4140677238626722e+01 1.6077688930241857e+02 -1.2416481711517554e+02 -5.2977535265092738e+03 7.2035391387925483e+02 -1.1906476053621645e+01 3.0151707362085472e+02 4.5194776054493559e+01 8.8983677010517567e+01 -1.3907427484914660e+02 -8.6689215526403859e+03 -3.3432143636345863e+03 -9.7272345322344336e+00 -8.9120845606194052e+00 -3.6517945337295532e+02 -1.9611847130152455e+01 -1.1147834670147859e+01 -4.6210280453606174e+00 2.2522962864581496e+02 -5.0411000922322273e+01 1.1712373990290798e+03 4.8140864060074091e+02 3.4553678733282140e+00 -2.7693938037264161e+00 3.3798415549012134e+01 2.8835037429118529e+01 -5.7217666786606424e+02 -7.1990500414473936e+03 -5.0691341288685799e+03 1.2367411416198593e-01 7.4879293108024285e+00 -3.1841335690766573e+02 -1.0463822066543798e+01 -3.7653039892204106e+01 1.6035865465943061e+01 -7.1525656219571829e+02 -1.3094848975492641e+02 6.8883519755029120e+03 2.1121921887435019e+02 -8.6742634139955044e+00 -3.4655075317325100e+02 1.3047502908669230e+02 7.3035573417000705e+01 -2.9451829775195802e+03 -1.4708104942680802e+04 -2.7412995228309184e+04 -2.1153450372483348e+01 2.8422799330614907e+00 -8.1327928889957257e+03 8.3558723808859213e+01 -1.6557769170991378e+01 2.3474287738081330e+01 1.5533238916420378e+03 2.7511330563309093e+02 2.4377921403059503e+04 2.8503074172614142e+03 6.8869055931165349e+01 -4.9973466864210786e+02 -1.1771419684839202e+01 2.3448230079142377e+01 2.6217992383148521e+02 2.3075787680149078e+03 7.9884516487121582e+03 -1.0734396606687142e+01 6.0362760929383512e+00 -5.3296041502058506e+02 3.7337249406991759e+00 -1.6497918798762839e+01 5.3827943360254267e+00 -1.0436314917355776e+02 -6.1321136321435915e+01 5.7651970777213573e+03 -2.5296125192195177e+02 -7.8193483102040773e+00 -8.2648617111437488e+01 -7.3204931683581890e+01 -2.7583241664360412e+02 3.5263704108593520e+03 7.9323821934707230e+04 -3.1942176701273769e+04 4.1861636000403450e+01 -3.0030943361654863e+01 1.0710604396952316e+04 -1.0502633433146184e+02 2.6476938738339413e+01 -4.4141696813885574e+01 3.7928348278147401e+04 -5.7828578935112819e+02 -1.8994603723207364e+05 5.8941120395763137e+03 -7.8429086438729428e+01 7.0092762234710426e+02 -1.8451402163282182e+00 -2.0565043874880985e+02 -1.0122278250336512e+02 1.4628451166786853e+05 2.1483441902858281e+05 8.8773071965895269e+00 7.3517795866519009e-01 3.7498858692104113e+02 -3.8882420536046993e+00 -1.0634216268299497e+00 3.4408537278313815e+00 7.0307261898753903e+04 4.9374352667947733e+02 4.0432875675596087e+05 -1.3858021843187176e+04 2.5044453269474616e+00 -1.3274307282322297e+01 -1.3665981608392254e+04 
      </Row>
      <Row Index="235">
        -1.1027846742421389e+01 -1.6234387745149434e+01 1.5739267581701279e+02 -7.3868698009848595e+02 -1.1807370734214783e+02 -1.5383974678232335e+01 2.0013044761399215e+00 8.9097451421320438e+03 -3.0852272768388502e+00 -1.1797378659248352e+00 -3.0032621865393594e+00 -9.5853270485019311e+02 1.0034790809080005e+02 9.0708759486675262e+01 -2.1203633987382054e+03 1.0645854573231190e+00 -8.3575721486471593e+01 -9.0880491184070706e+00 2.4863473335281014e+00 2.3464372011274099e+02 6.8646260333061218e+02 1.5044621925354004e+03 8.8505159438354895e+00 -3.6124652195139788e+00 -2.6793490846529603e+03 -9.5422404396231286e-01 -1.8190008737146854e+00 3.7372425307403319e+00 -1.7936734558418393e+03 1.3950681122019887e+01 2.9685853927722201e+02 7.5366240401268005e+03 8.6234172471449710e-01 1.7391001892276108e+01 -6.2484367787837982e+00 -1.5431936007924378e+01 -3.8129816251993179e+02 -5.7369038450717926e+02 2.6091167016029358e+03 4.2206605267710984e-01 -3.4222261025570333e+00 4.9452303947210312e+03 -1.6141026921104640e+00 -1.8433487195521593e+01 4.1054085897631012e+00 -1.1694450798705220e+03 1.0825789337605238e+02 1.8334174045920372e+02 8.9621579133868217e+03 1.0092743504792452e+00 -9.1435209218412638e+01 -7.2350828633643687e+00 -7.2739791315048933e+01 2.1773006506264210e+01 4.3444944289326668e+02 -4.0886604118347168e+03 -1.8429858001880348e+01 2.2204044630634598e+00 5.2941221818923950e+03 -3.6089474502950907e+00 4.0036597828613594e+01 2.3457112008181866e+00 -3.5969193588756025e+02 -3.9433278023963794e+01 4.4323641989380121e+02 -5.0964841133356094e+03 -2.4292079187580384e-01 -2.9680400419980288e+01 -6.7194169298745692e+00 -9.9611683338880539e+00 -1.6295706743001938e+02 1.5846653035283089e+02 -3.9241117076873779e+03 -7.2197414498077706e-01 -2.5858184793614782e+00 4.2003460508584976e+02 -1.5708076301962137e-01 1.5784621242433786e+01 1.7033666135394014e+00 5.7181317943334579e+02 -1.5989181542024016e+02 5.6005038313567638e+01 6.7396922276020050e+03 3.9855105690658092e+00 5.1680762606352801e+01 4.7814815933816135e-01 -1.7142247240990400e+01 4.6960685633122921e+01 1.7621621486544609e+02 5.9081722154617310e+03 7.6074441499076784e-01 -2.5874559816438705e+00 4.3474342238605022e+03 -8.1408481346443295e-02 1.2245891861617565e+01 6.1512783937942004e+00 -8.2434537197649479e+02 1.2267110067827161e+02 -3.9066888851672411e+02 -3.7014825789332390e+03 1.6196692418539897e+01 1.5294965647161007e+01 5.7550186247099191e+00 4.1429787666769698e+01 -1.7723456291854382e+02 7.7178720331192017e+02 3.6972349338531494e+03 1.0496681461791741e+02 -3.9070213237137068e+00 3.7954342587105930e+03 1.5833819537132513e+01 -2.9205311388708651e+01 -1.7335275452351198e+01 -5.9960921549797058e+02 -6.6300164324790239e+02 4.1021775588393211e+01 3.5552103850930929e+04 -3.5151538314530626e+00 -7.7220964575419202e+01 2.2540623308443173e+01 5.3723828084766865e+00 -2.2509607363119721e+02 1.9685146205313504e+02 -1.1809086078643799e+04 8.6979144096840173e+00 3.7121646568557480e+00 -7.4850804766416550e+03 -1.8378481673425995e+00 4.6477283754386008e+01 3.7505346981342882e+00 4.4459692820161581e+02 2.0973869162052870e+02 4.8460223592072725e+02 -1.1914984052926302e+04 -4.5901834304677323e+00 -6.7230840494739823e+00 1.3406530111096799e+00 -5.3978776475414634e+00 4.8229291070252657e+01 5.9211669690161943e+02 -4.4935924997329712e+03 -2.9001110133249313e+00 7.5593903998378664e-01 -1.0429554021358490e+02 -2.9768024105578661e+00 1.0914451309014112e+01 9.9534456905530533e-01 1.0975682072341442e+01 5.7650592073798180e+01 4.6534383505582809e+01 -7.8772283633947372e+03 -4.4958403455093503e+00 -2.5163790462538600e+00 -1.3893564470345154e+01 4.8056538075208664e+01 -2.0139437266066670e+02 -1.3586420886218548e+03 8.5297621307373047e+03 -9.9009191306540743e+00 -9.6697406892199069e+00 9.8240612509250641e+03 -4.5643691099248827e+00 -1.2664053305983543e+01 4.9636010400718078e+00 1.5668652199208736e+03 2.1339929110556841e+02 1.2822495006024837e+01 8.0821762570440769e+03 1.5785858314950019e+01 -4.8748993787870859e+01 -5.4568184690899216e+01 6.8871467660181224e+01 -2.7029931437596679e+02 -2.6929067210853100e+03 -8.7352567828893661e+03 -3.0894174566649599e+02 3.5395801284976187e+00 7.0740615394711494e+03 -3.0110651391936699e+01 -2.1529632602818310e+01 2.6412737881357316e+01 3.6946524381898344e+03 8.8612014511029702e+02 3.9183701831847429e+02 -6.6289642671085894e+04 2.2301857380662113e+01 -1.1520423812931404e+02 7.0803344156593084e+00 1.6187885448336601e+01 -1.3612714479863644e+02 -5.7695131778717041e+01 -3.2249657669067383e+03 2.5223796744161518e+01 -2.8204291191650555e-01 -1.0160487859994173e+03 3.1106311059556901e-01 1.0044415366835892e+01 -2.4877719358119066e-01 4.3381916695833206e+02 1.2515728772990406e+02 -9.9735914945602417e+01 2.9055676974654198e+03 -2.2630835176096298e-01 -1.0139637368731201e+01 3.5480341963877436e+01 -8.3968177187838592e+01 5.8139991846680641e+02 9.1077569147050381e+03 -1.0369714836001396e+04 3.6350829893961782e+02 -2.9672227484697942e+00 9.0228154948621988e+04 3.9400951568153687e+01 1.7025804265897023e+01 -3.8886661348515190e+01 -5.7233530906733824e+04 -1.2908283794795861e+03 4.4852161874566227e+03 -2.4883063714445196e+05 -1.4418936753645539e+01 1.1149497053993400e+01 1.9279207666113507e-01 2.5598351039863701e+01 -4.4815781077049905e+01 1.2833283507557702e+04 2.3597986684152231e+04 -2.2692007751291385e+01 -1.3075189070077613e+00 1.8460840371038704e+05 -1.4510885055642575e-02 -9.7759656165726483e-01 -1.5137537541158963e+00 -8.9829122276613372e+04 -7.6197753537251629e+02 -1.3857295464779105e+04 5.2756217210213991e+05 -2.7659389812615700e+00 1.0806008396903053e+00 -3.0265120606999483e+05 
      </Row>
      <Row Index="236">
        -3.4018784214625342e-02 -1.2807973375554127e-01 -4.5432138321757520e-02 -1.6150789797287075e+00 5.2199338663722301e+00 3.7732958244252046e-04 1.1618592373433739e-02 -1.3490318792783000e+00 -5.0933380732575362e-02 5.0706296895754122e-02 1.5416345090593131e-01 -5.9433539698408566e-01 -2.6233493761992577e-02 -4.3408813184146311e-01 1.4793730804001370e-01 4.6661492509290969e-01 -6.3791501431552433e-02 1.6483233461171309e-01 7.3285049735069663e-02 3.0844850255067513e-01 -5.9671050762517552e-02 5.0153820384875871e+00 -1.0719594015595746e-02 2.3799648560385300e-02 1.8614343966464730e-01 3.4076232795644312e-02 -8.3835776991634248e-02 5.2720760358541341e-02 -6.6535730669647108e-01 -9.9435835049916932e-03 9.9314905347402771e-01 -2.6004243379766194e+00 -4.6758499771173900e-01 1.5052664498742985e-02 -1.4960224903710184e-02 -2.6480981651261004e-02 -9.7020635170594005e-01 -1.9634764209749846e+00 -2.8973067501647165e+00 1.8865473431660007e-02 1.8963565204556332e-02 7.3469446655326465e-01 7.9773624389702036e-02 1.0358639077210796e-01 -7.9302397340099917e-02 -6.0746634356291906e-01 3.7986565545168105e-02 -1.0125861457560177e+00 -3.3385955425160319e+00 1.0811410325200868e+00 4.4157282762961358e-01 6.5183814015522756e-02 5.8361405502822095e-02 -1.7279108731111137e-01 1.0557735193704048e+00 8.0257926734921057e+00 -2.1954906225465365e-03 1.8192007926998155e-03 -1.2103427128749900e+00 3.5719416716489150e-02 7.1475704358554992e-02 -4.3881359731468228e-02 5.2143968850970168e-02 8.9877598180198248e-02 6.6405801551360355e-01 -4.0861887293067412e-01 3.2707718120467888e-01 1.4768910677367764e-01 6.2098360455713930e-02 -2.8544204361089953e-02 3.9480987852169847e-01 6.4191501513278126e-01 -2.1610667878121603e-01 -2.4632077549444631e-03 3.5389163704278026e-03 -1.3509185981729388e-01 -5.8725540528950404e-02 -5.7160835873901306e-02 8.3484342764589492e-02 1.1850715090804442e-01 7.0037343772554550e-02 5.9691989133909829e-01 -1.7518328404345311e+00 -3.1389896381866755e-01 -1.6255179480026660e-01 1.1827917171375546e-02 4.1384525771462677e-02 5.2053669221209020e-02 2.2606744582326428e+00 3.2091843406160478e+00 -6.5923206250655397e-03 -2.2338320499248443e-02 -1.1644025750127582e+00 -6.7280113125564256e-02 -3.1911611142888319e-02 -1.2380149894452719e-01 9.7980508710065806e-02 -5.7551822064597857e-02 8.2131689878923453e-01 8.0518536411045716e-01 -1.4341295224068089e+00 -3.7149702685246666e-01 -2.6364866982435231e-02 -1.4612378763844447e-01 6.4404185836588113e-01 -1.4971570478810463e+00 -9.6663578267907724e-02 -3.6871938710749674e-03 -1.3334392673795215e-02 4.0300506773107259e-01 -6.8642669334901374e-02 -6.1297448091771400e-02 1.2349989216898205e-01 -1.1836897433559557e+00 -1.8775234160099785e-01 -3.1189680489967486e-01 1.7745606996227252e+00 -5.5243143629624836e-01 -6.5790481752117103e-02 -1.0281242678151797e-01 1.8766205967614269e-01 -1.1031067225879099e-01 -8.2642919567315687e-01 1.9989176283852430e+00 -1.5367156436790097e-02 2.5086803132355340e-02 9.7093833775784333e-01 6.7044104490500800e-02 -2.1091157873506461e-02 -7.5032087163041716e-02 -1.1940468485704514e-02 -4.1822265731212838e-02 5.5618444413033785e-01 3.3521111106624630e+00 4.2483645005260806e-02 3.8289822319261191e-01 1.3757924288839263e-02 1.2418258914105706e-01 -2.8041286919963682e-01 -2.2586987847241744e+00 -1.3700007322913734e+00 1.7103421741602176e-03 -4.8924430675999275e-02 2.1019544803057215e+00 -1.2244666252028580e-01 2.1784677341710612e-01 -1.9991688668252566e-01 2.5594147199637973e-01 2.7728156834541551e-02 -1.0765483478605802e+00 6.9909104077555639e-01 1.7740913103936595e-01 1.7952415712316849e-01 -2.2378930108986950e-02 1.0646353601885039e-02 4.4029740244698701e-01 -3.9086697091397582e-01 2.3306414070975734e+00 4.7332989490307398e-03 -3.0625380689889958e-02 -2.9577843525717071e+00 2.4730580678209435e-03 2.8850536476198840e-02 4.6854463794939960e-02 3.7196562476265171e-01 1.1829639069901532e-02 -2.6910539840957881e-01 -2.6244395114351846e+00 -7.4861746686920760e-01 -4.6363022418934119e-01 1.5483997526647952e-01 -1.2948319753044046e-01 -1.4866747636079936e-01 -2.4430155423880251e+00 -1.8590684998489451e+00 -1.9226642432194074e-02 1.5104801419793312e-02 -1.3703622297476841e+00 1.9108111964456986e-01 -1.8279835700229796e-01 3.4737170828962505e-01 2.1518961235164795e+00 1.2596380871186241e-01 1.5092654905109271e+00 -1.0040228823224879e+00 -6.4590268492651504e-01 -3.0491594944748357e-01 6.9127351952115390e-02 -1.3528752210220318e-02 -3.8837985292252597e-01 2.2785490353271598e-01 -1.1313637954881415e+00 5.4302180343671069e-03 -1.0434969943111660e-03 -9.0851631903876751e-01 -2.8116296509972827e-02 4.4171735746033391e-02 -2.4324332870047094e-02 2.1160474148746289e-01 3.0786226660950433e-04 -7.0310016620169336e-01 6.9656232221404935e-01 3.0248113499223361e-01 1.8130266064278544e-01 1.3732735186939848e-02 -1.4004114398203416e-01 8.2213676744970599e-01 -7.6155904205634783e-01 -1.6587478861783893e+00 1.7209879962707397e-02 7.1036476591339603e-03 -1.7766725720102841e+00 -2.0200303659915031e-01 5.9388098932179334e-02 -1.3575521997954088e-01 -1.6813291700201032e+00 -4.0163512643641042e-01 -2.1907860130475285e+00 -3.0852997737986243e-01 -6.8655938817039308e-01 2.0668157994666592e-01 -7.9250283358769380e-03 -2.6802971985740809e-01 -2.5332600311772979e-02 -1.5520538498845582e+00 -1.1807663472901391e+00 8.3466130679332173e-03 -1.4513725636341901e-02 -8.4532558241937537e+00 -1.6005011940702474e-02 -5.2248383196262793e-04 6.9977857390326026e-02 1.8792916985323660e+00 3.7249763142889020e-01 2.5044366518812096e+00 -2.7659425046005364e+00 3.9761098017619911e-01 -5.7432106896343482e-03 -2.6850970345918994e+00 
      </Row>
      <Row Index="237">
        -4.4446086289795517e-03 9.0640532890375880e-02 -1.3995337436051614e-01 4.8816036953848538e+00 -1.6808316318929428e-01 -1.3492306773299489e-03 7.9552076544311123e-03 1.5056387754802927e+00 -3.0421697042065432e-02 -1.2592434750075654e-01 -8.2553353012970732e-03 1.5224469287870335e-01 1.9260714523346678e-01 -1.9064207726023596e-01 -7.8937662347306059e-01 1.2177323228375059e-03 5.1346072236418649e-01 -1.6445109888129750e-01 -1.8698152379837296e-02 -2.5608924890360640e-01 -1.8179457258825096e+00 3.1886502871057019e+00 -2.7542804246944996e-03 3.0051435844447028e-03 -8.7009168514256885e-01 -3.6762516750559193e-03 1.4601941563853416e-01 -3.9121989696004889e-03 3.0010553854517497e-01 -4.0918252169362290e-02 2.0504744750242310e-01 8.7463323980546193e-01 2.8276206381914748e-02 1.5851986849915178e-01 -4.8222634344163851e-03 4.2188423292685684e-02 3.2948276194855453e-01 2.6707131661223684e+00 1.7758500730560627e+00 -3.6489575027118804e-03 7.5383251181158073e-03 7.1388968751853099e-01 5.2796459165673326e-02 8.7328217000930408e-02 1.2544593734431508e-03 3.6547937385489604e-01 1.3319374745890400e-03 -1.1037321949220313e-01 1.2860381881187095e+00 -3.2378205236490487e-02 -2.7991103550558591e+00 -5.2000142019551276e-02 -8.7460704806318290e-02 -4.8331826223659391e-02 -5.7315940295552537e+00 -4.3628333536325954e+00 6.8382980984877939e-03 1.0231767588857688e-02 2.2456252094816591e+00 5.2534176394441801e-02 -6.3212875691963433e-02 -4.9949494215697499e-03 2.6347992115485397e-01 -4.5326000983688886e-02 6.5092884051171040e-01 -5.3002286233277118e-01 2.9722025614875580e-04 1.1336516391914664e+00 -3.6337644111334555e-02 -3.5909982510602845e-02 1.0017486232982264e-01 -1.1192701265663345e+00 -6.3220170050044544e-02 -2.1414219773037146e-03 1.2049764861574441e-02 -1.3256499361341412e+00 -5.1772595288543499e-02 -2.1169769005206263e-01 -5.3456136740086535e-03 -9.0339545680762967e-02 -2.1611311492324603e-01 4.8232173997009653e-01 7.8512985432303140e-01 1.4236240126670907e-02 1.3323612039990520e+00 3.8030345926426179e-02 -2.0949819633756306e-02 7.7624899820676774e-02 -6.6483200350285188e-01 1.1201323943387251e+00 1.3483197223926879e-03 8.1436183460144029e-03 -4.9536673389951602e-02 -3.0168637128010545e-02 -3.7379741577098002e-02 -1.5417125764092265e-03 2.3208250376592332e-01 4.9109628764160362e-02 1.7029865245410747e-01 2.1627207883739175e-02 2.9975375358735512e-02 2.5646189079409396e+00 -5.9445627803353496e-02 2.2194185390130627e-01 2.2983339235872791e-01 5.9312698070746137e+00 -1.2912696145940572e+00 6.4632238659241281e-03 -3.2789408464286574e-02 3.9531779391310238e+00 -1.4311129086484398e-01 -1.3789642961170046e-01 1.8739570084296275e-03 -7.5649375940548680e-01 3.8842626837771377e-01 8.6421989350230888e-01 -2.4460557258453264e+00 2.2590979087842911e-02 -7.8290699127420993e-01 1.3070215527051490e-01 -7.3955126903754831e-02 3.5910907307226125e-02 -1.0609920744940950e+00 -9.4979047335800715e-01 5.8714805499349154e-03 2.0262858211324009e-03 6.0978102983312965e-01 -4.5108775994506800e-04 -4.3210197316096810e-01 3.5633169850122215e-03 -2.3107921028923784e-01 1.3093430234964387e-01 -1.3943549139412426e-01 7.5127944885093711e-01 -8.4749987238660340e-03 -3.6228163344385580e+00 -1.3190438628208767e-01 -4.4298715417596668e-02 -1.1860731190591878e-01 2.4047111364923239e+00 -1.6789666580007179e+00 -1.8905038046721501e-03 -6.9404758592326088e-02 -8.4256807882411522e-01 -7.1208922294650812e-02 -1.7984609172550847e-02 2.2634090921134997e-02 -4.7636897716654403e-01 1.2110764251133332e-01 -1.9309131425529813e-02 3.6858223560011538e-01 1.6272710047644523e-03 -2.0112455984958117e+00 4.9471226986529615e-02 8.5341095917215171e-03 4.0198642208679303e-02 5.4949825183250596e+00 2.7272630423685769e+00 -4.9052299326231008e-03 -2.4745556431735594e-02 1.2329325539117235e+00 -2.6027460883257802e-03 1.1014425841412390e-01 -4.5521334020879323e-03 3.5234709108408424e-01 1.1299658981795346e-01 -6.7766650804151141e-01 -2.8537844332777240e-01 -2.5903197907641839e-03 1.7312922785979230e+00 -1.7163085784174026e-01 2.3300851112902166e-01 1.2067662136661284e-01 6.6528867653956922e+00 -1.5906361005181680e-01 2.5447969551430250e-02 -1.5022647797645061e-02 -1.6836655732799954e-01 -2.3250400727102605e-02 -3.1822151749514660e-01 -9.8394948852602582e-03 -7.9156640401600953e-01 1.5003753392712937e-01 -6.8378820552698016e-01 2.3187833520756840e+00 1.8043764614887436e-02 -1.5737680716137348e-01 -1.0960779690120503e-01 -9.2062058325325324e-02 1.1486723358348172e-01 1.7775541349838022e+00 6.7175474940158892e+00 -9.4559403732834557e-03 9.0688431427565774e-03 -3.5454477989799216e-01 -9.1516356278731337e-04 -8.8595133847093166e-02 -7.3088792840035333e-03 -7.2362194693596393e-02 6.8877444461868720e-02 3.0988375698143500e-02 -1.3038153213983605e-01 2.0173669295013408e-02 1.3589194114227183e+00 -4.2196095042427828e-02 1.0839960427287831e-01 -5.4783620346199768e-02 -1.1535611525150898e+01 6.6879129583321628e-01 -1.7526254787391782e-02 2.7158236443324046e-02 4.0934251656176457e+00 -4.6989473539579052e-02 2.4362357796200995e-01 -5.0649181650168629e-03 3.4097066778987632e+00 3.7120370931630653e-01 6.5466899343142799e+00 -4.6788588465283283e+00 4.7301843369091046e-02 2.1633624663376936e+00 1.0645373840843908e-02 5.5456820693446984e-01 4.1643734413555178e-02 -2.7783278242966990e+01 1.2090864442848090e+01 8.8181987066230372e-03 -1.1249881868583778e-02 6.0730549950761121e+00 -1.1065175320326137e-02 1.0682678356267905e-02 -2.4492111049860821e-03 5.4693797127140069e+00 -8.4986821169333404e-01 -1.3274341378425694e+01 1.0806682417863964e+00 -5.7432109925961150e-03 1.5925255571280894e-01 3.2430871518901609e+00 
      </Row>
      <Row Index="238">
        -6.2061520419083536e+00 -2.2022177094593644e+01 2.3114008596539497e+02 -1.7741192413792014e+03 -2.3235085272789001e+03 -2.5815989116672426e+00 -3.9341289951153158e+00 1.0234270154178143e+04 -5.9277501255273819e+00 -2.6018430955708027e+01 -7.3348603700287640e-01 -1.3534199633346871e+03 7.9157499134540558e+01 2.2026305952668190e+02 5.6226657910645008e+02 9.6750543662346900e-01 -1.4225458550639451e+02 -4.3303542034700513e+00 -3.4463813141919672e+01 1.6498965807259083e+02 1.1178287772536278e+03 5.0843787384033203e+02 -1.9918347622733563e+00 -3.0692270660074428e+00 -2.8515272218883038e+03 -3.2989993557566777e+00 2.3683379590511322e-01 1.6521242415765300e+00 -2.4770724565666169e+03 -8.1675733441486955e+01 -3.7928145977668464e+01 -2.5947654002904892e+03 9.2461778869619593e-01 5.3551414483226836e+01 -3.8393846750259399e+00 -1.2601163763552904e+01 -2.6662294572591782e+02 -1.2255122721195221e+03 2.6805679483413696e+03 -8.4928349121473730e+00 -4.7645027553662658e+00 4.0399151265621185e+03 -5.0778281097300351e+00 2.4545959450304508e+01 3.4271535529405810e+00 -1.3862920460402966e+03 -2.8303198404610157e+01 -2.0198303087055683e+02 -2.2424767584204674e+03 2.5672586485743523e+00 -1.7230325292795897e+02 -9.3862510193139315e-01 -5.7571502059698105e+01 1.9915533319115639e+01 1.1554225566983223e+03 4.2027183151245117e+03 1.0705912276986055e+01 -1.8133136754622683e+00 5.7208134379386902e+03 -7.1900841547176242e-01 3.1645971425343305e+01 5.8861289703054354e-01 -5.0536122170835733e+02 7.2624799836892635e+01 2.7689827501773834e+01 2.6586998652219772e+03 5.8120324474584777e+00 -6.1033055593259633e+01 2.3087652828544378e+00 -2.6718753905966878e+01 -1.0334338279068470e+02 6.0688435339927673e+02 1.5170085529327393e+04 2.5621704185614362e+00 -1.9892872856871691e-01 -2.6315369781255722e+03 3.7626274880021811e+00 5.3173864841461182e+01 -7.3081590246874839e-01 8.8831130927801132e+02 -1.4243896941840649e+02 -2.5086906285025179e+02 -3.0325095835328102e+03 1.7962925676256418e+00 1.3369517161854310e+02 -4.8594158072955906e+00 -1.3810465857386589e+00 1.7892857021093369e+02 5.4462620729207993e+02 1.7122649974822998e+03 -4.0392070799134672e+00 -2.0244769497076049e+00 4.5410528023093939e+03 -8.9327363437041640e-01 5.2045279033482075e+00 4.5626608337042853e+00 -1.1731362058222294e+03 6.9041458099149168e+01 -1.7841342885792255e+02 1.1854917036890984e+03 1.8841498416848481e+01 6.0291989639401436e+01 -1.2643061751034111e+01 -7.2453604578506202e+01 -6.5833437106013298e+02 -3.1166488577127457e+03 3.0306143875122070e+03 -5.6234322497388348e+01 6.6592339967610314e-01 1.1579477944876999e+04 1.1529769492335618e+00 -1.4230478135868907e+02 1.0952960862778127e+00 -1.0886259121894836e+03 4.8929163932055235e+02 4.9826843142509460e+02 -2.0353889267295599e+04 1.1996818920830265e+01 -4.2422644007485360e+01 1.5107781649057870e+00 1.8200229644775391e+01 2.0789982609450817e+01 3.3575867268815637e+02 -1.9142349376678467e+04 1.7720335302874446e-01 -3.0749045497796033e+00 -7.7243317797482014e+03 -1.7742159047629684e+00 4.6403274305164814e+01 3.2082321290072287e+00 5.1939361688494682e+02 5.1630795076489449e+01 -1.4939402414858341e+02 4.7566845892071724e+03 -1.4198869160609320e+00 -8.2058884324505925e+01 1.0469707958400249e+00 3.1553866067901254e+01 1.4973955161869526e+02 -5.1974128179252148e+02 -3.2574916210174561e+03 1.1164566554245539e+01 -1.4042610712931491e-01 4.0048322457075119e+03 -4.6735777328722179e+00 1.4058352150954306e+01 -1.9322988299245480e-01 2.3233007992804050e+02 6.9100639611482620e+01 -2.4025197014212608e+02 2.6594081209897995e+03 -5.6422753937076777e+00 -3.4004003517329693e+01 1.5377122831065208e+01 5.1673228293657303e+01 -5.8012018918991089e+01 -2.4318078414201736e+03 -9.2431584167480469e+03 9.5578713261056691e+00 1.4010464553721249e+00 7.3380503485202789e+03 1.9501231003087014e+00 -4.1083043962717056e+00 1.0514442319981754e-01 2.5567810212373734e+03 -2.8348002694547176e+01 1.7112857249379158e+02 -2.7507737306952477e+03 9.4123813379555941e+00 2.8721880523080472e+00 3.5178518021362834e+01 2.5324722910858691e+02 1.2362765501141548e+03 -1.4670108773708344e+03 -4.6536393649578094e+03 1.4427812341874233e+02 9.1245302812021691e+00 -1.4177401840865612e+04 -5.9263969601015560e+00 2.8515112801175565e+02 -9.6463204581523314e+00 5.9586967840939760e+03 -8.1371697856183164e+02 -2.4093461130112410e+03 4.1716510367095470e+04 -1.2715005446691066e+01 -9.5023008653894067e+01 4.0914125991985202e+00 7.8543073982000351e+00 -1.7411206334829330e+01 -3.9384707546234131e+02 3.5631374969482422e+03 -1.6993126316869166e+01 5.5203226511366665e-02 -3.1276283129751682e+03 -4.0417826455086470e-01 2.8635284531861544e+01 -4.0527358854888007e-01 6.1640119349956512e+02 4.8150909076444805e+01 1.0006671571731567e+02 -4.4383475983142853e+02 1.7281030060257763e+00 1.1836037031374872e+01 -5.8291993479127996e+01 -3.7410415063268738e+02 -1.3547077362015843e+03 5.3599440957009792e+03 -1.2099291690349579e+04 -1.9013334293570369e+02 -9.8155960255535319e+00 1.3853054086434841e+05 3.1732963613467291e+00 -3.9154258579126326e+02 1.0545732571685221e+01 -7.8183298849623883e+04 1.9100656585663091e+03 8.4791335846167058e+03 1.4293598035302572e+05 3.4132638913579285e+01 -1.6250962199410424e+01 2.4006226520577911e-01 -1.3447937414373882e+01 -4.9602813704812434e+01 1.4162634677438647e+04 2.3997240631744702e+04 8.7267833605874330e+00 9.6676096390001476e-01 2.2461953787898924e+05 -1.6869202046655118e-01 -1.5998840375104919e+00 -6.2721759354462847e-01 -1.2027451627515406e+05 -1.4942580420968443e+03 -1.3666402435925396e+04 -3.0265090523666103e+05 -2.6851048322860152e+00 3.2431631232320797e+00 5.9713212675593095e+05 
      </Row>
    </InverseHessian>
  </Weights>
</MethodSetup>
